fffb
0001
0003
0004
0002
0002
ffff
0008
0006
0002
0001
fffd
0002
0001
ffff
fffc
fffb
0001
0000
fffd
0002
0002
0001
ffff
0001
0000
0004
0000
0002
0003
ffff
0005
0004
ffff
0002
0006
ffff
ffff
fffe
0000
fffe
fffe
fffe
ffff
fffe
fffc
fffe
ffff
0000
0003
ffff
0000
fffe
0001
0000
0000
0005
0003
0002
ffff
fffe
ffff
0003
fffb