fffb
0001
0000
fff8
fffa
ffff
fffd
fffb
0001
0002
ffff
fffc
fffb
0002
0009
fffb
0004
0000
ffff
fffa
fffd
fffe
0000
ffff
0004
0007
fff7
fffe
0001
fffe
0004
0003
0000
0008
fffe
0003
fff9
0003
0008
fffe
ffff
0004
0000
fffa
fffa
fffe
fffe
0004
0001
0002
0006
ffff
0009
0002
0002
0003
fffe
fffd
0009
0001
0003
0005
fffb
fffa
0005
ffff
fffa
fff9
000a
fffe
fffe
fffe
0005
fffd
0001
fffd
fffe
0007
fffd
fffb
0002
fffd
0000
0003
fffc
fffb
0000
ffff
0003
0001
0000
0001
ffff
fffe
0008
0002
fffa
0007
0009
fffc
fffc
fffd
0003
fffd
0009
0003
0008
fffe
0008
fffc
0001
0002
0006
ffff
0003
fffb
0002
0000
0002
0005
0003
0000
0001
ffff
fffd
0009
fffc
0007
fffe
fffe
0000
fffc
ffff
0005
0002
0009
000a
0002
0004
0003
0001
0005
0009
0001
fffe
0000
fffe
fffd
fff9
0000
fff6
0004
0005
fff4
0000
0009
fff9
0002
fff9
fffa
fff6
0004
0004
fff3
fffd
fffa
fffe
0005
fffb
fff2
0007
0003
0006
0004
fffd
0002
fffc
0006
fffa
fffe
fffa
0004
0004
0001
fffb
ffff
ffff
fffd
fff8
0008
fff9
fff2
fffc
fffc
0001
ffff
fff9
fffd
fff1
0004
0000
fff9
fffa
fffd
0006
0006
0002
fffc
0003
0003
0000
0007
ffff
0000
0000
0009
fffa
000a
0003
0004
fff6
fffd
0008
ffff
fffc
0002
0000
0005
0004
fffe
fffc
0001
ffff
0008
fffd
fffd
0006
fff7
0009
fffb
ffff
0002
0002
ffff
0005
0001
0005
000c
fff7
0002
fffd
fffc
fffe
0007
fff6
000f
0003
fff9
0004
fff9
ffff
0002
0004
fffa
0004
fff7
0001
fffe
fffc
0003
0001
0006
fff7
ffff
ffff
0003
fffd
0000
0004
fff2
0004
0006
fff5
fffb
000a
0009
0000
fffc
fffb
fffc
fffb
fff7
fff9
0008
fff5
0001
0011
fffe
fffd
fffc
fff6
ffed
fffd
0000
0009
fffd
0005
ffff
fffe
fffe
fffc
0002
0006
000b
fffd
0001
0000
0003
0007
fffc
fffd
fffb
0002
0001
ffff
0003
0003
fffc
0002
0001
fffb
fffb
0002
0001
fffd
ffff
0003
0000
0009
fff7
fffa
fffb
fffc
0005
0001
ffee
fffb
0003
fffd
0001
0008
0001
fff4
0009
0008
fff8
000a
fffd
0000
fffe
fffb
fffb
0001
0004
fffc
0003
fffa
0009
fffc
fff9
0006
0000
0002
fffe
0008
0004
fffb
0002
fffc
0007
fffc
fff9
fff7
ffee
0001
fffb
ffff
ffff
fff8
ffff
fffa
fffe
0001
0000
0002
ffff
0004
ffff
ffff
fff9
0001
0003
fffe
0001
0000
0002
0002
0000
fff7
0009
0000
0001
0009
0004
ffff
fffc
fffd
fff8
fffc
0000
fff7
0009
fffd
0001
0006
0001
fffd
0000
fffa
fff7
0005
fffd
0005
0001
0002
fff8
fff9
fffe
fff7
fffd
0002
0001
fff7
fffc
fffd
0007
0009
0000
0004
fff7
fffe
fffe
fffa
fffd
fff8
0004
0006
fffd
0005
fffb
0001
0004
0005
0006
fffe
0002
ffff
0007
0008
0002
0006
fffb
0006
0003
fffc
fffe
0006
0002
0007
fffe
fffd
ffff
0003
fff4
fffa
0008
0004
0007
000b
fffc
0002
0000
0005
fffc
fffb
0003
0005
0001
0001
ffff
fffb
0004
0002
0001
fffc
0007
fffa
fff6
0003
fffc
0007
0008
0002
fffe
0003
fffd
fff7
fffd
fff0
0004
fffe
fffb
0000
0001
0001
0002
0001
0004
0000
0003
0004
0005
0005
0004
0000
fff7
fffe
fffe
fffb
fff8
fff8
fffe
ffff
0000
ffff
0001
fff6
0002
fffd
0005
ffff
ffff
fffd
0001
fffc
0000
0008
0004
fffe
fff8
0004
ffff
0001
0002
fffe
0001
0000
0007
fff9
fffb
ffff
fffb
ffff
0006
0001
000c
ffff
fff9
0000
fffe
0001
0003
0009
fffd
0007
fffd
fffe
0002
0006
ffff
fff4
ffff
ffff
fffe
0003
ffff
0005
fffc
0005
0005
0005
0004
fffa
fff9
0005
0002
0005
0005
fffe
ffff
000a
fff9
0006
0000
fff4
0000
0004
fffe
0006
0000
0003
ffff
fff9
0003
0000
fffe
0005
fffd
0005
fffd
0003
0004
ffff
0007
fffb
0000
0001
0001
0000
fffb
fffe
0004
fffe
ffff
fff3
ffff
fff0
0000
fffe
ffff
0001
0003
0002
0008
0008
0000
0000
0005
fffd
fffc
0003
0001
0003
ffef
0006
fff8
fffc
0006
ffff
fff9
0000
0003
0004
fffb
fffd
0004
0002
0006
0004
0001
fff9
0002
0008
0001
0003
0007
0005
fffe
0006
0005
0000
0001
0004
fffe
fffb
ffff
fff8
fff9
0003
ffff
fff7
0004
0002
000d
0001
fffd
0002
0000
0000
ffff
fff1
ffff
000f
0003
fffd
0001
0004
0001
0006
ffff
0004
0000
fff9
0002
0001
fffb
000d
0008
fffd
0003
0000
fffc
fff4
fffb
0000
fffd
fffc
0003
fffb
0005
0000
0002
0004
0002
fffc
0002
0007
0005
0005
0004
fffa
0002
0003
ffff
fffc
0000
fff2
0001
0000
fffc
0004
0002
fffc
fffb
0004
0008
ffff
ffff
0007
0002
fffd
0004
fff5
0002
fffe
fffa
000c
fffd
0004
0003
0000
fff7
0006
0005
fffd
fffd
fffe
fff8
fffe
fff9
fffe
fffa
0003
0000
fffc
0005
fffe
0003
fffd
0000
fff9
fff8
0004
0006
fffc
fffd
ffff
0004
0001
0002
0000
fffa
0006
0000
fff1
fffe
0002
0002
0002
0008
000a
0002
0008
fffd
0004
fffe
0002
0003
0002
0002
0005
000c
ffff
0004
0000
fffe
0007
0005
fffe
0002
000a
0001
fff8
ffff
fffc
0003
0000
0004
ffff
ffff
0000
fff8
0001
fffe
0000
0003
0004
fffd
fffc
0001
0001
0001
ffff
0005
fffb
0006
0000
fff7
0002
fffa
fff6
fff8
0004
ffff
fff6
fffb
ffff
fffb
fffd
0003
0003
0005
0003
0000
ffff
0003
0003
0008
fffc
0002
0008
0002
fff9
fffe
fff9
fffd
0001
0001
fffd
ffff
fffb
ffff
fffd
0000
000b
fffb
0004
fffb
0008
fffe
0004
fffe
ffff
fff8
ffff
0004
0000
fff8
0004
fffe
0003
0000
000b
0008
0003
fffd
fffc
fffd
0006
0003
0005
0004
0003
0008
0001
fffe
0002
fffe
0003
fffa
0008
0001
0000
fffc
0002
0002
fff5
0002
fffc
0004
0002
fff0
0005
fffe
0003
0001
fffb
fffb
0005
fff7
fffa
0007
0004
ffff
fff4
0001
0002
fffd
0000
0002
fffb
fffc
0001
fff9
0001
0005
0005
fffd
0002
fffb
0002
0000
0009
fffd
0005
000a
ffff
0000
000a
0007
fff9
0006
fffe
fffc
000c
0000
fffe
0000
0001
ffff
fffb
ffff
0004
fffd
0004
0003
0000
fff7
ffff
0005
fff9
0004
0004
fffc
0000
fff9
0001
0003
0006
0004
0009
0007
ffff
fffb
0005
fff8
0002
fff7
0005
fff2
0004
0008
fffc
0000
0003
0000
ffff
0002
fffb
0001
ffff
0006
0000
0008
0005
fffd
0007
0002
0001
fffa
ffff
fffe
0008
fff8
0001
0002
fffe
0008
fffe
0002
fff6
fffd
fffc
0009
0006
fff5
0003
0007
0002
0001
0003
0001
fff3
fff9
0000
fffd
0001
fffd
0002
fff7
0001
0002
fffb
fffd
fffe
fffb
0001
fffe
0001
fff8
ffff
0000
000d
fff9
0002
0008
fffc
0001
0003
0001
fffd
0002
0003
000b
fffd
ffff
0004
0005
ffff
0004
fffe
0003
0003
0003
0005
0004
0001
ffff
0004
fffd
fffe
0002
fff9
fffd
0005
0006
0000
0002
0006
0001
0001
fffe
0008
0000
fffd
0003
0001
0005
0000
fffa
fffe
0001
fffe
fffa
fff6
0004
0004
fffb
0005
0000
fff9
fff8
0002
0004
0004
ffff
0009
0006
0000
fffb
0005
0001
fffd
0000
fff9
ffff
fffc
0003
ffff
ffff
fffe
fff8
fffe
fffd
fffb
fff9
0002
0001
0003
ffff
fff9
0006
0001
0004
0007
0005
fffc
0000
fffe
fffc
fff7
fffc
ffff
000b
0004
ffff
0004
0002
fffa
0004
0004
fffe
0009
fffd
0005
0000
ffff
0007
ffff
fffd
0003
0002
fffe
ffff
000a
000b
fffd
fff8
fffb
0003
0003
fffe
0001
0002
fff8
0003
0001
fff7
0003
0001
0005
fffd
0000
0000
0004
0007
ffff
fff9
0001
fffe
0009
0000
0009
fffa
fff2
0003
fffd
0005
0009
0003
fffd
0000
fffc
ffff
fffd
ffff
0001
0004
ffff
ffff
fffa
fffb
fffe
fffe
0005
fffe
0002
fffb
ffff
0006
fffe
0007
ffff
0003
ffff
0003
0000
fff7
0006
0010
fffd
fff9
fffe
ffff
fff8
0000
0000
0005
fffd
0000
fffc
fffc
0008
000b
fffb
fffc
fffa
0002
0005
fff3
fff5
fff9
fff3
0007
fffd
fff3
0001
fffa
ffff
ffff
0008
0005
fff7
000a
000a
ffff
0007
fff9
0007
0001
fff9
0003
fffc
0003
fffe
0007
fff5
0008
fff9
0006
0002
fffb
000c
ffff
0002
0006
fff8
fffa
0005
0003
ffff
fff9
fff6
0003
fffd
0000
fff9
000a
fffc
0000
fffb
fffb
0004
0002
0003
0000
0008
fffd
0008
fff8
ffff
0004
fffb
fffe
fff8
0006
fffb
fffd
fff6
0004
000d
0004
fff3
fffb
ffff
0009
0002
0002
0001
fffc
0001
fff8
0006
0000
fff9
0004
0003
ffff
fff6
0002
fffd
fffb
fff4
0006
0000
fffd
fffb
0000
0007
fffe
0006
fff9
0004
fff9
fff8
fff8
0003
0003
0004
0003
0006
fff6
000c
0005
0007
fffd
ffff
fffa
fff8
ffff
fff6
fffc
fffd
0004
ffff
fff2
fffe
0007
0007
fffc
0007
0001
000b
000a
fff7
fffc
0007
000f
0002
ffff
0006
fffd
fff3
0001
fffa
0001
fff4
fffe
000f
0005
fffa
0001
0008
ffe5
0009
fffc
000e
fff5
0006
0002
fff9
0007
fffe
0009
0007
000b
0000
0009
fffb
fffc
0002
0002
0002
0002
0005
0000
fff7
fffe
fffd
0003
fffe
fffb
0003
fffe
fffc
0000
fff5
000b
0000
fffe
0001
0001
0000
fffb
0001
ffff
0006
fff2
fffa
ffff
fff4
fffd
0009
0002
0002
0007
fffe
0003
0003
0004
fffc
ffff
fff5
000b
0008
0005
0000
0002
0000
0002
0001
fffd
0003
0001
0007
0002
0002
fffc
fffa
0000
fffd
0004
fffb
fffa
fffb
fffd
fffb
0000
0001
fffe
fffe
fffa
0000
0002
fffb
fffa
0008
0003
0003
0004
fffc
fffe
fffb
0001
ffff
ffff
0001
fffd
ffff
0001
0001
0002
0000
fffd
0003
fffd
0003
0000
fffb
0004
0004
0000
0003
fffd
fffe
0002
0004
0003
fffc
0000
fff9
fffd
fffd
0004
ffff
fffe
0001
fffc
ffff
fffd
0001
fffa
ffff
fffe
0000
fffb
fffd
fffe
fff7
fff9
0006
ffed
fffd
0000
0006
fffb
ffff
fffc
0006
fff8
0003
0006
fffe
0007
0006
fff9
fffc
0000
fffb
0005
0005
0003
0007
0003
fffe
0006
0006
fff8
fff8
fffc
0005
0002
0002
fffb
fff4
0007
ffff
0006
fffe
0000
0004
0000
0000
0004
0004
0000
0008
fffd
0004
fffa
0004
fffe
0002
fffd
ffff
0005
0002
fff9
ffff
0002
0004
fffe
0002
0006
ffff
000b
0003
fffe
fffd
0000
fff9
0004
fff6
0001
fffa
000c
0001
ffff
fffc
0008
0005
fffc
0006
ffff
fffd
0000
fffc
0000
0000
0002
fffb
0000
fff4
0002
0003
0000
0002
0000
fffe
fff8
0004
fff7
0005
0002
fffc
0000
0004
0005
0001
0002
fffb
0004
ffff
fffc
0001
fffd
0000
fffe
0000
0002
fffb
0000
fffe
0004
fffc
0004
0008
0006
ffff
0000
0001
0004
0001
0003
0007
fffe
0000
0000
fffd
fffd
0002
fffb
0001
0006
0000
fffa
0003
ffff
fffe
fff9
ffff
fffe
0001
fff7
fffb
fffe
fffc
0001
0002
0004
0004
0001
0003
0001
0002
0001
fffc
fffd
fffe
0003
fffe
fffd
fffe
fffd
fffd
0002
0002
fffa
0002
0001
fffe
0001
fffe
fffa
0001
0009
0000
0004
fffd
0000
fffe
fff9
fffe
fffe
fff8
fffc
0007
0001
0000
0002
fffd
0000
0001
fffd
fffa
0004
fffc
ffff
0002
0000
0002
ffff
fff9
ffff
0000
fffc
fffc
0004
fffe
fff7
0006
fffe
0001
0009
0001
0001
0006
fff8
fffe
fffa
0006
fffd
0007
0003
fffa
0004
0003
fffa
fff9
0002
000b
ffff
0001
ffff
0001
0003
0003
0006
0002
0002
0006
ffff
0003
0003
0002
0007
0003
0001
fffc
fffb
0005
0002
000a
fffd
0001
0002
ffff
0001
0006
0001
0000
fffc
ffff
0000
0003
fffe
fffe
0006
0006
fff8
0000
0003
fffb
fff8
ffff
ffff
ffff
ffff
fffb
fffe
fffa
fffd
0002
0006
0006
0001
0000
fff5
0002
fffd
0000
000a
0000
0000
fffd
0001
0004
ffff
fffe
0000
fffe
ffff
fffd
fffb
0004
fff7
0005
0000
0000
0000
0007
fffa
0006
0003
fffd
ffff
fff9
0003
000a
0006
0001
0004
fffe
fffb
0000
0000
0003
0005
0008
0007
fffb
0003
fffd
fffb
ffff
0002
0000
fffa
0001
fffe
0000
0000
fff6
fffe
fffd
000b
0008
0000
fffb
0009
fffb
0002
0000
fffa
0004
ffff
0007
fffc
fff6
0004
0000
fffc
0002
0003
fffd
fffd
fffe
0002
fff7
fffc
0007
fffb
ffff
0001
0006
fffa
0002
0000
0001
fff7
0004
fffe
ffff
0003
0005
0000
0002
fff0
ffff
0000
ffff
fffd
fffd
0007
0006
fffd
fff8
0008
0000
0006
0006
0004
fffc
fffe
0004
ffff
fff8
0003
fff9
fff7
fffb
0006
0004
ffff
0001
0000
fffe
0008
0006
0000
fff8
0001
0007
fff7
fffa
fffc
ffff
0000
fffc
fffc
fffe
0000
0002
0000
fffb
ffff
fffe
fffc
0001
0005
0003
0004
ffff
0000
0003
ffff
fff9
0002
ffff
ffff
0000
fff9
0002
fffe
0003
0001
0003
fffe
fffd
0005
0001
ffff
fffc
0008
0005
0005
ffff
0009
fffd
0005
fffa
fffd
fffa
fffc
0005
fffa
0008
fffd
fffa
0004
fff8
0000
fffd
0002
fffc
0006
fff9
0001
ffff
0001
fffc
0001
0000
fffd
000a
0000
0006
0000
0000
ffff
fffb
0001
fffd
0000
fffb
fffb
fffb
0006
fff2
fffe
0003
fffe
0006
fffe
fffc
0004
0000
0004
fffe
0003
fffe
fffc
fff7
fff7
0004
fffd
0005
0007
fffb
fff5
fffb
fffd
0005
0006
0007
0003
0000
0005
fff6
0006
0001
ffff
0001
000a
0005
ffff
0000
0005
fff9
fff8
000e
fffe
0001
0006
000a
fffd
ffff
ffff
fff7
fffe
fffb
0004
0001
ffff
0004
fffd
0006
0000
fffc
fffc
fffe
fffd
fff6
0001
ffff
fffe
0003
0005
0000
0003
fffe
0002
fffd
ffff
fffe
000a
0004
0002
0005
fffc
0000
000c
0006
fff9
0000
fff9
0000
fffc
0001
fff7
fffd
0004
fffa
0000
0000
0002
0007
0009
0001
fffd
0002
0006
0000
fff7
0003
fff9
0004
0006
0001
ffff
fffb
0003
ffff
fffa
ffff
fffe
0001
0003
0001
0004
ffff
0003
0000
0009
0003
0002
0009
ffff
fffb
000a
fffc
fffd
0008
fffe
0002
fffb
0007
fffd
fffd
0003
0004
0005
fffa
0000
fff7
fffe
0001
0005
0001
0003
ffff
0001
ffff
0000
fffe
fffa
fffe
fff7
0001
fffd
fffd
fffa
fffa
0000
fffe
fffc
000a
0004
fffb
0003
fffb
fffd
fffc
ffff
fffe
0001
0009
0004
0001
fffc
0000
0006
fffc
0000
0001
fff9
0005
fffe
0000
ffff
fffa
0001
fffe
fffa
fffc
ffff
ffff
0002
ffff
fffc
fffe
0000
fffe
ffff
0003
0003
000c
0000
fff7
0003
fffd
fffd
fff7
0001
0003
fffc
0003
fffd
fffb
0009
fffb
0003
0000
0005
0003
0009
0004
0001
0003
0005
fffb
fffa
0003
ffff
0009
0001
ffff
ffff
0002
0001
ffff
0002
0001
fffd
0006
fffe
ffff
0011
0000
ffff
ffff
fffa
fffe
0002
0000
fff9
ffff
fff7
fffd
fffc
0002
0002
0003
fffd
fffd
0000
0001
0002
0002
fffd
fffe
0002
0003
0002
fff8
ffff
fffd
0000
0005
fffc
0004
0005
fffc
0007
fffe
0001
fffe
0000
0004
0004
0003
ffff
0003
fffe
fffb
fffd
0000
fffd
0008
ffff
ffff
fffe
0000
0003
0002
fffe
fffb
0005
fffe
0000
0003
0007
0005
fffd
0001
fffe
0001
fffe
fffd
fffd
fffd
0002
0000
000a
0001
0003
0003
fffc
0001
0000
0003
0000
fffe
0001
fffa
fffa
0001
0000
0002
fffd
0004
0003
0003
0003
0008
0001
fff6
0000
fffd
0005
0001
0000
0003
ffff
0002
0003
fffd
0001
fffe
fffa
fffc
0004
0007
ffff
ffff
fffd
0004
0002
0000
fff7
0005
fffc
fffe
0005
0005
0005
0002
0000
fff9
fffe
0002
fffd
0003
ffff
0000
fff9
0004
0001
0004
0005
fffd
fffa
ffff
fffb
fff9
0003
0003
ffff
0004
fffd
0004
fffd
0003
0000
0001
fffa
000a
fffe
0007
fffe
0002
000a
fffd
0008
fffb
0001
fffe
0004
fffe
fffe
0003
0002
fff5
fffd
ffff
fffc
0002
0000
0001
fffc
fffd
0006
0001
fffc
fffb
0003
0006
fffb
0008
0004
fffe
ffff
fffe
fffc
fff9
ffff
fffe
0000
fffa
fff8
ffff
0001
0005
0003
ffff
0001
0009
0004
ffff
ffff
fffe
fffe
fffc
fffb
0000
fffe
0002
0002
0006
ffff
0001
ffff
ffff
ffff
0002
000a
ffff
ffff
0005
fffd
fffd
fffd
0002
ffff
0005
0000
000a
fff5
0000
0004
fff9
0003
0005
fffc
fffc
fffc
fffc
0004
0002
fffe
0006
0007
fff7
000c
0003
0002
000c
fffc
fffe
0001
ffff
0004
ffff
fffa
0008
fff1
0008
0002
fffb
0003
0007
0004
fffe
fffd
fffe
0001
0006
0004
0002
fffd
0007
0004
0007
0006
fffd
0000
fffb
0001
0000
0005
0002
0004
fffa
0006
0005
0004
0001
0000
0004
0004
fffc
fff1
fffc
0006
0000
fffe
ffff
ffff
fffa
fffb
fff8
0000
0008
fffb
0001
fff6
0005
0000
0002
0003
0000
0001
0003
0000
ffff
fffa
fffc
0005
ffff
fffa
fffe
0001
fff6
0000
0002
fffe
0001
ffff
0002
0000
fffd
0001
0003
000b
0002
ffff
0002
fff6
0001
0003
0000
0001
fffb
fffe
fff9
0000
fffd
fffe
0007
fffb
0003
0003
fffd
fffd
fffe
0010
fffa
0004
0006
0002
fff7
fffe
0003
0006
0001
ffff
fffc
fffc
fffc
0000
fffd
0006
fff9
0003
0003
0004
fffe
fffc
0000
0005
fffb
0000
0005
fffd
0003
fff3
ffff
ffff
fffb
fffa
000a
0003
0008
fffa
0002
0000
ffff
0009
0005
0005
0009
ffff
fff5
0000
fffc
0000
fff8
0001
fffc
fff4
fffe
0000
fffe
fffe
0007
fffd
0001
000d
0004
0003
0009
0000
0001
0004
0004
fffb
0000
0000
ffff
fffe
0003
fffa
0005
fffb
0005
0003
0002
fffd
ffff
0001
0003
fffa
fffe
0000
0004
ffff
fffe
0000
fffc
0007
fffd
fffc
fffe
fffb
ffff
0005
0008
0003
fffe
0001
0000
000b
ffff
fffe
fffc
0002
0007
0001
0000
0003
0001
0002
fffa
000a
ffff
ffff
ffff
0007
ffff
fffc
0001
0002
0007
ffff
0004
ffff
ffff
fffc
fffe
fffd
0004
0007
fffa
ffff
ffff
0001
0002
0006
0003
0003
0001
0007
0005
0004
0001
0001
fffa
0008
0008
0003
fffb
0007
ffff
0000
0009
fffc
0003
ffff
fffd
0005
0000
0001
0000
0002
0000
0009
0004
0000
fff7
0000
fffc
fffe
ffff
0001
fffd
ffff
0007
0000
fffd
0004
fffd
0008
fffb
0000
fff6
fffe
fffd
ffff
fffd
0002
ffff
0003
ffff
0002
0001
0009
0004
0000
fffd
fffe
fff8
fff1
fff6
0002
fffd
fffe
0006
0000
0000
0007
fffd
0002
000a
fffe
ffff
0009
ffff
fffc
0002
fffe
0006
ffff
0004
fffc
fffe
ffff
fffd
0005
fffb
fffa
0005
fffb
ffff
0002
fff6
0003
fff7
0002
fff8
0009
0007
0002
fffe
fffb
ffff
0001
ffff
fffe
0001
0002
fffe
0006
ffff
0000
ffff
0000
0001
0002
0006
0002
fffb
0007
fffe
0004
0002
fffc
fff3
0004
0006
0001
0006
0006
0000
0002
0005
0002
ffff
0000
0001
fffd
0002
fff7
0006
fffa
0002
fffb
ffff
fffd
0001
ffff
0002
0003
fffa
fff9
0010
0005
0004
0001
fff0
ffff
ffff
0000
fffc
fffc
0001
0000
0001
0005
fff9
fffd
fff7
0002
fffb
0000
0007
0002
fffc
0001
0001
fffd
0002
0002
fffe
fff5
0008
fffd
0001
0003
fffe
fffe
fff5
0000
fffa
000d
fffd
0003
0000
fffa
0003
0001
0000
0002
0004
0008
0000
0003
fffd
ffff
fffe
0002
fffc
fff8
fff6
0000
0000
0006
0001
fff6
000c
0005
fff5
fff5
fffa
fffd
fff9
0001
fffe
0004
000c
fff0
0009
fffc
fff5
0002
0002
0000
000b
0015
fffb
fffc
fff5
0005
fffd
0006
0008
0000
0004
fff8
fffb
fff0
0003
fffe
0003
ffff
ffee
0001
0003
000b
0004
0005
0005
fffe
0009
0002
fff5
fffe
fffa
fffa
fffc
fffe
0001
fffe
0004
0003
0003
fff5
fff9
fffd
fff8
0003
0001
ffe6
0009
0006
fff1
fff6
fffe
ffff
0001
0002
0007
0006
000f
fff5
0008
fffd
ffee
fff5
0006
0002
000d
0012
0003
0000
fff4
0005
fffa
0004
0011
0007
0004
0004
fff5
fff3
0004
0004
0001
fff9
fff4
fff6
fffb
fffa
0000
fff8
fff7
0001
fff7
fffe
fffe
fffb
ffff
fff8
0001
000b
0004
0003
ffff
0006
0003
0005
ffff
0002
0000
fff4
fffd
fffe
fff8
fffa
0005
0008
0009
fffc
0001
0004
0003
fff6
fff5
0006
0000
0005
0009
0003
0008
fffc
ffff
fff5
fff5
0001
000c
fffc
0004
ffff
0001
fffc
fffd
0007
fffe
0005
fff9
0001
fffe
0004
0005
000a
0005
0004
0001
fffc
fffb
0006
fffd
0001
fff9
fffd
ffff
0003
0001
0002
ffff
0004
fffd
0004
0003
0000
0006
ffff
0005
fff8
ffff
fffe
fff8
fffe
fff8
0005
ffff
fffd
0007
fffc
fffe
fff1
fffb
0002
ffff
0003
fffa
fff9
0002
fff9
fffb
0002
0001
fffb
0003
ffff
fffb
ffff
0002
0004
0002
0008
fffd
0000
fffc
ffff
0005
0000
fffd
fffe
0004
0000
fffd
0009
fffb
fffe
fff5
ffff
000c
0000
000a
000e
fffd
0001
0005
0001
fffe
0003
fffd
0008
fffd
0003
ffff
fff9
0004
0003
000c
0005
0006
fff8
fff8
fffd
fffd
fff7
ffff
fffb
fff9
fffb
000a
fffe
fffb
fffc
0002
fffe
fffb
000f
fff5
0009
fffc
000c
fffe
0001
0006
0004
0002
ffff
fffe
fff9
fffd
fffb
fffe
ffff
0007
0002
0001
0009
0004
0005
0004
0007
0001
fffa
0003
0004
fff9
fff3
0007
fffd
0000
fffe
ffff
ffff
0002
ffff
0001
fffe
0000
fffd
fffa
fff6
fff9
fffb
0002
0006
fff8
0005
fffd
0007
0001
0000
0005
fffd
fff9
0001
fffc
ffff
ffff
fffb
fffd
fff1
000c
fff4
0001
fffb
ffff
0008
fffe
ffff
0005
0003
000b
0002
0004
0007
fffe
0002
fffc
0007
0002
fffc
0005
fff7
0005
0003
0003
0000
fffe
fffd
fff3
ffed
0002
0003
fffd
0005
0007
fffa
0007
0004
ffff
fff9
fffd
0009
0005
fffd
fff1
fffb
fffe
0006
000a
0007
0004
0008
0009
0003
0007
000b
fff5
fffb
0005
0009
0006
0001
0008
ffe9
0006
0007
0004
fff8
000e
0004
fffa
fffb
ffff
0000
ffff
0006
ffed
0009
0001
ffff
0000
0002
0000
fffe
0000
0003
ffff
fffb
fffb
0004
0004
fffd
000a
000e
ffff
0006
0004
0000
0002
0006
fffb
fffb
0001
0006
0002
0001
0006
0006
0003
0002
0011
fff9
fffe
fffd
ffff
fffc
fffb
ffff
fffa
fffa
0006
0004
0006
fffd
0002
0001
fffe
0016
fffa
fffc
0001
0003
fffb
0000
0008
0006
0000
0000
fffa
fff3
ffff
fff5
0005
fffe
0000
0002
fffd
fffb
fffd
fffd
0004
0004
0003
ffff
fff3
0002
ffff
fff5
fffe
0006
0001
0005
0004
fffd
0003
0004
0000
0002
0001
0005
0004
0006
fff2
fffc
0001
fffb
0000
0002
fffa
ffff
fff6
0005
ffff
0000
0000
0004
ffff
0002
000c
0000
000c
fffe
0008
0003
fffb
fffc
0005
0001
0005
ffff
0001
000b
fffb
fff9
fffe
0001
0002
fffa
fffd
0000
000b
0004
fffa
0005
fffe
000c
fff8
fffc
0006
0007
0000
fff7
ffff
fffe
fffa
0009
0002
0003
fff9
fffa
fff8
fffe
0000
000b
0001
0002
0002
0002
fff3
0002
0005
fffc
0007
0001
0001
fff9
0009
ffff
fffe
fffe
ffff
0009
0001
0003
fff8
fffd
0001
0008
fffd
fffd
0004
0003
0000
0005
0004
0000
0001
0007
fffd
fffb
0004
fff3
ffff
0001
fff6
fffe
0001
fffd
fff4
ffff
0002
0002
fffb
0000
000b
0005
ffff
fff8
0001
0002
0006
0001
0003
fff3
fffc
ffff
ffee
fff8
ffff
fff2
000d
0002
0008
0005
fffb
0000
0003
0004
fffd
0011
fffe
fffe
fffb
fffe
0005
fffc
fffd
0005
fffe
fffc
ffff
000c
0007
ffff
fffb
0002
fffe
0001
fffe
fff4
0006
fffd
0007
0007
fffd
000b
0006
fffc
ffff
fffe
fffa
0002
fffe
fff8
000a
ffff
0001
fffd
000a
fffd
0001
fff6
fffe
0003
0004
fffb
fffd
fffa
fffd
0003
fff5
0009
ffff
0000
0001
0002
fffe
fffe
fffa
0002
0004
fffc
fffb
000a
0000
fff9
0003
0004
0004
0000
fffc
0003
fffb
fff9
0001
0009
fff9
0005
fffc
0004
0001
0002
ffff
0003
0002
fff7
0002
ffff
ffff
0005
000e
0008
0001
fff6
0002
ffff
fffa
fffa
fff5
fffc
0009
0002
0008
0009
fffd
0009
0007
fffc
fffc
0006
fff8
0006
0000
0004
0005
0003
fff4
000a
0003
ffff
0000
0000
fff8
ffff
ffff
fffa
fffc
000e
fff8
000d
0005
0001
fffb
0001
0004
0004
fff9
0007
fffb
fff9
0007
0009
fffe
0002
fff2
fff9
fffd
0007
0002
fff9
0002
fffe
0005
0008
0012
ffff
fff9
0009
0000
ffff
0003
0000
0009
fff9
0003
fffd
0005
ffff
0006
fffb
fffd
0008
0003
0004
0000
fff9
ffff
fffa
fff7
fff4
0007
fff9
fff8
fffe
0003
0004
0005
0004
0005
0003
0007
fff8
0005
fff4
0003
fffe
0002
fffd
0001
0002
fff6
0002
fffd
0004
fffb
ffff
0001
ffff
0009
0002
0003
fff8
ffff
0003
0005
0000
fffa
fffb
fffd
0005
fffa
0001
fffb
0001
fffe
fffd
fff3
fffc
0004
fffc
0007
0005
0005
0008
0003
0001
fffd
0003
0002
fffa
fffd
fffa
0005
0005
0003
0006
000d
ffff
fff7
fff3
0003
0000
0003
fffe
fffe
0005
0003
0003
000c
fffa
fff7
ffff
0003
fffd
0004
0007
fffd
fff9
fffa
fffe
fffd
0001
0009
0004
0006
0001
fff6
fff8
fff8
ffff
0002
0007
fffe
fffd
fff7
fffe
fffc
fffe
fffc
ffff
fff7
0002
0000
fffe
0003
0000
0000
0008
0001
fffa
fffd
0006
fffe
0001
0003
fffd
0003
0002
fffd
fffd
0007
ffff
0003
fff6
000c
fffd
0002
0000
fffc
fffc
0000
000a
0005
fff7
fffe
0004
000c
0002
0000
000c
fff9
0000
0008
fff7
fffe
ffff
0003
ffff
fffe
0000
fff9
fffd
ffff
0000
0003
fffe
0002
0006