fff8
0012
ffec
fffa
ffee
0012
0010
fff5
fffc
0019
ffff
ffd2
0014
0010
0035
0033
ffe1
ffe8
fff7
0025
0018
fff5
ffe5
0008
ffff
fffc
000c
fff1
0003
000b
ffc4
fff8
001a
0001
0000
0013
ffda
0012
fffc
0018
ffec
fff4
000f
fffb
ffe9
ffe7
001c
0013
0008
0003
fffd
fffb
000e
fff7
001c
001a
ffdf
001d
fffc
0011
0001
ffe9
fff1
fff4
fffa
fff6
fff4
003c
ffd4
ffeb
0016
000e
001e
fff7
0010
fffd
000e
0015
0017
ffff
fffd
ffe7
ffe8
fff2
ffea
000e
fff7
fff7
0017
0006
fff3
0026
001b
0006
ffee
ffed
0006
ffe3
001a
001c
fffe
ffef
ffee
ffea
001f
0002
0019
fff9
ffeb
fff1
001a
fff1
0018
0033
000c
0004
0016
fff7
ffde
fffd
ffe6
ffdb
0029
fff5
fffb
ffff
fffa
ffe1
ffe2
ffe2
0035
0014
0009
0026
fff6
0003
0015
fff4
0005
fff3
0011
fff3
000e
0009
fff9
0021
000b
0004
0002
ffef
0016
fff8
0013
ffd1
000c
fffb
ffe9
ffdd
ffda
0034
ffff
001e
ffc4
001c
0000
0006
000f
0005
0020
0009
fff6
ffe2
0009
ffd0
ffea
fffd
fff5
fffa
000b
ffe9
0019
fffb
ffff
fff5
ffd2
003e
ffed
ffdd
ffe3
0015
0001
0005
ffe5
0002
000d
fff4
ffe0
001d
0009
0000
0003
ffe2
fff5
ffbf
0008
ffdf
0031
0004
ffec
0008
000c
fff8
0002
fff1
fff2
ffd5
001a
0005
ffe2
0014
ffeb
0012
ffed
000e
ffff
000a
0008
0008
0000
001a
0001
ffd7
000c
fff8
fff8
fff5
0019
ffe7
0003
000c
0025
fffc
0021
fff4
fffc
0003
fff0
0017
001c
fff8
0017
0024
fffb
ffdc
0015
0021
fff4
fff8
fff7
000e
fff6
001c
fff7
fff2
0002
0017
fff8
0017
0014
fffc
0009
0022
000a
fff2
0005
0000
001f
ffee
0001
fff6
0013
ffe2
0009
0011
0006
000d
fff8
000c
fffe
fff9
002a
fff4
fffd
ffe7
000a
0007
0014
ffeb
0003
fffc
ffee
fff9
000e
ffe6
ffeb
0004
000f
fff1
fff6
fffa
0001
fff1
0000
000c
fff3
ffec
000c
0006
001e
ffec
fffa
0000
0004
ffe7
0002
000f
fffc
0008
0003
ffff
0009
ffcd
fffd
fff3
0013
0013
ffd7
0006
fffc
0014
0009
0005
fffd
ffec
0002
fff9
0000
ffff
0005
fffa
fffb
0015
0006
0020
fffb
0001
fff3
000b
fff7
0007
0006
0019
000c
0008
fff7
fff6
0013
0008
0011
0002
000d
fff4
fff6
fffc
fffa
ffff
fff8
0023
0003
0011
ffeb
fff8
000a
0006
fffa
000e
0004
fff3
fff2
0007
ffff
fffc
fffd
fffb
fff4
ffe9
fffd
0007
0019
0015
fff3
0005
0006
0015
000c
fff1
fff6
fff8
fff3
ffff
fffd
fff7
fff9
0003
fffa
ffff
fff7
0012
0001
0008
ffeb
001a
fff0
fff4
0006
0009
0004
0014
ffeb
fff8
002c
001b
ffec
fff3
fffe
fffe
fffe
0009
0007
0010
fff8
000b
fff1
001e
fffb
ffff
fff2
0007
0007
0000
fffb
0003
000e
ffe4
fff9
ffff
0000
000f
0000
0017
0003
fffd
ffe5
fff8
0005
fff5
fffd
0001
0009
fff8
0004
0000
0004
fff0
001c
000b
0003
ffea
0015
ffff
0004
fffe
001a
000c
0001
fff0
fffe
0007
000a
001a
0002
fffe
fffd
000b
fffc
ffef
ffee
0002
fff8
0002
fffe
0002
fffa
fffc
fffd
ffed
fff0
fff0
0003
000e
fff2
fff7
fff8
0008
fff1
0010
000d
ffe8
0008
fff7
0000
000a
0004
0010
0002
0005
ffef
ffee
0015
fff7
fffc
fffc
fffd
fff9
0001
000b
000a
fff9
0005
0003
0001
fffc
0008
ffff
0009
fff1
000f
000b
000a
fff7
0006
000a
0009
0006
0005
0000
0007
0006
ffef
fff2
0009
0001
0002
000f
fffc
fffa
fff7
fffe
0004
fff7
ffff
ffeb
000c
0001
0001
fffc
fffc
0006
0003
000e
0001
fff7
fff7
fffd
0015
0010
0001
0019
0002
0003
fffa
fffc
0017
fff9
fff7
fffa
0008
fff4
000c
0004
0014
fff9
0006
fffa
fffc
fff2
fffe
fff7
0003
fffa
fffc
0008
0006
fff5
000c
0004
0008
0008
fff2
fff9
000e
0009
fff3
fffc
fff8
0000
ffec
0011
0001
ffff
0002
fff7
0009
ffed
fff8
fff8
fffe
0009
fff3
fffa
0007
fff5
ffef
0007
001b
fffd
0007
0010
ffff
fff2
000d
001b
fffd
0005
ffea
ffdf
0004
fff6
fffa
fffb
fff9
0019
000e
0005
fff9
fffa
0010
0009
0002
ffe8
0016
fff9
fffc
ffe7
fffb
fff9
0003
fff4
fffb
0007
0010
fffb
fff0
fff9
0014
0016
ffee
fff3
0004
0004
0000
0004
0009
fffb
ffea
fffb
fff8
fffb
fff2
fff8
0012
fffc
0006
0001
fffe
fff9
0008
fff5
fffc
0011
0006
0001
0000
0000
ffff
ffd8
ffff
fffd
000c
0004
ffe2
fffa
0001
0001
000a
0001
0001
ffea
0005
fff8
fffb
fffd
000d
0009
fffa
0011
0006
fffa
0004
000f
fffe
0005
fffe
000a
0007
0008
fffa
fff2
0004
fffd
0017
000c
0004
fff7
0009
ffef
0002
0002
fffc
0006
0005
0006
0006
0006
fffb
fff2
0005
0001
0011
fff0
0010
ffed
0008
ffee
000e
0012
ffe4
0007
0000
fffd
ffe5
ffe5
ffe7
fffb
0012
fff9
ffe0
fff7
000b
0012
fffd
ffff
fffe
0008
ffef
0007
000c
ffee
ffe8
fffb
ffe0
fff9
ffed
0004
fffb
0006
fff1
fff2
fffe
0005
ffec
0026
001b
0009
0017
0006
0009
0008
000e
fff1
0013
ffff
fff7
ffff
ffe7
001e
0008
ffe8
000f
ffe0
0001
0039
ffff
ffec
ffee
0009
0022
ffea
0004
ffe5
ffef
0009
0009
0002
fff6
0004
fff8
0002
0010
fff9
fff9
000b
000b
fff6
000a
fffd
0001
0011
0003
0005
0006
ffe8
fffe
0008
ffff
fff2
fffd
0003
fff6
ffe9
fffc
0024
0010
fff7
0008
0028
0001
0011
fff7
fffd
0003
0007
0002
0002
ffe8
ffe7
fffe
fff1
ffee
fffa
fff6
fffa
0019
000a
0002
fffd
fffc
0009
0002
ffed
0000
000f
fffc
000d
fff2
fff9
0013
ffe5
fff4
ffff
0019
000d
ffdc
000e
fffe
0012
fffb
fffb
fffe
0002
fff5
fff5
fff8
fffd
fffc
0004
fff4
fff6
fffe
000f
fffc
ffe6
fff9
0014
0007
fff8
fff9
001a
0017
0006
ffec
ffe7
0004
0018
fff7
fff5
0014
ffef
fff6
000c
000a
fff9
001d
0004
fffc
0020
fff5
0000
0007
0016
fffc
fff3
fffa
fff9
ffe8
001a
0006
000a
000f
fff6
ffde
ffcb
0013
fff9
0009
0010
fff0
fffe
fffb
000b
0010
0006
fffd
ffea
000b
0012
fffd
fff1
fffc
ffff
ffe7
001b
0000
0013
ffef
000c
fffc
000c
ffe9
0000
fffb
0001
000a
0002
fff6
ffff
0020
0008
000b
0009
0015
ffea
fffc
fffc
fffe
000b
ffef
001a
fff0
fffa
fffa
fffd
0009
000c
0009
0014
0003
fffc
ffd6
fffc
fff9
0017
fff0
ffff
000e
fff1
fffa
000b
fff3
ffe4
000e
ffff
fffa
fffd
000c
000b
ffdb
fffc
fff3
0007
0002
001a
ffe7
0001
fffd
fff0
ffe9
ffeb
001c
0015
0029
fffa
fff0
0001
0007
000f
fff7
ffe6
0004
0007
fff7
000e
fff8
0004
ffe9
fffd
0029
0020
fff8
fff6
0017
fff2
0029
fff0
000b
0004
fff4
0001
fff9
ffe7
0004
000d
001f
ffeb
fffc
fff5
0025
ffdf
0003
000c
ffdd
fffa
ffdc
ffef
fff6
fff5
ffef
ffdb
0017
0013
fff3
0005
000f
0006
0006
ffdd
001d
0009
000a
0001
fffe
fff0
ffd3
0015
0012
fff9
fffd
002c
fff1
fff2
fffa
001f
000d
0007
ffe5
0003
000a
0028
0010
000e
001b
000f
ffeb
fff5
fffd
fff6
0012
000e
0002
0006
fff0
001a
fff3
0007
0029
fff8
ffea
0006
0009
0004
fffc
fff1
fff9
ffe8
ffef
fffc
001e
0004
ffdb
fff7
0007
fff6
0014
0003
fffc
ffee
fffc
fffe
ffff
000a
fff9
000c
ffd0
0013
0008
fff6
0009
0005
000b
000b
0000
0001
fff9
001b
fffe
0009
ffe3
ffff
0006
fff8
fffd
fffe
0023
fff0
000c
0016
0011
000e
0010
fffd
0018
000f
fff7
ffd0
fff8
000d
0004
fffe
000f
0009
000a
ffcf
0015
fff0
ffe9
fff5
0000
001f
fffa
0009
fff2
ffe8
0021
fff8
0002
fff2
fff9
fffe
001d
000e
0009
fff8
000e
0019
fffc
ffe7
fff5
fff4
fffc
fff8
0005
ffff
0012
ffed
0018
fffa
001c
fff9
ffed
0009
0000
0025
0005
ffee
fff8
fff0
000a
0008
ffef
fffe
ffe8
fff2
0006
ffcb
fff1
fff0
000c
ffff
0000
ffeb
ffe3
000a
0012
000f
ffcc
0001
0009
000f
000d
fffb
000f
ffcc
0004
ffec
001f
0000
fff6
fff4
0002
ffe4
ffe6
0022
0006
ffef
0020
fffb
0002
0039
0011
0002
fff2
ffe7
ffea
ffee
0010
002e
fffd
001a
fffa
ffcc
001c
fff2
0000
ffe6
fffc
0003
0019
fff5
001a
0016
0011
fff7
001c
fff0
ffe7
0006
fff9
ffee
000e
ffff
fff1
ffdf
fff4
ffee
0027
0012
ffec
fff3
fffe
fff3
000d
000b
ffcd
0010
fff3
000e
ffd5
001d
fff5
fff5
ffed
ffe5
fffc
0002
fffe
000f
ffd8
ffea
fff5
0020
fff6
0004
fffe
002d
001c
ffdb
fff5
fff9
0017
ffe1
fffa
fffc
ffdc
fff0
ffe8
0004
001d
fffa
0008
000a
0009
0001
fffa
0006
000a
fff3
fff7
0005
0011
ffed
001a
ffec
0003
001b
fffa
ffef
0017
000e
fff5
fff9
ffea
0028
0005
ffd5
0010
fffa
0021
0019
0019
000c
0013
001b
ffff
0005
0018
ffe3
ffe8
0000
fffc
0001
000c
0013
fff7
000e
001f
fffa
000f
fffc
0014
fff9
000f
ffeb
0021
0005
0001
ffe5
fffe
000a
000b
ffea
fff0
0005
fffb
0013
000c
fffb
000c
001d
fff5
001b
000f
0002
ffea
0003
ffe0
ffda
000f
fff2
000a
ffff
ffe5
ffde
fff0
0008
0000
0007
ffee
0016
ffff
0001
000c
fffa
0001
ffd1
000a
0000
0024
002f
ffe0
ffef
ffff
000d
0011
fff6
fff6
fffe
0002
ffff
fffa
fff4
fffd
000d
ffd6
000f
000f
0002
000f
0003
ffe5
0003
fff6
0000
ffe9
fffe
0005
0003
fff0
ffec
0010
0000
0008
0000
000c
fffc
0003
0002
000e
0001
fffe
000f
0003
0012
0001
fff0
0000
ffff
fffa
0024
0003
fffc
000e
fffb
fff9
0002
fff7
001c
000f
0013
0004
fffe
ffe1
fffd
0010
0014
fff5
ffde
fffc
fff2
000e
0027
ffe8
000f
ffec
000c
0001
0003
001b
fff7
0006
fff7
0007
fff9
001d
ffec
000c
0013
fff2
fffd
fff3
ffec
0002
ffef
ffde
fff9
ffef
0012
fff4
0008
fffd
fff6
000b
fff8
0009
ffee
0019
fffb
0009
0001
0018
000b
0001
0003
0004
000f
000e
ffef
0003
fffb
fff1
000b
fff6
0019
0000
0002
fffa
ffee
002b
fff9
fff8
fff4
ffff
ffff
0005
000d
0014
0009
000b
000a
fffe
fff5
000c
fffc
fffd
ffee
0012
0009
fffd
ffe5
000c
fffe
001c
fffd
0000
fff7
0006
0014
000a
fff9
ffff
0004
fff2
0018
0005
0003
fff6
ffec
0003
ffe4
ffff
ffee
0007
000a
fffd
fff4
0012
fffb
fffd
0013
fffc
ffea
000a
fff1
0008
ffec
fffb
0033
0017
fff9
ffdd
fffc
0020
ffeb
fffb
fffa
fffa
0003
0010
001c
0012
fff5
0005
000b
fffe
fff0
fffa
fff0
ffff
0000
0005
000f
0012
ffea
0007
000d
fffd
fff3
fff5
0015
fff1
000d
ffee
0007
0010
0013
ffef
ffec
fffa
ffff
fff6
0012
0005
fff7
fff0
fff0
000d
001c
ffef
fffc
0003
000b
0012
fffd
fff1
0012
0004
000c
fffd
ffff
fff0
ffed
0006
fff1
fffa
0009
0011
ffee
000c
0004
0000
0001
fff0
ffef
fff6
000c
fff4
001a
fff6
000a
fffa
fff3
ffdf
000d
000c
ffff
fff4
0008
fff7
fff6
0005
fff9
0004
0005
0011
fff0
fff3
0008
fff4
fff8
0004
ffee
fffe
0011
fffa
fffe
0012
0017
0004
0000
ffe5
000b
ffff
000b
000f
0017
001b
ffe7
000b
0004
fff0
0007
ffe3
ffe2
001f
001a
ffd7
0018
0012
000c
0011
fff9
0011
0003
fffd
0016
fffb
0000
0002
fff4
0010
fff2
0003
000b
0001
ffde
0007
0000
0015
ffba
fff9
002d
ffe8
ffbc
ffef
000e
0004
001f
0012
000e
0003
0024
ffff
ffe5
0010
fff5
0017
fff9
ffd6
fff8
fffb
ffe4
0006
ffe6
ffd8
ffee
001c
ffe6
0008
ffe2
0039
ffdc
ffe1
0013
0005
0031
001c
002a
0015
fffc
0016
fffa
fffb
0001
fffd
001b
0000
ffd8
ffe6
002a
ffe1
fff8
000f
fffc
ffcf
0007
fff8
ffea
fffd
ffdd
ffe1
0009
ffee
0025
002c
fff6
fff7
ffce
ffeb
000d
0002
fff1
fff3
0005
ffd0
fff7
fff1
ffe8
0026
fff2
fffb
0016
001f
fff4
001e
ffe4
0041
003c
fff6
fff4
0019
ffff
0003
fff0
fffb
0018
0016
ffd9
0005
0011
0004
000b
0012
0037
fff7
0005
ffe2
fff9
0028
fffd
fffd
fff9
ffe8
000b
0020
0010
fff2
ffd8
0001
0001
0010
0006
0016
ffee
ffef
fffe
000b
0003
0016
000a
0010
000c
0000
ffe4
fff5
000e
000a
fff5
ffe5
ffd9
0001
0009
000b
002a
0009
fffa
0000
fffe
fffd
ffd5
0002
ffed
000f
fffe
0017
ffe2
0005
fff8
fff5
0013
000a
ffe7
0008
fffb
0003
0012
000c
0032
0002
0003
ffec
ffdf
0018
fffe
fffd
fff3
ffeb
fffa
fff7
0012
0006
fffc
000a
0005
fff6
fff3
0012
ffec
000d
ffe8
0008
0005
001e
ffed
0007
ffff
000c
ffff
fffa
fff4
001d
001a
ffe7
fff6
0004
0002
fff0
000e
0009
0002
fff5
0003
0007
ffdf
0005
fff6
000d
0006
fffe
ffe9
0001
fffb
fff2
0015
0005
ffef
0005
fff4
fffe
0010
0003
0019
0002
000f
ffef
ffef
000d
0006
0003
ffff
fff8
ffff
fffd
000d
fffc
fffb
fffc
fffe
fffe
fff8
0011
fffd
fff9
fff0
000d
fff9
000d
fffd
fff6
0013
0006
0002
0008
fffd
0007
0015
fff9
fff4
ffff
0008
0008
000e
fffe
fffc
fff6
fffd
0002
ffe7
fffe
fff7
000b
0002
0001
fff5
0003
0003
0002
fff5
fff7
000f
fffc
0001
ffff
ffee
ffe4
ffe5
fffd
fffb
0015
0019
ffe7
0004
0005
0008
fffe
0006
fffa
ffeb
fffe
0002
fff5
ffff
fff6
0019
fff7
000a
fffa
0016
fffa
fffe
fff3
0005
ffe8
ffff
ffe7
0009
0008
000d
ffe6
fffa
001b
001d
fffd
fffb
0016
ffef
fff3
0002
000a
000e
0002
0010
000a
000d
fff0
0005
fffe
0002
0005
000b
fffe
fff6
ffe9
000d
ffea
fff4
ffee
fffa
ffe4
ffd2
fffb
ffff
001a
0028
ffd4
0015
0013
0015
fff6
000b
fff2
ffe4
ffe4
ffe5
ffe8
ffe5
ffe7
001d
fff7
0022
fff8
0025
fff8
fff2
ffe8
0002
ffe0
000c
ffd7
0006
001f
0016
0002
ffec
0032
001f
ffeb
fff8
0022
ffe8
ffe4
000b
0019
0006
0007
0018
0002
0008
ffee
001a
0010
0008
0002
0003
fff4
000e
0011
fff7
000c
0000
0008
000d
0002
0019
0011
000a
ffed
ffe8
0014
fff5
fff6
fffa
0000
0000
000b
000b
0005
0009
000c
0012
0002
ffeb
000b
ffe5
ffff
ffea
0005
0006
000f
fff8
0012
0006
000c
fff6
fff7
fffe
0000
000c
ffe3
ffe9
0009
000b
fff1
000d
000a
fff8
fff4
0004
fffa
fff3
fff4
ffff
0005
fff4
fff9
fff2
000a
fffd
fff4
0016
0005
ffe7
0003
fff8
0000
000b
0015
0041
0002
0009
ffe8
ffdf
0023
fffe
0004
fffe
fffc
ffee
000c
0018
0006
ffef
000e
0014
fff9
fff9
001b
ffe9
0001
fff7
0018
0003
000e
ffee
0006
000d
fff5
ffe7
fffe
fff9
000f
0011
fff2
fff7
0001
0007
fff3
000b
0008
0006
fff5
000e
fff6
ffdc
fff6
ffe9
000a
0000
fff4
ffe2
fffc
000c
fff9
0005
ffe8
0015
0002
000d
000a
0012
0008
fffa
fff7
ffea
fff9
0012
0024
fffc
000b
fff6
fff2
fff4
ffe2
ffd7
0021
fffe
0004
fff2
0009
000f
fffd
0010
ffe9
0005
fffb
fffa
ffff
0009
0003
fff8
ffda
ffff
0018
ffef
fffd
fff8
ffe7
0004
fffc
000a
fffc
ffe8
fffe
000a
ffec
0000
0001
000f
0006
0007
ffff
ffe6
000b
0004
0011
fff4
000a
0013
000e
ffe9
fff7
fffe
fff3
000d
fffd
002d
0003
fffc
fff3
fff0
0022
fffb
0000
ffec
ffee
0002
0008
0013
0006
0003
0004
0006
fff7
fff6
0015
fffa
0004
ffe4
0000
0006
001a
ffec
000a
0001
0016
0003
fff2
fffc
001d
000f
ffdf
ffed
fffa
fffd
fff1
0025
0004
0005
fff5
0000
fffd
ffe9
0008
fff7
0002
000c
ffff
fff6
0007
0011
fff0
fff1
fff1
fff9
fff5
ffdd
0011
fff5
fff4
ffef
fff3
000f
fffe
ffef
fffb
0007
000c
fff5
0001
fff7
fffa
0000
0004
0023
ffff
ffca
0005
000f
0009
0019
ffd4
0004
fff1
0007
0005
0012
000c
fff4
fffd
fff7
001f
0008
ffff
fff0
000e
fff9
fff3
000d
fff5
ffe9
fffa
0007
0018
ffee
000d
0009
0006
0003
ffef
001b
000d
fffb
fffc
0000
fff5
0009
0010
0001
000f
0011
ffe3
0009
ffea
0000
0016
0009
ffff
0023
fff3
0013
0013
fff4
ffdb
0009
ffe2
000f
fff1
fff5
fff8
fff7
fffb
fffb
fff2
0001
ffe6
0009
ffe7
fffe
fff5
000c
fffe
0007
0005
fff1
0005
0013
fffa
fff9
fff2
0008
0008
fffc
0007
fff6
fff2
0015
001c
fffd
ffee
000c
fff8
fff5
0004
fffc
0020
fff3
000e
fffd
fff3
0018
0019
ffdf
0011
0006
fff8
0011
0010
0030
ffff
0006
ffe6
ffe9
001c
000a
0002
fff1
ffeb
fffe
fff8
000b
0000
ffed
0003
000a
ffff
fff4
001c
fff1
fff6
ffee
0007
fffe
0010
ffee
0006
fffb
0008
fff6
fff7
fffd
000c
0015
ffdb
fff0
0007
0004
fff5
0016
0006
0006
fff8
fffa
ffff
ffe6
ffff
ffef
0000
000c
000c
ffec
000c
fff1
000b
ffdd
0011
fffd
000b
0009
fff8
000a
001a
ffeb
000f
ffdc
fffc
fff5
fffe
fff4
0004
fff6
fff6
0009
fff8
ffe0
0008
fff0
fff2
0017
0012
0003
000d
0004
fff9
001c
001f
ffe9
ffdb
fff8
fffd
ffe8
0002
ffe6
0008
fffb
000b
0006
ffed
fffc
0022
fff2
000f
ffef
0019
0000
0001
ffe5
0003
0005
0019
000b
ffec
fff4
001e
0004
fff1
0018
fffe
fff2
0003
0021
fffe
001d
fffb
0003
0010
ffe8
000f
fff9
0020
0014
ffd8
fff9
0007
fffe
0000
fff3
ffef
ffef
0011
fff4
ffee
fff2
fffb
0018
fff8
0001
fffa
fff3
0008
000b
0007
0030
0027
ffe6
fffd
fffc
000a
0004
ffe3
fffd
fff5
ffef
0000
fff0
000a
fff5
0008
0000
fffa
fff8
0023
ffed
0013
0020
fff2
0009
0017
fff3
0001
ffff
fff9
0009
0005
ffeb
0009
fff4
0001
0008
0006
001e
0003
0001
fffc
fff7
0014
0008
fffb
0001
fff0
ffff
0007
000e
0000
fffb
000a
0007
fff7
0000
0008
fffe
0002
fff1
000a
fffe
001a
fff4
fffe
0009
000b
fffa
fffd
0003
0002
000e
fffa
fff7
0006
fffd
ffff
000c
0000
fffe
ffff
0001
0003
fff5
fffc
fffb
0008
0004
fffb
fff2
fffb
ffff
fff2
000f
000a
ffea
0012
0000
000b
000c
000b
000f
0000
000b
fffd
ffee
fff4
ffef
fffa
0000
000c
fffb
000b
fffe
0007
fff5
fffd
000b
0007
fff2
0011
0002
0008
fffe
000f
0005
000e
fff2
fffe
0011
0005
fffb
0002
fff8
0003
0011
0001
fffd
0008
ffff
0002
000e
000c
0001
fffc
fffc
fff2
ffec
fff6
fff6
0003
fffa
fffb
fff5
ffea
0007
ffed
ffff
ffe6
0019
0016
fff7
0007
0002
fffd
fff2
fff9
fffa
0012
0009
0017
fff5
0007
fff7
ffff
0005
000b
ffe3
001e
ffe1
000c
0005
0000
000f
fffa
0011
fffb
0000
0011
0006
0014
fffb
fffd
fffc
ffea
fffe
0009
fff1
ffeb
0009
fff9
fff7
fffa
000c
fffe
ffe5
0001
fff4
0000
fffc
fff8
fffe
000a
0006
0009
fff4
0003
fffb
fffa
fffe
0005
fff6
fffd
000d
fffa
0002
fffd
fffb
fffd
ffeb
0002
0001
0009
0014
ffee
0006
fffe
000d
0005
0005
fff5
fffa
fff7
0008
fffc
fff8
0001
000b
ffee
0007
ffff
000f
fff7
fffd
fff7
0009
fff7
fffe
fffb
0005
0008
0008
ffee
fff1
000c
0002
0003
fff9
000e
fff2
fffc
fffd
0006
0001
0005
0011
fff9
0007
fff9
0000
0001
000e
0002
fff7
fff9
000f
fffb
fff0
000b
fff0
0002
0010
0006
002e
ffff
0012
fff6
ffe7
001d
fff8
000a
0007
ffeb
fff7
ffee
0019
000b
0009
0005
0008
fff8
fffe
0008
ffee
fff0
fff7
000c
000c
0025
fffc
0011
fff1
000f
0001
0000
0005
000e
0012
ffe7
0003
0008
ffee
fff3
001e
fff6
0006
fff4
0002
ffee
ffea
0003
fff3
fff5
fff1
0006
fff8
0007
fffa
fff8
0026
0014
ffea
0004
fff9
000d
0008
0015
0033
0000
0009
ffe3
fff0
0022
fff0
fffb
fffa
fffa
ffef
0014
000f
0003
ffea
0011
0003
fffa
ffef
0012
fffe
000d
ffe4
000b
fffd
0011
fffd
0012
0018
0007
fff7
ffff
fff9
0011
0016
ffea
fff0
fff1
0003
fff7
000c
000a
ffff
fff0
ffff
0003
ffe9
fff8
ffee
000f
0009
fffc
ffea
0004
0001
fff5
001d
001a
ffeb
0007
000d
0003
000d
0014
002e
0007
000d
fff3
ffdc
0021
fff4
fffb
ffe8
ffee
fffa
ffff
0025
0005
fffc
0009
ffff
0000
fff2
000c
ffea
0008
fff4
000d
0013
0016
ffe1
ffff
0005
0006
fff1
fff1
ffe5
0016
000a
ffdd
ffed
0016
fffc
ffea
0023
0004
0005
0007
fffb
000d
fff4
0007
fff7
0016
0000
0001
ffef
fff4
fff1
000b
0008
0000
0035
000f
fff2
fffd
0017
0022
0001
0014
fffe
000b
ffff
fffb
0001
fffc
fffa
0011
ffdf
fff4
0019
0007
ffe6
ffee
0006
fff3
000c
fff3
0006
ffe2
001f
0015
001e
0016
ffff
0008
0006
ffdf
0007
ffe0
fff1
fffa
fff5
fff2
0008
ffed
ffd5
0006
fffe
0000
fff3
0008
fff7
ffeb
0003
0008
0018
001e
fff4
0002
ffef
0002
0008
ffee
000b
0012
ffdd
000a
0003
0003
0010
000c
0027
0001
0017
ffe7
0006
0008
ffd7
ffed
0013
0007
fff9
fffe
0014
fff6
0006
0009
ffed
0008
000b
001b
fff4
000b
ffdf
000a
fff2
fff5
ffdf
ffec
001c
fff9
fff4
0000
0005
fff9
000d
000c
0008
ffed
0004
ffeb
0009
fffa
000d
0006
fff7
fff3
fff0
fff6
ffff
fffa
000f
ffff
fff0
fff9
0015
ffeb
000f
ffe1
fff9
001d
000e
fff4
0008
fffd
ffcf
fffa
fffa
0015
fff9
ffda
ffec
fff9
fff3
fff8
0005
ffe6
ffe5
000a
001e
ffeb
0011
0011
001d
0010
ffda
ffed
ffea
0025
fffc
fffb
fffa
ffd7
ffe6
ffe7
0001
000d
0009
0000
0006
000e
fffc
0022
0015
0021
0007
0008
fffe
ffe9
fff6
0027
ffcf
0025
0020
0003
ffd1
0005
0003
0002
000e
fffb
ffd9
0015
0017
ffe9
fff0
ffd8
0000
ffec
fffc
ffd8
ffe6
fff0
0005
fff2
000b
0019
0024
001d
fffb
ffe9
fff6
ffff
0006
fff5
ffe6
fff1
0018
0008
fff4
0001
0007
fff1
ffec
0002
fff8
fff8
001a
fff8
0013
0004
0005
fff9
0009
ffff
0016
fff0
ffe1
000b
fffe
ffe5
000e
0006
ffe2
0028
0022
fff1
0023
000e
0003
0024
0016
0017
fffc
0006
0003
0009
ffec
fff8
000f
0005
0006
0007
002d
fff7
ffff
ffde
ffdb
0019
0010
0004
ffee
fff3
0007
0007
0001
0002
0007
0003
0009
0004
fff6
0023
fff3
fff5
fffc
fff3
fffa
001f
fff1
0001
0001
0011
0007
0002
fffa
000d
0013
fff1
fff5
fffc
fffd
0000
000f
fff4
fffd
fff6
fff1
0014
ffef
ffff
ffed
0012
0012
fffc
0003
0007
fff3
ffeb
002b
0003
fff7
0007
0000
000a
001e
fffd
001c
0005
0002
fff2
ffdf
0016
fffb
fffe
ffe3
fffa
fff0
0005
0006
0009
000e
0007
0002
ffe6
fff7
000b
ffef
000d
fffa
fffc
000d
0017
ffeb
0006
001a
0012
fff2
ffee
fff3
0012
001e
ffec
fffe
0015
0004
ffdb
0000
0008
0002
fff8
fff7
0005
ffec
fff9
fffc
0011
0001
000a
ffee
fffa
0019
fffd
0000
ffdb
000d
0014
000b
fff3
ffe6
fff9
ffd5
fffe
fff8
fffb
0017
ffe8
fffe
fff6
0014
0009
fff8
0007
fffd
0002
fffc
fff3
000d
0006
ffec
ffff
0026
0001
0024
ffeb
0004
fff3
0004
fff5
0019
fff9
fffc
0001
0002
ffe4
ffe3
001e
ffff
ffff
000b
fff0
fff2
0003
fff8
001f
fff5
fff4
001b
ffe7
0014
0006
0017
ffff
0019
0009
fff7
0006
0024
0006
ffed
ffff
fff6
0002
000b
0019
0038
000e
0002
ffe4
ffe7
001a
0005
0003
ffdf
ffef
fffc
ffff
0011
0014
fff1
fff5
0017
0006
fff5
0012
fff6
fffa
fffb
0006
0002
0019
0008
0006
000a
fff6
ffeb
fffb
ffe5
0015
0005
ffd9
ffd5
fff8
0010
ffea
0020
0008
0009
fffb
fff0
0002
fff4
0000
fff0
000a
fff8
0000
fff6
fff9
0005
fff1
fffa
0013
ffd9
000f
fff4
0004
0006
0011
0028
fffe
0007
ffeb
ffec
001d
fff5
fff9
000e
fff9
fffe
0007
0018
fff5
fff5
0010
0004
0000
fff2
0010
fffd
0006
ffe0
0014
fffc
0006
fff3
fff7
0004
000b
fff9
fffd
000b
000e
0014
fff7
fff2
fff5
0001
0002
0016
ffff
0003
fffa
000e
fff1
ffea
0006
fff2
0013
0016
fffa
fff9
0007
0011
fffe
fff9
0010
ffd3
fffc
ffe4
fffc
fff1
0003
001b
000d
0004
ffea
fff6
0023
0003
0007
ffec
0001
000b
fff9
0009
fff4
fff5
0005
fffa
0006
ffff
0012
fff0
fff6
fff8
000e
000a
000a
fff0
fffe
fff0
000d
0008
fffb
0006
0020
0001
0006
0006
ffed
0011
fff4
0014
000a
0002
fffa
0019
ffff
0006
fff2
fff5
0004
fff7
ffea
ffe3
000f
ffd5
0018
fff0
ffef
0025
000b
0023
ffee
ffec
0002
0007
fff7
fff4
000c
fffd
ffd0
fffe
000b
0011
0001
0013
0009
fffd
fff4
0002
0001
000b
0005
fff7
0000
ffe1
fff2
0009
000b
0000
fff3
fffa
ffdd
0006
fff1
ffec
fffe
fffc
0014
fffa
0002
001f
000d
fff4
0014
fff6
000a
001b
fffe
fffd
ffee
0019
ffed
ffe0
000e
0005
ffea
000e
0006
ffe6
0001
0008
0020
ffe1
0006
000b
0014
0009
ffff
0018
fff2
0006
fff3
fffc
0005
ffe9
fff5
fffe
000d
0004
0024
000e
0007
000a
000e
0002
ffff
fff0
fff3
fffd
0004
0000
0003
ffff
0005
ffc9
0000
0006
001a
fffa
fff3
ffe8
000e
0011
fffc
fff5
0014
fff5
fff8
0017
000a
fff3
fffb
ffee
fff3
000b
ffed
ffed
0012
fff0
fffc
fff9
ffee
0002
0000
ffd1
0010
0006
fff9
fffd
0006
ffe4
ffe8
ffcf
000f
0005
0014
0015
ffee
0000
fff0
000e
0003
0013
fffe
fff3
ffef
ffee
0005
fff1
001b
0008
ffd7
0010
fffc
0021
fff3
fff9
fff8
0012
fff5
ffe9
fff6
0014
0003
0006
fff4
ffeb
0016
000c
0005
fffb
000e
0003
fffd
fff7
0018
001a
0001
002a
fffc
0015
fffa
ffe3
000e
000e