fff5
0015
0006
ffe5
0006
ffeb
000c
ffe9
fff8
0001
000c
ffe9
fffb
0009
0007
0004
fffd
0013
000c
0003
ffeb
fffc
fff0
fffd
ffff
000d
fff1
fff0
ffff
fff0
0000
fff9
0004
fff0
ffeb
fffc
0006
0005
fffe
0016
000b
fff9
fffa
ffff
0019
0016
0017
001c
0002
fff2
0005
0010
fff6
fff4
fff9
fffb
0015
ffeb
fff9
0014
0003
0014
0005
000b