001d
ffec
ffeb
000d
000c
ffff
0023
0003
ffe3
0007
ffe7
000c
0002
ffe5
ffe9
fff8
fffe
fff3
ffe9
0022
0009
0014
fffd
0002
ffec
0012
ffe7
000d
0008
0003
0003
000d
0009
fffe
fff8
000e
fffe
fff4
ffe9
fff8
0010
000f
ffdf
fff3
ffdf
fff7
000d
ffe6
0016
fff4
fffd
0001
ffe5
ffe9
fffa
fff9
0023
001c
0012
fffd
000d
0015
0020
0010
0011
fff1
fff4
000a
0010
0001
0019
fffe
ffea
0008
ffea
0006
0001
ffe2
ffee
fffc
fffe
fff3
fff1
0022
0006
0011
0003
fffa
ffee
0008
ffee
0007
0002
0006
fffa
0005
0005
0001
fffa
000a
fff7
fffa
ffeb
fffd
000d
000a
ffe5
fffa
ffea
fff5
0014
ffee
000b
fff4
fffc
0004
ffe6
ffed
fffa
fffa
001c
0016
000e
0002
0004
0012
0019
000c
000e
fff3
fff9
0006
0011
0001
0014
fffd
fff1
0006
ffec
0005
0001
ffe5
fff1
fffe
0001
fff2
fff4
001f
0006
000e
0007
fff8
fff0
0006
fff0
0007
0003
0007
fff8
0002
0003
0004
fffa
0007
fff5
fffc
ffef
ffff
000c
0008
ffe9
fffc
ffef
fff4
0014
fff0
0008
fff4
fffe
0008
ffe8
fff0
fff9
fffb
001a
0014
000c
0004
0002
0011
0017
0009
000b
fff5
fffb
0002
0010
0001
0011
fffc
fff4
0005
ffec
0004
0001
ffe6
fff4
ffff
0002
fff1
fff6
001d
0005
000c
0008
fff8
fff1
0005
fff1
0006
0003
0008
fff7
0000
0003
0005
fffb
0005
fff4
fffc
fff0
ffff
000b
0007
ffec
fffc
fff2
fff3
0013
fff1
0007
fff3
0000
0009
ffe9
fff2
fffa
fffc
0018
0013
000b
0004
0000
000f
0016
0007
000a
fff6
fffd
0001
0010
0001
000f
fffb
fff6
0005
ffee
0004
0001
ffe7
fff5
ffff
0002
fff2
fff7
001b
0005
000b
0008
fff8
fff3
0005
fff2
0005
0003
0008
fff7
ffff
0003
0006
fffb
0004
fff3
fffd
fff1
0000
000a
0006
ffed
fffc
fff4
fff2
0012
fff2
0006
fff4
0001
000a
ffea
fff4
fffa
fffd
0017
0013
000a
0005
0000
000e
0015
0007
000a
fff7
ffff
0000
0010
0001
000e
fffc
fff8
0005
ffee
0004
0001
ffe9
fff6
0000
0003
fff2
fff9
001a
0005
000a
0008
fff8
fff5
0005
fff3
0004
0004
0009
fff7
ffff
0004
0006
fffc
0003
fff3
fffe
fff2
0001
0009
0006
ffef
fffc
fff5
fff2
0012
fff3
0006
fff4
0002
000b
ffeb
fff5
fffb
fffd
0016
0012
000a
0006
ffff
000e
0015
0007
000a
fff8
0000
ffff
0010
0002
000d
fffc
fffa
0004
ffef
0004
0001
ffea
fff7
0000
0003
fff2
fffa
0018
0004
0009
0008
fff8
fff6
0005
fff3
0004
0004
000a
fff7
ffff
0004
0007
fffc
0003
fff3
fffe
fff3
0001
0008
0006
fff0
fffc
fff6
fff1
0012
fff4
0006
fff4
0003
000b
ffeb
fff6
fffb
fffe
0016
0012
000a
0006
ffff
000d
0014
0007
0009
fff9
0001
fffe
000f
0002
000c
fffb
fffb
0004
ffef
0004
0000
ffeb
fff8
0001
0004
fff2
fffb
0017
0004
0008
0008
fff8
fff7
0004
fff4
0003
0004
000a
fff7
fffe
0004
0007
fffd
0002
fff2
ffff
fff3
0001
0008
0006
fff0
fffc
fff7
fff1
0011
fff5
0006
fff4
0003
000b
ffec
fff7
fffb
fffe
0015
0012
000a
0006
ffff
000c
0014
0006
0008
fff9
0001
fffd
000e
0001
000b
fffb
fffb
0003
ffef
0004
ffff
ffeb
fff8
0000
0003
fff2
fffb
0015
0003
0007
0007
fff8
fff7
0003
fff3
0002
0004
0009
fff7
fffd
0003
0007
fffc
0001
fff2
fffe
fff3
0001
0007
0005
fff0
fffc
fff7
fff0
0010
fff4
0005
fff4
0003
000a
ffec
fff7
fffb
fffe
0014
0011
0009
0006
fffe
000b
0013
0005
0008
fff9
0001
fffc
000e
0001
000a
fffb
fffc
0003
fff0
0004
ffff
ffec
fff8
0000
0003
fff2
fffb
0015
0003
0006
0007
fff8
fff8
0003
fff4
0002
0004
000a
fff7
fffd
0004
0007
fffd
0001
fff2
ffff
fff3
0001
0006
0006
fff1
fffc
fff8
fff0
000f
fff5
0005
fff4
0004
000a
ffec
fff7
fffb
fffe
0013
0011
0009
0006
fffe
000a
0012
0005
0008
fffa
0002
fffc
000f
0002
000a
fffb
fffd
0003
fff0
0004
ffff
ffed
fff9
0001
0004
fff3
fffc
0014
0004
0006
0007
fff8
fff9
0003
fff4
0002
0004
000a
fff8
fffe
0004
0007
fffd
0001
fff2
ffff
fff4
0002
0006
0006
fff2
fffd
fff9
fff0
000f
fff5
0006
fff5
0004
000a
ffed
fff8
fffc
fffe
0013
0011
0009
0007
fffe
000a
0012
0005
0008
fffa
0002
fffc
000e
0002
0009
fffb
fffd
0003
fff1
0004
ffff
ffed
fff9
0001
0004
fff3
fffd
0013
0004
0005
0007
fff8
fffa
0003
fff5
0002
0004
000a
fff8
fffe
0004
0007
fffd
0000
fff2
ffff
fff4
0002
0006
0006
fff2
fffd
fff9
fff0
000f
fff6
0006
fff5
0005
000b
ffed
fff9
fffc
fffe
0013
0011
0009
0007
fffe
000a
0012
0005
0008
fffb
0003
fffc
000f
0002
000a
fffb
fffe
0004
fff2
0004
0000
ffee
fffa
0001
0004
fff4
fffe
0013
0004
0005
0007
fff9
fffb
0004
fff5
0003
0005
000b
fff9
fffe
0005
0008
fffe
0001
fff3
0000
fff5
0002
0006
0006
fff3
fffe
fffa
fff1
000f
fff7
0006
fff6
0006
000b
ffee
fffa
fffc
ffff
0013
0011
0009
0008
ffff
000a
0012
0005
0008
fffb
0003
fffc
000e
0002
0009
fffb
fffe
0003
fff2
0004
ffff
ffef
fffa
0001
0004
fff4
fffe
0013
0004
0005
0007
fff9
fffb
0003
fff5
0002
0005
000a
fff9
fffe
0005
0008
fffe
0000
fff3
0000
fff5
0002
0006
0006
fff3
fffd
fffa
fff1
000f
fff7
0006
fff6
0006
000b
ffee
fffa
fffc
ffff
0012
0010
0008
0007
ffff
0009
0011
0005
0007
fffb
0002
fffb
000e
0002
0008
fffb
fffe
0002
fff1
0004
ffff
ffef
fffa
0001
0004
fff4
fffe
0012
0003
0004
0006
fff8
fffc
0003
fff5
0002
0004
000a
fff8
fffe
0005
0007
fffd
0000
fff2
ffff
fff4
0002
0005
0006
fff3
fffd
fffa
fff0
000e
fff7
0006
fff5
0006
000a
ffee
fffa
fffc
fffe
0011
0010
0008
0007
fffe
0009
0010
0004
0007
fffb
0002
fffb
000e
0002
0008
fffb
ffff
0002
fff2
0004
fffe
ffef
fffa
0001
0004
fff4
ffff
0011
0003
0004
0006
fff9
fffc
0003
fff5
0001
0004
000a
fff9
fffe
0005
0007
fffd
0000
fff3
ffff
fff4
0002
0005
0006
fff4
fffd
fffa
fff0
000d
fff7
0006
fff5
0006
000a
ffef
fffa
fffc
ffff
0011
0010
0007
0007
fffe
0008
0010
0004
0007
fffc
0002
fffb
000e
0002
0008
fffb
ffff
0002
fff2
0004
fffe
fff0
fffa
0001
0004
fff4
ffff
0011
0003
0003
0006
fff9
fffd
0003
fff5
0001
0005
000a
fff9
fffe
0005
0008
fffe
ffff
fff3
ffff
fff5
0002
0005
0006
fff4
fffe
fffa
fff0
000d
fff7
0006
fff6
0006
000a
ffef
fffa
fffc
ffff
0011
0010
0007
0007
ffff
0008
0010
0004
0007
fffb
0002
fffa
000d
0002
0007
fffb
ffff
0002
fff2
0004
fffe
fff0
fffa
0001
0004
fff4
ffff
0010
0003
0003
0006
fff9
fffd
0003
fff5
0001
0004
000a
fff9
fffe
0005
0007
fffd
ffff
fff3
ffff
fff5
0002
0004
0006
fff4
fffe
fffb
fff0
000d
fff7
0006
fff6
0006
000a
fff0
fffb
fffc
ffff
0010
000f
0007
0007
fffe
0008
000f
0004
0006
fffb
0002
fffa
000d
0002
0007
fffa
ffff
0002
fff2
0003
fffe
fff0
fffa
0001
0004
fff5
ffff
000f
0003
0003
0005
fff9
fffd
0002
fff5
0001
0004
000a
fff9
fffd
0005
0007
fffd
ffff
fff3
ffff
fff5
0001
0004
0005
fff4
fffe
fffb
fff0
000c
fff7
0006
fff6
0006
000a
fff0
fffb
fffc
ffff
0010
000f
0007
0007
fffe
0007
000f
0003
0006
fffc
0002
fffa
000d
0002
0007
fffa
0000
0002
fff2
0003
fffe
fff0
fffb
0002
0004
fff5
0000
000f
0003
0003
0005
fff9
fffe
0002
fff5
0001
0004
000a
fff9
fffd
0005
0007
fffd
ffff
fff3
ffff
fff5
0001
0004
0005
fff5
fffe
fffb
fff1
000c
fff7
0006
fff6
0006
000a
fff0
fffb
fffd
ffff
0010
000f
0007
0007
fffe
0007
000f
0003
0006
fffc
0003
fffa
000d
0002
0007
fffb
0000
0002
fff3
0004
fffe
fff1
fffb
0002
0004
fff5
0000
000f
0003
0003
0005
fff9
fffe
0002
fff6
0001
0005
000a
fffa
fffe
0005
0008
fffe
ffff
fff4
0000
fff5
0002
0004
0006
fff5
fffe
fffb
fff1
000c
fff8
0006
fff6
0007
000a
fff1
fffc
fffd
ffff
0010
000f
0007
0008
ffff
0007
000f
0003
0007
fffd
0003
fffa
000d
0003
0007
fffb
0001
0002
fff3
0004
fffe
fff1
fffc
0002
0004
fff6
0001
000f
0003
0003
0005
fffa
ffff
0003
fff6
0001
0005
000a
fffa
fffe
0006
0008
fffe
ffff
fff4
0000
fff5
0002
0004
0006
fff6
ffff
fffc
fff1
000c
fff8
0006
fff7
0007
000a
fff1
fffc
fffd
ffff
0010
000f
0007
0008
ffff
0007
000f
0004
0006
fffc
0003
fffa
000c
0002
0006
fffa
0000
0001
fff2
0003
fffe
fff1
fffb
0002
0004
fff5
0001
000e
0003
0002
0005
fff9
ffff
0002
fff6
0000
0005
000a
fffa
fffd
0005
0007
fffe
ffff
fff4
ffff
fff5
0002
0003
0005
fff6
fffe
fffb
fff1
000b
fff8
0005
fff6
0007
000a
fff1
fffc
fffd
ffff
000f
000f
0006
0008
fffe
0006
000e
0003
0006
fffc
0002
fff9
000c
0002
0006
fffa
0000
0001
fff2
0003
fffd
fff1
fffb
0002
0003
fff5
0001
000d
0002
0001
0005
fff9
ffff
0002
fff6
0000
0004
0009
fffa
fffd
0005
0007
fffe
ffff
fff4
ffff
fff5
0001
0003
0005
fff6
fffe
fffb
fff1
000b
fff8
0005
fff6
0007
0009
fff1
fffc
fffd
ffff
000e
000e
0006
0007
fffe
0006
000e
0003
0005
fffc
0002
fff9
000c
0002
0006
fffa
0000
0001
fff2
0003
fffd
fff1
fffb
0002
0003
fff5
0001
000d
0002
0001
0004
fff9
ffff
0002
fff6
0000
0004
0009
fffa
fffd
0005
0007
fffe
fffe
fff4
ffff
fff5
0001
0003
0005
fff6
fffe
fffb
fff1
000b
fff8
0005
fff6
0007
0009
fff2
fffc
fffd
ffff
000e
000e
0005
0007
fffe
0006
000d
0003
0005
fffd
0003
fff9
000c
0002
0006
fffa
0000
0001
fff3
0003
fffe
fff2
fffc
0002
0004
fff5
0001
000d
0002
0001
0005
fff9
0000
0002
fff6
0000
0004
0009
fffb
fffd
0005
0007
fffe
fffe
fff4
ffff
fff5
0001
0003
0005
fff6
fffe
fffc
fff1
000b
fff9
0006
fff6
0007
0009
fff2
fffc
fffd
ffff
000e
000e
0005
0008
fffe
0006
000d
0003
0005
fffd
0003
fff9
000c
0003
0006
fffb
0001
0001
fff3
0003
fffe
fff2
fffc
0002
0004
fff6
0002
000d
0002
0001
0005
fff9
0000
0002
fff6
0000
0005
000a
fffb
fffe
0006
0007
fffe
ffff
fff5
ffff
fff5
0002
0003
0005
fff6
ffff
fffc
fff1
000b
fff9
0006
fff7
0008
0009
fff3
fffd
fffd
ffff
000e
000e
0005
0008
ffff
0006
000d
0003
0005
fffd
0003
fff9
000c
0003
0006
fffb
0001
0000
fff3
0003
fffd
fff2
fffc
0002
0004
fff6
0002
000c
0002
0001
0005
fff9
0000
0002
fff6
0000
0004
0009
fffb
fffe
0006
0007
fffe
ffff
fff5
ffff
fff5
0001
0003
0005
fff7
ffff
fffc
fff1
000a
fff9
0006
fff7
0007
0009
fff3
fffd
fffd
ffff
000e
000e
0005
0008
ffff
0005
000d
0002
0005
fffc
0002
fff8
000b
0002
0005
fffa
0000
0000
fff3
0002
fffd
fff2
fffb
0001
0003
fff5
0001
000b
0002
0000
0004
fff9
0000
0001
fff6
ffff
0004
0009
fffa
fffd
0005
0007
fffd
fffe
fff4
fffe
fff5
0001
0002
0005
fff6
fffe
fffc
fff1
0009
fff9
0005
fff6
0007
0008
fff2
fffc
fffd
fffe
000d
000d
0004
0007
fffe
0005
000c
0002
0005
fffd
0003
fff9
000b
0003
0005
fffa
0001
0000
fff3
0003
fffd
fff3
fffc
0002
0004
fff6
0002
000b
0002
0000
0004
fffa
0001
0002
fff6
0000
0005
0009
fffb
fffe
0006
0007
fffe
fffe
fff5
ffff
fff5
0001
0002
0005
fff7
ffff
fffc
fff1
000a
fff9
0006
fff7
0008
0009
fff3
fffd
fffe
ffff
000d
000d
0005
0008
ffff
0005
000c
0002
0005
fffe
0003
fff9
000c
0003
0006
fffb
0001
0001
fff4
0003
fffe
fff3
fffd
0002
0004
fff6
0003
000b
0002
0001
0004
fffa
0002
0002
fff7
0000
0005
000a
fffc
fffe
0006
0007
ffff
ffff
fff5
ffff
fff5
0002
0003
0005
fff7
ffff
fffd
fff2
000a
fffa
0006
fff7
0008
0009
fff4
fffe
fffe
ffff
000d
000e
0005
0008
ffff
0005
000d
0003
0005
fffd
0003
fff9
000b
0003
0005
fffb
0001
0000
fff4
0003
fffd
fff3
fffd
0002
0004
fff6
0003
000b
0002
0000
0004
fffa
0002
0002
fff7
0000
0005
0009
fffc
fffe
0006
0007
ffff
fffe
fff5
ffff
fff5
0002
0002
0005
fff7
ffff
fffd
fff2
000a
fffa
0006
fff7
0008
0009
fff4
fffe
fffe
ffff
000d
000d
0005
0008
ffff
0005
000c
0002
0005
fffd
0003
fff9
000b
0003
0005
fffb
0001
0000
fff4
0003
fffd
fff3
fffd
0002
0004
fff7
0003
000b
0002
0000
0004
fffa
0002
0002
fff7
0000
0005
0009
fffc
fffe
0006
0007
ffff
ffff
fff6
ffff
fff5
0002
0002
0005
fff8
ffff
fffd
fff2
0009
fffa
0006
fff7
0008
0009
fff4
fffe
fffe
ffff
000d
000d
0004
0008
ffff
0005
000c
0002
0004
fffd
0002
fff9
000b
0003
0005
fffa
0001
0000
fff3
0002
fffd
fff3
fffc
0002
0003
fff6
0003
000a
0002
ffff
0004
fff9
0002
0001
fff7
ffff
0004
0009
fffc
fffe
0006
0007
fffe
fffe
fff5
ffff
fff5
0001
0002
0005
fff7
ffff
fffc
fff2
0009
fffa
0005
fff7
0008
0009
fff4
fffe
fffe
ffff
000c
000d
0004
0008
ffff
0004
000b
0002
0004
fffd
0002
fff8
000a
0002
0004
fffa
0001
ffff
fff3
0002
fffd
fff3
fffc
0002
0003
fff6
0003
000a
0001
ffff
0003
fff9
0002
0001
fff6
ffff
0004
0008
fffc
fffd
0006
0006
fffe
fffe
fff5
fffe
fff5
0001
0001
0004
fff7
ffff
fffc
fff1
0009
fffa
0005
fff7
0007
0008
fff4
fffe
fffd
ffff
000c
000c
0004
0008
fffe
0004
000b
0001
0004
fffd
0002
fff8
000a
0002
0004
fffa
0001
ffff
fff3
0002
fffc
fff3
fffc
0002
0003
fff6
0003
0009
0001
ffff
0003
fff9
0002
0001
fff6
ffff
0004
0008
fffc
fffd
0005
0006
fffe
fffe
fff5
fffe
fff5
0001
0001
0004
fff7
ffff
fffc
fff1
0008
fffa
0005
fff7
0007
0008
fff4
fffe
fffd
ffff
000b
000c
0003
0008
fffe
0003
000b
0001
0004
fffe
0002
fff9
000a
0003
0004
fffb
0001
0000
fff4
0003
fffd
fff4
fffd
0002
0003
fff7
0003
0009
0002
ffff
0004
fffa
0003
0001
fff7
ffff
0005
0009
fffc
fffe
0006
0007
ffff
fffe
fff6
ffff
fff5
0001
0002
0005
fff8
0000
fffd
fff2
0009
fffa
0006
fff7
0008
0008
fff5
ffff
fffe
ffff
000c
000d
0004
0008
ffff
0004
000b
0002
0003
fffd
0001
fff8
0009
0002
0004
fffa
0001
ffff
fff3
0002
fffc
fff3
fffc
0001
0003
fff6
0002
0008
0001
fffe
0003
fff9
0002
0000
fff6
fffe
0004
0008
fffc
fffd
0005
0006
fffe
fffd
fff5
fffe
fff4
0000
0001
0004
fff7
ffff
fffc
fff1
0008
fffa
0005
fff6
0007
0008
fff4
fffe
fffd
fffe
000b
000c
0003
0007
fffe
0003
000a
0000
0004
fffe
0002
fff8
000a
0003
0004
fffb
0001
ffff
fff4
0002
fffd
fff4
fffd
0002
0003
fff7
0004
0009
0002
ffff
0004
fffa
0003
0001
fff7
ffff
0005
0009
fffd
fffe
0006
0007
ffff
fffe
fff6
ffff
fff5
0001
0001
0005
fff8
0000
fffd
fff2
0008
fffb
0005
fff7
0008
0008
fff5
ffff
fffe
ffff
000b
000c
0003
0008
ffff
0004
000b
0001
0004
fffd
0002
fff8
0009
0003
0004
fffa
0001
ffff
fff3
0002
fffc
fff4
fffd
0002
0003
fff7
0003
0008
0001
fffe
0003
fff9
0002
0001
fff7
fffe
0004
0008
fffc
fffd
0005
0006
fffe
fffe
fff6
fffe
fff5
0001
0001
0004
fff8
ffff
fffc
fff2
0007
fffa
0005
fff7
0007
0008
fff5
fffe
fffd
ffff
000b
000c
0003
0008
fffe
0003
000a
0001
0004
fffe
0002
fff9
000a
0003
0004
fffb
0002
0000
fff4
0002
fffd
fff5
fffd
0003
0004
fff7
0004
0009
0002
ffff
0004
fffa
0003
0001
fff7
ffff
0005
0009
fffd
fffe
0006
0007
ffff
fffe
fff7
ffff
fff5
0001
0001
0005
fff9
0000
fffd
fff3
0008
fffb
0006
fff8
0008
0008
fff6
ffff
fffe
ffff
000b
000c
0003
0008
ffff
0004
000b
0001
0004
fffe
0002
fff9
000a
0003
0004
fffb
0002
ffff
fff4
0002
fffd
fff5
fffe
0003
0004
fff8
0004
0008
0002
ffff
0004
fffa
0004
0001
fff7
ffff
0005
0009
fffd
fffe
0006
0007
ffff
fffe
fff7
ffff
fff6
0001
0001
0005
fff9
0000
fffd
fff3
0008
fffb
0005
fff8
0008
0008
fff6
0000
fffe
ffff
000b
000c
0003
0008
ffff
0003
000a
0001
0004
fffe
0002
fff8
0009
0003
0004
fffb
0001
ffff
fff4
0002
fffc
fff5
fffd
0002
0003
fff7
0004
0008
0001
fffe
0003
fffa
0003
0001
fff7
ffff
0004
0008
fffd
fffe
0006
0006
ffff
fffe
fff7
fffe
fff5
0001
0001
0004
fff9
0000
fffd
fff2
0007
fffb
0005
fff7
0008
0008
fff6
ffff
fffe
ffff
000a
000c
0003
0008
ffff
0003
000a
0001
0004
fffe
0002
fff8
0009
0003
0004
fffb
0002
ffff
fff4
0002
fffd
fff5
fffe
0002
0003
fff8
0004
0008
0002
fffe
0003
fffa
0004
0001
fff8
ffff
0005
0008
fffd
fffe
0006
0006
ffff
fffe
fff7
ffff
fff6
0001
0001
0005
fff9
0000
fffd
fff3
0007
fffb
0006
fff8
0008
0008
fff7
0000
fffe
ffff
000b
000c
0003
0008
ffff
0003
000a
0001
0004
fffe
0002
fff8
0009
0003
0004
fffb
0002
ffff
fff4
0002
fffd
fff5
fffe
0002
0003
fff8
0004
0008
0002
fffe
0003
fffa
0004
0001
fff8
ffff
0005
0008
fffd
fffe
0006
0006
ffff
fffe
fff7
ffff
fff6
0001
0001
0005
fff9
0000
fffd
fff3
0007
fffb
0005
fff8
0008
0008
fff7
0000
fffe
ffff
000a
000c
0003
0008
ffff
0003
000a
0001
0004
ffff
0003
fff9
000a
0004
0004
fffc
0002
ffff
fff5
0003
fffd
fff6
fffe
0003
0004
fff8
0005
0008
0002
fffe
0004
fffb
0005
0001
fff8
ffff
0005
0009
fffe
ffff
0007
0007
0000
ffff
fff8
ffff
fff6
0002
0001
0005
fffa
0001
fffe
fff3
0008
fffc
0006
fff8
0009
0008
fff8
0001
ffff
0000
000b
000c
0003
0009
0000
0003
000a
0001
0004
fffe
0002
fff8
0009
0003
0004
fffb
0002
ffff
fff4
0002
fffd
fff5
fffe
0002
0003
fff8
0004
0007
0001
fffe
0003
fffa
0004
0001
fff8
ffff
0004
0008
fffe
fffe
0006
0006
ffff
fffe
fff7
ffff
fff5
0001
0001
0004
fff9
0000
fffd
fff3
0007
fffb
0005
fff8
0008
0008
fff7
0000
fffe
ffff
000a
000c
0003
0008
ffff
0003
0009
0001
0004
fffe
0002
fff8
0009
0003
0004
fffb
0002
ffff
fff5
0002
fffd
fff5
fffe
0002
0003
fff8
0005
0007
0001
fffe
0003
fffa
0005
0001
fff8
ffff
0004
0008
fffe
fffe
0006
0006
ffff
fffe
fff7
ffff
fff5
0001
0000
0004
fffa
0001
fffd
fff3
0007
fffb
0005
fff8
0008
0008
fff7
0000
fffe
ffff
000a
000b
0003
0008
ffff
0003
0009
0001
0004
fffe
0002
fff8
0009
0003
0003
fffb
0002
ffff
fff4
0002
fffc
fff5
fffe
0002
0003
fff8
0005
0007
0001
fffd
0003
fffa
0005
0001
fff8
ffff
0004
0008
fffe
fffe
0006
0006
ffff
fffe
fff7
fffe
fff5
0001
0000
0004
fffa
0000
fffd
fff3
0007
fffb
0005
fff8
0008
0008
fff7
0000
fffe
ffff
000a
000b
0002
0008
ffff
0002
0009
0000
0004
ffff
0002
fff8
0009
0004
0004
fffb
0002
ffff
fff5
0002
fffd
fff6
fffe
0003
0003
fff8
0005
0007
0002
fffe
0003
fffb
0005
0001
fff8
ffff
0005
0008
fffe
ffff
0006
0006
0000
fffe
fff8
ffff
fff6
0001
0001
0005
fffa
0001
fffe
fff4
0007
fffc
0006
fff8
0008
0008
fff8
0001
fffe
0000
000a
000b
0003
0008
ffff
0003
0009
0001
0003
fffe
0002
fff8
0008
0003
0003
fffb
0002
fffe
fff5
0002
fffc
fff6
fffe
0002
0003
fff8
0005
0006
0001
fffd
0003
fffa
0005
0001
fff8
fffe
0004
0008
fffe
fffe
0006
0006
ffff
fffe
fff8
fffe
fff5
0001
0000
0004
fffa
0001
fffd
fff3
0006
fffb
0005
fff8
0008
0007
fff8
0000
fffe
ffff
0009
000b
0002
0008
ffff
0002
0009
0000
0004
fffe
0002
fff8
0008
0003
0004
fffb
0002
ffff
fff5
0002
fffd
fff6
fffe
0003
0003
fff8
0005
0006
0001
fffd
0003
fffa
0005
0001
fff8
ffff
0004
0008
fffe
fffe
0006
0006
0000
fffe
fff8
ffff
fff6
0001
0000
0004
fffa
0001
fffe
fff4
0006
fffc
0005
fff8
0008
0008
fff8
0001
fffe
ffff
0009
000b
0002
0008
ffff
0002
0009
0001
0004
ffff
0002
fff8
0008
0004
0004
fffb
0002
ffff
fff5
0002
fffd
fff6
fffe
0003
0003
fff9
0005
0006
0002
fffd
0003
fffb
0006
0001
fff8
ffff
0005
0008
fffe
ffff
0006
0006
0000
fffe
fff8
ffff
fff6
0001
0000
0005
fffa
0001
fffe
fff4
0006
fffc
0006
fff8
0008
0008
fff9
0001
fffe
0000
0009
000b
0002
0008
ffff
0002
0009
0001
0003
fffe
0001
fff8
0008
0003
0003
fffb
0002
fffe
fff5
0002
fffc
fff6
fffe
0002
0003
fff8
0005
0006
0001
fffd
0003
fffa
0005
0000
fff8
fffe
0004
0008
fffe
fffe
0006
0005
ffff
fffe
fff8
fffe
fff5
0001
0000
0004
fffa
0001
fffd
fff3
0006
fffc
0005
fff8
0008
0007
fff8
0001
fffe
ffff
0009
000b
0002
0008
ffff
0002
0008
0000
0003
ffff
0002
fff8
0008
0004
0003
fffb
0002
ffff
fff5
0002
fffd
fff7
fffe
0003
0003
fff9
0005
0006
0001
fffd
0003
fffb
0006
0001
fff8
ffff
0005
0008
ffff
ffff
0006
0006
0000
fffe
fff8
ffff
fff6
0001
0000
0004
fffb
0001
fffe
fff4
0006
fffc
0005
fff9
0008
0008
fff9
0001
fffe
ffff
0009
000b
0002
0008
ffff
0002
0008
0000
0003
ffff
0002
fff8
0008
0003
0003
fffb
0002
fffe
fff5
0002
fffc
fff7
fffe
0003
0003
fff9
0005
0006
0001
fffd
0003
fffb
0006
0001
fff8
ffff
0004
0008
ffff
ffff
0006
0006
0000
fffe
fff9
ffff
fff6
0001
0000
0004
fffb
0001
fffe
fff4
0006
fffc
0005
fff8
0008
0007
fff9
0001
fffe
ffff
0009
000b
0002
0008
ffff
0002
0008
0000
0003
fffe
0001
fff8
0008
0003
0003
fffb
0002
fffe
fff5
0001
fffc
fff6
fffe
0002
0003
fff8
0005
0005
0001
fffc
0003
fffa
0006
0000
fff8
fffe
0004
0007
fffe
fffe
0006
0005
ffff
fffe
fff8
fffe
fff5
0001
0000
0004
fffa
0001
fffd
fff4
0005
fffc
0005
fff8
0008
0007
fff9
0001
fffe
ffff
0008
000a
0002
0008
ffff
0001
0008
0000
0003
ffff
0001
fff8
0007
0003
0003
fffb
0002
fffe
fff5
0002
fffc
fff7
fffe
0002
0003
fff9
0005
0005
0001
fffc
0003
fffb
0006
0000
fff8
fffe
0004
0007
ffff
fffe
0006
0005
ffff
fffe
fff8
fffe
fff6
0001
0000
0004
fffb
0001
fffe
fff4
0005
fffc
0005
fff8
0008
0007
fff9
0001
fffe
ffff
0008
000a
0002
0008
ffff
0002
0007
0000
0003
fffe
0001
fff8
0007
0003
0003
fffb
0001
fffe
fff5
0001
fffc
fff6
fffe
0002
0003
fff8
0005
0005
0001
fffc
0002
fffa
0006
0000
fff8
fffe
0004
0007
ffff
fffe
0006
0005
ffff
fffe
fff8
fffe
fff5
0000
0000
0004
fffa
0001
fffd
fff4
0005
fffc
0005
fff8
0008
0007
fff9
0001
fffe
ffff
0008
000a
0001
0008
ffff
0001
0007
0000
0003
ffff
0001
fff8
0007
0003
0003
fffb
0002
fffe
fff5
0001
fffc
fff7
fffe
0002
0003
fff9
0006
0005
0001
fffc
0003
fffb
0006
0000
fff8
fffe
0004
0007
ffff
ffff
0006
0005
0000
fffe
fff9
fffe
fff6
0001
0000
0004
fffb
0001
fffe
fff4
0005
fffc
0005
fff8
0008
0007
fffa
0002
fffe
ffff
0008
000a
0001
0008
ffff
0001
0007
0000
0004
ffff
0002
fff9
0008
0004
0003
fffc
0002
ffff
fff6
0002
fffd
fff8
ffff
0003
0003
fff9
0006
0005
0002
fffd
0003
fffb
0007
0001
fff9
ffff
0005
0008
0000
ffff
0007
0006
0000
ffff
fffa
ffff
fff6
0001
0000
0005
fffc
0002
fffe
fff5
0006
fffd
0006
fff9
0008
0008
fffa
0002
ffff
0000
0009
000b
0002
0009
0000
0002
0008
0001
0003
fffe
0001
fff8
0007
0003
0003
fffb
0002
fffe
fff5
0001
fffc
fff7
fffe
0002
0003
fff9
0005
0004
0001
fffc
0002
fffb
0006
0000
fff8
fffe
0004
0007
ffff
fffe
0006
0005
0000
fffe
fff9
fffe
fff6
0001
ffff
0004
fffb
0001
fffd
fff4
0005
fffc
0005
fff8
0008
0007
fffa
0002
fffe
ffff
0008
000a
0001
0008
ffff
0001
0007
0000
0003
ffff
0002
fff8
0007
0004
0003
fffc
0002
fffe
fff6
0002
fffc
fff7
ffff
0003
0003
fff9
0006
0004
0001
fffc
0003
fffb
0007
0001
fff9
fffe
0005
0007
ffff
ffff
0006
0005
0000
fffe
fff9
fffe
fff6
0001
0000
0004
fffc
0002
fffe
fff5
0005
fffd
0005
fff9
0008
0007
fffa
0002
fffe
0000
0008
000a
0002
0008
0000
0001
0007
0000
0003
fffe
0001
fff8
0007
0003
0002
fffb
0001
fffd
fff5
0001
fffc
fff7
fffe
0002
0002
fff9
0005
0004
0001
fffb
0002
fffa
0006
0000
fff8
fffe
0004
0007
ffff
fffe
0006
0004
ffff
fffe
fff9
fffe
fff6
0000
ffff
0004
fffb
0001
fffd
fff4
0004
fffc
0005
fff8
0007
0007
fffa
0002
fffe
ffff
0007
000a
0001
0008
ffff
0001
0006
ffff
0003
ffff
0001
fff8
0007
0003
0003
fffc
0002
fffe
fff6
0002
fffc
fff8
ffff
0003
0003
fff9
0006
0004
0001
fffc
0003
fffb
0007
0000
fff9
fffe
0004
0007
0000
ffff
0006
0005
0000
fffe
fff9
fffe
fff6
0001
0000
0004
fffc
0002
fffe
fff5
0005
fffd
0005
fff9
0008
0007
fffb
0002
fffe
ffff
0008
000a
0001
0008
0000
0001
0007
0000
0003
ffff
0001
fff8
0007
0003
0003
fffc
0002
fffe
fff6
0001
fffc
fff8
ffff
0002
0003
fff9
0006
0004
0001
fffc
0003
fffb
0007
0000
fff9
fffe
0004
0007
0000
ffff
0006
0005
0000
fffe
fff9
fffe
fff6
0001
0000
0004
fffc
0002
fffe
fff5
0004
fffd
0005
fff9
0008
0007
fffb
0002
fffe
ffff
0008
000a
0001
0008
ffff
0001
0007
0000
0003
ffff
0002
fff8
0007
0004
0003
fffc
0002
fffe
fff6
0002
fffc
fff8
ffff
0003
0003
fffa
0006
0004
0001
fffc
0003
fffb
0007
0001
fff9
fffe
0005
0007
0000
ffff
0006
0005
0000
fffe
fffa
ffff
fff6
0001
0000
0004
fffc
0002
fffe
fff5
0005
fffd
0005
fff9
0008
0007
fffb
0002
fffe
0000
0008
000a
0001
0008
0000
0001
0007
0000
0003
ffff
0001
fff8
0007
0004
0003
fffc
0002
fffe
fff6
0001
fffc
fff8
ffff
0003
0003
fffa
0006
0004
0001
fffc
0003
fffb
0007
0000
fff9
fffe
0004
0007
0000
ffff
0006
0005
0000
fffe
fffa
fffe
fff6
0001
0000
0004
fffc
0002
fffe
fff5
0004
fffd
0005
fff9
0008
0007
fffb
0002
fffe
ffff
0007
000a
0001
0008
0000
0001
0006
0000
0003
ffff
0001
fff8
0006
0003
0003
fffb
0002
fffe
fff6
0001
fffc
fff8
ffff
0002
0003
fff9
0006
0003
0001
fffb
0002
fffb
0007
0000
fff9
fffe
0004
0007
0000
ffff
0006
0005
0000
fffe
fffa
fffe
fff6
0001
ffff
0004
fffc
0002
fffe
fff5
0004
fffd
0005
fff9
0008
0007
fffb
0002
fffe
ffff
0007
000a
0001
0008
0000
0001
0006
ffff
0003
ffff
0002
fff8
0007
0004
0003
fffc
0002
fffe
fff6
0002
fffc
fff8
ffff
0003
0003
fffa
0007
0003
0001
fffc
0003
fffb
0008
0001
fff9
fffe
0005
0007
0000
ffff
0007
0005
0000
fffe
fffa
ffff
fff6
0001
0000
0004
fffc
0002
fffe
fff5
0004
fffd
0005
fff9
0008
0007
fffc
0003
ffff
0000
0007
000a
0001
0008
0000
0001
0006
0000
0003
ffff
0001
fff8
0006
0003
0002
fffb
0002
fffd
fff6
0001
fffc
fff8
ffff
0002
0002
fff9
0006
0003
0001
fffb
0002
fffb
0007
0000
fff9
fffe
0004
0007
0000
ffff
0006
0004
0000
fffe
fffa
fffe
fff6
0000
ffff
0004
fffc
0002
fffe
fff5
0004
fffd
0005
fff9
0007
0006
fffb
0002
fffe
ffff
0007
0009
0001
0008
ffff
0000
0006
ffff
0003
0000
0002
fff8
0007
0004
0003
fffc
0002
fffe
fff6
0002
fffc
fff9
ffff
0003
0003
fffa
0007
0003
0001
fffc
0003
fffb
0008
0000
fff9
fffe
0005
0007
0000
ffff
0006
0005
0001
fffe
fffa
fffe
fff7
0001
0000
0004
fffc
0002
fffe
fff6
0004
fffd
0005
fff9
0008
0007
fffc
0003
ffff
0000
0007
000a
0001
0008
0000
0001
0006
0000
0003
ffff
0001
fff8
0006
0004
0003
fffc
0002
fffe
fff6
0001
fffc
fff8
ffff
0003
0003
fffa
0007
0003
0001
fffc
0003
fffb
0008
0000
fff9
fffe
0004
0007
0000
ffff
0006
0005
0001
fffe
fffa
fffe
fff6
0001
0000
0004
fffc
0002
fffe
fff6
0004
fffd
0005
fff9
0008
0007
fffc
0003
ffff
0000
0007
000a
0001
0008
0000
0001
0006
0000
0003
ffff
0001
fff8
0006
0003
0002
fffc
0002
fffd
fff6
0001
fffc
fff8
ffff
0002
0003
fffa
0006
0003
0001
fffb
0002
fffb
0008
0000
fff9
fffe
0004
0007
0000
ffff
0006
0004
0000
fffe
fffa
fffe
fff6
0000
ffff
0004
fffc
0002
fffe
fff5
0003
fffd
0005
fff9
0008
0006
fffc
0003
fffe
ffff
0007
0009
0001
0008
0000
0000
0006
ffff
0003
0000
0001
fff8
0006
0004
0003
fffc
0002
fffe
fff6
0001
fffc
fff9
ffff
0003
0003
fffa
0007
0003
0001
fffb
0003
fffb
0008
0000
fff9
fffe
0005
0007
0000
ffff
0006
0004
0000
fffe
fffa
fffe
fff6
0001
ffff
0004
fffd
0002
fffe
fff6
0004
fffd
0005
fff9
0008
0006
fffc
0003
ffff
0000
0007
0009
0001
0008
0000
0001
0006
0000
0002
ffff
0001
fff8
0005
0003
0002
fffb
0001
fffd
fff6
0001
fffc
fff8
ffff
0002
0002
fffa
0006
0002
0001
fffb
0002
fffb
0008
0000
fff9
fffe
0004
0006
0000
ffff
0006
0004
0000
fffe
fffa
fffe
fff6
0000
ffff
0003
fffc
0002
fffe
fff5
0003
fffd
0005
fff9
0007
0006
fffc
0003
fffe
ffff
0006
0009
0000
0007
ffff
0000
0005
ffff
0003
ffff
0001
fff8
0006
0003
0002
fffc
0002
fffd
fff6
0001
fffc
fff9
ffff
0002
0002
fffa
0007
0002
0001
fffb
0002
fffb
0008
0000
fff9
fffe
0004
0006
0000
ffff
0006
0004
0000
fffe
fffa
fffe
fff6
0001
ffff
0004
fffd
0002
fffe
fff6
0003
fffd
0005
fff9
0008
0006
fffc
0003
fffe
ffff
0006
0009
0001
0008
0000
0000
0005
ffff
0002
ffff
0000
fff7
0005
0003
0002
fffb
0001
fffd
fff6
0000
fffb
fff8
fffe
0002
0002
fff9
0006
0001
0000
fffa
0002
fffb
0007
ffff
fff9
fffd
0004
0006
0000
ffff
0006
0003
0000
fffd
fffa
fffd
fff6
0000
fffe
0003
fffc
0001
fffd
fff5
0002
fffd
0004
fff9
0007
0005
fffc
0003
fffe
ffff
0006
0008
0000
0007
ffff
0000
0005
fffe
0002
ffff
0001
fff8
0006
0003
0002
fffc
0002
fffd
fff6
0001
fffc
fff9
ffff
0002
0002
fffa
0007
0002
0001
fffb
0002
fffb
0008
0000
fff9
fffe
0004
0006
0000
ffff
0006
0004
0000
fffe
fffb
fffe
fff6
0000
ffff
0004
fffd
0002
fffe
fff6
0003
fffd
0005
fff9
0007
0006
fffd
0003
fffe
ffff
0006
0009
0000
0008
0000
0000
0005
ffff
0002
ffff
0001
fff8
0005
0003
0002
fffc
0001
fffd
fff6
0001
fffc
fff9
ffff
0002
0002
fffa
0006
0001
0000
fffa
0002
fffb
0008
0000
fff9
fffd
0004
0006
0000
ffff
0006
0004
0000
fffe
fffa
fffe
fff6
0000
ffff
0003
fffc
0002
fffe
fff6
0002
fffd
0004
fff9
0007
0006
fffc
0003
fffe
ffff
0006
0008
0000
0007
ffff
0000
0005
ffff
0003
0000
0002
fff9
0006
0004
0003
fffd
0002
fffe
fff7
0002
fffd
fffa
0000
0003
0003
fffb
0007
0002
0001
fffb
0003
fffc
0009
0000
fffa
fffe
0005
0007
0001
0000
0007
0005
0001
ffff
fffc
ffff
fff7
0001
ffff
0004
fffe
0003
ffff
fff7
0003
fffe
0006
fffa
0008
0007
fffe
0004
ffff
0000
0006
0009
0001
0008
0001
0001
0005
0000
0002
ffff
0000
fff7
0005
0003
0002
fffb
0001
fffc
fff6
0000
fffb
fff9
fffe
0002
0002
fffa
0006
0001
0000
fffa
0002
fffb
0008
ffff
fff9
fffd
0004
0005
0000
ffff
0006
0003
0000
fffd
fffa
fffd
fff6
0000
fffe
0003
fffc
0002
fffe
fff6
0002
fffd
0004
fff9
0007
0005
fffc
0003
fffe
ffff
0005
0008
0000
0007
ffff
ffff
0004
fffe
0003
0000
0001
fff8
0005
0004
0002
fffc
0002
fffd
fff7
0001
fffc
fff9
ffff
0003
0003
fffb
0007
0002
0001
fffb
0002
fffc
0009
0000
fffa
fffe
0004
0006
0001
0000
0006
0004
0001
fffe
fffb
fffe
fff7
0001
ffff
0004
fffd
0002
fffe
fff6
0003
fffe
0005
fffa
0008
0006
fffd
0004
ffff
0000
0006
0009
0000
0008
0000
0000
0005
ffff
0002
0000
0001
fff8
0005
0003
0002
fffc
0002
fffd
fff7
0001
fffc
fff9
ffff
0002
0002
fffb
0007
0001
0001
fffa
0002
fffc
0009
0000
fffa
fffe
0004
0006
0001
ffff
0006
0004
0001
fffe
fffb
fffe
fff7
0000
ffff
0004
fffd
0002
fffe
fff6
0003
fffe
0005
fff9
0007
0006
fffd
0004
ffff
ffff
0006
0009
0000
0008
0000
0000
0005
ffff
0002
0000
0001
fff8
0005
0004
0002
fffc
0002
fffd
fff7
0001
fffc
fff9
ffff
0002
0002
fffb
0007
0001
0001
fffb
0002
fffc
0009
0000
fffa
fffe
0004
0006
0001
0000
0006
0004
0001
fffe
fffb
fffe
fff7
0001
ffff
0004
fffe
0003
fffe
fff7
0003
fffe
0005
fffa
0007
0006
fffe
0004
ffff
0000
0006
0009
0000
0008
0000
0000
0005
ffff
0003
0000
0001
fff8
0005
0004
0002
fffc
0002
fffd
fff7
0001
fffc
fffa
ffff
0002
0002
fffb
0007
0001
0001
fffa
0002
fffc
0009
0000
fffa
fffe
0004
0006
0001
0000
0006
0004
0001
fffe
fffb
fffe
fff7
0000
ffff
0004
fffd
0003
fffe
fff7
0002
fffe
0005
fffa
0008
0006
fffe
0004
ffff
ffff
0006
0009
0000
0008
0000
0000
0005
ffff
0002
ffff
0000
fff8
0005
0003
0002
fffc
0001
fffd
fff6
0000
fffc
fff9
ffff
0002
0002
fffa
0007
0001
0000
fffa
0002
fffb
0009
ffff
fffa
fffd
0004
0005
0000
ffff
0006
0003
0000
fffe
fffb
fffe
fff6
0000
fffe
0003
fffd
0002
fffe
fff6
0002
fffd
0005
fff9
0007
0005
fffd
0004
fffe
ffff
0005
0008
0000
0007
0000
ffff
0004
ffff
0002
ffff
0000
fff8
0004
0003
0002
fffc
0001
fffd
fff6
0000
fffb
fff9
ffff
0002
0002
fffa
0007
0000
0000
fffa
0002
fffb
0009
ffff
fffa
fffd
0004
0005
0001
ffff
0006
0003
0000
fffe
fffb
fffd
fff6
0000
fffe
0003
fffd
0002
fffe
fff6
0002
fffd
0004
fff9
0007
0005
fffd
0003
fffe
ffff
0005
0008
0000
0007
0000
ffff
0004
fffe
0002
ffff
0000
fff8
0005
0003
0002
fffc
0001
fffc
fff7
0000
fffb
fff9
ffff
0002
0002
fffa
0007
0000
0000
fffa
0002
fffb
0009
ffff
fffa
fffd
0004
0005
0001
ffff
0006
0003
0000
fffe
fffb
fffe
fff6
0000
fffe
0003
fffd
0002
fffe
fff6
0002
fffe
0004
fff9
0007
0005
fffe
0004
fffe
ffff
0005
0008
0000
0007
0000
ffff
0004
fffe
0002
0000
0001
fff8
0005
0003
0002
fffc
0002
fffd
fff7
0001
fffc
fffa
ffff
0002
0002
fffb
0007
0001
0001
fffa
0002
fffc
0009
0000
fffa
fffe
0004
0006
0001
0000
0006
0003
0001
fffe
fffc
fffe
fff7
0000
ffff
0003
fffe
0003
fffe
fff7
0002
fffe
0005
fffa
0007
0005
fffe
0004
ffff
ffff
0005
0008
0000
0007
0000
0000
0004
ffff
0002
0000
0001
fff8
0005
0003
0002
fffc
0001
fffd
fff7
0001
fffc
fffa
ffff
0002
0002
fffb
0007
0000
0001
fffa
0002
fffc
0009
0000
fffa
fffd
0004
0006
0001
0000
0006
0003
0001
fffe
fffc
fffe
fff7
0000
ffff
0003
fffe
0003
fffe
fff7
0002
fffe
0005
fffa
0007
0005
fffe
0004
ffff
ffff
0005
0008
0000
0007
0000
ffff
0004
ffff
0003
0000
0001
fff9
0005
0004
0003
fffd
0002
fffd
fff8
0001
fffc
fffb
0000
0003
0003
fffb
0008
0001
0001
fffb
0003
fffc
000a
0000
fffb
fffe
0005
0006
0002
0000
0007
0004
0001
ffff
fffc
fffe
fff7
0001
ffff
0004
fffe
0003
ffff
fff7
0002
ffff
0005
fffa
0008
0006
ffff
0005
ffff
0000
0005
0009
0000
0008
0001
0000
0004
ffff
0002
ffff
0000
fff8
0004
0003
0002
fffc
0001
fffc
fff7
0000
fffb
fffa
ffff
0002
0002
fffb
0007
0000
0000
fffa
0002
fffb
0009
ffff
fffa
fffd
0004
0005
0001
ffff
0006
0003
0000
fffe
fffb
fffd
fff7
0000
fffe
0003
fffe
0002
fffe
fff7
0001
fffe
0004
fff9
0007
0005
fffe
0004
fffe
ffff
0004
0008
ffff
0007
0000
ffff
0003
fffe
0002
ffff
0000
fff8
0004
0003
0002
fffc
0001
fffc
fff7
0000
fffb
fffa
ffff
0002
0002
fffb
0007
0000
0000
fffa
0002
fffb
0009
ffff
fffa
fffd
0004
0005
0001
ffff
0006
0003
0000
fffe
fffc
fffd
fff6
0000
fffe
0003
fffe
0002
fffe
fff7
0001
fffe
0004
fff9
0007
0005
fffe
0004
fffe
ffff
0004
0008
ffff
0007
0000
ffff
0003
fffe
0002
ffff
0000
fff8
0004
0003
0002
fffc
0001
fffc
fff7
0000
fffb
fffa
ffff
0002
0002
fffb
0007
0000
0000
fff9
0002
fffb
0009
ffff
fffa
fffd
0004
0005
0001
ffff
0006
0003
0001
fffe
fffc
fffd
fff7
0000
fffe
0003
fffe
0002
fffe
fff7
0001
fffe
0004
fffa
0007
0005
fffe
0004
fffe
ffff
0004
0008
ffff
0007
0000
ffff
0003
fffe
0002
0000
0001
fff8
0004
0003
0002
fffd
0001
fffd
fff7
0001
fffc
fffa
ffff
0002
0002
fffb
0008
0000
0001
fffa
0002
fffc
000a
ffff
fffa
fffd
0004
0005
0001
0000
0006
0003
0001
fffe
fffc
fffe
fff7
0000
fffe
0003
fffe
0003
fffe
fff7
0001
fffe
0005
fffa
0007
0005
ffff
0004
ffff
ffff
0005
0008
0000
0007
0000
ffff
0003
fffe
0002
ffff
0000
fff8
0004
0003
0002
fffc
0001
fffc
fff7
0000
fffb
fffa
ffff
0002
0001
fffb
0007
ffff
0000
fff9
0001
fffb
0009
ffff
fffa
fffd
0004
0005
0001
0000
0006
0003
0001
fffe
fffc
fffd
fff7
0000
fffe
0003
fffe
0003
fffe
fff7
0001
fffe
0004
fff9
0007
0005
ffff
0004
fffe
ffff
0004
0007
ffff
0007
0000
ffff
0003
fffe
0002
0000
0001
fff8
0004
0004
0002
fffd
0002
fffd
fff7
0001
fffc
fffb
0000
0002
0002
fffb
0008
0000
0001
fffa
0002
fffc
000a
0000
fffb
fffe
0004
0005
0002
0000
0006
0003
0001
fffe
fffd
fffe
fff7
0000
ffff
0003
fffe
0003
fffe
fff8
0001
fffe
0005
fffa
0007
0005
ffff
0005
ffff
0000
0005
0008
0000
0007
0001
ffff
0003
ffff
0002
0000
0001
fff8
0004
0004
0002
fffd
0002
fffd
fff8
0001
fffc
fffb
0000
0002
0002
fffc
0008
0000
0001
fffa
0002
fffc
000a
0000
fffb
fffe
0004
0005
0002
0000
0006
0003
0001
fffe
fffd
fffe
fff7
0000
ffff
0003
ffff
0003
ffff
fff8
0001
fffe
0005
fffa
0007
0005
ffff
0005
ffff
0000
0004
0008
0000
0007
0001
ffff
0003
ffff
0001
ffff
0000
fff8
0003
0003
0001
fffc
0001
fffc
fff7
0000
fffb
fffa
ffff
0002
0001
fffb
0007
ffff
0000
fff9
0001
fffb
0009
ffff
fffa
fffd
0004
0004
0001
ffff
0005
0002
0000
fffe
fffc
fffd
fff6
0000
fffe
0003
fffe
0002
fffe
fff7
0000
fffe
0004
fff9
0006
0004
ffff
0004
fffe
ffff
0004
0007
ffff
0006
0000
ffff
0002
fffe
0002
0000
0001
fff8
0004
0004
0002
fffd
0001
fffd
fff8
0001
fffc
fffb
0000
0002
0002
fffb
0008
ffff
0001
fffa
0002
fffc
000a
ffff
fffb
fffe
0004
0005
0002
0000
0006
0003
0001
fffe
fffd
fffe
fff7
0000
fffe
0003
ffff
0003
ffff
fff8
0001
ffff
0005
fffa
0007
0005
0000
0005
ffff
0000
0004
0008
0000
0007
0000
ffff
0003
ffff
0002
0000
0000
fff8
0004
0003
0002
fffc
0001
fffc
fff7
0000
fffc
fffa
ffff
0002
0002
fffb
0007
ffff
0000
fff9
0002
fffc
000a
ffff
fffa
fffd
0004
0005
0001
0000
0006
0003
0001
fffe
fffc
fffd
fff7
0000
fffe
0003
fffe
0003
fffe
fff7
0001
fffe
0004
fffa
0006
0005
ffff
0005
ffff
ffff
0004
0007
ffff
0007
0000
ffff
0003
fffe
0002
0000
0000
fff8
0004
0003
0002
fffd
0001
fffc
fff8
0000
fffc
fffb
ffff
0002
0002
fffb
0008
ffff
0000
fff9
0002
fffc
000a
ffff
fffb
fffd
0004
0005
0002
0000
0006
0003
0001
fffe
fffd
fffe
fff7
0000
fffe
0003
ffff
0003
fffe
fff8
0001
fffe
0005
fffa
0007
0005
0000
0005
ffff
ffff
0004
0007
ffff
0007
0000
ffff
0003
fffe
0002
0000
0001
fff8
0004
0003
0002
fffd
0001
fffc
fff8
0001
fffc
fffb
0000
0002
0002
fffc
0008
ffff
0001
fffa
0002
fffc
000a
ffff
fffb
fffd
0004
0005
0002
0000
0006
0003
0001
fffe
fffd
fffe
fff7
0000
fffe
0003
ffff
0003
ffff
fff8
0001
ffff
0005
fffa
0007
0005
0000
0005
ffff
ffff
0004
0007
0000
0007
0000
ffff
0003
fffe
0002
0000
0001
fff9
0004
0004
0002
fffd
0002
fffd
fff8
0001
fffc
fffb
0000
0003
0002
fffc
0008
ffff
0001
fffa
0002
fffd
000b
0000
fffb
fffe
0005
0005
0002
0000
0006
0003
0002
ffff
fffd
fffe
fff8
0001
ffff
0004
ffff
0004
ffff
fff8
0001
ffff
0005
fffb
0007
0005
0000
0005
ffff
0000
0004
0008
0000
0007
0001
ffff
0003
ffff
0001
ffff
0000
fff7
0003
0003
0001
fffc
0001
fffc
fff7
0000
fffb
fffa
ffff
0002
0001
fffb
0007
fffe
0000
fff9
0001
fffb
000a
fffe
fffa
fffd
0003
0004
0001
ffff
0005
0002
0001
fffd
fffc
fffd
fff7
ffff
fffd
0002
fffe
0003
fffe
fff7
0000
fffe
0004
fff9
0006
0004
ffff
0004
fffe
ffff
0003
0006
ffff
0006
0000
fffe
0002
fffe
0002
0000
0000
fff8
0003
0003
0002
fffc
0001
fffc
fff8
0000
fffb
fffb
ffff
0002
0001
fffb
0008
fffe
0000
fff9
0002
fffc
000a
ffff
fffb
fffd
0004
0004
0002
0000
0006
0002
0001
fffe
fffd
fffd
fff7
0000
fffe
0003
ffff
0003
fffe
fff8
0000
fffe
0004
fffa
0006
0004
0000
0005
ffff
ffff
0003
0007
ffff
0007
0000
ffff
0002
fffe
0002
0000
0000
fff8
0003
0003
0002
fffd
0001
fffc
fff8
0000
fffc
fffb
ffff
0002
0001
fffc
0008
fffe
0000
fff9
0002
fffc
000a
ffff
fffb
fffd
0004
0005
0002
0000
0006
0002
0001
fffe
fffd
fffe
fff7
0000
fffe
0003
ffff
0003
fffe
fff8
0000
ffff
0004
fffa
0006
0004
0000
0005
ffff
ffff
0003
0007
ffff
0007
0000
ffff
0002
fffe
0002
0000
0000
fff8
0003
0003
0002
fffd
0001
fffc
fff8
0000
fffc
fffb
ffff
0002
0001
fffc
0008
fffe
0000
fff9
0002
fffc
000a
ffff
fffb
fffd
0004
0004
0002
0000
0006
0002
0001
fffe
fffd
fffe
fff7
0000
fffe
0003
ffff
0003
fffe
fff8
0000
fffe
0004
fffa
0006
0004
0000
0005
ffff
ffff
0003
0007
ffff
0007
0000
ffff
0002
fffe
0002
0000
0000
fff8
0003
0003
0002
fffd
0001
fffc
fff8
0000
fffc
fffc
0000
0002
0002
fffc
0008
fffe
0000
fff9
0002
fffc
000b
ffff
fffb
fffd
0004
0005
0002
0000
0006
0002
0001
fffe
fffd
fffe
fff8
0000
fffe
0003
ffff
0003
fffe
fff8
0000
ffff
0005
fffa
0006
0004
0000
0005
ffff
ffff
0003
0007
ffff
0007
0000
ffff
0002
fffe
0001
0000
0000
fff8
0003
0003
0001
fffc
0001
fffc
fff8
0000
fffb
fffb
ffff
0002
0001
fffb
0007
fffe
0000
fff9
0001
fffc
000a
ffff
fffb
fffd
0004
0004
0001
0000
0006
0002
0001
fffe
fffd
fffd
fff7
0000
fffd
0002
ffff
0003
fffe
fff8
0000
fffe
0004
fffa
0006
0004
0000
0005
ffff
ffff
0003
0006
ffff
0006
0000
fffe
0002
fffe
0002
0001
0001
fff9
0004
0004
0002
fffd
0002
fffd
fff9
0001
fffc
fffc
0000
0002
0002
fffc
0008
ffff
0001
fffa
0002
fffd
000b
ffff
fffc
fffe
0004
0005
0002
0001
0006
0003
0002
fffe
fffe
fffe
fff8
0000
fffe
0003
ffff
0004
ffff
fff9
0000
ffff
0005
fffb
0007
0005
0001
0006
ffff
0000
0004
0007
0000
0007
0001
ffff
0002
fffe
0002
0001
0001
fff9
0003
0004
0002
fffd
0002
fffd
fff9
0001
fffc
fffc
0000
0003
0002
fffc
0008
ffff
0001
fffa
0002
fffd
000b
ffff
fffc
fffe
0004
0005
0002
0001
0006
0003
0002
ffff
fffe
fffe
fff8
0000
fffe
0003
0000
0004
ffff
fff9
0000
ffff
0005
fffb
0007
0005
0001
0006
0000
0000
0004
0007
0000
0007
0001
ffff
0002
fffe
0002
0000
0000
fff8
0003
0003
0002
fffd
0001
fffc
fff8
0000
fffc
fffc
0000
0002
0001
fffc
0008
fffe
0000
fff9
0002
fffc
000b
ffff
fffb
fffd
0004
0004
0002
0000
0006
0002
0001
fffe
fffd
fffe
fff8
0000
fffe
0003
ffff
0003
ffff
fff9
0000
ffff
0004
fffa
0006
0004
0001
0006
ffff
ffff
0003
0007
ffff
0007
0001
ffff
0002
fffe
0002
0000
0000
fff9
0003
0004
0002
fffd
0001
fffc
fff9
0001
fffc
fffc
0000
0002
0002
fffc
0008
fffe
0000
fff9
0002
fffd
000b
ffff
fffc
fffd
0004
0005
0002
0001
0006
0002
0002
fffe
fffe
fffe
fff8
0000
fffe
0003
0000
0004
ffff
fff9
0000
ffff
0005
fffb
0006
0004
0001
0006
0000
0000
0003
0007
ffff
0007
0001
ffff
0002
fffe
0001
0000
0000
fff8
0002
0003
0001
fffd
0001
fffc
fff8
0000
fffb
fffb
ffff
0002
0001
fffc
0008
fffd
0000
fff9
0001
fffc
000a
ffff
fffb
fffd
0004
0004
0002
0000
0005
0002
0001
fffe
fffd
fffd
fff7
0000
fffd
0002
ffff
0003
fffe
fff8
ffff
ffff
0004
fffa
0006
0004
0001
0005
ffff
ffff
0003
0006
ffff
0006
0000
fffe
0001
fffe
0002
0000
0000
fff8
0003
0003
0002
fffd
0001
fffc
fff8
0000
fffc
fffc
0000
0002
0001
fffc
0008
fffe
0000
fff9
0002
fffc
000b
ffff
fffb
fffd
0004
0004
0002
0000
0006
0002
0001
fffe
fffe
fffe
fff8
0000
fffe
0003
ffff
0004
ffff
fff9
0000
ffff
0004
fffb
0006
0004
0001
0006
ffff
ffff
0003
0006
ffff
0007
0001
fffe
0002
fffe
0001
0000
0000
fff8
0002
0003
0001
fffd
0001
fffc
fff8
0000
fffb
fffc
ffff
0002
0001
fffc
0008
fffd
0000
fff9
0001
fffc
000b
fffe
fffb
fffd
0004
0004
0002
0000
0006
0002
0001
fffe
fffd
fffd
fff8
ffff
fffd
0002
ffff
0003
fffe
fff8
ffff
ffff
0004
fffa
0006
0004
0001
0005
ffff
ffff
0002
0006
ffff
0006
0000
fffe
0001
fffe
0002
0001
0001
fff9
0003
0004
0002
fffd
0002
fffc
fff9
0001
fffc
fffc
0000
0002
0002
fffd
0008
fffe
0001
fff9
0002
fffd
000b
ffff
fffc
fffe
0004
0004
0003
0001
0006
0002
0002
ffff
fffe
fffe
fff8
0000
fffe
0003
0000
0004
ffff
fff9
0000
0000
0005
fffb
0006
0004
0002
0006
0000
0000
0003
0007
ffff
0007
0001
ffff
0002
fffe
0002
0000
0000
fff9
0003
0003
0002
fffd
0001
fffc
fff9
0000
fffc
fffc
0000
0002
0001
fffc
0008
fffe
0000
fff9
0002
fffd
000b
ffff
fffc
fffd
0004
0004
0002
0000
0006
0002
0002
fffe
fffe
fffe
fff8
0000
fffe
0003
0000
0004
ffff
fff9
0000
ffff
0004
fffb
0006
0004
0002
0006
ffff
ffff
0003
0006
ffff
0007
0001
fffe
0002
fffe
0001
0000
0000
fff8
0002
0003
0001
fffd
0001
fffc
fff8
0000
fffb
fffc
ffff
0002
0001
fffc
0008
fffd
0000
fff9
0001
fffc
000b
ffff
fffb
fffd
0004
0004
0002
0000
0006
0002
0001
fffe
fffe
fffd
fff8
0000
fffd
0003
ffff
0003
fffe
fff9
ffff
ffff
0004
fffa
0006
0004
0001
0005
ffff
ffff
0002
0006
ffff
0006
0000
fffe
0001
fffe
0001
0000
0000
fff8
0002
0003
0001
fffd
0001
fffc
fff9
0000
fffc
fffc
ffff
0002
0001
fffc
0008
fffd
0000
fff9
0001
fffc
000b
ffff
fffb
fffd
0004
0004
0002
0000
0006
0002
0001
fffe
fffe
fffd
fff8
0000
fffe
0003
0000
0003
fffe
fff9
ffff
ffff
0004
fffa
0006
0004
0001
0005
ffff
ffff
0002
0006
ffff
0006
0001
fffe
0001
fffe
0001
0000
0000
fff8
0002
0003
0001
fffd
0001
fffc
fff9
0000
fffc
fffc
0000
0002
0001
fffc
0008
fffd
0000
fff9
0001
fffc
000b
ffff
fffb
fffd
0004
0004
0002
0000
0006
0002
0001
fffe
fffe
fffe
fff8
0000
fffd
0003
0000
0004
fffe
fff9
ffff
ffff
0004
fffb
0006
0004
0002
0006
ffff
ffff
0002
0006
ffff
0006
0001
fffe
0001
fffe
0002
0000
0000
fff9
0002
0003
0002
fffd
0001
fffc
fff9
0000
fffc
fffc
0000
0002
0001
fffd
0008
fffd
0000
fff9
0002
fffd
000b
ffff
fffc
fffd
0004
0004
0002
0001
0006
0002
0002
fffe
fffe
fffe
fff8
0000
fffe
0003
0000
0004
ffff
fff9
ffff
ffff
0004
fffb
0006
0004
0002
0006
ffff
ffff
0002
0006
ffff
0006
0001
fffe
0001
fffe
0002
0001
0001
fff9
0003
0004
0002
fffe
0002
fffc
fff9
0001
fffc
fffd
0000
0002
0002
fffd
0009
fffe
0001
fff9
0002
fffd
000c
ffff
fffc
fffe
0004
0004
0003
0001
0006
0002
0002
ffff
ffff
fffe
fff9
0000
fffe
0003
0000
0004
ffff
fffa
0000
0000
0005
fffb
0006
0004
0002
0006
0000
0000
0003
0006
ffff
0007
0001
ffff
0002
fffe
0002
0001
0001
fff9
0003
0004
0002
fffe
0002
fffc
fffa
0001
fffc
fffd
0000
0002
0002
fffd
0009
fffe
0001
fff9
0002
fffd
000c
ffff
fffc
fffe
0005
0004
0003
0001
0006
0002
0002
ffff
ffff
fffe
fff9
0001
fffe
0003
0001
0004
ffff
fffa
0000
0000
0005
fffb
0006
0004
0003
0006
0000
0000
0003
0006
0000
0007
0001
ffff
0002
fffe
0002
0001
0000
fff9
0003
0004
0002
fffe
0001
fffc
fffa
0001
fffc
fffd
0000
0002
0002
fffd
0009
fffd
0001
fff9
0002
fffd
000c
ffff
fffc
fffd
0004
0004
0003
0001
0006
0002
0002
ffff
ffff
fffe
fff9
0000
fffe
0003
0000
0004
ffff
fffa
ffff
0000
0005
fffb
0006
0004
0002
0006
0000
0000
0002
0006
ffff
0007
0001
ffff
0001
fffe
0001
0000
ffff
fff8
0001
0002
0001
fffd
0000
fffb
fff8
ffff
fffb
fffc
ffff
0001
0000
fffc
0007
fffc
ffff
fff8
0001
fffc
000b
fffe
fffb
fffc
0003
0003
0002
0000
0005
0001
0001
fffe
fffe
fffd
fff8
ffff
fffd
0002
ffff
0003
fffe
fff9
fffe
ffff
0003
fffa
0005
0003
0001
0005
ffff
ffff
0001
0005
fffe
0006
0000
fffd
0000
fffd
0001
0000
0000
fff8
0002
0003
0001
fffd
0001
fffb
fff9
0000
fffb
fffc
ffff
0001
0001
fffc
0008
fffc
0000
fff8
0001
fffc
000b
fffe
fffb
fffd
0004
0003
0002
0000
0005
0001
0001
fffe
fffe
fffd
fff8
ffff
fffd
0002
0000
0003
fffe
fff9
ffff
ffff
0004
fffb
0005
0003
0002
0006
ffff
ffff
0002
0005
fffe
0006
0000
fffe
0000
fffd
0001
0000
0000
fff9
0002
0003
0001
fffd
0001
fffc
fff9
0000
fffc
fffd
0000
0002
0001
fffd
0008
fffc
0000
fff9
0001
fffd
000b
fffe
fffc
fffd
0004
0003
0002
0001
0006
0002
0002
fffe
fffe
fffe
fff8
0000
fffd
0003
0000
0004
fffe
fffa
ffff
ffff
0004
fffb
0005
0003
0002
0006
ffff
ffff
0002
0005
ffff
0006
0001
fffe
0001
fffe
0001
0000
0000
fff8
0002
0003
0001
fffd
0001
fffc
fff9
0000
fffb
fffc
ffff
0002
0001
fffc
0008
fffc
0000
fff9
0001
fffc
000b
fffe
fffc
fffd
0004
0003
0002
0000
0005
0001
0001
fffe
fffe
fffd
fff8
ffff
fffd
0002
0000
0004
fffe
fff9
fffe
ffff
0004
fffb
0005
0003
0002
0006
ffff
ffff
0001
0005
fffe
0006
0000
fffe
0000
fffd
0002
0001
0000
fff9
0002
0004
0002
fffe
0001
fffc
fffa
0000
fffc
fffd
0000
0002
0001
fffd
0008
fffd
0000
fff9
0002
fffd
000c
ffff
fffc
fffd
0004
0004
0003
0001
0006
0002
0002
ffff
ffff
fffe
fff9
0000
fffe
0003
0000
0004
ffff
fffa
ffff
0000
0004
fffb
0006
0004
0003
0006
0000
0000
0002
0006
ffff
0006
0001
fffe
0001
fffe
0001
0000
0000
fff9
0002
0003
0001
fffd
0001
fffc
fff9
0000
fffc
fffd
0000
0002
0001
fffd
0008
fffc
0000
fff9
0001
fffd
000b
fffe
fffc
fffd
0004
0003
0002
0000
0006
0001
0002
fffe
ffff
fffd
fff8
0000
fffd
0002
0000
0004
fffe
fffa
ffff
ffff
0004
fffb
0005
0003
0002
0006
ffff
ffff
0001
0005
ffff
0006
0001
fffe
0000
fffd
0001
0000
0000
fff9
0002
0003
0001
fffd
0001
fffc
fff9
0000
fffb
fffd
0000
0002
0001
fffd
0008
fffc
0000
fff8
0001
fffd
000b
fffe
fffc
fffd
0004
0003
0002
0001
0005
0001
0002
fffe
ffff
fffd
fff8
ffff
fffd
0002
0000
0004
fffe
fffa
fffe
ffff
0004
fffb
0005
0003
0002
0006
ffff
ffff
0001
0005
ffff
0006
0001
fffe
0000
fffd
0001
0000
0000
fff8
0001
0003
0001
fffd
0000
fffb
fff9
0000
fffb
fffd
ffff
0001
0001
fffd
0008
fffc
0000
fff8
0001
fffc
000b
fffe
fffc
fffd
0004
0003
0002
0000
0005
0001
0002
fffe
fffe
fffd
fff8
ffff
fffd
0002
0000
0004
fffe
fffa
fffe
ffff
0004
fffb
0005
0003
0003
0006
ffff
ffff
0001
0005
fffe
0006
0001
fffd
0000
fffd
0002
0001
0001
fff9
0002
0004
0002
fffe
0001
fffc
fffa
0000
fffc
fffe
0000
0002
0002
fffe
0009
fffd
0001
fff9
0002
fffd
000c
ffff
fffd
fffe
0004
0004
0003
0001
0006
0002
0002
ffff
ffff
fffe
fff9
0000
fffe
0003
0001
0004
ffff
fffb
ffff
0000
0005
fffc
0006
0004
0003
0007
0000
0000
0002
0006
ffff
0007
0001
fffe
0001
fffe
0002
0001
0000
fff9
0002
0004
0002
fffe
0001
fffc
fffa
0000
fffc
fffd
0000
0002
0001
fffe
0009
fffd
0000
fff9
0002
fffd
000c
ffff
fffd
fffd
0004
0004
0003
0001
0006
0002
0002
ffff
ffff
fffe
fff9
0000
fffe
0003
0001
0004
ffff
fffb
ffff
0000
0004
fffc
0006
0004
0003
0007
0000
0000
0002
0006
ffff
0007
0001
fffe
0001
fffe
0002
0001
0000
fff9
0002
0004
0002
fffe
0001
fffc
fffa
0000
fffc
fffe
0000
0002
0001
fffe
0009
fffd
0000
fff9
0002
fffd
000c
ffff
fffd
fffd
0004
0004
0003
0001
0006
0002
0002
ffff
ffff
fffe
fff9
0000
fffe
0003
0001
0004
ffff
fffb
ffff
0000
0005
fffc
0006
0004
0004
0007
0000
0000
0002
0005
ffff
0007
0001
fffe
0001
fffe
0000
0000
ffff
fff8
0001
0002
0000
fffd
0000
fffb
fff9
ffff
fffb
fffc
ffff
0001
0000
fffc
0007
fffb
ffff
fff8
0001
fffc
000b
fffd
fffb
fffc
0003
0002
0002
0000
0005
0000
0001
fffd
fffe
fffd
fff8
ffff
fffc
0002
0000
0003
fffe
fff9
fffd
ffff
0003
fffa
0004
0002
0002
0005
ffff
fffe
0000
0004
fffe
0005
0000
fffd
ffff
fffc
0001
0000
ffff
fff9
0001
0003
0001
fffd
0000
fffb
fff9
ffff
fffb
fffd
ffff
0001
0000
fffd
0008
fffb
0000
fff8
0001
fffc
000b
fffe
fffc
fffc
0003
0002
0002
0000
0005
0001
0001
fffe
ffff
fffd
fff9
ffff
fffd
0002
0000
0004
fffe
fffa
fffe
ffff
0003
fffb
0005
0003
0003
0006
ffff
ffff
0001
0004
fffe
0006
0000
fffd
0000
fffd
0002
0001
0000
fff9
0002
0003
0002
fffe
0001
fffc
fffa
0000
fffc
fffe
0000
0002
0001
fffe
0008
fffc
0000
fff9
0002
fffd
000c
ffff
fffd
fffd
0004
0003
0003
0001
0006
0002
0002
ffff
ffff
fffe
fff9
0000
fffe
0003
0001
0004
ffff
fffb
fffe
0000
0004
fffc
0005
0003
0004
0007
0000
0000
0001
0005
ffff
0006
0001
fffe
0000
fffe
0001
0001
0000
fff9
0002
0003
0002
fffe
0001
fffc
fffa
0000
fffc
fffe
0000
0002
0001
fffe
0008
fffc
0000
fff9
0002
fffd
000c
ffff
fffd
fffd
0004
0003
0003
0001
0006
0001
0002
ffff
ffff
fffe
fff9
0000
fffe
0003
0001
0004
ffff
fffb
fffe
0000
0004
fffc
0005
0003
0004
0007
0000
0000
0001
0005
ffff
0006
0001
fffe
0000
fffe
0001
0001
0000
fff9
0001
0003
0001
fffe
0000
fffc
fffa
0000
fffc
fffd
0000
0002
0001
fffd
0008
fffb
0000
fff8
0001
fffd
000c
fffe
fffc
fffd
0004
0003
0003
0001
0005
0001
0002
fffe
ffff
fffd
fff9
ffff
fffd
0002
0001
0004
ffff
fffa
fffe
0000
0004
fffb
0005
0003
0003
0006
ffff
ffff
0001
0005
fffe
0006
0001
fffd
0000
fffd
0001
0000
ffff
fff9
0001
0003
0001
fffd
0000
fffb
fffa
ffff
fffb
fffd
ffff
0001
0000
fffd
0008
fffb
0000
fff8
0001
fffd
000b
fffe
fffc
fffd
0003
0002
0002
0000
0005
0001
0002
fffe
ffff
fffd
fff9
ffff
fffd
0002
0000
0004
fffe
fffa
fffe
0000
0004
fffb
0005
0002
0003
0006
ffff
ffff
0001
0004
fffe
0005
0001
fffd
ffff
fffd
0001
0001
0000
fff9
0001
0003
0001
fffe
0001
fffc
fffa
0000
fffc
fffe
0000
0002
0001
fffe
0008
fffc
0000
fff9
0002
fffd
000c
fffe
fffd
fffd
0004
0003
0003
0001
0006
0001
0002
ffff
0000
fffe
fff9
0000
fffd
0003
0001
0004
ffff
fffb
fffe
0000
0004
fffc
0005
0003
0004
0007
0000
0000
0001
0005
ffff
0006
0001
fffe
0000
fffd
0001
0001
0000
fff9
0001
0003
0001
fffe
0001
fffc
fffa
0000
fffc
fffe
0000
0002
0001
fffe
0008
fffb
0000
fff9
0002
fffd
000c
fffe
fffd
fffd
0004
0003
0003
0001
0006
0001
0002
ffff
ffff
fffe
fff9
0000
fffd
0002
0001
0004
ffff
fffb
fffe
0000
0004
fffb
0005
0003
0004
0007
0000
0000
0001
0004
ffff
0006
0001
fffe
0000
fffd
0001
0001
0000
fff9
0001
0003
0002
fffe
0001
fffc
fffa
0000
fffc
fffe
0000
0002
0001
fffe
0008
fffc
0000
fff9
0002
fffd
000c
fffe
fffd
fffd
0004
0003
0003
0001
0006
0001
0002
ffff
0000
fffe
fffa
0000
fffd
0003
0001
0004
ffff
fffb
fffe
0000
0004
fffc
0005
0003
0004
0007
0000
0000
0001
0005
ffff
0006
0001
fffe
0000
fffd
0001
0001
0000
fff9
0001
0003
0002
fffe
0001
fffc
fffa
0000
fffc
fffe
0000
0002
0001
fffe
0008
fffb
0000
fff9
0002
fffd
000c
fffe
fffd
fffd
0004
0003
0003
0001
0006
0001
0002
ffff
0000
fffe
fffa
0000
fffd
0002
0001
0004
ffff
fffb
fffe
0000
0004
fffc
0005
0003
0004
0007
0000
ffff
0001
0004
ffff
0006
0001
fffe
0000
fffd
0001
0001
0000
fffa
0001
0003
0002
fffe
0001
fffc
fffb
0000
fffc
fffe
0000
0002
0001
fffe
0008
fffb
0000
fff9
0002
fffd
000c
fffe
fffd
fffd
0004
0003
0003
0001
0006
0001
0002
ffff
0000
fffe
fffa
0000
fffd
0003
0001
0004
ffff
fffb
fffe
0000
0004
fffc
0005
0003
0004
0007
0000
0000
0001
0005
ffff
0006
0001
fffe
0000
fffe
0000
0000
ffff
fff9
0000
0002
0001
fffd
0000
fffb
fffa
ffff
fffb
fffd
ffff
0001
0000
fffd
0008
fffb
ffff
fff8
0001
fffd
000b
fffd
fffc
fffc
0003
0002
0002
0000
0005
0000
0001
fffe
ffff
fffd
fff9
ffff
fffd
0002
0001
0004
fffe
fffa
fffd
ffff
0003
fffb
0004
0002
0003
0006
ffff
ffff
0000
0004
fffe
0005
0000
fffd
ffff
fffd
0001
0001
0000
fff9
0001
0003
0002
fffe
0001
fffc
fffa
0000
fffc
fffe
0000
0002
0001
fffe
0008
fffb
0000
fff9
0002
fffd
000c
fffe
fffd
fffd
0004
0002
0003
0001
0005
0001
0002
ffff
0000
fffe
fffa
ffff
fffd
0002
0001
0004
ffff
fffb
fffe
0000
0004
fffc
0005
0003
0004
0007
0000
0000
0001
0004
ffff
0006
0001
fffe
ffff
fffd
0001
0001
0000
fff9
0001
0003
0001
fffe
0001
fffc
fffb
0000
fffc
fffe
0000
0002
0001
fffe
0008
fffb
0000
fff8
0002
fffd
000c
fffe
fffd
fffd
0004
0002
0003
0001
0005
0001
0002
ffff
0000
fffe
fffa
0000
fffd
0002
0001
0004
ffff
fffb
fffe
0000
0004
fffc
0005
0003
0004
0007
0000
0000
0000
0004
ffff
0006
0001
fffd
ffff
fffd
0001
0001
0000
fff9
0001
0003
0001
fffe
0000
fffc
fffa
0000
fffc
fffe
0000
0001
0000
fffe
0008
fffb
0000
fff8
0001
fffd
000c
fffe
fffd
fffd
0004
0002
0003
0001
0005
0001
0002
fffe
0000
fffd
fffa
ffff
fffd
0002
0001
0004
ffff
fffb
fffd
0000
0004
fffc
0004
0002
0004
0007
0000
ffff
0000
0004
fffe
0005
0001
fffd
ffff
fffd
0000
0001
ffff
fff9
0000
0003
0001
fffe
0000
fffb
fffa
ffff
fffc
fffe
ffff
0001
0000
fffd
0008
fffa
0000
fff8
0001
fffd
000c
fffe
fffd
fffd
0003
0002
0003
0001
0005
0000
0002
fffe
ffff
fffd
fff9
ffff
fffd
0002
0001
0004
fffe
fffb
fffd
0000
0003
fffb
0004
0002
0004
0006
ffff
ffff
0000
0004
fffe
0005
0001
fffd
ffff
fffd
0001
0001
0000
fffa
0001
0003
0002
fffe
0001
fffc
fffb
0000
fffc
fffe
0000
0002
0001
fffe
0008
fffb
0000
fff9
0002
fffe
000c
fffe
fffd
fffd
0004
0002
0003
0001
0006
0001
0002
ffff
0000
fffe
fffa
0000
fffd
0003
0002
0005
ffff
fffc
fffe
0001
0004
fffc
0005
0003
0005
0007
0000
0000
0001
0004
ffff
0006
0001
fffe
ffff
fffd
0001
0001
0000
fff9
0001
0003
0001
fffe
0000
fffc
fffb
0000
fffc
fffe
0000
0002
0000
fffe
0008
fffb
0000
fff9
0002
fffd
000c
fffe
fffd
fffd
0004
0002
0003
0001
0005
0001
0002
ffff
0000
fffe
fffa
0000
fffd
0002
0001
0004
ffff
fffb
fffd
0000
0004
fffc
0004
0002
0005
0007
0000
0000
0000
0004
fffe
0006
0001
fffd
ffff
fffd
0001
0001
0000
fff9
0000
0003
0001
fffe
0000
fffb
fffb
0000
fffc
fffe
0000
0002
0000
fffe
0008
fffb
0000
fff8
0001
fffd
000c
fffe
fffd
fffd
0004
0002
0003
0001
0005
0001
0002
fffe
0000
fffd
fffa
ffff
fffd
0002
0001
0004
ffff
fffb
fffd
0000
0004
fffc
0004
0002
0005
0007
0000
ffff
0000
0004
fffe
0005
0001
fffd
ffff
fffd
0001
0001
0000
fffa
0001
0003
0002
ffff
0001
fffc
fffb
0000
fffc
fffe
0000
0002
0001
fffe
0008
fffb
0000
fff9
0002
fffe
000c
fffe
fffd
fffd
0004
0002
0003
0001
0006
0001
0002
ffff
0000
fffe
fffa
0000
fffd
0002
0002
0005
ffff
fffc
fffd
0001
0004
fffc
0005
0003
0005
0007
0000
0000
0000
0004
ffff
0006
0002
fffe
ffff
fffd
0001
0001
0000
fff9
0000
0003
0001
fffe
0000
fffb
fffb
0000
fffc
fffe
0000
0001
0000
fffe
0008
fffa
0000
fff8
0001
fffd
000c
fffe
fffd
fffd
0003
0002
0003
0001
0005
0000
0002
fffe
0000
fffd
fffa
ffff
fffd
0002
0001
0004
ffff
fffb
fffd
0000
0003
fffc
0004
0002
0005
0007
0000
ffff
0000
0003
fffe
0005
0001
fffd
ffff
fffd
0001
0001
0000
fffa
0000
0003
0001
fffe
0000
fffc
fffb
0000
fffc
fffe
0000
0002
0000
fffe
0008
fffb
0000
fff8
0001
fffd
000c
fffe
fffd
fffd
0003
0002
0003
0001
0005
0001
0002
ffff
0000
fffe
fffa
0000
fffd
0002
0001
0004
ffff
fffc
fffd
0000
0004
fffc
0004
0002
0005
0007
0000
0000
0000
0004
ffff
0005
0001
fffd
ffff
fffd
0001
0001
0000
fffa
0000
0003
0001
fffe
0000
fffc
fffb
0000
fffc
fffe
0000
0001
0000
fffe
0008
fffa
0000
fff8
0002
fffd
000c
fffe
fffd
fffd
0004
0002
0003
0001
0005
0000
0002
ffff
0000
fffd
fffa
ffff
fffd
0002
0002
0004
ffff
fffc
fffd
0000
0004
fffc
0004
0002
0005
0007
0000
ffff
0000
0004
fffe
0005
0001
fffd
ffff
fffd
0001
0001
0000
fffa
0001
0003
0001
ffff
0000
fffc
fffb
0000
fffc
ffff
0000
0002
0000
fffe
0008
fffb
0000
fff9
0002
fffd
000c
fffe
fffd
fffd
0004
0002
0003
0001
0005
0001
0002
ffff
0000
fffe
fffa
0000
fffd
0002
0002
0004
ffff
fffc
fffd
0001
0004
fffc
0004
0002
0005
0007
0000
0000
0000
0004
fffe
0005
0001
fffd
ffff
fffd
0001
0001
0000
fffa
0000
0003
0001
fffe
0000
fffb
fffb
ffff
fffc
fffe
0000
0001
0000
fffe
0008
fffa
0000
fff8
0001
fffd
000c
fffe
fffd
fffd
0003
0002
0003
0001
0005
0000
0002
fffe
0000
fffd
fffa
ffff
fffd
0002
0001
0004
ffff
fffc
fffd
0000
0003
fffc
0004
0002
0005
0007
0000
ffff
0000
0003
fffe
0005
0001
fffd
fffe
fffd
0001
0002
0000
fffa
0001
0004
0002
ffff
0001
fffc
fffc
0000
fffc
ffff
0000
0002
0001
ffff
0008
fffb
0000
fff9
0002
fffe
000d
fffe
fffe
fffd
0004
0002
0003
0002
0006
0001
0003
ffff
0001
fffe
fffb
0000
fffe
0003
0002
0005
ffff
fffc
fffd
0001
0004
fffd
0005
0002
0006
0008
0001
0000
0000
0004
ffff
0006
0002
fffe
ffff
fffd
0001
0001
0000
fffa
0001
0003
0002
ffff
0001
fffc
fffc
0000
fffc
ffff
0000
0002
0001
ffff
0008
fffb
0000
fff9
0002
fffe
000c
fffe
fffe
fffd
0004
0002
0003
0001
0006
0001
0002
ffff
0001
fffe
fffb
0000
fffd
0002
0002
0005
ffff
fffc
fffd
0001
0004
fffc
0004
0002
0006
0007
0000
0000
0000
0004
ffff
0006
0002
fffd
ffff
fffd
0001
0001
0000
fffa
0000
0003
0001
ffff
0000
fffc
fffc
0000
fffc
ffff
0000
0002
0000
ffff
0008
fffa
0000
fff9
0002
fffe
000c
fffe
fffe
fffd
0004
0002
0003
0001
0005
0001
0002
ffff
0001
fffe
fffb
0000
fffd
0002
0002
0005
ffff
fffc
fffd
0001
0004
fffc
0004
0002
0006
0007
0000
0000
0000
0003
fffe
0005
0001
fffd
ffff
fffd
0000
0001
ffff
fffa
0000
0003
0001
fffe
0000
fffb
fffb
ffff
fffc
fffe
0000
0001
0000
fffe
0008
fffa
0000
fff8
0001
fffd
000c
fffe
fffd
fffd
0003
0001
0003
0001
0005
0000
0002
fffe
0000
fffd
fffa
ffff
fffd
0002
0002
0004
ffff
fffc
fffd
0000
0003
fffc
0004
0002
0005
0007
0000
ffff
ffff
0003
fffe
0005
0001
fffd
fffe
fffd
0000
0001
ffff
fff9
0000
0002
0001
fffe
0000
fffb
fffb
ffff
fffb
fffe
ffff
0001
0000
fffe
0007
fff9
ffff
fff8
0001
fffd
000c
fffd
fffd
fffc
0003
0001
0003
0001
0005
0000
0002
fffe
0000
fffd
fffa
ffff
fffc
0001
0001
0004
fffe
fffc
fffc
0000
0003
fffc
0003
0001
0005
0007
0000
ffff
ffff
0003
fffe
0005
0001
fffd
fffe
fffc
0001
0002
0000
fffb
0001
0004
0002
ffff
0001
fffc
fffc
0000
fffd
0000
0001
0002
0001
ffff
0009
fffb
0000
fff9
0002
fffe
000d
fffe
fffe
fffe
0004
0002
0004
0002
0006
0001
0003
ffff
0001
fffe
fffb
0000
fffe
0003
0003
0005
0000
fffd
fffe
0001
0004
fffd
0005
0002
0006
0008
0001
0000
0000
0004
ffff
0006
0002
fffe
ffff
fffe
0001
0002
0000
fffa
0000
0003
0002
ffff
0001
fffc
fffc
0000
fffd
ffff
0000
0002
0001
ffff
0008
fffa
0000
fff9
0002
fffe
000d
fffe
fffe
fffd
0004
0002
0004
0002
0006
0001
0003
ffff
0001
fffe
fffb
0000
fffd
0003
0002
0005
ffff
fffd
fffd
0001
0004
fffd
0004
0002
0006
0008
0001
0000
0000
0003
ffff
0006
0002
fffe
ffff
fffd
0001
0001
0000
fffa
0000
0003
0002
ffff
0000
fffc
fffc
0000
fffc
ffff
0000
0002
0000
ffff
0008
fffa
0000
fff9
0002
fffe
000c
fffe
fffe
fffd
0004
0002
0003
0001
0005
0001
0003
ffff
0001
fffe
fffb
0000
fffd
0002
0002
0005
ffff
fffd
fffd
0001
0004
fffd
0004
0002
0006
0007
0000
0000
0000
0003
ffff
0005
0002
fffd
fffe
fffd
0000
0001
ffff
fffa
0000
0003
0001
fffe
0000
fffb
fffb
ffff
fffc
ffff
0000
0001
0000
fffe
0008
fffa
ffff
fff8
0001
fffd
000c
fffd
fffd
fffd
0003
0001
0003
0001
0005
0000
0002
fffe
0001
fffd
fffb
ffff
fffd
0002
0002
0004
ffff
fffc
fffc
0001
0003
fffc
0003
0001
0006
0007
0000
ffff
ffff
0003
fffe
0005
0001
fffd
fffe
fffd
0001
0002
0000
fffa
0000
0003
0002
ffff
0001
fffc
fffc
0000
fffc
ffff
0001
0002
0001
ffff
0008
fffa
0000
fff9
0002
fffe
000d
fffe
fffe
fffd
0004
0002
0004
0002
0006
0001
0003
ffff
0001
fffe
fffb
0000
fffd
0002
0002
0005
ffff
fffd
fffd
0001
0004
fffd
0004
0002
0006
0008
0001
0000
0000
0003
ffff
0005
0002
fffd
ffff
fffd
0001
0002
0000
fffa
0000
0003
0001
ffff
0000
fffc
fffc
0000
fffc
ffff
0000
0002
0000
ffff
0008
fffa
0000
fff9
0002
fffe
000d
fffe
fffe
fffd
0004
0001
0003
0002
0005
0000
0003
ffff
0001
fffe
fffb
0000
fffd
0002
0002
0005
ffff
fffd
fffd
0001
0004
fffd
0004
0002
0006
0007
0000
0000
ffff
0003
fffe
0005
0002
fffd
fffe
fffd
0000
0001
0000
fffa
0000
0003
0001
ffff
0000
fffc
fffc
0000
fffc
ffff
0000
0001
0000
ffff
0008
fffa
0000
fff8
0001
fffd
000c
fffd
fffe
fffd
0003
0001
0003
0001
0005
0000
0002
ffff
0001
fffe
fffb
ffff
fffd
0002
0002
0004
ffff
fffc
fffd
0001
0003
fffc
0004
0002
0006
0007
0000
0000
ffff
0003
fffe
0005
0001
fffd
fffe
fffd
0000
0001
0000
fffa
0000
0003
0001
ffff
0000
fffc
fffc
0000
fffc
ffff
0000
0001
0000
ffff
0008
fffa
0000
fff8
0002
fffe
000c
fffd
fffe
fffd
0003
0001
0003
0001
0005
0000
0002
ffff
0001
fffd
fffb
ffff
fffd
0002
0002
0005
ffff
fffd
fffc
0001
0003
fffd
0003
0002
0006
0007
0000
0000
ffff
0003
fffe
0005
0002
fffd
fffe
fffd
0001
0002
0000
fffa
0000
0003
0001
ffff
0000
fffc
fffc
0000
fffc
ffff
0000
0001
0000
ffff
0008
fffa
0000
fff9
0002
fffe
000c
fffe
fffe
fffd
0004
0001
0003
0002
0005
0000
0003
ffff
0001
fffe
fffb
0000
fffd
0002
0002
0005
ffff
fffd
fffd
0001
0003
fffd
0004
0002
0006
0007
0000
0000
ffff
0003
fffe
0005
0002
fffd
fffe
fffd
0000
0001
ffff
fffa
ffff
0002
0001
fffe
0000
fffb
fffc
ffff
fffc
ffff
0000
0001
ffff
fffe
0007
fff9
ffff
fff8
0001
fffd
000c
fffd
fffd
fffc
0003
0000
0003
0001
0005
0000
0002
fffe
0001
fffd
fffa
ffff
fffc
0001
0002
0004
fffe
fffc
fffc
0000
0003
fffc
0003
0001
0006
0007
0000
ffff
fffe
0002
fffe
0004
0001
fffc
fffd
fffc
0001
0002
0000
fffa
0000
0003
0001
ffff
0000
fffc
fffc
0000
fffd
ffff
0000
0001
0000
ffff
0008
fffa
0000
fff9
0002
fffe
000c
fffe
fffe
fffd
0004
0001
0003
0002
0005
0000
0003
ffff
0001
fffe
fffb
ffff
fffd
0002
0002
0005
ffff
fffd
fffd
0001
0003
fffd
0004
0002
0006
0007
0000
0000
ffff
0003
fffe
0005
0002
fffd
fffe
fffd
0000
0001
ffff
fffa
ffff
0003
0001
ffff
0000
fffb
fffc
ffff
fffc
ffff
0000
0001
0000
ffff
0008
fff9
ffff
fff8
0001
fffe
000c
fffd
fffe
fffd
0003
0001
0003
0001
0005
0000
0002
ffff
0001
fffd
fffb
ffff
fffd
0002
0002
0004
ffff
fffd
fffc
0001
0003
fffc
0003
0001
0006
0007
0000
ffff
ffff
0002
fffe
0005
0001
fffd
fffd
fffc
0001
0001
0000
fffb
0000
0003
0001
ffff
0000
fffc
fffc
0000
fffc
ffff
0000
0001
0000
ffff
0008
fffa
0000
fff9
0002
fffe
000c
fffe
fffe
fffd
0003
0001
0003
0002
0005
0000
0002
ffff
0001
fffe
fffb
0000
fffd
0002
0002
0005
ffff
fffd
fffc
0001
0003
fffd
0003
0002
0007
0007
0001
0000
ffff
0002
fffe
0005
0002
fffd
fffe
fffd
0001
0001
0000
fffa
ffff
0003
0001
ffff
0000
fffc
fffc
0000
fffc
ffff
0000
0001
0000
ffff
0008
fff9
0000
fff9
0001
fffe
000c
fffd
fffe
fffd
0003
0001
0003
0001
0005
0000
0002
ffff
0001
fffe
fffb
ffff
fffd
0002
0002
0005
ffff
fffd
fffc
0001
0003
fffd
0003
0001
0006
0007
0001
0000
ffff
0002
fffe
0005
0002
fffd
fffd
fffd
0000
0001
ffff
fffa
ffff
0002
0001
ffff
0000
fffc
fffc
ffff
fffc
ffff
0000
0001
0000
ffff
0008
fff9
ffff
fff8
0001
fffe
000c
fffd
fffe
fffd
0003
0001
0003
0001
0005
0000
0002
ffff
0001
fffd
fffb
ffff
fffd
0002
0002
0004
ffff
fffd
fffc
0001
0003
fffd
0003
0001
0006
0007
0000
0000
ffff
0002
fffe
0005
0001
fffd
fffd
fffc
0000
0001
ffff
fffa
ffff
0003
0001
ffff
0000
fffc
fffc
ffff
fffc
ffff
0000
0001
0000
ffff
0008
fff9
0000
fff9
0001
fffe
000c
fffd
fffe
fffd
0003
0001
0003
0001
0005
0000
0002
ffff
0001
fffe
fffb
ffff
fffd
0002
0002
0004
ffff
fffd
fffc
0001
0003
fffd
0003
0001
0006
0007
0000
0000
ffff
0002
fffe
0005
0002
fffd
fffd
fffd
0000
0001
ffff
fffa
ffff
0002
0001
fffe
ffff
fffb
fffc
ffff
fffc
ffff
0000
0001
ffff
ffff
0007
fff9
ffff
fff8
0001
fffd
000c
fffd
fffe
fffc
0003
0000
0003
0001
0004
ffff
0002
fffe
0001
fffd
fffb
ffff
fffc
0001
0002
0004
fffe
fffd
fffc
0001
0002
fffc
0003
0001
0006
0007
0000
ffff
fffe
0001
fffe
0004
0001
fffc
fffd
fffc
0001
0002
0000
fffb
0000
0003
0002
0000
0001
fffc
fffd
0000
fffd
0000
0001
0002
0001
0000
0008
fffa
0000
fff9
0002
fffe
000d
fffe
ffff
fffe
0004
0001
0004
0002
0005
0000
0003
ffff
0002
fffe
fffc
0000
fffd
0002
0003
0005
0000
fffe
fffd
0002
0004
fffe
0004
0002
0007
0008
0001
0000
ffff
0003
ffff
0005
0002
fffd
fffe
fffd
0000
0002
0000
fffb
ffff
0003
0001
ffff
0000
fffc
fffd
0000
fffc
0000
0000
0001
0000
ffff
0008
fff9
0000
fff9
0002
fffe
000c
fffd
fffe
fffd
0003
0001
0003
0001
0005
0000
0003
ffff
0002
fffe
fffc
ffff
fffd
0002
0003
0005
ffff
fffd
fffc
0001
0003
fffd
0003
0001
0007
0007
0001
0000
ffff
0002
fffe
0005
0002
fffd
fffd
fffd
0000
0002
ffff
fffb
ffff
0003
0001
ffff
0000
fffc
fffd
0000
fffc
0000
0000
0001
0000
ffff
0008
fff9
0000
fff9
0002
fffe
000c
fffd
fffe
fffd
0003
0001
0003
0001
0005
0000
0002
ffff
0002
fffe
fffc
ffff
fffd
0002
0002
0005
ffff
fffd
fffc
0001
0003
fffd
0003
0001
0007
0007
0001
0000
fffe
0002
fffe
0005
0002
fffd
fffd
fffd
0001
0002
0000
fffb
0000
0003
0002
0000
0000
fffc
fffd
0000
fffd
0000
0001
0002
0000
0000
0008
fff9
0000
fff9
0002
fffe
000d
fffe
ffff
fffe
0004
0001
0004
0002
0005
0000
0003
ffff
0002
fffe
fffc
0000
fffd
0002
0003
0005
ffff
fffe
fffd
0002
0003
fffe
0004
0002
0007
0008
0001
0000
ffff
0002
ffff
0005
0002
fffd
fffe
fffd
ffff
0001
ffff
fffa
fffe
0002
0000
fffe
ffff
fffb
fffc
ffff
fffc
ffff
ffff
0000
ffff
ffff
0007
fff8
ffff
fff8
0001
fffd
000c
fffc
fffe
fffc
0002
0000
0002
0001
0004
ffff
0002
fffe
0001
fffd
fffb
fffe
fffc
0001
0002
0004
fffe
fffd
fffb
0001
0002
fffc
0002
0000
0006
0007
0000
ffff
fffe
0001
fffd
0004
0001
fffc
fffc
fffc
0001
0002
0000
fffb
0000
0003
0002
0000
0000
fffc
fffd
0000
fffd
0000
0001
0002
0000
0000
0008
fff9
0000
fff9
0002
fffe
000d
fffe
ffff
fffd
0004
0001
0004
0002
0005
0000
0003
ffff
0002
fffe
fffc
0000
fffd
0002
0003
0005
ffff
fffe
fffc
0002
0003
fffe
0003
0001
0007
0008
0001
0000
ffff
0002
ffff
0005
0002
fffd
fffd
fffd
0001
0002
0000
fffb
ffff
0003
0001
0000
0000
fffc
fffd
0000
fffd
0000
0000
0001
0000
0000
0008
fff9
0000
fff9
0002
fffe
000d
fffd
ffff
fffd
0003
0001
0004
0002
0005
0000
0003
ffff
0002
fffe
fffc
ffff
fffd
0002
0003
0005
ffff
fffe
fffc
0002
0003
fffd
0003
0001
0007
0008
0001
0000
ffff
0002
fffe
0005
0002
fffd
fffd
fffd
0000
0002
0000
fffb
ffff
0003
0001
0000
0000
fffc
fffd
0000
fffd
0000
0000
0001
0000
0000
0008
fff9
0000
fff9
0002
fffe
000c
fffd
ffff
fffd
0003
0001
0004
0002
0005
0000
0003
ffff
0002
fffe
fffc
ffff
fffd
0002
0003
0005
ffff
fffe
fffc
0002
0003
fffe
0003
0001
0007
0008
0001
0000
fffe
0002
ffff
0005
0002
fffd
fffd
fffd
0000
0001
ffff
fffa
ffff
0002
0001
ffff
ffff
fffb
fffd
ffff
fffc
ffff
0000
0001
ffff
ffff
0007
fff8
ffff
fff8
0001
fffe
000c
fffd
fffe
fffd
0003
0000
0003
0001
0004
ffff
0002
fffe
0001
fffd
fffc
ffff
fffc
0001
0002
0004
ffff
fffd
fffb
0001
0002
fffd
0002
0001
0007
0007
0000
ffff
fffe
0001
fffe
0004
0001
fffc
fffc
fffc
0000
0001
ffff
fffa
ffff
0002
0001
ffff
ffff
fffb
fffd
ffff
fffc
ffff
0000
0001
ffff
ffff
0007
fff8
ffff
fff8
0001
fffe
000c
fffd
fffe
fffd
0003
0000
0003
0001
0004
ffff
0002
ffff
0001
fffd
fffc
ffff
fffc
0001
0002
0004
fffe
fffd
fffb
0001
0003
fffd
0002
0001
0007
0007
0000
ffff
fffe
0001
fffe
0004
0002
fffc
fffc
fffc
ffff
0001
ffff
fffa
fffe
0002
0001
ffff
ffff
fffb
fffd
ffff
fffc
ffff
0000
0001
ffff
ffff
0007
fff8
ffff
fff8
0001
fffd
000c
fffc
fffe
fffd
0002
0000
0003
0001
0004
ffff
0002
fffe
0001
fffd
fffb
ffff
fffc
0001
0002
0004
fffe
fffd
fffb
0001
0002
fffd
0002
0000
0007
0007
0000
ffff
fffe
0001
fffe
0004
0001
fffc
fffc
fffc
0001
0002
0000
fffb
ffff
0003
0002
0000
0000
fffc
fffe
0000
fffd
0000
0001
0002
0000
0000
0008
fff9
0000
fff9
0002
ffff
000d
fffd
ffff
fffe
0004
0001
0004
0002
0005
0000
0003
ffff
0002
fffe
fffd
0000
fffd
0002
0003
0005
ffff
fffe
fffc
0002
0003
fffe
0003
0001
0008
0008
0001
0000
ffff
0002
ffff
0005
0002
fffd
fffd
fffd
0000
0002
ffff
fffb
ffff
0003
0001
ffff
0000
fffc
fffd
ffff
fffc
0000
0000
0001
0000
0000
0007
fff8
ffff
fff8
0001
fffe
000c
fffd
ffff
fffd
0003
0000
0003
0001
0004
ffff
0002
ffff
0002
fffe
fffc
ffff
fffc
0001
0003
0005
ffff
fffe
fffb
0001
0003
fffd
0002
0001
0007
0007
0000
0000
fffe
0001
fffe
0004
0002
fffc
fffd
fffc
0000
0001
ffff
fffb
ffff
0002
0001
ffff
ffff
fffc
fffd
ffff
fffc
0000
0000
0001
ffff
0000
0007
fff8
ffff
fff9
0001
fffe
000c
fffd
fffe
fffd
0003
0000
0003
0001
0004
ffff
0002
ffff
0002
fffd
fffc
ffff
fffc
0001
0003
0004
ffff
fffe
fffb
0001
0002
fffd
0002
0000
0007
0007
0000
0000
fffe
0001
fffe
0004
0002
fffc
fffc
fffc
0000
0002
0000
fffb
ffff
0003
0001
0000
0000
fffc
fffe
0000
fffd
0000
0000
0001
0000
0000
0008
fff9
0000
fff9
0002
fffe
000c
fffd
ffff
fffd
0003
0000
0003
0002
0005
ffff
0003
ffff
0002
fffe
fffc
ffff
fffd
0002
0003
0005
ffff
fffe
fffc
0002
0003
fffd
0003
0001
0008
0008
0001
0000
fffe
0001
fffe
0004
0002
fffd
fffd
fffd
0000
0002
0000
fffb
ffff
0003
0001
0000
0000
fffc
fffe
0000
fffd
0000
0000
0001
0000
0000
0008
fff9
0000
fff9
0002
fffe
000c
fffd
ffff
fffd
0003
0000
0003
0002
0005
0000
0003
ffff
0002
fffe
fffd
ffff
fffd
0002
0003
0005
ffff
ffff
fffc
0002
0003
fffe
0003
0001
0008
0008
0001
0000
fffe
0001
fffe
0005
0002
fffd
fffd
fffd
0000
0002
ffff
fffb
fffe
0002
0001
ffff
ffff
fffc
fffd
ffff
fffc
0000
0000
0001
ffff
0000
0007
fff8
ffff
fff9
0001
fffe
000c
fffd
ffff
fffd
0003
0000
0003
0001
0004
ffff
0002
ffff
0002
fffd
fffc
ffff
fffc
0001
0003
0004
ffff
fffe
fffb
0001
0002
fffd
0002
0000
0007
0007
0000
0000
fffe
0001
fffe
0004
0002
fffc
fffc
fffc
0000
0002
ffff
fffb
ffff
0003
0001
0000
0000
fffc
fffe
ffff
fffc
0000
0000
0001
0000
0000
0007
fff8
ffff
fff9
0001
fffe
000c
fffd
ffff
fffd
0003
0000
0003
0001
0005
ffff
0003
ffff
0002
fffe
fffc
ffff
fffd
0001
0003
0005
ffff
fffe
fffb
0002
0003
fffe
0002
0001
0008
0007
0001
0000
fffe
0001
fffe
0004
0002
fffd
fffc
fffc
0000
0002
ffff
fffb
fffe
0002
0001
ffff
ffff
fffc
fffe
ffff
fffc
0000
0000
0001
0000
0000
0007
fff8
ffff
fff9
0001
fffe
000c
fffd
ffff
fffd
0003
0000
0003
0001
0004
ffff
0002
ffff
0002
fffd
fffc
ffff
fffc
0001
0003
0004
ffff
fffe
fffb
0002
0002
fffd
0002
0000
0008
0007
0001
0000
fffd
0001
fffe
0004
0002
fffc
fffc
fffc
0000
0002
ffff
fffb
ffff
0002
0001
0000
0000
fffc
fffe
ffff
fffc
0000
0000
0001
0000
0000
0007
fff8
ffff
fff9
0001
fffe
000c
fffd
ffff
fffd
0003
0000
0003
0001
0005
ffff
0003
ffff
0002
fffe
fffd
ffff
fffd
0002
0003
0005
ffff
fffe
fffb
0002
0003
fffe
0002
0001
0008
0007
0001
0000
fffe
0001
fffe
0004
0002
fffd
fffc
fffc
0000
0002
0000
fffb
ffff
0003
0001
0000
0000
fffc
fffe
0000
fffd
0001
0000
0001
0000
0000
0007
fff8
0000
fff9
0002
fffe
000c
fffd
ffff
fffd
0003
0000
0003
0002
0005
0000
0003
ffff
0002
fffe
fffd
ffff
fffd
0002
0003
0005
ffff
ffff
fffc
0002
0003
fffe
0003
0001
0008
0008
0001
0000
fffe
0001
fffe
0004
0002
fffd
fffc
fffd
0000
0002
ffff
fffb
fffe
0002
0001
0000
0000
fffc
fffe
ffff
fffc
0000
0000
0001
0000
0000
0007
fff8
ffff
fff9
0002
fffe
000c
fffd
ffff
fffd
0003
0000
0003
0002
0004
ffff
0002
ffff
0002
fffe
fffd
ffff
fffd
0002
0003
0005
ffff
ffff
fffb
0002
0003
fffe
0002
0000
0008
0007
0001
0000
fffe
0001
fffe
0004
0002
fffc
fffc
fffc
0000
0002
ffff
fffb
fffe
0003
0001
0000
0000
fffc
fffe
ffff
fffd
0000
0000
0001
0000
0000
0007
fff8
ffff
fff9
0001
fffe
000c
fffd
ffff
fffd
0003
ffff
0003
0002
0005
ffff
0003
ffff
0002
fffe
fffd
ffff
fffd
0002
0003
0005
ffff
ffff
fffb
0002
0003
fffe
0002
0001
0008
0008
0001
0000
fffe
0001
fffe
0004
0002
fffd
fffc
fffd
0000
0002
ffff
fffb
fffe
0002
0001
0000
ffff
fffc
fffe
ffff
fffc
0000
0000
0001
0000
0000
0007
fff8
ffff
fff9
0002
fffe
000c
fffd
ffff
fffd
0003
ffff
0003
0001
0004
ffff
0003
ffff
0002
fffe
fffd
ffff
fffc
0001
0003
0005
ffff
ffff
fffb
0002
0002
fffe
0002
0000
0008
0007
0001
0000
fffd
0000
fffe
0004
0002
fffc
fffc
fffc
0000
0002
ffff
fffb
fffe
0002
0001
0000
ffff
fffc
fffe
ffff
fffd
0000
0000
0001
0000
0000
0007
fff8
ffff
fff9
0001
fffe
000c
fffd
ffff
fffd
0003
ffff
0003
0001
0005
ffff
0002
ffff
0002
fffe
fffd
ffff
fffc
0001
0003
0005
ffff
ffff
fffb
0002
0002
fffe
0002
0000
0008
0007
0001
0000
fffd
0000
fffe
0004
0002
fffc
fffc
fffc
0000
0002
ffff
fffb
fffe
0002
0001
0000
0000
fffc
fffe
ffff
fffd
0000
0000
0001
0000
0000
0007
fff8
ffff
fff9
0001
fffe
000c
fffd
ffff
fffd
0003
ffff
0003
0002
0005
ffff
0003
ffff
0002
fffe
fffd
ffff
fffd
0001
0003
0005
ffff
ffff
fffb
0002
0002
fffe
0002
0000
0008
0007
0001
0000
fffd
0000
fffe
0004
0002
fffc
fffc
fffc
0000
0002
ffff
fffb
fffe
0002
0001
0000
ffff
fffc
fffe
ffff
fffd
0000
0000
0001
0000
0000
0007
fff8
ffff
fff9
0001
fffe
000c
fffd
ffff
fffd
0003
ffff
0003
0002
0004
ffff
0003
ffff
0002
fffe
fffd
ffff
fffd
0001
0003
0005
ffff
ffff
fffb
0002
0002
fffe
0002
0000
0008
0007
0001
0000
fffd
0000
fffe
0004
0002
fffc
fffc
fffc
0000
0002
ffff
fffc
fffe
0003
0001
0000
0000
fffc
fffe
ffff
fffd
0001
0000
0001
0000
0000
0007
fff8
ffff
fff9
0001
fffe
000c
fffd
ffff
fffd
0003
ffff
0003
0002
0005
ffff
0003
ffff
0003
fffe
fffd
ffff
fffd
0001
0003
0005
ffff
ffff
fffb
0002
0002
fffe
0002
0001
0008
0008
0001
0000
fffd
0000
fffe
0004
0002
fffc
fffc
fffc
0000
0002
ffff
fffb
fffe
0002
0001
0000
ffff
fffc
fffe
ffff
fffc
0000
0000
0001
ffff
0000
0007
fff8
ffff
fff9
0001
fffe
000c
fffc
ffff
fffd
0002
ffff
0003
0001
0004
ffff
0002
ffff
0002
fffd
fffd
ffff
fffc
0001
0003
0005
ffff
ffff
fffb
0002
0002
fffe
0002
0000
0008
0007
0001
0000
fffd
0000
fffe
0004
0002
fffc
fffc
fffc
ffff
0001
ffff
fffb
fffe
0002
0000
ffff
ffff
fffc
fffe
ffff
fffc
0000
0000
0000
ffff
0000
0006
fff7
ffff
fff8
0001
fffe
000b
fffc
ffff
fffd
0002
ffff
0003
0001
0004
fffe
0002
ffff
0002
fffd
fffd
fffe
fffc
0001
0003
0004
fffe
ffff
fffb
0001
0002
fffd
0001
0000
0008
0007
0000
0000
fffd
0000
fffe
0003
0002
fffc
fffb
fffc
0000
0002
ffff
fffc
fffe
0002
0001
0000
ffff
fffc
fffe
ffff
fffd
0001
0000
0001
0000
0000
0007
fff8
ffff
fff9
0001
fffe
000c
fffd
ffff
fffd
0003
ffff
0003
0001
0004
ffff
0003
ffff
0002
fffe
fffd
ffff
fffc
0001
0003
0005
ffff
ffff
fffb
0002
0002
fffe
0002
0000
0008
0007
0001
0000
fffd
0000
fffe
0004
0002
fffc
fffc
fffc
0000
0002
ffff
fffc
fffe
0003
0001
0000
ffff
fffc
ffff
ffff
fffd
0001
0000
0001
0000
0000
0007
fff8
ffff
fff9
0002
ffff
000c
fffc
ffff
fffd
0003
ffff
0003
0002
0004
ffff
0003
ffff
0003
fffe
fffd
ffff
fffd
0001
0003
0005
ffff
ffff
fffb
0002
0002
fffe
0002
0000
0009
0008
0001
0000
fffd
0000
fffe
0004
0002
fffc
fffc
fffc
ffff
0002
ffff
fffb
fffe
0002
0000
0000
ffff
fffc
fffe
ffff
fffc
0000
0000
0000
ffff
0000
0006
fff7
ffff
fff9
0001
fffe
000c
fffc
ffff
fffd
0002
ffff
0003
0001
0004
ffff
0002
ffff
0002
fffd
fffd
fffe
fffc
0001
0003
0004
ffff
ffff
fffb
0002
0002
fffe
0001
0000
0008
0007
0001
0000
fffd
0000
fffe
0003
0002
fffc
fffb
fffc
0000
0002
0000
fffc
fffe
0003
0001
0001
0000
fffc
ffff
0000
fffd
0001
0000
0001
0000
0001
0007
fff8
0000
fff9
0002
ffff
000c
fffd
0000
fffe
0003
ffff
0003
0002
0005
ffff
0003
ffff
0003
fffe
fffe
ffff
fffd
0002
0004
0005
ffff
0000
fffb
0002
0003
fffe
0002
0000
0009
0008
0001
0000
fffd
0000
ffff
0004
0002
fffd
fffc
fffd
ffff
0002
ffff
fffc
fffe
0002
0001
0000
ffff
fffc
ffff
ffff
fffd
0000
0000
0000
ffff
0000
0007
fff7
ffff
fff9
0001
fffe
000c
fffc
ffff
fffd
0002
ffff
0003
0001
0004
fffe
0002
ffff
0002
fffe
fffd
ffff
fffc
0001
0003
0004
ffff
ffff
fffb
0002
0002
fffe
0001
0000
0008
0007
0001
0000
fffd
ffff
fffe
0004
0002
fffc
fffb
fffc
0000
0002
ffff
fffc
fffe
0002
0001
0000
ffff
fffc
ffff
ffff
fffd
0001
0000
0001
0000
0001
0007
fff8
ffff
fff9
0002
ffff
000c
fffd
0000
fffd
0003
ffff
0003
0002
0004
ffff
0003
ffff
0003
fffe
fffe
ffff
fffd
0001
0003
0005
ffff
0000
fffb
0002
0002
fffe
0002
0000
0009
0008
0001
0000
fffd
0000
fffe
0004
0002
fffc
fffc
fffc
0000
0002
ffff
fffc
fffe
0003
0001
0000
ffff
fffc
ffff
ffff
fffd
0001
0000
0001
0000
0001
0007
fff8
ffff
fff9
0001
ffff
000c
fffc
0000
fffe
0003
ffff
0003
0002
0004
ffff
0003
ffff
0003
fffe
fffe
ffff
fffd
0001
0003
0005
ffff
0000
fffb
0002
0002
fffe
0001
0000
0009
0008
0001
0000
fffd
0000
fffe
0004
0002
fffd
fffc
fffc
0000
0002
ffff
fffc
fffe
0002
0001
0000
ffff
fffc
ffff
ffff
fffd
0001
0000
0001
0000
0001
0007
fff8
ffff
fff9
0002
ffff
000c
fffc
0000
fffd
0003
ffff
0003
0002
0004
ffff
0003
ffff
0003
fffe
fffe
ffff
fffd
0001
0003
0005
ffff
0000
fffb
0002
0002
fffe
0002
0000
0009
0008
0001
0000
fffd
0000
fffe
0004
0002
fffd
fffc
fffc
ffff
0002
ffff
fffc
fffd
0002
0000
0000
ffff
fffc
ffff
ffff
fffc
0000
0000
0000
ffff
0000
0006
fff7
ffff
fff9
0001
fffe
000b
fffc
ffff
fffd
0002
fffe
0003
0001
0004
fffe
0002
ffff
0002
fffd
fffd
fffe
fffc
0001
0003
0004
ffff
ffff
fffb
0002
0002
fffe
0001
0000
0008
0007
0001
0000
fffc
ffff
fffe
0003
0002
fffc
fffb
fffc
ffff
0002
ffff
fffc
fffe
0002
0000
0000
ffff
fffc
ffff
ffff
fffd
0001
0000
0001
ffff
0001
0006
fff7
ffff
fff9
0001
fffe
000c
fffc
ffff
fffd
0002
fffe
0003
0001
0004
ffff
0003
ffff
0003
fffe
fffe
ffff
fffc
0001
0003
0004
ffff
0000
fffb
0002
0002
fffe
0001
0000
0009
0007
0001
0000
fffd
ffff
fffe
0003
0002
fffc
fffb
fffc
ffff
0002
ffff
fffc
fffe
0002
0001
0000
ffff
fffc
ffff
ffff
fffc
0001
0000
0001
ffff
0000
0006
fff7
ffff
fff9
0001
fffe
000c
fffc
0000
fffd
0002
fffe
0003
0001
0004
ffff
0002
ffff
0003
fffe
fffe
ffff
fffc
0001
0003
0004
ffff
0000
fffb
0002
0002
fffe
0001
0000
0009
0007
0001
0000
fffd
ffff
fffe
0003
0002
fffc
fffb
fffc
0000
0002
0000
fffd
fffe
0003
0001
0001
0000
fffd
0000
0000
fffd
0001
0001
0001
0000
0001
0007
fff8
0000
fffa
0002
ffff
000c
fffd
0000
fffe
0003
ffff
0004
0002
0005
ffff
0003
0000
0003
fffe
fffe
ffff
fffd
0002
0004
0005
ffff
0000
fffb
0003
0002
ffff
0002
0000
0009
0008
0002
0001
fffd
0000
ffff
0004
0003
fffd
fffc
fffd
ffff
0002
ffff
fffc
fffe
0002
0001
0000
ffff
fffc
ffff
ffff
fffd
0001
0000
0001
ffff
0001
0006
fff7
ffff
fff9
0001
ffff
000c
fffc
0000
fffd
0002
fffe
0003
0002
0004
fffe
0003
ffff
0003
fffe
fffe
ffff
fffc
0001
0003
0005
ffff
0000
fffb
0002
0002
fffe
0001
0000
0009
0007
0001
0000
fffd
ffff
fffe
0004
0002
fffc
fffb
fffc
ffff
0002
ffff
fffc
fffe
0002
0001
0001
ffff
fffd
ffff
ffff
fffd
0001
0000
0001
0000
0001
0007
fff7
ffff
fff9
0001
ffff
000c
fffc
0000
fffe
0002
ffff
0003
0002
0004
ffff
0003
ffff
0003
fffe
fffe
ffff
fffd
0001
0003
0005
ffff
0000
fffb
0002
0002
ffff
0001
0000
0009
0008
0001
0000
fffd
ffff
fffe
0004
0003
fffc
fffb
fffc
ffff
0002
ffff
fffc
fffe
0002
0001
0001
ffff
fffc
0000
ffff
fffd
0001
0000
0001
0000
0001
0007
fff7
ffff
fff9
0001
ffff
000c
fffc
0000
fffe
0002
fffe
0003
0002
0004
ffff
0003
ffff
0003
fffe
fffe
ffff
fffd
0001
0003
0005
ffff
0000
fffb
0002
0002
ffff
0001
0000
0009
0008
0001
0000
fffd
ffff
fffe
0004
0002
fffc
fffb
fffc
ffff
0002
ffff
fffc
fffe
0002
0001
0000
ffff
fffc
0000
ffff
fffd
0001
0000
0001
ffff
0001
0006
fff7
ffff
fff9
0001
ffff
000c
fffc
0000
fffd
0002
fffe
0003
0002
0004
fffe
0003
ffff
0003
fffe
fffe
ffff
fffc
0001
0003
0005
ffff
0000
fffb
0002
0002
fffe
0001
0000
0009
0007
0001
0000
fffc
ffff
fffe
0003
0002
fffc
fffb
fffc
ffff
0002
ffff
fffc
fffd
0002
0001
0001
ffff
fffc
0000
ffff
fffd
0001
0000
0001
ffff
0001
0006
fff7
ffff
fff9
0001
ffff
000c
fffc
0000
fffd
0002
fffe
0003
0001
0004
fffe
0003
ffff
0003
fffe
fffe
ffff
fffc
0001
0003
0005
ffff
0000
fffb
0002
0002
fffe
0001
0000
0009
0007
0001
0000
fffc
ffff
fffe
0003
0002
fffc
fffb
fffc
ffff
0002
ffff
fffc
fffe
0002
0001
0001
ffff
fffd
0000
ffff
fffd
0001
0000
0001
0000
0001
0006
fff7
ffff
fff9
0001
ffff
000c
fffc
0000
fffe
0002
fffe
0003
0001
0004
fffe
0003
0000
0003
fffe
fffe
ffff
fffc
0001
0003
0005
ffff
0000
fffb
0002
0002
ffff
0001
0000
0009
0007
0001
0000
fffd
ffff
fffe
0004
0002
fffc
fffb
fffc
ffff
0002
ffff
fffc
fffd
0002
0001
0001
ffff
fffc
0000
ffff
fffd
0001
0000
0000
ffff
0001
0006
fff7
ffff
fff9
0001
ffff
000c
fffc
0000
fffd
0002
fffe
0003
0001
0004
fffe
0003
ffff
0003
fffe
fffe
ffff
fffc
0001
0003
0005
ffff
0000
fffb
0002
0002
ffff
0001
0000
0009
0007
0001
0000
fffc
ffff
fffe
0003
0002
fffc
fffb
fffc
0000
0002
ffff
fffd
fffe
0002
0001
0001
ffff
fffd
0000
0000
fffd
0001
0000
0001
0000
0001
0007
fff7
ffff
fffa
0002
ffff
000c
fffc
0000
fffe
0002
fffe
0003
0002
0004
ffff
0003
0000
0003
fffe
ffff
ffff
fffd
0001
0004
0005
ffff
0001
fffb
0003
0002
ffff
0001
0000
000a
0008
0002
0001
fffd
ffff
ffff
0004
0003
fffd
fffb
fffc
ffff
0002
ffff
fffc
fffd
0002
0001
0001
ffff
fffd
0000
ffff
fffd
0001
0000
0001
ffff
0001
0006
fff7
ffff
fff9
0001
ffff
000c
fffc
0000
fffe
0002
fffe
0003
0001
0004
fffe
0003
ffff
0003
fffe
fffe
ffff
fffc
0001
0004
0005
ffff
0000
fffb
0002
0002
ffff
0001
0000
0009
0007
0001
0000
fffc
ffff
fffe
0003
0002
fffc
fffb
fffc
ffff
0002
ffff
fffc
fffd
0002
0001
0001
ffff
fffd
0000
ffff
fffd
0001
0000
0000
ffff
0001
0006
fff7
ffff
fff9
0001
ffff
000b
fffc
0000
fffd
0002
fffe
0003
0001
0004
fffe
0003
ffff
0003
fffe
fffe
fffe
fffc
0001
0003
0005
ffff
0000
fffb
0002
0002
ffff
0001
ffff
0009
0007
0001
0000
fffc
ffff
fffe
0003
0002
fffc
fffb
fffc
ffff
0002
ffff
fffd
fffe
0002
0001
0001
ffff
fffd
0000
ffff
fffd
0001
0000
0001
0000
0001
0006
fff7
ffff
fffa
0002
ffff
000c
fffc
0000
fffe
0002
fffe
0003
0002
0004
fffe
0003
0000
0003
fffe
ffff
ffff
fffd
0001
0004
0005
ffff
0001
fffb
0003
0002
ffff
0001
0000
000a
0007
0001
0001
fffd
ffff
ffff
0004
0003
fffd
fffb
fffc
ffff
0002
ffff
fffd
fffe
0002
0001
0001
ffff
fffd
0000
0000
fffd
0002
0000
0001
0000
0001
0007
fff7
ffff
fffa
0002
ffff
000c
fffc
0000
fffe
0002
fffe
0003
0002
0004
ffff
0003
0000
0003
fffe
ffff
ffff
fffd
0001
0004
0005
ffff
0001
fffb
0003
0002
ffff
0001
0000
000a
0008
0002
0001
fffc
ffff
ffff
0004
0003
fffd
fffb
fffd
0000
0003
0000
fffd
fffe
0003
0001
0001
0000
fffd
0001
0000
fffe
0002
0001
0001
0000
0002
0007
fff8
0000
fffa
0002
ffff
000c
fffd
0001
fffe
0003
fffe
0004
0002
0005
ffff
0003
0000
0004
ffff
ffff
ffff
fffd
0002
0004
0005
0000
0001
fffb
0003
0002
0000
0001
0000
000a
0008
0002
0001
fffd
ffff
ffff
0004
0003
fffd
fffb
fffd
ffff
0002
ffff
fffc
fffd
0002
0001
0001
ffff
fffc
0000
ffff
fffd
0001
0000
0000
ffff
0001
0006
fff7
ffff
fff9
0001
ffff
000b
fffc
0000
fffd
0002
fffe
0003
0001
0004
fffe
0002
ffff
0003
fffe
ffff
fffe
fffc
0001
0003
0005
ffff
0001
fffa
0002
0001
ffff
0001
ffff
0009
0007
0001
0000
fffc
fffe
fffe
0003
0003
fffc
fffa
fffc
ffff
0002
ffff
fffd
fffd
0002
0001
0001
ffff
fffd
0000
ffff
fffd
0001
0000
0001
ffff
0001
0006
fff7
ffff
fffa
0001
ffff
000b
fffc
0000
fffe
0002
fffe
0003
0001
0004
fffe
0003
ffff
0003
fffe
ffff
ffff
fffc
0001
0003
0005
ffff
0001
fffb
0003
0002
ffff
0001
ffff
000a
0007
0001
0000
fffc
fffe
fffe
0003
0003
fffc
fffb
fffc
ffff
0002
ffff
fffc
fffd
0002
0000
0001
ffff
fffc
0000
ffff
fffd
0001
0000
0000
ffff
0001
0006
fff7
ffff
fff9
0001
fffe
000b
fffc
0000
fffd
0002
fffd
0003
0001
0004
fffe
0002
ffff
0003
fffe
ffff
fffe
fffc
0001
0003
0004
ffff
0001
fffa
0002
0001
ffff
0000
ffff
0009
0007
0001
0000
fffc
fffe
fffe
0003
0002
fffc
fffa
fffc
ffff
0003
ffff
fffd
fffd
0002
0001
0001
ffff
fffd
0001
ffff
fffd
0002
0000
0001
0000
0001
0006
fff7
ffff
fffa
0002
ffff
000c
fffc
0001
fffe
0002
fffe
0003
0002
0004
fffe
0003
0000
0004
fffe
ffff
ffff
fffd
0001
0004
0005
ffff
0001
fffb
0003
0002
ffff
0001
0000
000a
0008
0002
0001
fffc
fffe
ffff
0003
0003
fffc
fffb
fffd
ffff
0002
ffff
fffd
fffd
0002
0000
0001
ffff
fffd
0000
ffff
fffd
0001
0000
0000
ffff
0001
0006
fff7
ffff
fff9
0001
fffe
000b
fffc
0000
fffd
0002
fffd
0003
0001
0003
fffe
0002
ffff
0003
fffe
ffff
fffe
fffc
0001
0003
0004
ffff
0001
fffa
0002
0001
ffff
0000
ffff
0009
0007
0001
0000
fffc
fffe
fffe
0003
0002
fffc
fffa
fffc
ffff
0002
ffff
fffd
fffd
0002
0001
0001
ffff
fffd
0001
ffff
fffd
0002
0000
0001
0000
0002
0006
fff7
ffff
fffa
0002
ffff
000c
fffc
0001
fffe
0002
fffe
0003
0002
0004
fffe
0003
0000
0004
fffe
ffff
ffff
fffd
0001
0004
0005
ffff
0001
fffb
0003
0002
ffff
0001
ffff
000a
0007
0002
0001
fffc
fffe
ffff
0003
0003
fffd
fffb
fffc
ffff
0002
ffff
fffd
fffd
0002
0001
0001
ffff
fffd
0001
ffff
fffd
0001
0000
0001
0000
0001
0006
fff7
ffff
fffa
0001
ffff
000b
fffc
0001
fffe
0002
fffd
0003
0002
0004
fffe
0003
0000
0003
fffe
ffff
ffff
fffc
0001
0004
0005
ffff
0001
fffb
0003
0002
ffff
0001
ffff
000a
0007
0002
0001
fffc
fffe
ffff
0003
0003
fffc
fffa
fffc
ffff
0003
0000
fffd
fffe
0003
0001
0002
ffff
fffd
0001
0000
fffe
0002
0001
0001
0000
0002
0006
fff7
0000
fffa
0002
ffff
000c
fffc
0001
fffe
0002
fffe
0003
0002
0004
fffe
0003
0000
0004
fffe
0000
ffff
fffd
0001
0004
0005
ffff
0002
fffb
0003
0002
0000
0001
0000
000a
0007
0002
0001
fffc
fffe
ffff
0004
0003
fffd
fffb
fffd
fffe
0002
fffe
fffc
fffc
0001
0000
0000
fffe
fffc
0000
fffe
fffc
0001
ffff
0000
ffff
0000
0005
fff6
fffe
fff9
0001
fffe
000a
fffb
0000
fffd
0001
fffc
0002
0001
0003
fffd
0002
ffff
0003
fffd
fffe
fffe
fffb
0000
0003
0004
fffe
0000
fffa
0002
0001
fffe
0000
ffff
0009
0006
0001
0000
fffb
fffd
fffe
0002
0002
fffc
fffa
fffc
ffff
0003
ffff
fffd
fffd
0002
0001
0002
ffff
fffd
0001
ffff
fffd
0002
0000
0001
0000
0002
0006
fff7
ffff
fffa
0002
ffff
000c
fffc
0001
fffe
0002
fffd
0003
0002
0004
fffe
0003
0000
0004
fffe
0000
ffff
fffd
0001
0004
0005
ffff
0002
fffb
0003
0002
0000
0000
0000
000a
0007
0002
0001
fffc
fffe
ffff
0003
0003
fffd
fffb
fffd
ffff
0003
ffff
fffd
fffd
0002
0001
0002
ffff
fffd
0001
ffff
fffd
0002
0000
0001
0000
0001
0006
fff7
ffff
fffa
0002
ffff
000c
fffc
0001
fffe
0002
fffd
0003
0002
0004
fffe
0003
0000
0004
fffe
0000
ffff
fffd
0001
0004
0005
ffff
0002
fffb
0003
0002
ffff
0000
0000
000a
0007
0002
0001
fffc
fffe
ffff
0003
0003
fffd
fffa
fffd
ffff
0003
0000
fffd
fffd
0002
0001
0002
ffff
fffe
0002
0000
fffe
0002
0000
0001
0000
0002
0006
fff7
ffff
fffa
0002
ffff
000c
fffc
0001
fffe
0002
fffd
0004
0002
0004
fffe
0003
0000
0004
fffe
0000
ffff
fffd
0001
0004
0005
ffff
0002
fffb
0003
0002
0000
0001
0000
000b
0007
0002
0001
fffc
fffe
ffff
0004
0003
fffd
fffb
fffd
ffff
0003
0000
fffe
fffe
0003
0001
0002
ffff
fffe
0002
0000
fffe
0002
0001
0001
0000
0002
0006
fff7
0000
fffb
0002
0000
000c
fffc
0001
ffff
0002
fffe
0004
0002
0004
ffff
0003
0000
0004
ffff
0000
ffff
fffd
0001
0004
0005
0000
0002
fffb
0003
0002
0000
0001
0000
000b
0008
0002
0002
fffc
fffe
ffff
0004
0004
fffd
fffb
fffd
ffff
0003
ffff
fffd
fffd
0002
0001
0002
ffff
fffd
0002
ffff
fffd
0002
0000
0001
0000
0001
0006
fff7
ffff
fffa
0002
ffff
000b
fffc
0001
fffe
0002
fffd
0003
0001
0004
fffe
0003
0000
0004
fffe
0000
ffff
fffc
0001
0004
0005
ffff
0002
fffb
0003
0002
0000
0000
ffff
000a
0007
0002
0001
fffc
fffe
ffff
0003
0003
fffd
fffa
fffc
fffe
0003
ffff
fffd
fffd
0002
0001
0002
ffff
fffd
0002
ffff
fffd
0002
0000
0001
0000
0001
0006
fff7
ffff
fffa
0002
ffff
000b
fffc
0001
fffe
0002
fffd
0003
0002
0004
fffe
0003
0000
0004
fffe
0000
ffff
fffc
0001
0004
0005
ffff
0002
fffb
0003
0001
0000
0000
ffff
000a
0007
0002
0001
fffc
fffe
ffff
0003
0004
fffd
fffa
fffd
fffe
0003
ffff
fffd
fffd
0002
0001
0002
fffe
fffd
0002
ffff
fffd
0001
0000
0001
0000
0001
0006
fff7
ffff
fffa
0001
ffff
000b
fffc
0000
fffe
0001
fffc
0003
0001
0003
fffe
0002
0000
0004
fffe
0000
ffff
fffc
0001
0003
0005
ffff
0002
fffa
0003
0001
ffff
0000
ffff
000a
0007
0002
0001
fffb
fffd
fffe
0003
0003
fffc
fffa
fffd
fffe
0002
ffff
fffd
fffc
0001
0000
0001
fffe
fffd
0001
ffff
fffd
0001
0000
0000
ffff
0001
0005
fff6
ffff
fffa
0001
ffff
000a
fffc
0000
fffd
0001
fffd
0002
0001
0003
fffd
0002
ffff
0003
fffd
ffff
fffe
fffc
0000
0003
0004
ffff
0001
fffa
0002
0001
ffff
ffff
ffff
0009
0006
0001
0000
fffb
fffd
fffe
0003
0003
fffc
fffa
fffc
ffff
0003
ffff
fffe
fffd
0002
0000
0002
ffff
fffd
0001
ffff
fffe
0002
0000
0001
0000
0002
0006
fff7
ffff
fffa
0002
0000
000a
fffd
0001
fffe
0002
fffe
0003
0002
0004
fffe
0003
0000
0004
fffe
0000
ffff
fffd
0001
0004
0005
0000
0002
fffb
0003
0002
0000
0000
0000
000a
0007
0002
0001
fffc
ffff
ffff
0003
0003
fffc
fffb
fffd
fffe
0002
ffff
fffd
fffc
0001
ffff
0000
ffff
fffc
0000
fffe
fffc
0001
0000
0000
ffff
0001
0005
fff6
ffff
fffa
0001
ffff
0009
fffc
0000
fffd
0002
fffd
0002
0001
0003
fffd
0002
fffe
0003
fffd
ffff
fffe
fffc
0000
0003
0004
ffff
0001
fffa
0001
0001
ffff
ffff
ffff
0008
0006
0000
0000
fffb
fffe
fffe
0001
0002
fffc
fffa
fffc
ffff
0002
ffff
fffe
fffc
0002
0000
0001
0000
fffd
0000
ffff
fffd
0001
0000
0000
0000
0002
0006
fff7
ffff
fffa
0001
ffff
0009
fffd
0001
fffd
0002
fffe
0003
0001
0004
fffe
0002
ffff
0003
fffe
ffff
ffff
fffd
0000
0003
0004
0000
0001
fffb
0002
0001
0000
0000
ffff
0009
0007
0001
0000
fffc
ffff
fffe
0002
0003
fffc
fffb
fffd
ffff
0002
ffff
fffe
fffc
0001
0000
0000
0000
fffc
0000
fffe
fffd
0001
0000
0000
ffff
0002
0005
fff7
ffff
fffa
0001
ffff
0009
fffd
0001
fffd
0002
fffe
0002
0001
0003
fffd
0002
fffe
0003
fffd
ffff
ffff
fffd
0000
0003
0004
0000
0001
fffb
0002
0001
0000
0000
ffff
0008
0007
0001
ffff
fffc
ffff
fffe
0001
0002
fffc
fffb
fffd
ffff
0002
ffff
fffe
fffc
0001
ffff
0000
0000
fffc
0000
fffe
fffd
0001
0000
0000
ffff
0002
0005
fff7
ffff
fffa
0001
ffff
0009
fffd
0001
fffd
0003
fffe
0002
0001
0003
fffe
0002
fffe
0003
fffd
ffff
ffff
fffe
0000
0003
0004
0000
0001
fffa
0002
0001
0000
0000
ffff
0008
0007
0001
ffff
fffc
ffff
fffe
0001
0002
fffc
fffb
fffd
ffff
0002
ffff
fffe
fffc
0001
ffff
0000
0000
fffc
ffff
fffe
fffd
0001
0000
0000
ffff
0002
0006
fff7
0000
fffa
0001
ffff
0009
fffe
0002
fffd
0003
ffff
0002
0001
0003
fffe
0002
fffe
0003
fffd
ffff
ffff
fffe
0000
0003
0004
0000
0001
fffb
0002
0001
0000
0000
ffff
0008
0007
0001
ffff
fffc
ffff
ffff
0001
0002
fffc
fffc
fffd
ffff
0002
0000
ffff
fffc
0001
ffff
0000
0000
fffc
0000
fffe
fffd
0002
0000
0000
ffff
0002
0006
fff7
0000
fffa
0002
0000
0008
fffe
0002
fffd
0003
ffff
0002
0001
0004
fffe
0002
fffe
0003
fffd
0000
ffff
fffe
0001
0004
0004
0000
0002
fffb
0002
0001
0000
0000
ffff
0008
0007
0001
ffff
fffc
0000
ffff
0001
0002
fffc
fffc
fffd
ffff
0002
0000
ffff
fffc
0001
ffff
0000
0000
fffd
0000
fffe
fffd
0002
0001
0000
ffff
0002
0006
fff8
0000
fffa
0002
0000
0008
fffe
0002
fffd
0003
ffff
0003
0002
0004
fffe
0002
fffe
0003
fffd
0000
ffff
fffe
0001
0004
0004
0000
0002
fffb
0002
0001
0000
0000
ffff
0008
0007
0001
ffff
fffd
0000
ffff
0001
0002
fffc
fffc
fffd
ffff
0002
ffff
ffff
fffc
0001
ffff
0000
0000
fffc
ffff
fffe
fffd
0001
0000
0000
ffff
0002
0005
fff7
0000
fffa
0001
ffff
0008
fffe
0002
fffd
0003
ffff
0002
0001
0003
fffe
0002
fffe
0003
fffd
ffff
ffff
fffe
0000
0003
0003
0000
0001
fffa
0002
0001
0000
0000
ffff
0008
0007
0000
ffff
fffc
0000
ffff
0000
0002
fffc
fffc
fffd
0000
0003
0000
0000
fffd
0002
0000
0001
0001
fffd
0000
ffff
fffe
0002
0001
0000
0000
0003
0006
fff8
0001
fffb
0002
0000
0009
ffff
0003
fffe
0003
0000
0003
0002
0004
fffe
0003
ffff
0004
fffe
0000
0000
ffff
0001
0004
0004
0001
0002
fffb
0002
0002
0001
0000
0000
0008
0008
0001
0000
fffd
0001
ffff
0001
0003
fffd
fffd
fffe
0000
0002
0000
ffff
fffc
0001
ffff
0000
0001
fffc
ffff
fffe
fffd
0002
0000
0000
ffff
0002
0006
fff7
0000
fffa
0001
0000
0008
fffe
0002
fffd
0003
ffff
0002
0001
0003
fffe
0002
fffe
0003
fffd
0000
ffff
fffe
0000
0004
0003
0000
0002
fffb
0002
0001
0000
0000
ffff
0007
0007
0000
ffff
fffc
0000
ffff
0000
0002
fffc
fffc
fffd
ffff
0001
ffff
ffff
fffc
0001
ffff
0000
0000
fffc
ffff
fffe
fffd
0001
0000
ffff
ffff
0002
0005
fff7
0000
fffa
0001
ffff
0007
fffe
0002
fffd
0003
ffff
0002
0001
0003
fffd
0002
fffe
0003
fffd
ffff
ffff
fffe
0000
0003
0003
0000
0001
fffa
0002
0000
0000
ffff
ffff
0007
0007
0000
fffe
fffc
0000
fffe
0000
0001
fffc
fffc
fffd
ffff
0002
0000
ffff
fffc
0001
ffff
0000
0001
fffc
ffff
fffe
fffd
0002
0000
0000
ffff
0003
0005
fff7
0000
fffa
0002
0000
0007
fffe
0002
fffd
0003
ffff
0002
0001
0003
fffe
0002
fffe
0003
fffd
0000
ffff
fffe
0000
0004
0003
0000
0002
fffa
0002
0001
0001
0000
ffff
0007
0007
0000
fffe
fffc
0000
ffff
0000
0002
fffc
fffc
fffd
ffff
0002
0000
ffff
fffc
0001
ffff
0000
0001
fffc
ffff
fffe
fffd
0002
0000
0000
ffff
0003
0005
fff7
0000
fffb
0001
0000
0007
fffe
0002
fffd
0003
ffff
0002
0001
0003
fffe
0002
fffe
0003
fffd
0000
ffff
fffe
0000
0004
0003
0000
0002
fffb
0002
0001
0001
0000
ffff
0007
0007
0000
ffff
fffd
0000
ffff
0000
0002
fffc
fffc
fffd
ffff
0002
ffff
ffff
fffc
0001
ffff
0000
0000
fffc
ffff
fffe
fffd
0001
0000
ffff
ffff
0003
0005
fff7
0000
fffa
0001
ffff
0007
fffe
0002
fffd
0003
ffff
0002
0001
0003
fffe
0002
fffe
0003
fffd
0000
ffff
fffe
0000
0003
0003
0000
0002
fffa
0002
0000
0001
ffff
ffff
0007
0007
0000
fffe
fffc
0000
ffff
ffff
0002
fffc
fffc
fffd
ffff
0002
ffff
ffff
fffc
0001
ffff
0000
0000
fffc
ffff
fffe
fffd
0002
0000
ffff
ffff
0003
0005
fff7
0000
fffa
0001
0000
0007
fffe
0002
fffd
0003
ffff
0002
0001
0003
fffe
0002
fffe
0003
fffd
0000
ffff
fffe
0000
0003
0003
0000
0002
fffa
0002
0000
0001
0000
ffff
0007
0007
0000
fffe
fffc
0000
ffff
ffff
0002
fffc
fffc
fffd
0000
0002
0000
0000
fffc
0001
ffff
0000
0001
fffc
ffff
fffe
fffe
0002
0001
0000
ffff
0003
0006
fff8
0001
fffb
0002
0000
0007
fffe
0003
fffe
0003
ffff
0002
0001
0003
fffe
0002
fffe
0003
fffd
0000
0000
ffff
0001
0004
0003
0001
0002
fffb
0002
0001
0001
0000
ffff
0007
0007
0001
ffff
fffd
0000
ffff
0000
0002
fffc
fffd
fffe
ffff
0002
0000
0000
fffc
0001
ffff
0000
0001
fffc
ffff
fffe
fffd
0002
0000
ffff
ffff
0003
0005
fff7
0000
fffb
0002
0000
0007
fffe
0002
fffd
0003
ffff
0002
0001
0003
fffe
0002
fffe
0003
fffd
0000
ffff
ffff
0000
0004
0003
0000
0002
fffb
0002
0000
0001
0000
ffff
0007
0007
0000
fffe
fffd
0000
ffff
ffff
0002
fffc
fffc
fffd
0000
0002
0000
0000
fffc
0001
ffff
0000
0001
fffd
0000
fffe
fffe
0002
0001
0000
ffff
0004
0006
fff8
0001
fffb
0002
0000
0007
ffff
0003
fffe
0003
0000
0003
0002
0003
fffe
0002
fffe
0004
fffe
0001
0000
ffff
0001
0004
0004
0001
0002
fffb
0002
0001
0001
0000
ffff
0007
0007
0001
ffff
fffd
0001
0000
0000
0002
fffc
fffd
fffe
ffff
0002
ffff
0000
fffb
0001
ffff
0000
0001
fffc
ffff
fffe
fffd
0002
0000
ffff
ffff
0003
0005
fff7
0000
fffb
0001
0000
0007
fffe
0003
fffd
0003
ffff
0002
0001
0003
fffe
0002
fffe
0003
fffd
0000
ffff
ffff
0000
0003
0003
0000
0002
fffa
0002
0000
0001
ffff
ffff
0007
0007
0000
fffe
fffd
0000
ffff
ffff
0001
fffc
fffc
fffd
ffff
0001
ffff
0000
fffb
0001
fffe
0000
0000
fffc
ffff
fffe
fffd
0002
0000
ffff
ffff
0003
0005
fff7
0000
fffa
0001
ffff
0006
fffe
0002
fffd
0003
ffff
0002
0001
0002
fffe
0002
fffd
0003
fffd
0000
ffff
ffff
0000
0003
0003
0000
0002
fffa
0002
0000
0001
ffff
fffe
0006
0006
0000
fffe
fffc
0000
ffff
ffff
0001
fffc
fffc
fffd
0000
0002
ffff
0000
fffb
0001
fffe
0000
0001
fffc
ffff
fffe
fffe
0002
0000
ffff
ffff
0003
0005
fff7
0000
fffb
0001
0000
0006
fffe
0003
fffd
0003
ffff
0002
0001
0003
fffe
0002
fffe
0003
fffd
0000
ffff
ffff
0000
0004
0003
0000
0002
fffa
0002
0000
0001
ffff
ffff
0007
0007
0000
fffe
fffd
0000
ffff
ffff
0001
fffc
fffc
fffd
0000
0002
0000
0000
fffc
0001
ffff
0000
0001
fffd
ffff
fffe
fffe
0002
0001
ffff
ffff
0004
0005
fff8
0001
fffb
0002
0000
0007
fffe
0003
fffe
0003
ffff
0002
0001
0003
fffe
0002
fffe
0003
fffd
0001
ffff
ffff
0001
0004
0003
0001
0002
fffb
0002
0000
0001
0000
ffff
0007
0007
0000
fffe
fffd
0001
0000
ffff
0001
fffc
fffd
fffe
ffff
0002
ffff
0000
fffb
0001
fffe
0000
0001
fffc
ffff
fffe
fffe
0002
0000
ffff
ffff
0004
0005
fff7
0000
fffb
0001
0000
0006
fffe
0003
fffd
0003
ffff
0002
0001
0002
fffe
0002
fffe
0003
fffd
0000
ffff
ffff
0000
0003
0003
0000
0002
fffa
0002
0000
0001
ffff
fffe
0006
0006
0000
fffe
fffd
0000
ffff
ffff
0001
fffc
fffc
fffd
0000
0002
0000
0001
fffc
0001
ffff
0000
0001
fffd
0000
fffe
fffe
0002
0001
ffff
ffff
0004
0005
fff8
0001
fffc
0002
0000
0007
ffff
0003
fffe
0003
0000
0003
0002
0003
fffe
0002
fffe
0004
fffe
0001
0000
ffff
0001
0004
0003
0001
0003
fffb
0002
0000
0002
0000
ffff
0007
0007
0001
fffe
fffd
0001
0000
ffff
0002
fffc
fffd
fffe
0000
0002
ffff
0000
fffb
0001
ffff
0000
0001
fffc
ffff
fffe
fffe
0002
0000
ffff
ffff
0004
0005
fff7
0001
fffb
0001
0000
0006
fffe
0003
fffe
0003
ffff
0002
0001
0003
fffe
0002
fffe
0003
fffd
0001
ffff
ffff
0000
0004
0003
0001
0002
fffa
0002
0000
0001
0000
ffff
0007
0007
0000
fffe
fffd
0000
0000
fffe
0001
fffc
fffd
fffe
0000
0002
0000
0001
fffc
0001
ffff
0000
0001
fffd
ffff
fffe
fffe
0002
0001
ffff
ffff
0004
0005
fff7
0001
fffb
0002
0000
0006
ffff
0003
fffe
0003
0000
0002
0001
0003
fffe
0002
fffe
0003
fffe
0001
ffff
ffff
0001
0004
0003
0001
0003
fffb
0002
0000
0001
0000
ffff
0007
0007
0000
fffe
fffd
0000
0000
ffff
0001
fffc
fffd
fffe
0000
0002
ffff
0000
fffb
0001
fffe
0000
0001
fffc
ffff
fffe
fffe
0002
0000
ffff
ffff
0004
0005
fff7
0001
fffb
0001
0000
0006
fffe
0003
fffe
0003
ffff
0002
0001
0002
fffe
0002
fffe
0003
fffd
0001
ffff
ffff
0000
0004
0002
0001
0002
fffa
0002
0000
0001
ffff
fffe
0006
0007
0000
fffe
fffd
0000
ffff
fffe
0001
fffc
fffd
fffe
ffff
0001
ffff
0000
fffb
0000
fffe
0000
0001
fffc
ffff
fffe
fffe
0002
0000
ffff
ffff
0004
0005
fff7
0000
fffb
0001
0000
0005
fffe
0003
fffd
0003
ffff
0002
0001
0002
fffe
0002
fffe
0003
fffd
0001
ffff
ffff
0000
0003
0002
0000
0002
fffa
0002
ffff
0001
ffff
fffe
0006
0006
0000
fffe
fffd
0000
ffff
fffe
0001
fffc
fffd
fffd
0000
0002
0000
0001
fffb
0001
fffe
0000
0001
fffd
ffff
fffe
fffe
0002
0001
ffff
ffff
0004
0005
fff7
0001
fffb
0002
0000
0006
fffe
0003
fffe
0003
0000
0002
0001
0003
fffe
0002
fffe
0003
fffd
0001
ffff
ffff
0001
0004
0003
0001
0003
fffb
0002
0000
0002
0000
ffff
0007
0007
0000
fffe
fffd
0000
0000
fffe
0001
fffc
fffd
fffe
0000
0002
ffff
0001
fffb
0001
fffe
0000
0001
fffc
ffff
fffe
fffe
0002
0001
ffff
ffff
0004
0005
fff7
0001
fffb
0001
0000
0006
fffe
0003
fffe
0003
ffff
0002
0001
0002
fffe
0002
fffe
0003
fffd
0001
ffff
ffff
0001
0004
0003
0001
0003
fffa
0002
0000
0001
ffff
fffe
0006
0007
0000
fffe
fffd
0000
0000
fffe
0001
fffc
fffd
fffe
0000
0002
0000
0001
fffc
0001
ffff
0000
0001
fffd
0000
fffe
ffff
0003
0001
ffff
ffff
0005
0005
fff8
0001
fffc
0002
0001
0006
ffff
0004
fffe
0004
0000
0002
0002
0003
fffe
0003
fffe
0004
fffe
0002
0000
0000
0001
0004
0003
0001
0003
fffb
0003
0000
0002
0000
ffff
0007
0007
0001
fffe
fffd
0001
0000
ffff
0001
fffc
fffd
fffe
0000
0002
0000
0001
fffc
0001
ffff
0000
0001
fffd
0000
fffe
ffff
0003
0001
ffff
ffff
0005
0005
fff8
0001
fffc
0002
0000
0006
ffff
0004
fffe
0004
0000
0002
0002
0003
fffe
0003
fffe
0004
fffe
0002
0000
0000
0001
0004
0003
0001
0003
fffb
0002
0000
0002
0000
ffff
0007
0007
0001
fffe
fffd
0001
0000
fffe
0001
fffc
fffd
fffe
0000
0002
0000
0001
fffc
0001
ffff
0000
0001
fffd
0000
fffe
ffff
0003
0001
ffff
ffff
0005
0005
fff8
0001
fffc
0002
0001
0006
ffff
0004
fffe
0003
0000
0002
0002
0003
fffe
0003
fffe
0004
fffe
0002
0000
0000
0001
0004
0003
0001
0003
fffb
0002
0000
0002
0000
ffff
0007
0007
0001
fffe
fffd
0001
0000
fffe
0001
fffc
fffd
fffe
ffff
0002
ffff
0001
fffb
0000
fffe
0000
0001
fffc
ffff
fffe
fffe
0002
0000
ffff
ffff
0004
0004
fff7
0001
fffb
0001
0000
0005
fffe
0003
fffe
0003
ffff
0002
0001
0002
fffe
0002
fffd
0003
fffd
0001
ffff
ffff
0000
0003
0002
0000
0003
fffa
0002
ffff
0001
ffff
fffe
0006
0006
0000
fffd
fffd
0000
ffff
fffe
0001
fffc
fffc
fffe
0000
0002
ffff
0001
fffb
0000
fffe
0000
0001
fffd
ffff
fffe
fffe
0003
0000
ffff
ffff
0005
0005
fff7
0001
fffc
0001
0000
0005
fffe
0004
fffe
0003
ffff
0002
0001
0002
fffe
0002
fffe
0003
fffd
0001
ffff
ffff
0000
0004
0002
0001
0003
fffa
0002
ffff
0002
ffff
fffe
0006
0006
0000
fffe
fffd
0000
0000
fffe
0001
fffc
fffd
fffe
0000
0002
ffff
0001
fffb
0001
ffff
0000
0001
fffd
0000
fffe
ffff
0003
0001
ffff
ffff
0005
0005
fff7
0001
fffc
0002
0000
0005
ffff
0004
fffe
0003
0000
0002
0002
0003
fffe
0002
fffe
0004
fffe
0002
ffff
0000
0001
0004
0003
0001
0003
fffb
0002
0000
0002
0000
fffe
0006
0007
0000
fffe
fffd
0001
0000
fffe
0001
fffc
fffd
fffe
ffff
0001
ffff
0001
fffb
0000
fffe
0000
0001
fffc
ffff
fffd
fffe
0002
0000
fffe
fffe
0005
0004
fff7
0000
fffb
0001
0000
0005
fffe
0003
fffe
0003
ffff
0002
0001
0002
fffe
0002
fffd
0003
fffd
0001
ffff
ffff
0000
0003
0002
0000
0002
fffa
0002
ffff
0001
ffff
fffe
0006
0006
0000
fffd
fffd
0000
ffff
fffd
0000
fffc
fffc
fffd
0000
0002
ffff
0001
fffb
0000
fffe
0000
0001
fffd
ffff
fffe
fffe
0003
0000
ffff
ffff
0005
0004
fff7
0001
fffc
0001
0000
0005
fffe
0004
fffe
0003
ffff
0002
0001
0002
fffe
0002
fffe
0003
fffd
0002
ffff
0000
0000
0004
0002
0001
0003
fffa
0002
ffff
0002
ffff
fffe
0006
0006
0000
fffd
fffd
0000
0000
fffe
0001
fffc
fffd
fffe
0000
0002
ffff
0002
fffb
0000
fffe
0000
0001
fffd
0000
fffe
ffff
0003
0001
ffff
ffff
0005
0005
fff7
0001
fffc
0001
0000
0005
ffff
0004
fffe
0003
0000
0002
0001
0002
fffe
0002
fffe
0003
fffd
0002
ffff
0000
0001
0004
0002
0001
0003
fffa
0002
ffff
0002
ffff
fffe
0006
0007
0000
fffe
fffd
0000
0000
fffe
0001
fffc
fffd
fffe
ffff
0001
ffff
0001
fffb
0000
fffe
0000
0001
fffd
ffff
fffe
fffe
0002
0000
fffe
ffff
0005
0004
fff7
0000
fffc
0001
0000
0004
fffe
0004
fffe
0003
ffff
0002
0001
0002
fffe
0002
fffd
0003
fffd
0002
ffff
ffff
0000
0004
0002
0000
0003
fffa
0002
ffff
0002
ffff
fffe
0006
0006
0000
fffd
fffd
0000
0000
fffd
0001
fffc
fffc
fffe
0000
0002
0000
0002
fffb
0000
fffe
0000
0001
fffd
0000
fffe
ffff
0003
0001
ffff
ffff
0006
0005
fff8
0001
fffc
0002
0001
0005
ffff
0004
ffff
0003
0000
0002
0002
0002
fffe
0003
fffe
0004
fffe
0002
0000
0000
0001
0004
0003
0001
0004
fffb
0003
0000
0002
0000
fffe
0006
0007
0001
fffe
fffd
0001
0000
fffe
0001
fffc
fffd
fffe
ffff
0001
fffe
0001
fffa
ffff
fffd
ffff
0000
fffc
ffff
fffd
fffe
0002
0000
fffe
fffe
0004
0004
fff6
0000
fffb
0001
ffff
0004
fffe
0003
fffe
0002
ffff
0001
0001
0001
fffd
0001
fffd
0003
fffd
0001
fffe
ffff
0000
0003
0001
0000
0002
fff9
0001
fffe
0001
fffe
fffd
0005
0006
ffff
fffd
fffc
ffff
ffff
fffd
0000
fffb
fffc
fffd
0000
0002
ffff
0001
fffb
0000
fffe
0000
0001
fffd
0000
fffe
fffe
0003
0000
fffe
ffff
0005
0004
fff7
0001
fffc
0001
0000
0004
fffe
0004
fffe
0003
ffff
0002
0001
0002
fffe
0002
fffd
0003
fffd
0002
ffff
0000
0000
0004
0002
0001
0003
fffa
0002
ffff
0002
ffff
fffe
0006
0006
0000
fffd
fffd
0000
0000
fffd
0001
fffc
fffd
fffe
ffff
0001
fffe
0001
fffa
ffff
fffd
ffff
0000
fffc
ffff
fffd
fffe
0002
0000
fffe
fffe
0005
0003
fff6
0000
fffb
0001
0000
0004
fffe
0003
fffe
0002
ffff
0001
0001
0001
fffd
0001
fffd
0003
fffd
0002
ffff
ffff
0000
0003
0001
0000
0003
fff9
0002
fffe
0002
fffe
fffd
0005
0006
ffff
fffd
fffc
ffff
ffff
fffd
0000
fffb
fffc
fffd
0000
0002
ffff
0002
fffb
0000
fffe
0000
0001
fffd
0000
fffe
fffe
0003
0000
fffe
ffff
0005
0004
fff7
0001
fffc
0001
0000
0004
fffe
0004
fffe
0003
ffff
0002
0001
0002
fffe
0002
fffd
0003
fffd
0002
ffff
0000
0000
0004
0002
0001
0003
fffa
0002
ffff
0002
ffff
fffd
0006
0006
0000
fffd
fffd
0000
0000
fffd
0000
fffc
fffd
fffe
0000
0002
ffff
0002
fffb
0000
fffe
0000
0001
fffd
0000
fffe
fffe
0003
0000
fffe
ffff
0005
0004
fff7
0001
fffc
0001
0000
0004
fffe
0004
fffe
0003
ffff
0002
0001
0002
fffe
0002
fffd
0003
fffd
0002
ffff
0000
0000
0004
0002
0001
0003
fffa
0002
ffff
0002
ffff
fffe
0006
0006
0000
fffd
fffd
0000
0000
fffd
0000
fffc
fffd
fffe
0000
0002
ffff
0002
fffb
0000
fffe
0000
0001
fffd
0000
fffe
ffff
0003
0001
fffe
ffff
0006
0004
fff7
0001
fffc
0001
0000
0004
ffff
0004
ffff
0003
ffff
0002
0001
0002
fffe
0002
fffe
0003
fffe
0003
ffff
0000
0001
0004
0002
0001
0004
fffa
0002
ffff
0003
ffff
fffe
0006
0006
0000
fffd
fffd
0000
0000
fffd
0001
fffc
fffd
fffe
ffff
0001
ffff
0002
fffa
0000
fffe
0000
0001
fffd
0000
fffe
fffe
0003
0000
fffe
fffe
0005
0004
fff7
0001
fffc
0001
0000
0004
fffe
0004
fffe
0003
ffff
0001
0001
0002
fffe
0002
fffd
0003
fffd
0002
ffff
0000
0000
0004
0002
0001
0003
fffa
0002
ffff
0002
ffff
fffd
0006
0006
0000
fffd
fffd
0000
0000
fffd
0000
fffc
fffd
fffe
0000
0002
ffff
0002
fffb
0000
fffe
0000
0001
fffd
0000
fffe
ffff
0003
0001
fffe
ffff
0006
0004
fff7
0001
fffc
0001
0000
0004
ffff
0004
ffff
0003
ffff
0002
0001
0002
fffe
0002
fffe
0003
fffd
0003
ffff
0000
0001
0004
0002
0001
0004
fffa
0002
ffff
0003
ffff
fffe
0006
0006
0000
fffd
fffd
0000
0000
fffd
0001
fffc
fffd
fffe
ffff
0001
ffff
0002
fffa
ffff
fffe
0000
0001
fffd
0000
fffe
fffe
0003
0000
fffe
fffe
0006
0004
fff7
0001
fffc
0001
0000
0004
fffe
0004
fffe
0003
ffff
0001
0001
0001
fffe
0002
fffd
0003
fffd
0002
ffff
0000
0000
0004
0002
0000
0003
fffa
0002
ffff
0002
ffff
fffd
0005
0006
0000
fffd
fffd
0000
0000
fffc
0000
fffc
fffd
fffe
ffff
0001
ffff
0002
fffa
0000
fffe
0000
0001
fffd
0000
fffe
ffff
0003
0000
fffe
fffe
0006
0004
fff7
0001
fffc
0001
0000
0003
fffe
0004
fffe
0003
ffff
0001
0001
0001
fffe
0002
fffd
0003
fffd
0003
ffff
0000
0000
0004
0002
0000
0003
fffa
0002
ffff
0002
ffff
fffd
0006
0006
0000
fffd
fffd
0000
0000
fffd
0000
fffc
fffd
fffe
ffff
0001
fffe
0002
fffa
ffff
fffd
0000
0001
fffd
ffff
fffd
fffe
0003
0000
fffe
fffe
0006
0003
fff7
0000
fffc
0001
0000
0003
fffe
0004
fffe
0003
ffff
0001
0001
0001
fffe
0002
fffd
0003
fffd
0002
ffff
0000
0000
0004
0001
0000
0003
fffa
0002
fffe
0002
fffe
fffd
0005
0006
0000
fffd
fffc
0000
0000
fffc
0000
fffb
fffc
fffe
0000
0002
ffff
0003
fffb
0000
fffe
0000
0001
fffe
0000
fffe
ffff
0003
0001
ffff
ffff
0006
0004
fff7
0001
fffd
0002
0001
0004
ffff
0005
ffff
0003
0000
0002
0002
0002
fffe
0003
fffe
0004
fffe
0003
0000
0000
0001
0004
0002
0001
0004
fffa
0003
ffff
0003
ffff
fffe
0006
0006
0000
fffe
fffd
0000
0001
fffd
0001
fffc
fffd
ffff
0000
0002
ffff
0002
fffa
0000
fffe
0000
0001
fffd
0000
fffe
ffff
0003
0000
fffe
ffff
0006
0004
fff7
0001
fffd
0001
0001
0003
fffe
0005
ffff
0003
ffff
0002
0001
0001
fffe
0002
fffd
0003
fffd
0003
ffff
0000
0000
0004
0002
0001
0004
fffa
0002
fffe
0003
ffff
fffd
0006
0006
0000
fffd
fffd
0000
0000
fffc
0000
fffc
fffd
fffe
0000
0002
ffff
0002
fffa
ffff
fffe
0000
0001
fffd
0000
fffe
ffff
0003
0000
fffe
fffe
0006
0004
fff7
0001
fffd
0001
0001
0003
fffe
0005
ffff
0003
ffff
0001
0001
