012c
013e
0120
0117
012d
010c
0123
0120
0131
0111
0128
011c
011d
0124
0119
0130
0126
012d
0122
012b
0121
0121
0110
0117
011c
0118
012a
0125
0126
0128
012f
012b
012f
0117
0127
0146
012d
0128
0133
0132
010e
012a
0121
010e
0146
0113
0128
011a
0131
0130
0135
0120
0130
0134
0118
0129
0128
0122
0126
0133
012e
012f
012f
0117