fffb
0003
0013
ffe9
0013
ffe2
fffd
ffe2
0002
ffe0
0007
fff3
0001
0009
fff5
0003
0018
fffa
000d
fff8
fff9
fff7
ffe6
0017
0009
ffee
fffc
fff6
fffb
fffa
fffa
fff8
fffa
fffc
fffe
001c
0001
fff9
0001
000a
0012
fffe
000f
000e
fffd
0011
0017
000b
000a
000c
fff9
000c
000b
fff7
fff6
fff3
0004
ffda
ffe3
0005
000c
0003
ffee
0013