0022
fff6
0013
ffe9
fff2
0005
0003
ffe9
ffea
0002
fff4
0011
fff3
000d
000f
0007
fffe
0007
0005
ffff
000d
0003
ffe6
fffc
0005
0023
fff9
0011
ffef
0013
0002
0004
fff2
0004
fff8
fff4
ffea
0011
000e
fff5
000f
000e
fff2
fff4
fff2
ffef
ffe9
fffd
fff8
0013
ffe8
0013
fffd
0037
0017
0017
0006
fff7
0002
ffff
fff6
ffeb
ffe8
0007
000f
ffea
fffa
fffa
0003
fffc
0004
0007
0001
0013
0008
000e
001c
fff5
ffec
0008
fffd
fff8
fff8
0007
000e
fff1
0004
000d
0009
fffc
fff6
ffef
fff2
000b
ffe8
001e
fffd
fffb
0014
0019
fffb
0015
0009
fffa
fff8
fffc
fff5
0004
fff3
ffeb
000a
fffe
000b
0028
fffa
ffef
0019
fffe
0001
fff3
fff2
0005
ffe0
0007
fffb
ffed
fffa
ffe0
0008
0012
0008
0013
fff7
fffe
0023
0013
fffd
0019
0003
003a
ffff
0013
ffd3
fffa
ffe7
0007
0018
fffa
fff5
000a
fffc
0008
fffb
ffed
0000
fffd
ffea
fff9
0000
fffd
ffeb
fff8
ffdf
ffe8
0019
ffff
fff7
0008
fff9
fffb
0009
0017
0002
0011
ffff
fffd
fff2
0004
ffef
000b
ffef
0006
ffff
0000
0013
fff6
0003
fff3
fffc
0014
fffd
ffe2
0009
ffe9
0000
0017
001a
ffed
fff4
ffef
ffff
000b
0011
0020
fff5
fff8
ffef
fff8
001a
fff3
fff0
fff5
fff5
000a
0007
000b
0004
fffb
000c
ffef
fffc
fff1
0021
fff7
000e
ffef
ffff
0006
0003
ffeb
0003
fff9
fff9
ffff
0001
0002
0012
0013
0001
ffe8
fffe
0001
ffff
000c
000a
0001
fff7
fff3
000f
ffe8
fffc
0000
0004
0020
0002
fffe
0024
0007
ffe9
fff1
0005
000a
ffe3
fffd
0000
0004
ffdb
ffd9
ffe0
0005
0016
ffec
ffee
000f
fff7
0015
fff7
002d
0003
ffc0
0003
0002
000e
0021
0004
000e
000d
fff6
0015
fff0
001f
fffd
0006
000b
0013
0014
0002
0004
0004
fff4
ffed
0011
fffe
0021
ffd8
fffb
003a
ffdc
0013
0013
fff1
ffe1
000a
000f
ffde
0007
fffa
ffe0
fffe
0008
000d
fffb
000b
0021
0013
fff3
000a
fff5
fff1
0015
0005
0034
ffe6
0009
ffcf
fff5
0011
fffa
0011
fff6
ffee
0015
0000
0000
0007
fff6
001c
fff2
fff1
fff8
0019
fffa
fff4
fffe
ffe0
ffed
0013
ffe9
000a
0009
fff8
fff9
000a
0003
001b
0021
fff9
fff5
ffe8
0009
fffe
0014
0002
0009
fffc
fff9
001e
ffef
0001
ffee
fff5
0020
fffc
fff3
0004
003b
0002
ffe8
000b
0010
000a
ffe5
fff8
fffd
fff9
ffff
000d
ffdd
0006
0004
fff7
ffe7
0011
0007
000f
fff6
fffc
fffa
0007
0004
0008
fff1
0014
0012
ffee
fffe
000e
0029
fffa
000c
ffef
fff4
000a
fff5
fff0
fff8
ffef
000c
ffec
000b
0010
0004
ffea
ffea
fffa
fffa
0004
0018
fffe
fff1
fffc
002a
ffed
fff5
fff6
0000
0012
0017
000f
0014
0019
fff7
fffa
000d
000a
0005
ffed
fff7
fff6
ffec
fff0
001a
0017
0001
fff6
0003
0017
fff7
fff7
001a
fffb
000f
0007
0020
0002
ffe3
ffe9
0013
0009
ffe9
ffe8
001c
ffe4
fff3
0000
0010
fff5
ffed
0002
0000
fffb
ffff
0011
ffea
ffed
0008
0002
fff7
000a
0010
fff0
0000
fff6
001a
0008
0008
0011
ffff
ffec
fff6
0005
fff9
ffef
0006
ffe8
fff4
0006
0016
000e
0008
ffd2
002c
0001
0004
fff7
0004
0003
fff8
ffeb
001d
fff7
ffff
ffeb
0026
ffef
fff5
001c
fff5
fffc
fff0
fff0
000b
0013
ffe0
0003
0004
001b
fff3
000c
ffda
0001
000f
000a
0007
001c
fff7
0015
000f
ffdb
ffef
000c
0008
fff7
000d
ffe9
003f
fffc
fffc
0020
ffe6
0002
000b
ffe8
0023
fffb
ffe5
ffdf
0000
000d
ffeb
fff3
fffa
0000
0008
001a
fff6
fffc
ffcd
000b
0002
002d
fff2
ffed
fffb
ffee
0001
0000
ffe4
0004
fffc
000c
0009
fffc
fffe
0004
0019
ffe1
fff3
0010
001f
000e
0018
ffea
0005
fffb
ffe7
0005
0009
fffe
fffb
000d
ffee
000c
0003
0029
ffff
0003
fffb
0012
0008
0015
fffa
ffea
0011
0009
fffe
0010
fff4
0001
000c
0014
000a
ffea
ffef
0002
fffc
fff3
0019
0004
ffea
fff4
ffb9
fffe
fffb
0025
0007
fff7
0016
ffec
0013
0012
fffe
0018
ffee
0002
0013
0011
0018
0016
0002
fffa
ffe9
000e
fff8
000e
ffde
fff1
ffff
0008
0009
fff3
000b
fffb
ffe4
0009
0000
0005
0019
fffa
ffe9
000a
ffef
fff8
0003
ffe6
000e
fff0
0010
0008
000e
0009
ffde
fff5
0018
0001
0017
000b
ffd4
ffe8
001e
fff5
0001
fff9
fffe
ffee
ffde
0018
000d
0017
0023
ffeb
0004
0016
000d
0009
0007
ffe6
fffa
fffd
000c
ffec
000d
ffff
001d
ffd9
0009
fff8
0017
0007
0014
fff4
001e
fff3
0001
000f
fff4
0002
ffff
ffdd
ffe9
0005
001e
ffff
ffff
000b
fff7
fffd
fff2
000b
000d
ffe7
002a
0002
0009
fffa
fff6
0003
0010
fff3
001e
ffff
0019
0004
fff7
fff9
0002
fffa
0000
000e
0033
0003
fff8
fffa
0011
0010
ffeb
fff6
ffeb
0005
ffe6
0004
0017
000a
fff8
fffe
000b
000a
fffb
0019
0004
0013
fffd
ffe2
0010
fff8
fff6
ffff
0013
fff8
ffe0
fffa
0001
fffb
fffc
000a
fff4
0010
000a
fff1
fffd
0002
0009
0005
0016
0017
ffea
fffe
ffe8
ffff
002b
0007
fffa
0004
fff4
0001
0013
0016
fff1
000c
fff5
000d
000c
0007
0020
fff7
000a
fff2
ffe6
001c
fff6
fffc
fff3
fff9
0007
0006
0004
fffd
ffff
0011
fff2
fffb
ffe4
000e
0000
ffff
fffa
0006
ffe6
000b
fff7
0000
0001
0004
000b
0001
fffb
0016
0018
fffe
fff2
fffb
0002
ffed
0004
ffff
0007
fff4
0004
0012
ffe5
0008
fff6
0000
0003
fffb
ffec
fffc
ffe2
000b
0008
fff1
ffec
fffa
fff9
000e
000e
fffc
0000
ffff
0001
0003
000e
0001
0009
002b
ffef
ffe5
0001
fff4
ffd7
0010
0005
ffe2
000d
0009
0012
ffe5
0005
ffed
0010
000d
0011
fffb
fffe
0000
fffc
000b
0013
0006
fffe
fff1
0005
fff8
ffdc
000a
fff4
0008
ffee
0021
0004
000c
fff5
0004
0002
0011
0007
0006
0004
fff6
ffda
0003
0013
000e
ffe0
ffff
0011
fffd
fff5
0004
ffea
fff9
ffdc
000a
0003
003b
fff9
0000
fffc
fff6
0003
000a
fff8
0001
fff8
fffa
0011
0000
fff1
000b
0001
ffe3
ffff
fffc
0010
000e
fff6
fff2
0010
fffe
fffb
0009
0007
fff7
fffc
fff9
ffee
ffff
fffd
000d
0003
0005
ffec
0001
fff4
ffff
0007
ffe0
0014
000b
0009
000e
ffde
0003
0006
ffff
0012
0008
ffe2
fffd
000d
fffc
0001
0005
ffea
0003
ffd5
000f
fffc
001e
000e
fff7
0009
fffe
0011
0006
fff5
fff8
fffa
fff4
000d
0000
fffb
0009
000d
fff0
0008
ffff
000f
0002
0001
fff2
0003
0001
fff8
0009
fffe
fff9
fffc
ffe4
fff2
000d
000b
0007
fffb
fffb
fff7
0004
fff6
0001
fffe
ffea
001e
0005
000d
0001
fff1
0015
000e
001b
000d
ffff
fffa
ffff
001a
0008
fffe
ffd0
fffc
ffc9
000d
fff2
0007
000c
fffd
0015
000e
0013
0047
ffe0
ffeb
fff7
ffee
ffec
fffa
fff6
001a
fff0
001b
0029
fff4
0001
fffb
0002
fff5
fff1
0003
0012
fffa
ffed
0012
000f
0012
fff3
fffb
0007
fffe
ffe4
0000
fffd
0000
fff2
fff5
000b
fff9
0011
0007
ffeb
fffd
ffec
fff6
000c
000b
000a
fffd
0001
ffec
0002
001a
fff0
fff0
ffff
fff5
ffd6
0017
000b
0017
0023
fffa
ffec
ffef
001d
0029
ffe1
fff2
0004
0002
ffe0
0002
fff0
0023
ffff
0018
0000
ffec
0006
fffe
fffc
000f
ffe7
0020
0014
fff4
fff4
fff2
ffee
ffde
ffe2
fff1
0009
000e
0009
fff3
fff6
ffe7
000e
0001
0002
0020
0009
0009
0005
ffee
000e
ffe6
fff1
fff8
fff9
0002
0002
fff3
fff0
000c
fffb
000f
fffd
fff1
fff0
ffd7
000d
ffff
0014
000e
ffea
0009
0006
000a
0002
0002
0002
fffa
0008
000d
ffe9
0002
0006
000d
ffec
fffe
fff9
0010
fffb
000b
fff5
0015
ffef
fffe
fffc
0002
ffff
0004
fffb
ffde
0000
000f
000b
fffc
0014
fff3
fff6
0005
0001
0005
ffe5
0015
fff7
000b
fffc
ffed
fff4
0012
ffe1
fff1
0003
ffcd
0004
fffd
ffe5
0006
0013
fff6
0004
ffc1
002a
0006
000c
0000
ffe9
001a
0012
0002
ffff
0003
0001
0005
0000
0007
ffe0
0006
ffef
0022
ffd8
0004
ffed
0014
0001
0020
ffe9
000e
fff9
ffe7
fffd
0001
0002
fffd
fff4
ffec
000a
000d
000e
0004
0019
ffec
0004
0007
fff2
0015
fff5
0010
fff7
0004
fff7
fff2
0012
000f
fffc
fff3
0000
001c
ffec
fff7
000e
000c
fff4
0044
fff3
fffb
0008
001d
fff0
0004
0016
0027
ffde
ffe7
0009
0001
000a
0008
0008
ffd3
0003
0005
ffc8
001f
ffd7
ffea
0028
0008
fff7
fff1
fffe
fff3
fff6
001b
0003
0036
0021
0002
ffff
0009
0003
fff7
fff3
0015
ffff
fffc
fff3
ffd2
0014
0005
0012
001a
001d
ffdc
0025
0019
ffec
fff2
ffed
ffe3
000a
0020
ffff
ffe1
0008
ffea
0012
000f
0022
003b
000e
000b
fffb
fff7
000a
ffd8
0002
fff2
0003
fff5
000d
0019
fff7
fff3
000d
fffd
fff6
ffef
ffdf
fff1
0015
fff4
0017
0011
fff6
ffff
fff7
0004
0007
fff4
ffff
0019
0003
fff2
fffd
0003
ffee
0015
ffe8
0009
0024
ffef
0009
000b
fff6
ffec
fffd
ffef
0016
0010
fffc
fff8
fffd
ffed
fffc
0016
0019
fffa
0007
fff5
fff7
0016
000c
0030
fffe
fff5
ffcc
fffe
0013
0003
0007
ffe9
ffe9
0009
000a
0003
000c
fffe
0009
fffb
ffeb
fff5
001c
fffb
fff1
fffa
ffef
0001
0015
ffe2
0009
0003
ffff
000c
fffc
0006
001f
0022
fff5
ffdc
fff1
0003
ffff
000b
0005
001a
fffe
ffff
0021
fff1
0003
fffc
ffed
0025
000a
ffe0
fffa
000b
0010
ffe7
fff4
0009
0007
000a
fff8
fff0
0001
ffda
0004
0001
000c
0003
ffe7
fffc
0003
0010
fff8
000d
fffa
0002
000c
0006
ffec
0013
0001
000b
ffef
fffb
ffe9
000a
0001
0011
fff8
0013
ffe4
ffe5
fff7
0008
ffff
fff9
ffff
ffee
ffff
0005
0015
0006
000e
fff6
fffe
fff1
fffa
000b
ffea
001a
fffe
fff9
0003
fff6
0009
0017
ffdd
fffa
fff4
0000
0017
fff5
ffde
0008
001d
ffff
fff7
0003
0014
ffe9
0033
0006
001f
fffb
ffe9
001a
002d
ffd5
0011
0007
0008
0008
0001
000b
0002
ffe3
ffef
000e
000c
fffc
0010
0019
000c
0010
fff1
ffe9
ffee
0005
ffe2
fff6
ffea
0010
0014
0012
ffeb
0014
ffe5
0011
0002
fffa
0003
0001
ffdc
0010
fff5
ffee
000c
fffd
0006
ffe7
0005
000a
000a
001f
000c
0007
0011
fff3
ffe2
001d
0001
0046
0005
0017
ffe6
0003
fff2
ffe4
0019
fff1
000c
000b
fffe
0026
000e
ffee
fff3
fff3
ffec
fffe
fff2
fff4
ffe4
ffff
fff1
ffd6
0012
ffec
fffd
000a
ffed
ffe6
0007
0019
0003
000a
0004
fff4
0007
0008
fffe
0011
0002
ffff
000c
0009
0020
0003
fff3
ffd3
fff2
002d
fff3
fff5
0000
fff3
0009
0010
0004
ffe8
000b
0000
fff7
0012
0014
0019
fff5
fffb
ffd9
fff2
0012
0004
fff6
fff7
ffe7
000d
0002
0003
0007
ffee
000d
001b
0004
fff2
0013
0005
0000
fff5
fff0
0000
0014
fff6
fff7
fffb
fffd
0001
fffc
ffff
0018
0018
ffee
fff2
fffc
0003
000d
0003
0000
0003
fff3
0005
0007
fff2
fff1
fffb
0007
001a
0009
0007
ffee
0018
fff6
fffc
fff5
fffd
fffd
fff8
0006
fffd
fffa
ffe7
0009
fff4
0019
000d
fffa
ffff
0011
0009
000e
fffa
0002
fff2
fffa
fff8
fff7
fff9
0005
0007
ffe6
000c
0000
0006
fff4
0024
ffe4
0015
0004
fffa
ffe5
fff5
fff7
fff9
ffee
ffeb
0002
000e
0007
0004
fffc
fff2
fffb
fff5
0009
0001
ffe8
000d
0009
fff5
000a
fff5
fffd
0008
fffb
0014
fff3
0005
ffd9
0002
000f
0004
fff3
0016
0002
0000
0014
ffec
ffed
ffff
000a
0025
0016
fffc
0003
000b
ffec
ffef
0018
000b
ffee
fffa
fff7
0017
0002
0006
fff1
0005
0007
000d
ffea
fffc
0013
fff8
0007
fff6
fffa
000f
ffff
ffe0
ffee
0013
ffe1
fff7
fff5
000a
fff6
000e
001d
0001
000e
fffe
ffee
fff0
ffe3
fff4
ffee
0001
0003
0002
fff4
0019
fffc
ffea
fffd
ffef
0000
0011
000f
0026
fff7
fff3
ffec
0006
0016
fffb
ffff
fff9
0004
fff6
0009
fffd
ffff
fff5
0018
fff2
0005
ffff
0017
000a
0001
fffa
fff1
ffed
fffe
fff8
000a
0005
fff9
fffa
ffff
0002
0010
0015
0002
ffee
fff0
0007
ffef
0010
0016
fff1
0005
000f
0008
ffea
fffa
fff5
0002
0014
ffed
fff8
0022
fff8
ffff
fff4
0002
000f
fff9
0006
fff5
fff4
0000
ffeb
ffff
0007
0018
0006
fffc
fffe
fffb
000d
000d
fffb
fffa
000b
ffe6
000d
fff8
ffec
fff8
fffa
fffd
fffa
0001
001d
0006
ffca
0005
0015
ffed
fff0
0016
000a
fff1
000f
fff1
fff7
0015
fffc
fff2
0004
0002
000c
0007
ffe3
0001
0020
ffec
0013
0000
000b
fffb
ffdd
ffec
0004
fffb
ffe0
fff5
000f
ffee
0005
fff8
0008
fff0
0014
001a
0004
fffc
fff6
fff1
fffd
0013
ffec
0003
ffed
0017
0000
000b
000d
000b
ffe4
0007
ffec
002a
fffd
ffe3
000f
fffb
fff8
001c
0000
001c
0001
0004
0021
ffff
fff1
fff7
0010
0015
002e
ffd3
ffe7
0012
fffb
000e
ffef
000e
ffde
0018
ffee
0018
fff6
001b
fff7
0006
002a
0004
ffdd
ffec
ffee
ffeb
0007
0019
ffff
001e
fff5
fff8
0010
000e
001e
0012
fffb
ffea
ffec
0013
ffe5
0002
0000
fffb
fff5
fff5
0001
0010
fff1
0005
0003
0001
ffec
fff7
0016
0016
fffd
0007
fff6
0014
ffdd
0004
0008
0014
ffef
0007
000b
0019
001b
0013
fff9
0004
0000
0027
ffe8
0005
ffff
ffea
fff4
0019
0001
0007
ffea
0015
0005
000b
fff7
ffff
0000
fff7
ffee
0002
0006
0006
fff3
000a
fffe
ffea
ffd5
0007
0005
000c
000c
0002
000f
fffd
000f
fffd
fff7
fff6
fffe
fffb
001e
0004
ffff
0006
001d
ffea
ffff
ffeb
0003
0005
0000
0008
000d
0002
fff3
0005
000d
fff1
0004
fff7
0005
0003
000f
ffff
fffb
0005
0000
fff1
000b
fffd
fffb
ffea
001d
0013
000c
fffb
ffec
fff5
0007
fff6
000b
ffff
ffea
fff7
0010
fff7
0005
fff9
ffea
fffa
ffda
0005
fff4
001d
000b
fff0
0004
0001
0011
000d
fff7
fffd
ffee
0006
0002
fff5
fffa
0005
000b
fff1
0007
0001
0016
0006
0003
ffee
000a
fffd
fffe
0003
fffb
ffff
fffa
fff6
ffef
000c
000e
000e
fff9
001b
fff1
0008
fff2
fffe
0002
ffe5
0018
0002
0003
0007
ffec
0005
000f
fffe
fffe
0015
000b
fff5
0013
0014
fff8
000a
fffd
0001
0014
ffe6
0017
0011
ffff
ffe6
0000
0001
0012
ffe6
000b
ffeb
0008
0007
0021
fffb
fff7
0003
000f
fff6
ffd4
0011
ffe4
fff8
fff7
001a
0022
fffd
0012
ffef
fff8
ffec
fffc
ffea
fff3
ffd6
0000
000a
fffe
ffe2
0007
001a
000a
fff3
0008
0005
ffee
003b
001b
fff6
0010
fff3
0017
fffd
0008
0000
fff0
fff0
000a
fffb
0004
0000
fff3
fff4
ffe3
0001
0010
0018
0004
fff0
0014
0004
0004
000c
fffd
ffff
0001
0006
000b
fff5
0006
0000
0013
ffe2
0002
0001
000a
000c
0007
fff2
000f
0005
fffb
fff8
0009
0001
fffb
fff1
ffea
fff2
0011
0000
000b
0009
fff0
fffd
ffff
000a
0006
ffe3
0011
fffd
0016
0007
ffee
fffe
0011
0019
ffe7
fff7
0019
002c
ffef
0005
001c
0022
0021
fff9
fffe
ffef
fff3
ffdc
0000
ffe0
ffe5
ffe8
fff6
0011
001b
0019
fff1
0011
0008
fff3
000f
ffec
fff1
fff6
000a
fff7
0006
000e
001b
000b
0007
ffe5
ffef
0002
fff8
0011
fff2
000e
0017
000b
ffea
0019
000a
0007
0015
ffea
0013
000b
fffb
ffef
fff9
fff1
fff7
fffe
ffde
0003
ffed
000f
000e
0009
ffee
ffff
0016
0002
0000
fffe
ffed
fff3
ffd6
0008
fff5
0034
0012
fff0
fff7
ffff
0018
fffb
fff0
fff1
fff9
ffe3
0020
fffa
fffb
0007
0007
fffd
fffb
0003
fffb
fffd
ffff
0004
000c
fffd
0004
000f
fffd
fff5
ffff
ffe4
0001
0018
000f
0017
ffec
0000
fffa
000d
0004
fffb
ffff
0004
0016
000d
fffb
ffef
ffee
0015
000c
000a
003e
ffdc
0000
ffe6
0022
002b
fffd
ffe5
0038
ffe0
000a
fff7
000d
001a
ffec
ffed
ffd8
ffd3
000e
0013
fff6
ffec
ffe1
0002
fff7
002e
0002
ffeb
000c
0015
ffe1
fffd
ffed
0006
fff5
fffe
ffff
000a
000e
ffd8
fff9
0004
0000
ffff
0009
0010
0027
fff3
ffff
0005
fff5
ffc2
fffe
0006
ffd8
0003
0012
0005
0003
002b
ffda
ffdb
0004
ffe1
fff9
000c
ffe3
fff3
000b
ffe3
ffff
0012
0003
ffef
ffca
0016
0000
0014
fff9
ffef
000d
0011
0003
ffff
fff1
fff4
fff2
000e
0008
0000
000f
0000
0022
ffdb
fffe
0003
0003
0009
001b
0002
001a
ffff
ffee
0014
fffd
0000
000a
0000
fff4
0001
0009
000d
0003
000e
0000
fff7
ffff
0002
0003
0001
0001
0002
fffb
0003
ffe5
000b
000e
0014
fff8
fff2
ffed
0009
001a
fff1
0004
ffe9
fff6
fff9
0004
ffed
ffe4
ffd7
fffa
0003
0028
000f
0007
fffb
0004
fff1
ffea
001e
0004
fff3
0019
fffe
0008
0025
0016
ffea
fff3
ffe1
fff9
0016
ffe9
0015
fffd
0027
000b
000e
fff6
0024
0015
fff1
ffe6
fffd
ffed
000f
0018
ffed
0027
0010
0003
003f
fff6
0001
0003
ffe4
0021
fff0
fff3
fff9
ffeb
ffff
0024
000a
fff5
000c
0009
0002
0034
000c
002c
0002
0006
ffdf
ffe1
000c
fffa
fff6
fff6
ffea
0008
0012
0010
0005
fff3
000a
0003
ffed
ffff
000f
ffec
0012
ffeb
0001
fffd
0017
ffee
fffc
000c
000b
ffff
000b
0016
0012
0011
fff4
ffec
fff8
0014
fff0
0002
fff9
0005
fffb
ffea
0024
ffd2
fff9
ffed
000e
0018
000a
ffe6
fff6
fffc
0005
ffda
fffc
0003
fff4
ffff
0017
ffd6
000b
ffe2
0017
ffff
001d
fffd
ffec
0003
0013
0009
0000
0001
0000
ffff
0003
000f
fff3
0008
0015
0005
ffe7
0001
fffd
0006
0005
001c
fffe
001a
ffef
fffa
0000
0001
fffa
0003
fffb
ffe6
0010
0003
0014
ffff
0000
ffee
fff8
0002
fffa
0007
ffeb
0005
0009
0004
fffd
fff6
000d
0006
0003
ffe0
0001
fffd
0003
ffeb
0012
000f
fffa
000e
0012
002b
0000
0002
ffe0
ffeb
ffec
fffa
000b
0004
fffa
0011
fff3
ffff
0021
fff9
0009
ffff
fffd
0003
0027
fff0
0006
fffa
fffa
0013
0002
fff2
fffc
fff3
0002
0003
fff9
fffe
000d
000c
fff5
fff6
0002
000c
fff5
000a
0003
0019
fff9
fffd
0003
ffd2
0004
0004
fff3
0016
0017
fffa
0010
0007
0001
001b
000e
fff9
0009
ffea
0000
fff3
0007
0030
fffb
fff8
fff9
fffd
0021
ffee
fff9
fff1
0005
fff3
ffff
000c
fff4
fff9
0008
fff0
0001
ffdb
0010
0011
000a
fff9
fffc
fff4
0006
ffee
fffa
000f
0002
fff5
fff6
0011
0013
fffc
0005
fff5
fffb
fff7
ffef
0007
0000
ffec
fff1
0000
0011
0001
ffff
fff8
000a
0004
fffb
fffa
0011
000d
0008
ffec
fff7
0008
fffb
000b
fffb
fff6
fff2
ffed
fff2
fffb
0017
0010
fff1
fff8
fffd
001b
0014
fff3
fff0
fff8
0004
0008
0001
fff5
0007
000b
0002
000e
0004
001b
fffd
ffe9
ffe9
fffb
fffb
ffe3
fffe
0001
ffe2
fff4
ffe7
fff7
0000
001a
000a
0003
0001
0005
000a
fffe
fffb
0005
ffe1
0016
fff8
0009
fffe
ffed
fff9
001a
001b
0019
fffe
000e
0002
0011
fffc
ffff
ffd1
ffdf
0003
0015
ffd0
0003
ffef
001b
0004
000e
000d
fff3
000e
0023
fff0
ffed
fffd
0001
001f
ffee
0024
fff1
003b
0010
ffde
fff5
fffb
ffe4
000a
fffa
0003
fff4
0006
fff7
fff9
fff7
000c
001c
0000
ffef
ffe6
ffef
fff3
fff5
ffe7
000c
fff6
0011
fff9
fffc
0003
001e
ffe0
0006
fffb
fffe
fff7
0014
0000
0037
fff7
ffe8
0024
000d
0004
fffb
0009
001b
fff2
001a
001e
fff5
0003
ffd3
ffeb
fff3
0022
ffeb
0008
0014
ffd9
0005
0028
fff1
0017
ffe7
fffe
fff6
0024
fff3
0019
ffe5
ffff
001a
ffed
fff7
ffe4
ffea
0000
0011
ffec
ffee
0009
001d
000c
fffc
ffed
fff8
0002
ffe0
fff6
ffef
ffd2
fff5
fffa
0000
002c
fff9
0002
0019
fff6
fff1
0008
001e
0008
ffe4
fffc
fff9
000a
0005
0025
002d
fff9
fffd
ffda
ffe8
001c
fff7
000c
ffde
ffeb
0012
000e
0011
fff1
fff3
0005
0008
fffe
fff2
ffff
0004
fff5
fffe
ffff
0005
000f
fff5
fffe
ffe9
0009
fff7
fffc
0007
001d
0004
fff3
ffe6
fff9
000e
ffeb
0009
0014
fffe
0003
0009
0024
ffdd
fffa
fff0
fffe
001d
000f
fff0
000a
ffee
fff8
0017
000b
fffa
0013
0006
fff2
001e
0003
0031
fff4
0002
ffea
ffef
000c
0001
fff6
0000
fff9
0001
fffd
0005
000c
fff3
0008
fff9
ffee
ffeb
001d
0003
0007
ffed
fffa
fff6
000f
ffe5
000a
0012
fff8
0007
0012
0004
000c
0010
fff5
fff5
fffa
0004
fff7
0009
fff7
000c
fffd
ffeb
0018
ffe8
0000
fff6
0001
0011
fff7
ffeb
fffb
ffee
fff5
0010
0014
fffa
0005
fff2
000e
0008
0011
0028
ffff
fffb
ffea
fff7
0018
ffef
fffc
fff9
0000
fffa
000d
0022
0004
fff4
001b
0001
ffff
ffea
fffb
fff9
0007
ffec
0001
fff1
0013
0004
0008
0005
fff3
ffee
0009
fff9
000e
0008
0002
fff6
ffff
000a
ffec
000a
0005
fffa
fff9
0007
000a
fffd
fffd
fff9
0001
001c
0005
ffec
0001
fffc
0004
000a
0012
fffe
0002
fff3
fff5
001f
0007
0023
fff1
0002
ffdb
fffa
0015
0003
fff6
ffef
fffe
000c
ffff
0013
0001
0002
000c
000e
fff4
fffa
000b
fff9
0000
fffa
0003
ffef
000a
ffdf
0012
000f
fff1
000c
0017
fffc
000c
000a
0003
fff1
fffe
fffe
fffd
0009
fffe
000d
fff2
0008
0014
ffed
0000
fff7
fff9
001c
0000
fffb
ffd9
fff8
fffc
000c
fff9
0004
0002
000e
fffd
fffd
fff3
ffe3
0013
0011
fff5
0002
fffd
ffe9
0011
fff1
ffe3
0005
0006
ffea
000e
fff1
ffcc
0001
fff1
0007
0010
ffff
fff1
0010
0009
0026
0005
0020
fff0
fffa
0000
fffc
fff7
0007
ffff
0000
ffe6
ffff
0010
0001
0008
0002
fff9
0007
0013
fff3
0007
fff8
000f
ffed
0001
0011
fff7
ffec
ffe5
0001
fff5
fff4
0013
000f
fff7
ffee
fffe
fffd
fffb
ffea
0000
000a
0018
0002
001f
0005
ffd5
0003
0019
fff1
0015
0036
ffea
000e
0028
001f
ffef
fff1
ffd3
ffe7
fff7
0001
0019
fff1
fff9
0005
0005
0022
ffee
0008
0009
ffe9
fff1
ffe1
0034
0003
0011
0004
000c
0009
fff3
0001
ffe7
0037
ffff
0015
0021
0004
fffd
0002
0004
0016
0000
0001
fff7
ffe2
fffd
000e
ffe8
0002
fffb
0012
0003
ffd8
000c
fff6
0007
fff6
fff7
0012
0011
0004
ffe9
0017
ffe2
ffee
fffc
000c
ffe5
0000
fffa
0028
ffec
fff2
fff7
0007
0018
001a
fffd
0028
0013
ffea
0001
001a
000a
fff7
fffc
0000
fffe
fff8
000d
fffd
000b
fff6
000e
fff4
000b
ffff
0004
fffd
0000
0018
fff8
ffe5
0003
0001
fff4
fffd
000a
ffe3
0018
001a
000e
0011
fffd
fff5
ffd8
ffea
0012
ffee
0004
ffff
000c
0009
fffa
000d
fff7
ffec
0014
ffee
002b
ffda
ffe2
0019
0009
fff9
ffca
ffef
000d
0012
ffff
fffa
fff0
ffed
0004
0007
fff3
fffd
ffe6
0002
ffe8
ffee
0000
0016
ffee
000f
0010
ffea
0005
0006
0008
0035
ffe8
003b
000d
ffed
fffe
fffd
000b
0014
0036
fff1
ffd1
001b
0008
fffc
fffe
0009
ffc5
000c
ffdb
0019
ffe2
fffc
0002
000e
ffff
000d
fff6
0018
fff9
fff8
fffc
fff0
fff6
0008
000a
fffe
ffef
0003
000c
0003
fffd
ffee
fffc
fff8
fff4
ffe3
000c
000e
fffd
0002
fff2
fffb
fffe
fff5
0008
0029
ffeb
ffe2
0007
fff8
ffdf
0021
0015
0003
001f
0026
fffc
0009
fff0
fff8
0006
0005
fff5
0017
0003
fff2
ffe9
0001
ffee
0004
000b
ffe5
fffd
ffe6
000a
000e
0020
0010
ffe8
fff9
0000
0009
0013
ffec
fff5
000c
fff9
000f
0001
fff3
000b
000c
ffe9
0019
fffb
fffd
000e
0006
fffb
0019
fff4
fffd
fffc
fff8
fff9
fffc
ffe7
ffed
fffc
0012
0014
ffff
0000
fffa
fff6
fff4
0003
0001
fff0
0014
fffa
0004
000c
ffe3
0007
0002
0001
fff5
001e
000c
fffc
fff3
0015
0003
fffe
0009
0016
0040
0000
000a
ffee
0007
000d
ffe9
ffe7
0006
fffb
fffe
0007
0010
ffe9
000d
000f
fff3
0005
fff0
001d
0003
000a
0003
0004
0002
fff6
ffde
fffa
fff5
ffff
ffe4
fff6
0016
0009
000a
000f
fff9
0002
0002
ffe0
ffe8
0009
fffc
fff3
0008
ffd9
fffe
ffee
0005
000c
0018
0006
0000
ffe2
000c
fffe
ffee
ffe5
000b
fffa
ffeb
000c
fff0
fff9
ffee
000c
0007
0019
0007
fff2
ffed
0008
0006
001f
fff4
ffde
0004
fff2
0001
0012
fff8
000b
000e
ffde
0009
0000
fff9
001e
0013
ffe7
001d
fffb
fffa
fff1
fff0
fffe
0009
fff0
ffed
0008
0019
0012
ffff
0005
fffd
0004
ffed
fffe
0018
ffdb
0001
ffff
0010
0000
ffd8
ffff
0024
ffe3
ffcf
0021
ffee
ffee
fff8
ffdb
0004
0019
ffe4
0008
ffe9
0012
0008
fffb
0005
fff8
0013
003c
fff5
ffdc
000b
0007
ffe0
000d
0008
ffe5
0012
0011
0013
ffff
0002
fffc
ffff
0001
0019
fff7
0017
ffed
ffc5
001e
ffff
fff2
000f
0004
fffa
ffe8
ffe6
0007
fff9
0006
0006
001b
0000
fff8
0012
0004
fff3
fffb
000c
0003
0016
001e
000c
ffeb
0001
fffe
fffc
0025
ffe2
fff1
0001
0004
001d
0010
ffca
0032
000a
0028
0004
0006
fff6
ffe0
fff7
fff4
fff0
0018
0042
fff2
fff3
ffe2
ffeb
ffed
0002
ffc7
ffd4
0012
0026
fffb
0011
001d
0014
fffa
0021
0005
0002
000a
ffed
ffd6
fff3
0013
0012
fffb
0027
0004
fff6
0013
ffe3
fffa
ffee
ffe2
000c
001d
ffd3
0003
ffff
000f
ffd6