0009
fffe
0004
fffd
0002
ffff
0008
0008
0005
ffff
0000
0000
ffff
0000
fffc
fffe
fff9
0007
0000
fffd
fffc
0004
0002
0004
0000
fffe
0007
0000
0003
0002
ffff
0002
fffc
ffff
0003
0001
fffe
0000
fffe
0003
0001
0004
0002
0002
0001
fff9
0000
fffc
0001
000c
ffff
fffc
0000
0006
fff9
0002
fffe
ffff
0002
0006
0001
fffb
0003
ffff
0002
0000
0001
0000
0002
fffd
fffd
ffff
0003
ffff
fffb
0001
ffff
fffb
0000
fffc
fffd
0002
0007
fffa
fffb
0001
0000
fffd
0002
0002
0000
fffe
fffa
ffff
0000
0006
fffd
0003
ffff
ffff
000a
fffe
fffe
fffe
0005
fffa
0001
fffb
ffff
fffb
0002
fff8
fffc
0001
fffd
fffd
fffe
0003
0006
0005
0003
0004
ffff
0000
fffd
fff9
0001
0005
0004
0000
fffc
0001
0004
0000
ffff
0000
0002
fffa
fffe
fffa
fff9
fff6
fff8
fffd
ffff
000a
fffb
0002
ffff
0005
0000
fffa
fffc
0000
0000
fffd
0001
ffff
0001
ffff
0002
0004
fffc
ffff
0004
0006
fff9
fffb
fffd
0004
ffff
fffe
fffd
0003
0001
fffc
0001
ffff
0001
fffc
fffe
0001
0002
fffe
fffe
0000
0002
0001
fffc
0006
fffd
0000
0000
0001
0003
0001
fffd
0002
fffb
0000
0004
fffd
0000
0002
0001
fff0
0001
0000
0002
0005
fffe
0003
0002
ffff
0004
ffff
fffe
ffff
0002
0000
0004
0001
0000
ffff
fff1
ffff
000a
ffff
fffc
ffff
fffc
fffe
0000
0000
fffd
fffa
fff3
0006
0004
ffff
0008
000a
fff7
fffd
0003
0005
0003
fffd
fffd
0000
0002
0006
0001
fff1
0000
fffe
fffd
0002
fffd
0007
0007
fffe
0007
fffe
0002
0002
000d
fffd
0002
0001
fffc
0001
0001
0001
0003
fffe
fffe
fffe
0000
fffe
ffff
fffe
fffd
0008
0000
0002
0002
ffff
ffff
fffc
0006
0001
0005
0003
fffe
0000
fffe
fff9
fffd
fffe
fffd
fffe
0003
0003
0003
0002
0002
0000
fffe
0001
0007
ffff
0008
fffd
0002
0000
0000
0001
0004
0002
fffd
fffe
0000
fff7
0001
fffc
fffb
0002
fffe
0001
0000
0003
0003
0001
0000
fffd
000b
0004
0005
0000
0002
0000
0004
ffff
0003
0006
0000
0003
0002
0002
0004
fffa
ffff
fffe
fff9
fffc
fffe
0005
0000
fffe
0002
0001
fffe
0003
ffff
ffff
0000
fffe
ffff
fffc
fffc
0004
0000
fffa
ffff
0006
ffff
0001
fffe
0003
ffff
fffe
0000
fffc
0001
0000
0004
0002
fffe
0006
0002
fffe
fffd
fffd
0003
fffd
fffc
0003
0003
0004
fff9
0009
0007
fffa
0007
0001
0001
fffa
0000
ffff
fffb
0002
fff8
0006
000e
0002
0004
ffff
0003
0004
0004
fffe
fffe
fffd
fffc
0007
0002
0003
0001
fffb
0004
ffff
0000
ffff
0000
ffff
fffe
0004
0000
fffc
ffff
0003
fffd
ffff
0001
0003
fffd
0002
0005
fffe
ffff
fffc
fffe
ffff
0003
fffb
0001
0003
0006
ffff
fffa
0004
0004
0007
0002
fffd
fff8
0006
ffff
0003
0000
ffff
ffff
0002
0000
fffe
fffb
0001
fffb
0005
0004
fffd
fffb
0007
000b
0000
fffb
fffd
0003
fff6
fffb
fff7
0001
fffe
fffd
0000
0000
0002
fffe
fffd
0002
0002
ffff
0002
ffff
fffc
0001
fffa
fffe
fffe
fffe
0003
fffc
0007
fffd
fffe
fffe
0004
fffe
0002
0004
ffff
fffc
0006
0009
0001
0004
0000
fffe
ffff
0007
0001
0003
fffe
fff9
0006
fff9
fffc
fffc
0003
0007
0006
ffff
0001
0005
0000
0005
0001
0006
0002
0005
0004
0000
ffff
0000
fffd
fffe
fffe
0004
fffa
fffe
0001
ffff
0003
ffff
0004
fffa
fffd
fffa
fffe
fffd
fffe
fffe
0002
ffff
fffe
0007
0003
fffd
fffd
0001
0001
0002
ffff
fffe
fffc
0002
0001
0003
0001
fffe
0002
fffb
0003
fff9
0006
0002
0006
ffff
0001
0001
0009
0008
ffff
0001
fffc
fff8
0002
0007
0003
0001
0002
0003
0004
ffff
fff8
0002
fffd
0002
0007
fffd
0003
fffa
ffff
000a
0003
fffb
0001
0001
fffc
fffb
0000
0000
fffe
0002
fffd
0005
fff8
0001
fffc
fff8
fffd
0002
0003
fffd
0002
fff8
ffff
fffe
0004
fffd
ffff
0007
fff8
0001
fffd
0001
fffb
0007
fffc
0001
0001
fffd
ffff
0003
ffff
fffa
ffff
0003
0008
0002
000e
fffd
0006
0003
fffb
fff8
0003
0000
fffa
0000
ffff
fffb
fffa
0000
0002
0000
fffe
0009
0001
0005
0000
0000
0000
0009
0003
0005
ffff
fffc
0002
ffff
fffe
0000
0002
fffe
fffd
fffc
0004
fffd
ffff
fff3
fffb
fffd
0000
0002
ffff
fffe
0004
0002
0004
0003
0008
ffff
0002
0005
fffb
0002
fff8
fffa
0002
0000
0001
ffff
fffc
ffff
fffc
0002
0002
ffff
ffff
0004
fffd
0002
0002
fffc
0003
0006
0006
0004
0009
fffc
0002
0004
fffd
0000
ffff
fffe
0001
0003
fff7
fffb
0003
0000
0002
0002
0005
0002
0002
0001
fffe
fffd
0000
0006
0000
0001
0001
0002
fffc
ffff
fffb
0001
fff8
fffa
ffff
fffe
ffff
fffd
0000
fffa
ffff
0001
0008
0002
fffe
ffff
0004
0005
0001
0000
0001
0000
0001
0000
fffb
0002
fffe
fff7
0002
fffc
fffb
fffa
0007
0008
0001
fffd
0007
0003
0005
0006
fffb
fffb
0001
000a
0001
fffe
0000
fffe
0003
0006
0005
0001
0000
0001
0006
fffe
fffe
fffd
ffff
0007
0005
0000
ffff
fff8
0002
0000
ffff
fffc
0000
ffff
fffc
0005
fffe
0000
ffff
0001
fffe
fffe
0003
0003
fff5
0000
0000
0004
fff6
0004
0004
fffb
0000
fffe
fffb
fffe
0004
fffa
0008
0004
fff9
0002
ffff
0001
fffd
fffd
0002
0001
fffc
0004
0005
fffb
fffe
ffff
fffb
0000
fffe
0003
ffff
0008
ffff
0008
0000
fffe
0006
0005
0004
0004
0002
0008
0001
0001
0000
fffe
fffd
0005
0002
0000
0001
fffe
0003
fffe
0000
ffff
fffe
fffe
0009
0006
0003
fffd
ffff
ffff
0000
ffff
0001
0000
ffff
fffc
fffe
fffc
0003
0002
0001
0003
0001
ffff
0000
0004
fffe
fffd
0005
fffe
0007
0005
fffd
0000
fffd
fffc
0003
0002
fffc
fffc
0003
fffd
0003
0002
fffa
0000
fffc
0000
0002
0000
0003
0003
0002
fffb
0003
0005
0008
0005
0005
0000
fffc
0003
fffe
fffd
fffa
0000
0005
fffa
0001
0001
0004
0009
0006
ffff
fff7
fff7
0008
0005
fffa
fffe
0001
ffff
fffd
ffff
0006
fffe
0005
fff7
fffb
ffff
0001
0001
0009
0001
0000
fffd
fffd
fffe
0001
0000
0004
fffe
0005
ffff
fffd
fffa
0000
fffd
fffd
0000
fffa
0009
0000
0001
fffd
fffb
0005
0003
fffd
fffe
000c
0005
fffe
0001
0003
0001
fffc
0002
0001
0000
0004
fffd
0002
0004
0000
0003
ffff
fffe
fffb
fffd
fffc
fff8
fff8
0008
fffe
0000
000a
0000
ffff
ffff
fff6
0003
fffc
0001
0006
fffd
ffff
0007
fffe
0000
ffff
0001
0004
fffb
fffc
0001
0002
fff5
0001
0001
0005
0000
ffff
ffff
0001
0005
fffd
0002
ffff
0001
0003
0002
ffff
0001
fffe
fffe
fffe
0003
0000
0001
0001
0007
0002
fffb
fffd
0003
ffff
0006
fffe
fffd
0003
0000
0002
0000
0005
000d
0002
0004
fffc
0005
0008
0004
fffe
0001
fffb
0009
fffb
0006
fffa
ffff
0001
0004
0000
fffa
0009
fff9
fff9
0006
0001
0000
0007
0004
0001
0003
fffe
0003
fffe
fffe
ffff
0004
0001
fffb
fffe
0001
ffff
fffa
0003
fffc
0006
fff8
0000
0002
fffa
ffff
fffe
fffd
fffc
fffe
0003
0006
0000
0004
0006
fffc
0005
0004
0005
fffa
0003
0004
fffc
0001
0002
0005
fffc
0002
0004
0004
fffd
0004
ffff
0000
fffe
0000
fffe
0004
0003
0002
fffd
fffe
fffa
ffff
fffd
0004
fffe
fffb
fff5
fffd
0009
0000
ffff
0003
0001
0006
0002
fff9
0002
fffe
ffff
0002
ffff
0009
fffd
0001
fffd
fff9
0001
0003
0000
fff8
0003
fffc
0002
ffff
fff7
0005
ffff
0000
0002
0006
0000
fffd
0007
fffb
0004
fff4
fffb
fff8
0003
0002
0005
fffd
fffb
ffff
0001
ffff
ffff
0003
0000
0002
fffb
fffb
ffff
0007
fff5
0004
0003
fffd
0001
fffe
0008
0004
ffff
0002
ffff
0002
0001
0006
0003
fffe
0005
fffd
fffd
0003
ffff
fffc
fffd
0003
0003
fffb
0004
0004
fffe
fff7
0009
fffd
0002
fffa
fff8
0003
ffff
fffb
fffe
fffd
fffc
ffff
0002
fffc
0002
0001
fffd
fffc
0002
0000
0003
0000
fffb
0005
fffc
0001
0000
fffc
0000
0000
fffa
fffd
0001
0005
0003
0000
ffff
ffff
0005
fffc
0004
0003
0001
fffd
0000
0000
0004
fffa
0004
fffb
0000
fffe
fffe
fffb
fffe
0001
0001
0001
0008
fffe
fff9
0003
0001
0001
ffff
fffc
0001
fffa
fffd
fffe
ffff
0003
0004
fff9
0001
0002
0002
0001
fffe
0006
0002
0008
0001
fffc
0000
0002
fffe
0000
fffc
0001
0001
fffa
0000
0001
0008
fffc
0003
0001
fffb
0001
0003
0001
fffe
0003
fffe
fffe
fffd
0002
ffff
0002
fffc
0000
ffff
000a
0000
fffc
fffe
fff9
0000
0008
fffe
0001
ffff
0001
0001
0001
ffff
fffd
0001
0000
0002
fffe
0004
ffff
0001
fffe
0002
0000
fffd
fffb
0003
0003
0001
fffc
ffff
ffff
ffff
fffc
fffa
fffc
0001
fff8
fffd
0006
0000
0000
0008
0005
000a
0004
0006
fffe
fffa
fffe
0000
0003
0005
fffc
0005
0006
fffc
fffd
0001
ffff
0002
0003
0001
0007
0001
fffc
0002
fffb
0001
0003
0002
0007
0002
0002
0000
0001
0002
0006
fff9
fffe
0007
fffa
fffb
0005
0004
fffd
0004
fffd
0001
0004
ffff
0004
0000
0001
fffc
0001
0005
0001
fffd
fffb
0002
fffd
fffe
0003
0001
fffe
0004
fffe
ffff
0006
fffe
0007
0003
fffd
fffd
0003
0002
fff9
ffff
fffb
0002
0008
0004
0002
fffc
fffb
fffd
fffe
0004
ffff
0005
0002
0000
fffa
0004
0007
0002
0005
fff6
0000
0005
0000
0004
fffc
0006
0002
0003
fffc
0001
0002
fff9
ffff
ffff
fff9
fffb
0002
ffff
fffd
0006
ffff
0002
0000
ffff
0000
fff8
0003
0003
0003
0001
fffd
ffff
0002
0006
fffb
0000
fff7
fff5
ffff
0004
fffa
0003
fffe
fffa
fffe
fffe
fffa
fffd
fffc
fffb
0003
0004
fffb
fffd
0006
fffd
fffa
0003
ffff
ffff
fff9
0001
0000
ffff
0001
fffe
0000
fffb
fffd
fffe
0000
0000
fffc
ffff
0000
fffe
0003
fffb
0003
0008
fffb
0002
fffa
fffd
fffd
fff7
0004
0006
0000
fffc
fffc
ffff
ffff
fff9
0000
fffd
fff7
fff7
0003
0002
fffd
fffb
0009
0005
0000
0004
ffff
0002
fffc
0002
0000
fffd
0004
0000
fffb
ffff
fffe
ffff
fff7
0001
fffe
fffd
0000
0002
fffd
fffa
0003
0004
fffc
0001
0003
0001
0003
0004
0002
fffc
fffa
0004
0006
fffa
0003
0000
fffb
0003
000a
fffc
fff7
0007
0003
0003
0000
0006
0000
0002
fffa
0005
0004
0003
0002
fffe
fffe
ffff
fffd
fff8
fff9
0004
0007
0001
0002
0004
ffff
fff7
0005
fffc
0001
fffe
0002
0002
0000
fffb
fffa
0006
fffa
0000
0008
ffff
fffb
fffe
0001
fffe
0000
fff6
fffd
0008
fffc
0000
0004
fff9
000b
0004
fffd
0004
0005
fffd
fffe
fffd
0003
ffff
fffd
0006
ffff
000a
0009
0005
0002
ffff
0004
fffd
0005
0003
fffc
0004
ffff
fffb
0004
0002
fffb
0000
0002
0002
fffb
fff6
ffff
0006
0002
0001
fffe
0001
0003
0004
ffff
fffe
0008
ffff
0002
0002
fffd
ffff
0007
fffe
fffb
0000
fff9
fffc
fffd
0001
fffc
0004
fffc
fffd
0009
fffe
0003
0004
ffff
0001
0000
0000
000c
0003
0004
0006
0001
fffe
fffc
ffff
fffb
0007
0003
fff8
0004
0002
0008
0003
ffff
0002
0002
fffe
0001
fffc
0005
fffd
0000
fffc
fffd
0000
0002
0001
fffd
0008
0005
0006
0005
0000
0003
fffc
0003
ffff
fffb
ffff
0008
0001
fffc
ffff
0007
fffe
fffe
ffff
ffff
fffd
0001
0000
fffc
0004
0000
fff9
fffe
fffd
0002
0001
fffc
fffa
0000
fffb
0000
0009
fffe
fff7
fffe
0008
fffc
ffff
0002
0003
0001
0000
fffe
0000
fffe
ffff
fffd
0001
0000
ffff
fffd
fffc
0001
fff9
fffe
0008
fff8
fffc
0000
fffa
0000
0004
0001
0003
ffff
0001
fffe
0000
0006
0000
ffff
0000
ffef
0003
ffff
0002
0008
fffc
0001
0001
0007
fff8
fffb
ffff
fffe
ffff
ffff
0001
0000
fffc
0001
0004
0006
fffe
fffe
0004
fff9
0002
fffd
fff8
fffc
0001
ffff
fffe
ffff
0001
0006
fff9
0003
0003
ffff
0007
ffff
fffd
0000
ffff
ffff
ffff
0000
ffff
0003
fffc
0000
0001
0001
0002
fff9
0004
0002
fffd
ffff
0005
fff9
0000
0008
0006
fffd
0004
0003
0009
0003
fffd
fffc
fffe
0005
fffc
0000
fffb
fffe
0005
0004
fffd
fff9
0003
fffe
000b
0007
0001
fffc
fffe
fffd
0002
0004
0006
0003
ffff
0001
fffe
0004
0004
0005
fffc
0002
0001
fff8
fffd
fffa
fffb
0004
0000
0001
fffe
fffe
0003
0004
fffb
fff9
0002
fff8
0000
fffe
0000
ffff
0000
fffd
0004
ffff
0000
0002
fffd
0000
0000
0001
fffd
0002
0000
fffe
fffc
fffb
0000
fffe
fffa
0000
0006
fffe
0004
0000
0002
0001
0000
fffd
fffd
0004
fffe
0001
ffff
0000
fffc
fffe
ffff
ffff
fffc
0001
0003
0000
0001
0005
0001
0000
0000
0007
0002
fffe
fffc
0003
0001
0000
0001
fffe
0002
ffff
0005
fffd
0007
fffd
fffd
fffe
fffd
fff9
ffff
fff9
0001
0000
0005
0001
0002
0001
fffe
0005
0000
fffc
fffa
fffe
0001
ffff
fffe
0001
0002
0001
0000
0001
0001
0001
0004
0001
0000
fffd
0001
0001
0005
fffd
fffd
0001
ffff
0004
0006
ffff
0004
0000
0002
fffd
0004
0003
0000
0000
fffb
fffe
fffd
fffc
fffb
0000
fffe
fffe
0000
0004
0003
ffff
ffff
0003
fffc
fffe
fffe
fffc
0000
0004
0003
0003
ffff
0001
0000
0001
fff7
fffe
fffe
ffff
0007
fffe
fffc
0001
0003
0003
fffc
fffd
0003
0002
0002
0004
fffb
0002
0003
ffff
fffe
0001
fffe
fffe
0002
ffff
fffd
ffff
fffb
ffff
0000
0000
0002
0001
fffe
0005
fffc
0000
0002
0002
0001
fffa
0002
fffe
fffd
0001
0000
0002
ffff
fffe
0001
fffd
fffd
fffe
fffe
0002
0002
0007
fffd
0001
0002
0001
0001
0002
fffc
0001
0005
fffe
fffb
0005
ffff
ffff
fffe
0000
ffff
0007
ffff
0004
0003
0000
ffff
fffd
0005
0001
0003
fffd
fffe
ffff
0001
0000
0004
0001
fff8
0003
0000
ffff
fffb
0004
0001
ffff
0002
fffe
0001
0001
fffc
fffe
0005
0000
0004
0000
fffb
0005
0000
0003
fffe
fffc
0005
fffd
0006
ffff
fffd
0006
fffe
0001
0002
fff9
0001
0001
fffa
0002
fffd
fffe
fffd
ffff
fffa
0001
fffe
0006
0005
0002
fffd
fffd
0002
0006
0006
0003
0001
0002
ffff
0002
fffd
fff6
fffa
0000
0001
0003
0004
0002
0005
fffd
0001
fffe
0008
ffff
0004
fffc
0004
0000
0000
fffb
0003
0003
fffd
0007
0002
0000
0001
0003
fffe
0000
fffc
0002
0000
ffff
fff9
0001
fffe
fff5
0002
0004
ffff
0005
0004
ffff
0003
0001
ffff
fffe
fffd
0000
0002
0004
0002
ffff
fffd
fffd
0003
fffd
ffff
0007
0006
ffff
0006
0003
0009
0003
ffff
fffc
fffc
fffe
fffb
ffff
0004
0001
ffff
fffc
fffd
0000
0009
0003
fffc
0000
0003
0003
0001
0004
0003
fffe
0000
fffd
0000
0004
0003
0000
fffa
0000
0002
ffff
ffff
000a
fffd
0002
0001
0000
0003
fffe
0005
0000
fffd
0004
fffd
fff9
0002
0004
fffe
ffff
ffff
0000
0003
0003
0003
fffe
0003
0008
0004
0000
0002
fffa
0001
fffc
0006
ffff
fffe
0008
fffc
fff6
fffc
000b
fffd
0003
0001
0000
0000
fff9
0005
fffe
fff9
fffd
0004
0003
fffd
fffe
fffe
fffc
0001
0001
0004
0002
0006
0002
0002
fffb
0000
0002
fffc
0001
ffff
fff8
0001
fffb
fffd
fffe
0002
000c
ffff
0004
0003
0004
fffd
0001
0006
0000
0001
0005
0002
0003
0003
ffff
0003
0002
fffd
0000
0004
000f
0001
0003
fffd
0003
fffb
0004
fffe
0003
ffff
fffe
0001
ffff
0000
ffff
fffb
fffa
0003
0001
0007
0006
0004
fffc
fffb
0002
0005
fffe
0000
ffff
0000
0004
0003
0003
0000
fffe
0001
0002
0003
fffd
fffe
fff7
fffd
fffc
0002
0009
0002
0000
0004
ffff
fffd
0000
fffc
0006
ffff
0003
0002
ffff
0003
0001
0001
fffe
0003
fffa
fffe
0003
0006
0004
0000
fffd
ffff
0003
fffd
fffb
ffff
0003
0001
fffa
ffff
fffd
0004
fffa
0002
0008
fffd
ffff
ffff
0004
fffe
0000
0001
fff9
0002
fffd
fffe
0008
0003
ffff
ffff
fffc
0004
fff6
0000
fff8
0003
ffff
0003
0000
0001
ffff
0003
0001
fffd
ffff
0003
ffff
0005
ffff
ffff
fffd
fffd
0003
0006
0005
fffd
0001
0007
0004
0002
fffe
ffff
0007
0002
ffff
ffff
ffff
0005
fffb
ffff
0002
0002
fffd
0006
fff8
fffd
0002
0002
fffe
0001
ffff
0002
0005
0001
0002
fff8
0001
fffd
ffff
0004
0000
0001
fffd
0004
0003
0001
0002
0000
0004
0002
ffff
fffa
fffa
0004
ffff
0003
0004
fffd
0007
0003
0006
ffff
0008
0004
0002
fffe
0003
ffff
0002
fffa
0006
0003
0005
0001
fffb
fffd
fff9
0002
fffc
fffc
0001
0001
fffb
0006
0005
fffb
0004
fffb
ffff
0003
0003
0000
0003
0000
0002
0000
fffe
0002
0005
0001
fffb
fffe
0005
fff6
fffd
0006
0002
0003
0001
fffd
0004
0001
0004
0000
fffd
0000
0001
0008
0004
fffd
0001
fffd
0005
0001
fffd
fffd
0003
0002
0001
0000
0004
ffff
fff6
0003
0002
ffff
fff9
0000
0003
0002
0004
ffff
0000
ffff
fffd
fffb
fffc
fffe
0004
0001
0001
0002
fffe
0008
0003
fffb
0004
0004
fff9
0001
ffff
ffff
0000
fffd
fffc
fffc
ffff
0000
0000
0003
fffc
fffc
0001
0002
0004
0000
0001
fffc
fffe
fffa
0000
ffff
0003
0001
fffb
0002
0004
0001
0002
fffe
ffff
fffe
fffa
0004
fffb
fffd
0002
0002
0004
fffd
0003
0005
ffff
0002
0000
fffe
0003
fffb
0001
0006
0001
fffe
0000
fffb
0003
fffe
ffff
0002
ffff
0004
fffc
0003
0003
ffff
0004
0001
0007
fffd
fffe
fffb
fffe
fffc
0003
0001
fffc
0002
0004
0006
fffb
0001
fffd
0002
0004
fffb
ffff
0001
fffe
fffe
0000
fffd
0002
0001
ffff
0000
0001
fffa
ffff
fffb
fffe
0003
0002
0001
0001
0001
fffe
0007
fff1
fffe
fff8
fffb
0001
ffff
0001
0002
fffe
ffff
fffc
0005
0003
fffd
ffff
fffc
fffb
fffd
000a
0001
fffc
0000
0000
0000
0000
0004
fffb
0009
0001
0000
fffe
0000
fffe
0007
fffd
0000
0001
0002
0006
0001
0006
ffff
0003
0002
fffc
0002
0003
0006
ffff
0001
ffff
0001
fffd
fffb
fffc
fffd
0003
fffd
0001
fffc
fffc
0009
fffd
0002
fffa
fffe
fffb
fffd
0001
0009
fffa
ffff
fff9
0004
ffff
fffa
fffe
0004
0002
0000
0005
fffe
0003
fffc
0002
0002
fffc
0002
fffd
0003
0001
fff9
0006
0008
0002
0002
0002
fffd
0002
0000
ffff
ffff
fffa
0002
0000
fffd
fff9
fffd
fffe
0000
0001
0003
fffd
fffd
0000
0001
fffc
0001
ffff
0001
0003
0002
0001
fff8
0004
0005
0003
0003
fff9
ffff
fffd
0000
fff7
0000
0001
0000
ffff
0001
0001
0003
0004
0001
ffff
0000
ffff
0004
0004
fffe
0000
0002
fffa
0004
fffc
ffff
0005
ffff
0002
0001
0000
0005
0002
0001
0005
fffe
0001
ffff
0001
0000
fffb
ffff
0002
fffb
0001
fffb
fffb
fffa
fffd
ffff
0000
0005
fffe
0000
0001
0003
fffe
0001
0006
0006
0000
0002
0002
0002
fffc
ffff
ffff
0003
fffe
fffa
0002
fffd
0001
0000
ffff
ffff
0000
0003
fffd
fffb
0002
0000
ffff
0004
0005
ffff
0001
0000
0004
fff6
0005
0003
0005
0001
0000
fffc
fffb
ffff
0000
fffb
0001
fffb
fff9
fffe
fffa
fffb
fffc
fffe
fffd
fffc
fffa
0007
ffff
0000
0002
0000
fffc
0002
0001
0000
fffc
fffe
fffb
fffe
0005
0000
0009
ffff
0001
0000
fffe
fffd
0005
0001
ffff
fff9
ffff
0002
ffff
fffe
0001
0008
fffb
0000
0002
0003
0000
0004
0002
0002
ffff
0004
fffb
fff1
fffb
0002
fffc
0003
ffff
fffb
0001
0001
fffd
ffff
0003
0004
0000
0000
0001
fffe
0000
0002
0002
0006
0001
fff9
0007
0000
fffd
ffff
fffc
0002
0003
0002
0002
fffe
0001
0002
0002
ffff
0002
0000
fffc
0001
fffe
0003
0000
fffa
fffd
0000
0000
0002
fffe
0002
0004
fffe
0003
0002
0001
fffa
0001
0001
fff7
0002
fffd
fff6
0001
fffd
fffa
fffe
fff6
0005
0002
0001
ffff
0001
0002
fffd
ffff
0000
0003
0001
fffd
fffb
fffb
0001
fffe
0004
0002
0004
0002
0002
0005
0001
fffe
fff9
0005
fffb
fffb
fffe
0000
ffff
ffff
fffe
0001
0000
0009
0002
0002
ffff
fffe
fff7
0003
0002
fffd
0000
0000
0001
0001
fffb
0000
ffff
0001
0006
0005
0006
ffff
0003
0000
0001
0002
0006
0004
0001
fffd
fffd
ffff
ffff
0002
ffff
ffff
0000
0001
0003
fff9
0004
ffff
0008
0001
fffd
0006
0004
0007
0003
ffff
ffff
0001
ffff
fffe
0001
ffff
0002
0004
0000
0001
0000
0007
fffe
0005
ffff
0003
0003
0004
fffe
fff7
0006
fffb
ffff
0000
0002
fffd
ffff
0001
0000
0002
fffc
0000
ffff
0001
fffd
0001
0002
0004
0002
0002
fff9
fffe
0002
0000
0002
ffff
0000
ffff
0002
fffd
0004
fffb
0000
0002
0005
ffff
0009
ffff
fffc
ffff
fffa
0002
fffe
0000
fffe
0002
0007
0001
ffff
fffe
0006
0002
0005
0004
fffe
0002
0001
0005
fffe
0004
fffc
0001
fffe
ffff
fffc
0007
0003
0000
0005
0001
0001
0001
fffe
000a
0000
fffd
0003
fffe
fffd
fffe
fffb
fffd
ffff
0007
0001
0002
fffb
0007
fffe
fffd
0000
0001
0006
fffd
0000
0002
0002
fffc
0002
0006
fffe
0001
0007
0001
fffd
0002
fffa
0000
fffd
ffff
0009
0002
fffb
ffff
0003
0001
0005
fffe
0005
fff3
0001
0000
0004
fff9
fffe
fffc
0000
0004
fffe
fffb
fffc
fffd
fffe
fffc
0005
fffd
0006
ffff
fffe
0001
ffff
0003
0000
fffc
0004
fffd
fffe
ffff
fffa
fffd
0003
0002
0007
0005
0002
fffe
0005
0001
0002
ffff
ffff
fffd
0003
0001
fffe
0001
0003
fffd
fffd
0003
fffb
fffe
ffff
0002
0002
fffd
fffe
fffb
fffb
fffc
fffd
ffff
fffe
fffd
fffc
0002
fffe
fffc
fff9
0006
0006
fffe
0006
0000
0001
fffd
fff7
0001
0000
0003
fffd
0004
ffff
0001
0001
fff9
0003
fffe
fffe
0004
fffe
0006
0001
fffe
fffb
fffc
0003
0005
ffff
ffff
0002
fffd
fffd
0005
0004
0005
fffe
0000
fffd
fffc
ffff
fffd
fffa
0002
0004
ffff
ffff
0002
fffe
0009
0001
0000
0001
ffff
0003
0007
fffd
fffe
0005
fffd
0000
0003
0002
0002
ffff
0005
0002
0004
0001
0001
0003
0000
0002
fff9
fffc
ffff
fffc
fffd
ffff
0000
fff9
0003
0002
0002
fffa
0006
0008
ffff
fffe
0009
fffe
fffd
0003
fffb
0000
0005
0005
0006
fffe
fffd
fffe
0004
fffe
0000
0004
fffc
0003
0004
0006
fffe
0005
ffff
ffff
fffd
0001
0002
0003
ffff
fffc
0002
0000
0002
0009
0006
fff9
0004
0003
0002
fffb
0003
0004
0003
fffb
fffd
fffb
fffd
fffe
0002
0003
000f
0004
0000
fffd
0003
fffc
fffe
fffe
0001
0002
ffff
fffb
fffd
0008
ffff
0006
0004
0000
0000
0003
0002
0002
0000
0003
0002
fffe
fffe
fffc
0007
fffb
fffc
ffff
0002
fffb
0002
ffff
fffe
ffff
fff7
0001
fffc
0001
0002
0004
fff9
ffff
fffa
fffe
fffe
0007
0002
fffa
0001
fffd
ffff
fff7
fffb
0000
0000
0001
0000
0004
0007
0000
0001
fffd
0000
0001
0001
ffff
0000
fffe
fffe
fffc
0006
ffff
0001
fffd
0000
0000
fff9
0004
0003
0004
0001
ffff
0003
ffff
fff6
ffff
0000
0003
fffc
fffa
fffd
fffb
fffd
fffb
ffff
0002
0000
fffe
fffb
0002
0002
fffc
fffe
0001
fffc
fffb
0006
0006
0001
fffc
0002
0002
0001
fffa
0004
0007
0006
ffff
0003
0001
0002
0003
0004
0007
0004
fffb
0004
0003
0000
fffd
0002
fffd
fffc
fffe
fffe
fff8
0001
fffc
ffff
fffc
ffff
ffff
fffe
fffd
0002
0003
0001
fffc
0001
0000
ffff
fffc
fff8
fffc
0000
0008
ffff
ffff
fffe
0004
fffd
ffff
fffe
fffb
ffff
0001
0008
0004
0004
fffd
fffd
0000
000e
0001
fff8
fffe
0003
0000
0001
0008
fffd
0005
fffa
fffa
0000
ffff
0004
0001
0001
0000
ffff
0003
fffc
fffd
ffff
0003
0001
0000
fffc
0001
0003
0002
fffe
0002
0002
fffd
0004
0000
0004
0002
fffd
0001
0003
0002
ffff
ffff
0005
0003
fffc
0000
ffff
fffc
0002
0004
0002
0004
0002
0001
fffe
0005
0003
0001
ffff
0001
0003
0003
0003
fffc
fff9
0001
fffe
fffc
0003
0000
fffd
fffd
fffb
fffd
0007
ffff
0001
0003
fff8
ffff
0003
fffa
fff8
0004
fffc
0001
ffff
0001
0005
0001
0005
fffd
0008
0008
0000
fffe
0004
0004
0000
ffff
0002
ffff
fffd
fffe
fffb
fffa
0001
0003
0006
0006
0003
0009
0000
fffd
0000
fffb
ffff
0005
0001
fffe
ffff
fffe
0008
0004
0001
0005
fffd
ffff
fff8
ffff
0000
fffb
fffe
0005
0006
fffd
0001
0007
fffc
fffe
0002
ffff
0003
0004
0001
fffe
fff8
fffc
0000
0002
0001
0001
0003
fffe
0005
0006
0002
ffff
fffd
0000
fffe
fffd
fff8
0002
0003
fffe
0002
0002
0000
000d
0009
0005
0001
fffe
0002
0005
fffc
0006
0001
fffe
fffb
ffff
fffe
0003
fffd
0003
fffb
ffff
ffff
0003
fffe
0001
fffe
0000
0000
ffff
0004
0006
0001
0002
fffa
fffe
fffe
fffd
0000
0000
0006
0002
ffff
fffd
fffc
fffb
fffc
0001
0003
0006
fffe
fffd
fffa
fffe