0003
0005
fffb
000d
0002
000a
0001
0003
0003
0005
fffd
fffa
0001
fffd
fffb
0001
fffd
fffd
fff7
0000
0000
0000
0009
fffc
fffe
0005
ffff
0006
ffff
0002
fff9
0004
0002
0003
fffe
0003
ffff
fffb
ffff
0001
fffa
0002
fffb
fffa
fff9
fff6
0003
0000
0000
fffe
fffe
fff5
0001
ffff
000e
fffd
0001
0009
0007
ffff
fffc
fffd
0001
fffb