0002
ffe8
0015
0007
fff9
0016
000a
ffff
0005
0012
fff9
000b
ffef
0007
fff8
fff3
fff7
0010
0017
fffc
0003
0012
ffd9
fffe
000f
fff0
fff4
0010
fffa
001e
fff4
000f
fffe
fff3
fff7
0003
ffe6
ffe0
001b
ffd8
ffee
0007
fffb
ffea
0007
ffee
0007
fff6
0000
ffd8
fffd
ffe7
001d
0015
fffe
0002
0011
0004
001b
fffe
fffb
fffd
fff8
0015
ffef
fff2
000c
fff9
ffe8
fff5
000f
0006
001e
0010
0011
fffb
001a
0004
ffef
0006
0005
fffc
ffec
fff3
000f
fff6
000f
0015
000c
fff3
0014
fff5
000b
0004
ffed
0008
0004
000f
0000
0005
ffef
0004
fff6
ffeb
000b
000c
fff7
0000
0009
ffe4
0011
fff2
fff2
0012
ffef
ffff
0012
0011
ffec
000a
0011
fff4
fffe
0001
0010
fff3
fff5
fffe
ffd9
001f
fff5
000b
0009
fff8
0015
fff8
ffde
0007
000b
fff4
000a
fff0
0006
002c
fff8
001f
001e
fffc
0013
0006
0009
fff7
fff0
ffd9
000d
ffe9
ffdf
000a
ffff
fffb
fff2
fffe
ffd9
0008
fffa
ffe6
0009
001a
0006
ffe6
0001
0006
001f
0009
000a
0017
ffe3
ffe3
0003
0011
0003
0009
fff0
fff2
fffa
fff2
0001
fff8
fff7
000e
0003
0014
fff3
0016
0022
0009
0020
ffe8
ffd2
ffce
001b
fff2
0005
ffec
0000
fffc
0034
0004
ffe8
000c
ffff
ffe0
ffec
ffe1
ffec
0008
0018
0007
0020
ffdc
ffeb
ffea
0035
fff4
0018
fff2
0005
fffd
002e
fff3
000a
fff6
0029
ffe6
fffc
fffa
001a
0014
002b
fff9
fff7
fff4
ffe1
000f
ffec
fff5
fffa
ffff
ffd4
ffd9
0021
0014
0004
0020
0007
0020
0018
0005
0015
000e
000d
0000
fff1
0019
ffed
fffd
ffeb
fff8
fff9
ffe1
000d
ffdd
0013
000e
001b
0014
ffdb
000c
fff1
ffdc
fffe
0006
fff2
0030
0020
0007
fffe
ffd8
0000
0002
0007
ffef
0001
000a
0007
fff1
fff0
0009
fff2
fffd
fff3
fff6
fff4
fffa
fff4
0002
ffea
fffa
000c
001d
000c
001b
0023
fff8
0005
fff7
fffb
fffe
002f
ffea
fff0
0028
000b
ffe1
001b
ffed
0004
ffea
ffdf
000d
0012
ffdb
0019
fff1
0015
0036
fffc
0025
0015
fff6
ffdf
ffe7
fffd
fffe
000c
0012
0016
ffd6
fff7
ffe4
003d
ffd1
0033
ffdb
ff9b
0025
0007
ffe6
0000
ffff
0019
fff0
0002
0001
0034
000a
0013
000a
ffe2
ffd9
000c
0015
fff9
000d
fffd
0012
fff5
fff0
ffe6
0015
ffe8
0024
001b
000c
000e
000e
0014
000a
fff4
0007
fff5
fffd
fff4
ffe8
ffea
000b
ffd9
0007
fffa
ffd8
0011
0008
0000
003b
000f
0012
0010
0012
003b
ffdc
002a
fff7
0004
fff6
fffa
fff4
0001
0013
fff1
ffe8
ffca
fff7
ffe6
001b
ffe7
0009
0014
ffe8
ffda
0023
0001
000e
ffe0
fff9
001a
0008
ffec
0024
0003
0018
000a
fffc
fff2
000f
fff4
ffef
fff2
0014
0006
fff9
fffc
0004
ffee
000d
0011
fffe
0011
000d
001e
ffee
0007
001b
000a
001a
0012
ffe9
fffb
ffe3
0005
0024
0009
fffc
002d
0001
fff9
ffe3
ffeb
001c
000e
fff7
0005
ffef
fffc
fff6
0007
ffe9
ffde
ffee
0004
0005
0003
fffb
ffc9
fffe
fff0
ffde
0003
ffe1
0027
0008
0001
0019
0023
ffe1
000f
0005
fff9
000e
ffe7
ffdf
0000
ffec
fff1
0002
0017
ffed
0023
fff7
0012
0008
ffd4
0010
0003
ffef
0010
fffe
0003
0002
fff0
0012
0019
ffee
0003
0001
fff7
ffed
001e
fffc
0005
0002
ffdb
001b
0014
ffef
0014
0000
000a
fff4
000a
ffd5
001f
fff0
0007
fffc
fff3
0017
fffc
0000
0009
fff7
0007
ffe2
0007
000c
001f
000c
001b
fff3
fff1
fff4
002b
0008
ffec
fff9
000b
0003
fff2
ffe1
fffc
000d
000a
001c
000b
0002
001c
001e
000a
0005
fffb
ffff
fff5
ffd6
ffe7
ffd7
ffdb
fff2
ffdf
000e
fffb
000a
002a
000d
ffe2
fff2
0020
0008
ffcc
0040
ffec
0029
0019
fff0
0016
000c
ffe0
ffed
ffee
000d
000f
ffe8
fff4
fff0
ffe0
ffda
004d
000c
0000
0007
ffe2
0010
0019
fff9
fffd
000f
fffb
ffe4
0017
fffa
fff3
0000
000f
ffd3
fffd
0029
001b
0004
0022
fffb
0000
0003
001c
fff9
fff0
0018
0019
ffdf
0020
ffed
ffe2
0004
0002
002f
0015
ffee
fff5
0014
ffdf
0019
001c
0001
ffe4
000e
000b
ffe3
0004
ffef
ffe9
fffd
ffe5
ffca
ffd8
000e
fff7
ffe0
ffe4
ffd0
ffed
fffd
000a
0005
000e
ffee
0018
001b
0007
0027
000c
0003
0024
000f
000f
fff8
0001
ffea
0021
ffe3
000d
0039
ffd4
0038
fff4
002b
0037
001b
ffe5
0014
fffd
fffc
ffe0
ffe0
0004
ffc7
fff6
ffe0
fff7
002a
ffdc
0007
ffdc
0002
ffa6
0005
ffff
0017
ffde
0019
ffe9
0004
001b
fff0
fff1
fffc
0013
ffe2
ffdd
0023
0016
ffeb
ffe4
fff8
ffd6
000b
0026
0009
003a
ffe6
0014
ffe7
ffec
0016
000a
001f
fffb
ffe5
0010
ffe2
ffe7
fffd
fff4
0003
ffef
0025
0003
0001
0002
ffed
001c
ffd4
ffdc
0029
fff8
0004
001b
0010
000e
0016
fff5
001d
0012
ffdb
fffa
0007
ffda
0001
0008
ffe6
0001
ffd3
fffb
000c
0003
0019
0010
0005
fff3
001c
0011
0022
fffe
0010
ffec
fffa
000c
002b
0018
001e
0018
ffff
fff8
fff9
ffcd
ffed
fff1
fff3
ffcd
fff6
ffde
0007
000a
0020
ffde
fff4
ffdf
003b
000d
ffe5
0037
ffd9
0016
ffc7
ffc3
fff1
0014
ffe8
fff3
fffe
0020
0024
ffff
0008
0026
fffa
ffdb
ffd9
ffd5
003c
001f
0001
0018
0004
ffce
ffd0
0027
0003
fff9
ffed
ffd6
fff2
0038
ffe0
0019
003e
0033
0006
fffd
0041
ffe9
001b
fff7
002b
fff2
ffc7
ffff
0023
ffcd
ffee
0000
0021
fffa
fff1
fff7
ffe9
ffe9
000e
002f
0015
fff1
0003
fffa
fff2
ffdd
000c
ffff
0000
0014
000a
ffe2
0005
0010
fffb
ffe4
0007
ffee
000b
0016
ffe9
ffeb
0019
0015
ffec
0000
000d
0001
0018
fff4
0013
0015
ffd4
ffeb
000c
ffff
0016
000a
ffef
0013
0021
000d
fff8
0015
0012
fffb
000d
ffeb
0002
0009
ffde
001f
fff8
fff5
fffe
0014
ffff
0006
fffa
ffef
0005
fffa
ffdf
ffee
0002
fffe
fffc
0010
ffef
ffd0
0006
ffe8
0004
000b
001a
0009
0020
ffe6
0006
ffe5
fffe
ffe5
ffb5
fff6
0015
000a
000d
000b
001d
0022
0001
ffef
0028
0004
0022
ffbc
0028
ffd8
ffe9
0029
0001
0014
0016
ffd3
ffe8
fff1
002a
0017
ffee
ffef
ffed
ffb3
ffe4
0033
0024
fffc
ffc5
003c
ffff
0036
001b
001d
001d
fff7
ffdd
0019
ffd0
0024
fffd
0024
fff4
0026
002b
ffd3
0008
ffdb
0020
001e
001d
ffe5
0033
ffb7
ffed
ffca
fff3
ffec
fff3
ffcd
000e
0059
0015
0022
ffd2
fffb
ffcc
ffee
ffe8
fff9
fff6
ffc5
0013
fff3
0044
003a
ffb1
ffb5
0021
0008
ffec
ffd2
0018
0011
0024
ffaa
fff7
ffee
0002
000a
004c
0003
0007
0029
0009
0000
ffe8
0008
002f
ffdb
ffc8
0018
ffeb
ffd9
0017
0012
fffa
0011
fff6
0025
0003
fffc
0000
fff1
fff3
fff9
fff5
0005
ffed
0003
ffed
0015
000b
0008
0006
fffa
ffff
0018
ffee
fff4
000c
0014
000e
0006
0015
000c
fff8
0017
fff3
fff1
fff1
fffd
ffde
fff3
ffd9
0014
0001
fff9
fff4
ffe5
ffed
fffd
fff5
ffff
0009
ffd9
fff9
0025
000f
0003
fffa
0025
000d
0029
ffeb
0001
fff6
0014
ffea
0001
0006
0006
0001
fff4
0011
ffe2
fff3
0005
000c
fff5
0015
0004
000b
0011
ffe6
ffed
fff0
0005
000c
0018
ffed
0011
0007
0003
0000
ffea
0018
0002
0022
fffa
0005
0011
ffec
fffa
ffff
fff3
000b
0010
ffd4
000e
ffff
fff4
ffe7
0003
0006
ffe7
0000
002a
0016
ffdf
fffe
0033
ffea
fffb
ffff
0034
000c
fffb
fff0
0010
ffea
ffe9
ffe4
fff8
ffc1
0003
fff1
ffeb
000f
0009
0032
0025
0035
fff1
000d
0012
ffcd
ffd3
ffbf
ffee
ffe2
fff1
ffc0
002e
003e
000f
fffb
0009
ffed
ffd2
ffb1
0019
0012
ffb4
000f
fffc
000a
0022
0002
fff6
0001
0024
ffdf
ffbe
ffcb
0022
0016
0003
ffba
ffeb
fff2
0036
0037
fff8
ffe8
0036
0022
0027
ffe9
fff9
003f
000b
0009
0012
ffe8
ffcf
fffd
fff9
000a
0004
0014
ffc4
0037
ffe6
0015
000d
0034
fff7
001b
003f
ffd8
ffc3
ffec
fffd
fff7
fff0
fffc
ffd3
0034
0012
ffef
000f
ffec
ffc7
0008
fff3
000d
ffd3
0008
0006
0027
000f
fffd
fff9
0027
004d
001a
ffe8
fffd
000d
000c
ffc5
ffdf
0002
ffe4
0054
0006
0019
001c
fffb
0002
fff9
0009
002a
fffb
ffd3
fffb
ffe7
ffeb
ffc7
fff3
fff4
ffe4
fff5
ffe1
0038
000f
001d
ffff
ffe3
000a
0023
ffe2
0007
fffc
0005
fff2
002e
001f
ffef
0006
fff0
0012
ffeb
002b
002b
0001
fff7
ffe7
0005
fffe
0000
0011
0000
ffed
fff2
000b
0018
fff8
fff9
0014
ffe4
0007
000e
ffb7
001c
ffd6
000f
0003
001d
0000
fff3
fff3
ffe2
0007
ffe6
0002
000c
ffed
0012
000c
fffc
fff0
0014
0011
fffe
0017
fff5
ffdb
001e
ffe1
ffcf
fff6
002f
0005
001d
0000
ffef
001b
0006
fff3
fff2
0020
ffe3
001b
ffd8
ffec
fff5
0001
fff3
001e
001b
0001
0050
ffe7
fffe
000d
ffd5
0006
fff3
0005
0011
001b
ffcb
0029
0010
001a
0005
ffba
0026
0032
0002
fff8
0009
001a
ffe6
000e
ffdb
ffce
ffd9
fff0
fff9
0004
ffe0
fff5
0020
0001
0005
fff6
000b
002f
0006
ffe0
0022
ffc2
ffe0
fff7
ffef
002c
0022
ffc7
002c
fffa
0004
fff9
ffdb
0071
001e
ffe6
ffd3
ffb6
fff4
ffea
ffc5
ffe8
005e
000a
fffa
000e
002f
ffb3
0005
ffe0
ffe0
ffe7
0047
ffb3
002d
0012
0046
fffe
ffc6
ffe5
0017
004e
0020
ffe9
ffec
ffcc
000b
0003
0013
ffc3
0018
ffed
ffdd
ffee
0051
003d
ffed
0019
002c
000d
0004
fff8
fffe
0010
ffd9
0016
0025
0019
000d
000b
ffeb
0023
0009
0013
fff2
ffde
ffe5
ffd2
ffff
fffd
001b
ffff
0005
ffef
0013
ffe7
fff7
fff9
ffea
0016
ffd4
0009
0018
000e
0043
fffb
ffed
fffb
ffeb
0008
ffe8
0013
0008
0023
fff1
ffcd
ffe7
0005
0023
0002
0003
ffec
fff5
fff2
0013
ffe5
fff8
0008
ffe7
ffd9
ffff
ffed
000b
0006
ffef
0002
fff7
fff4
000e
0011
ffe4
fff1
000b
fff8
0001
000b
000f
fff4
0007
ffee
0019
0006
fff2
0010
0019
fff1
000e
001e
0016
fffd
0002
fff0
000f
fff2
ffe9
0020
fff5
000b
0006
0002
ffee
000a
0002
0011
fffd
fff5
fff8
0004
0002
0017
0002
0004
0012
0029
fffc
0001
fff6
0009
fffe
000d
fffa
0000
0003
ffec
0005
0000
0009
ffe6
fff5
0010
0024
fff8
000c
fff4
0017
0002
ffe7
0008
000a
ffed
fffa
0003
0016
001f
fff5
ffff
0000
0007
fff1
fff3
ffca
fff6
0018
ffec
fff5
0007
ffee
ffe9
ffff
0006
fff8
fffa
fffe
fffc
0026
000b
000d
fff4
0008
0005
000f
fff8
0008
0034
0005
0017
ffe1
fff4
0015
0016
0002
fff7
fffc
0001
fff9
ffed
0001
fffe
ffe5
fffd
0015
0006
fff6
0020
0006
fff7
0015
ffe9
fffa
fffe
fffc
fff5
fffc
fff7
0018
0002
000f
0017
ffd9
0014
0016
ffc9
0000
ffe2
000b
ffeb
ffe9
fffe
001e
ffe4
ffea
fff4
003c
fff7
000b
fff6
ffe7
0002
fffe
fffe
fffd
001f
000a
fffa
ffe7
0020
0015
0026
0011
0011
fffd
ffdc
fff5
0019
ffed
fff3
fffb
0007
ffdf
fff2
fffc
0010
0006
0017
0001
0011
ffef
ffe3
fffe
0017
ffc9
0014
0028
000d
fff7
000e
001b
0019
ffda
0005
fffd
fff6
fff5
ffbb
0008
0002
002f
000a
001a
0003
0019
fff7
ffd9
0017
0016
ffd7
ffba
000c
0009
0029
001c
ffe9
000c
0057
ffe6
ffe2
ffda
0000
fffe
ffca
fff4
ffc0
fff9
0005
002f
0024
fffe
0001
ffd1
0035
0015
ffea
000b
001d
0000
ffc2
0008
ffea
ffec
fff2
0005
ffff
000c
fffa
fff6
000b
0013
000b
fff7
000d
0004
fff5
0004
0006
fff2
000c
fffb
0004
000a
fff0
0006
0002
fffe
0009
fffd
fff8
ffff
ffec
ffea
0007
fffd
ffef
0014
fffc
0005
fff9
000a
ffe3
0013
ffe9
fff5
ffea
0008
0003
fff5
fffb
0016
000d
ffec
fff8
ffed
fff4
0006
000a
0003
ffef
0011
0008
000c
0001
ffeb
fffb
0006
fff4
0008
0029
0005
0007
002d
fffb
001c
ffd4
ffdf
ffef
ffeb
000c
fff3
0005
001b
0008
fff2
001b
0018
000c
000b
ffcd
0008
0017
ffee
fff3
001d
ffd2
fff1
fff0
0018
0005
fffb
fff5
ffe7
fffa
ffee
fff8
0014
001a
0003
ffcd
fff3
0014
0010
0017
0024
001e
ffcd
0007
ffd4
0010
fff5
fff8
ffe6
000b
ffe3
fff3
fff8
0007
ffe5
0012
001c
0016
0013
ffe0
0007
0018
0009
fffd
fffd
000c
000e
0011
000a
ffe5
ffcb
000c
0003
ffd2
000e
fff1
ffe2
0027
0032
0002
fffa
0025
0008
000d
fff4
ffdf
ffff
0005
000f
0006
000c
ffe0
0010
fff7
fff0
fff8
ffdd
ffdc
ffea
0014
000a
000e
0000
0003
fff3
0011
fff8
0017
0019
0002
fff2
fff9
fff2
0015
0009
fff9
fff7
0009
0011
ffd6
000b
ffff
ffee
0015
ffe8
fff9
ffe9
fffc
fff8
000e
0008
fff4
0023
0001
fff1
0012
0005
002a
fff7
0009
fff4
ffe9
000b
fffe
ffe8
0024
0023
000e
ffea
0005
fff0
ffe2
fff2
000b
ffd9
0002
0005
ffeb
002f
0001
fff9
fff9
0001
0012
0003
0010
001c
0001
0009
fff8
0002
0009
0024
fffc
fff4
0006
0007
0017
fff0
ffe5
fff2
fff3
fffc
fff9
ffe9
0012
ffef
000e
fff4
ffdb
fffa
0001
fff4
fffe
0025
fff8
ffe9
0006
0004
0017
0005
002f
ffef
0006
ffff
002d
ffef
fffa
ffee
0019
0039
000a
fffe
fff9
0000
ffdf
0001
fff3
fff9
000b
ffee
ffd8
001e
ffee
fffc
001f
000d
fffc
0021
0016
ffe2
0029
0004
001a
ffc0
fff2
0027
0019
ffd5
0022
fffc
0003
fff7
ffdf
ffd9
fff0
fffe
0010
ffdf
0014
0018
ffc9
0023
ffd4
ffeb
fffd
000f
0047
ffea
003d
fff9
fff0
ffd3
0002
ffc5
ffe8
ffeb
0002
0002
ffdb
ffd8
001d
0015
ffef
0012
0007
ffd5
000d
0015
003a
0004
ffcf
000e
fffb
ffe7
ffed
ffe6
ffd2
ffab
ffc9
001b
0011
0030
ffe8
0006
ffd7
ffdb
ffca
0024
fff3
fffd
fff8
0044
0011
ffea
fff4
003d
0047
003c
fffb
0029
ffd6
000f
001a
001c
0005
0006
002a
ffec
fffe
fff4
0026
0043
001e
0013
000f
ffcd
000d
ffe0
ffe6
000a
ffa6
ffea
0019
0040
0015
ffef
ffd1
0011
000e
000b
fffe
0026
000f
ffc4
ffd9
002d
0003
000a
ffc3
ffd9
000b
ff80
fff5
ffba
0057
000c
fffd
ffa8
fff5
fff0
ffc0
0003
0036
ffd3
ff8e
0025
0027
0000
ffde
0046
0044
0025
0006
001d
ffcb
000d
fff6
001a
0023
0009
fff9
fffb
001e
fff9
fff3
ffdd
0023
0011
000b
fffd
0003
fff7
000b
ffea
0014
000c
0008
fffe
fff6
fff4
001b
0012
fff5
0000
fffa
ffe9
0005
fff9
0004
ffe6
000e
ffed
fffa
0011
fff8
000b
ffe5
0019
ffe3
fff5
ffdc
fff3
0014
000a
001e
fffc
fff7
fff2
000f
001c
fffd
fffb
fff3
0022
0012
0005
ffeb
ffd4
ffdf
fffd
ffef
002a
fffb
0012
0003
0019
0006
fffb
001e
001d
0033
ffe5
ffe8
0019
0008
ffe1
ffba
0034
ffb7
fff6
ffe0
000e
fffb
0010
fffe
ffe2
ffd9
fff2
fffd
0019
0038
ffb0
000c
001d
000b
0044
fff6
fff2
0005
0005
ff98
ffe8
fff1
0028
fff1
0008
ffaa
fff8
ffcb
005c
0029
ffd0
ffd2
003f
fffa
0002
ffea
003c
003b
fff1
fff6
003a
ffca
0005
ffd1
fffc
0007
0018
fff1
ffed
0000
001d
001e
0008
000c
fffa
000f
0003
000a
ffda
fff2
ffce
ffdc
0000
fff3
ffe8
0014
ffec
ffe7
0002
0015
ffea
0000
fff8
ffe8
0000
ffe4
fff8
0028
fff8
fff8
fffc
fff9
ffdd
001a
ffef
0012
001b
0011
0009
fffa
fffa
0005
fff0
ffdc
0031
fff6
ffd2
ffff
0003
0004
fff2
0002
fff7
0012
0012
0003
0011
002a
0022
fff9
0012
0018
0018
0007
ffee
fff1
0002
fffd
ffe2
0010
ffe8
0012
0018
001c
ffe4
ffbd
ffe0
0017
0018
fff3
000f
fff6
0005
ffe8
fff9
0034
001d
0028
fff2
0008
0017
fff0
0033
ffe2
000b
fffd
0000
fff0
fff7
0013
ffd5
000d
ffcd
0017
fff9
ffca
002c
fff7
0021
ffdc
001f
0002
fff6
0025
0042
002f
0010
ffdd
ffe2
ffe7
ffff
ffe6
fffd
ffe7
fffb
fffb
0026
fff4
0029
fffc
fffa
ffea
fffd
ffea
ffe3
000d
000d
0003
0020
ffeb
0004
fffd
0011
0001
fff3
0011
0012
000a
0006
fffd
fffe
0001
0003
0016
fffe
ffec
0003
fffd
fffa
ffe9
ffd2
ffec
ffed
0007
0005
ffee
0007
ffee
fff3
0010
ffe0
000d
ffef
fff0
ffff
0027
0018
0009
fff5
fffc
0009
0000
0000
fffb
001e
000b
fff2
ffd7
0017
0010
0014
002b
0016
0019
0056
002f
ffe6
fffa
fffb
0008
ffe0
ffba
0003
ffdf
0000
0010
ffc6
0037
ffe9
ffc8
ffe8
fff6
ffe6
002a
0016
ffe9
ffad
000c
000b
0015
0013
fff9
0005
ffea
0024
fff5
000b
002e
0026
fff1
ffc6
fffa
ffe4
ffe6
0030
fff8
000b
0001
ffe4
0003
0039
000a
001d
000e
ffdc
0002
0002
ffe2
0006
ffea
0007
0004
0020
fff8
0006
000b
fff7
0000
ffd4
001d
fffb
fff3
0019
fff1
0004
000a
fff4
0014
0028
ffdf
000f
0012
fff7
fff4
ffdc
ffdf
fff4
000a
ffc3
0017
000e
ffd0
0020
ffe2
ffec
0001
0002
ffd2
0053
ffce
0008
fff0
ffe9
0029
ffeb
000e
000a
fffe
fffd
ffee
000f
fffe
0020
fffd
0017
0008
0006
fffa
003e
0017
ffe4
0004
0003
000a
ffe6
ffef
ffea
ffa0
0052
ffdc
0007
0003
0001
0023
0027
ffd0
001e
ffe7
fffd
002c
000b
003b
000f
0034
ffb7
ffae
0002
0019
002c
001a
003c
fff8
fff2
001e
0032
ffeb
0009
0008
ffaf
fff1
0067
ffd2
000d
0030
0017
ffd0
0007
fffa
003e
0018
002b
000d
ffe8
000b
ffcb
0005
ffe3
ffd5
001f
ffed
ffe7
ffef
0024
000b
0003
ffe7
001b
ffe6
000a
fff5
000c
0029
ffdc
001c
fff9
000c
001c
0009
fff1
001d
ffdd
0005
ffec
ffe6
fff3
ffe3
fff4
0003
0003
0031
0013
0001
ffcd
ffef
fff0
000f
000f
0009
ffed
000b
ffda
0026
002e
fff0
fff9
004d
0003
0002
ffe4
000d
fff6
fff9
fff5
0002
ffe5
fffb
0031
0018
0005
fff7
ffe1
0008
0025
fff1
fffa
001f
fff4
ffc8
fff7
fff8
ffcf
0014
0002
0003
001a
fff4
0016
ffec
0013
fff6
fff2
0009
fff5
ffe0
0013
ffff
0002
0003
ffe8
0007
000a
000c
fff0
ffed
ffdf
fffd
0004
0016
002c
000a
ffef
ffea
004f
ffe1
fffa
0018
fff6
ffeb
0007
ffe3
fff9
0004
0012
ffee
000a
0006
001c
000f
fffb
0012
fffe
ffeb
0010
0007
fffa
0007
ffd7
ffe3
ffeb
ffe3
ffff
0012
ffec
000b
0012
0021
fff0
002a
0001
0004
fff3
ffef
ffe5
ffe6
0012
ffe4
fff3
0012
0012
fff6
0021
0024
fff7
0008
fff4
0031
000c
ffc2
0001
001d
fff9
fffb
001e
ffd9
000a
ffbd
0015
0014
fff4
fffc
ffe5
000a
0019
000c
ffe7
002d
000c
fff4
fff9
0012
ffff
0029
0009
0027
ffcf
0023
fff2
001f
ffc0
ffeb
ffe7
000a
ffd4
fff0
ffe0
0008
000c
002e
0001
fffa
0010
fff6
fffb
0020
fff7
000c
fff7
001a
fff6
000b
fff5
0003
fff6
fffd
0011
ffee
0018
ffcf
fff5
ffdf
0054
0017
0004
0013
fff3
ffdc
ffd4
0001
0003
0008
ffe2
001f
0009
0014
0001
fffe
ffd8
fff0
ffed
ffc0
ffee
0012
fff9
0004
ffc3
ffea
fffc
fff9
fff8
003d
0015
ffe8
0047
fff4
ffe4
0000
000c
ffe7
0037
fff6
0013
fff4
ffeb
0007
000e
002e
ffff
0006
ffe9
ffea
fff9
fff9
ffd4
ffe3
fffc
0008
fff4
001a
0009
0012
0002
fffc
0018
ffe8
0036
001e
000c
fffb
ffcf
ffe3
0014
0000
fff0
000a
0012
ffd8
000c
ffdd
fffd
001a
ffd0
fff4
0002
fff9
fffe
ffef
fff6
0030
fff9
0001
0008
0014
ffd8
ffdc
000f
fff1
001c
fff9
fffe
fffc
0011
fffe
0005
001a
ffe4
000a
000c
0005
0004
0000
ffe8
fff5
fff6
fff5
0012
0000
000a
ffca
0007
000e
ffdf
0016
0005
0005
0008
ffda
ffed
0014
0009
ffe2
0008
0015
0001
001d
001a
fff6
0021
fff6
000c
0024
fff0
000d
0008
0008
fff6
0010
ffad
0026
0000
fff7
0015
fff9
0012
fffb
fffc
000d
ffde
0011
ffee
ffff
fffd
000b
ffe0
fff3
ffee
0007
ffdc
fff2
0011
000d
000c
0001
fff5
004a
ffe3
ffdd
ffdd
ffd9
ffcb
fffc
fff3
000b
0016
0000
002a
ffe5
ffea
0011
ffed
0033
fff5
0037
ffda
ffbb
000e
0009
0001
ffe7
004e
000a
000b
fffd
002f
ffce
0002
001a
ffd6
0007
001a
002f
0035
0032
003c
ffdc
000c
0004
0032
001f
002c
0013
fffe
fff4
ffef
001f
ffe8
ffba
ffd9
ffe0
0004
fff9
ffe0
fffe
fff8
fff4
ffe5
fff2
ffd7
0001
ffd3
ff96
0055
ffa6
0021
fffd
ffd7
0007
0010
ffbe
0010
fff9
0039
0053
0011
0040
0032
002b
fffb
ff8a
000f
0003
0044
ffff
007e
ffdb
ffb8
fffd
0040
ffcc
0047
ffdf
ffc1
000b
003e
ffb5
0002
000e
0036
ffc2
fffd
001f
0041
0007
0037
001f
ff95
0007
ffc9
0012
fff1
0016
fff7
ffcc
ffca
ffc2
0052
0012
ffed
ffeb
0036
001f
0005
001a
fffe
ffbd
002c
ffbf
ffc8
ffe3
003d
0002
0024
ffee
ffef
003a
002a
001a
ffe6
002a
0012
0023
ffe7
ffd7
ffe4
fff3
ffe3
0030
0037
fffb
003c
ffd1
0035
0000
ffe2
0005
ffc6
000a
fffa
0015
ffa6
0008
003b
0015
ffc0
ffd5
002b
0071
ffe6
fff2
ffca
001b
ffcf
fffc
ffd8
ffda
ffec
000b
ffe7
fff8
fffe
0003
0009
0009
0027
fffa
ffea
002f
0029
ffce
0044
ffdb
000d
fffb
001d
ffdb
0013
ffc1
0001
0007
002c
0016
0004
001e
001f
fff5
ffc0
ffda
ffd1
ffd2
0007
0032
0025
fff7
ffe6
fff0
0059
ffef
ffe1
ffc9
ffa8
0026
0024
ffbd
ffc4
ffbb
003d
fff2
ffe3
0001
002e
001a
002a
0015
ff94
ffda
ffdf
ffed
0003
0002
fff9
0008
000e
ffcb
0033
0053
fffe
002f
001a
000e
ffff
fffd
fffe
fff2
ffe7
0003
fff1
0034
000f
fffb
fff4
ffdf
0029
0013
ffcf
ffef
ffe5
0006
001a
ffda
ffd5
001d
0002
fff2
fff1
ffe9
0000
0047
fffc
000a
fffd
fff7
fff0
001b
0020
000f
0011
0002
0026
0008
0010
fff9
0003
0008
0001
0007
ffda
fff1
001b
ffd3
0020
0001
0001
0007
001b
ffe8
0001
fff6
ffec
ffe1
ffe7
000d
ffe5
fffc
ffd6
ffe7
fff7
0002
0027
0015
ffeb
fff4
ffec
fff7
0009
ffef
0002
0022
0027
ffe8
0016
ffec
ffed
0014
001d
0030
0000
0001
0023
0002
ffca
000b
0016
0012
0006
002c
0001
ffe4
ffdb
001d
ffe8
0023
ffee
ffb3
ffdd
002a
fffb
ffd4
000c
fffd
0004
000f
002c
002c
fff5
fffc
000a
fffd
fff5
001c
0043
ffcb
0028
ffe5
000f
ffdb
ffea
fff7
000c
fff0
000f
0010
fff2
fffd
0012
0010
000f
001d
fff2
0002
fff8
000a
ffe1
ffe3
fffb
000a
0010
fff2
ffe3
0026
ffef
ffdd
ffd8
0002
ffe6
0025
fff6
0038
fff9
ffd9
0020
fffe
0021
fff3
0001
001d
002c
fff5
0000
0017
0016
fffd
0003
ffd2
ffed
ffe8
0035
ffe5
001e
fff0
fff8
0019
002a
0002
0021
0008
ffe0
0001
fff0
ffe1
0010
0000
ffd7
0000
0006
fff8
0006
0015
fff9
000d
000b
0001
0001
0004
001c
0018
0002
ffe5
0011
fffd
fff1
fff3
fff1
0010
0009
fff8
0019
fff8
ffd8
0001
0019
fffb
ffe5
0006
fffa
fff1
fff3
0008
0010
001c
000e
ffda
ffed
0017
ffef
ffe3
fff1
fff2
0002
ffef
0007
0027
0001
000d
0002
001c
0010
001a
000a
000a
0008
fff4
000c
fffb
0010
ffe7
000d
ffef
0000
0005
000e
0011
0007
0015
fff0
0006
0006
ffe8
fff4
fff4
0007
ffff
0016
ffee
0005
0007
0018
0004
ffef
0016
0010
0004
ffe5
0009
fff8
fff8
fff9
ffdf
001a
ffe0
ffea
0015
ffea
ffdb
ffea
ffdd
fff5
fff2
ffee
0011
ffff
fff7
ffff
000e
ffef
000a
0009
ffee
0020
000d
ffe8
0027
0016
fffc
001e
0004
fffb
0009
0019
000f
000d
ffe6
fffb
001e
ffd6
000f
ffc7
0006
0024
fff6
ffc7
001d
ffcc
000a
0021
fffa
fff8
ffd2
fffa
002c
0037
0018
ffea
0045
0017
ffee
ffec
fff7
0020
fffe
ffc9
003e
ffe4
0007
003f
0017
fff0
001e
fff8
ffd4
fff3
0034
fffe
000b
ffcb
0018
ffe1
0001
001a
0028
fffb
fff3
ffed
ffea
000a
0010
0021
000a
ffe6
ffd4
fffe
ffec
ffe3
ffdf
ffe8
0020
ffe4
ffd4
fffb
000b
ffdd
ffdf
fff4
ffd9
fff7
001b
ffee
ffff
fffd
0019
ffeb
0001
ffe2
0008
0001
ffe1
0017
001e
fffb
002c
0004
ffd4
fffc
0004
0014
002e
ffdd
0011
ffd3
0021
0002
000e
ffe3
0047
000a
ffe4
0013
0010
002c
002f
0021
0007
ffe1
001e
ffdc
0007
0000
ffe8
ffc4
ffee
fffd
ffff
fffd
fff0
0021
0004
ffdc
0008
ffec
ffcc
000d
000c
ffdc
0014
0016
0004
0031
ffe5
ffd8
0013
ffa7
0037
fffc
fffd
0015
ffc1
0003
001a
0008
0010
ffdf
fff1
ffed
0015
0029
ffe6
003a
ffdb
ffd6
0019
ffe7
0028
0058
000d
0017
002e
ffdb
0025
fff7
fff9
003f
ffed
ffe2
0025
ffd3
ffff
0039
000c
fff5
fff8
fffc
fffa
0014
ffda
0000
0028
ffa8
ffda
ffe4
ffe7
ffe9
0004
fffd
0028
0018
0006
ffc7
001c
ffe1
000e
001b
000c
ffe2
001d
001f
fff6
ffcc
fffb
ffc9
0000
0001
fff6
ffdc
000d
ffff
ffd4
ffdc
fff0
fffe
002c
ffec
fff9
ffe7
ffe6
fff2
0024
0007
0002
fff9
fffd
0047
001b
002c
0014
0000
0027
ffeb
0016
0001
ffde
0015
ffe3
0010
0008
0006
fff2
ffff
ffec
000e
0011
fff8
000a
0008
0007
ffda
fffb
fffc
fff0
fffd
0015
000a
ffde
0000
0006
0018
000f
0027
fffb
0016
ffff
0013
ffd9
0012
0023
ffe1
001b
ffdb
fff6
0015
fffa
002f
0000
0000
0003
0035
ffe5
ffee
000d
0000
0019
001d
ffdd
0010
0027
ffe8
0006
ffee
0017
fff6
ffc6
fffa
ffcf
0002
fff1
002b
fff3
fff0
000e
ffe2
0004
0006
fffa
fffe
fff3
ffd9
0004
0008
0008
000b
ffed