fffe
fffb
0006
0006
fff9
0002
fffb
fffe
fffd
0000
ffff
0002
0005
0001
fffd
0002
0000
0000
fffa
fffb
fffe
ffff
0001
0006
fffb
0001
0006
fffc
0005
fffd
fffd
0000
fff8
0006
0001
fff6
0005
0004
fffd
0005
0004
fffd
0000
ffff
0003
ffff
ffff
fffb
000b
0013
fffd
0005
ffff
fffa
fffa
0000
fff2
fffe
0003
fffa
ffff
fffd
fffb
ffff