ff66
00bc
0092
ff65
0090
ffa1
ff69
ff86
ff40
ff71
0070
ff6d
0099
00a3
00a3
00ab
ff91
00ae
00ea
0090
ff72
ff63
ff6b
006e
ff71
008f
ff5a
ff50
ff5c
ff9a
0076
ff45
ff64
ff71
ff53
00b9
007a
0099
ff84
00a0
0098
ff45
ff62
00cd
00a1
0083
009d
0078
0070
00b6
007b
0083
ff79
ff78
ff3f
00b0
ff6c
ff58
ff6b
0078
ff37
0092
008c
007f