0001
0002
0004
fffe
fffe
fffc
0006
fffc
0002
fffc
fffa
0005
fff9
fffd
0006
0001
fff9
0005
0002
fffa
ffff
fff8
fffe
0000
000a
0004
0006
0000
0000
fffd
ffff
fffc
ffff
fffc
0000
ffff
0003
fffc
0000
ffff
0001
fffe
fffe
0005
fffe
0000
0001
0003
ffff
0006
ffff
0005
0003
000c
fffb
ffff
0004
ffff
0000
0001
0000
ffff
fffe
ffff