0149
0132
0136
013d
0150
0131
0139
013c
0135
0133
014f
0121
013d
0130
0131
0133
012b
0143
0116
0136
0123
012c
0123
0144
0131
0142
0144
012a
0158
012f
0134
0137
0139
0141
0135
0145
0125
013a
0130
0137
0131
0134
012c
012c
013c
0134
0138
0129
0138
0146
0143
0136
012a
013e
0141
013a
012f
011f
0132
0150
0134
013c
0137
012d