0142
0139
013d
014c
0152
0135
0142
0139
0149
013f
0139
0120
0148
013e
013e
0145
0147
0138
0122
013e
013a
0137
0140
0142
0159
014e
012c
0142
0154
0139
0138
0149
0147
0123
0143
014e
013d
015b
013f
0144
014d
015c
0152
013a
0148
0146
0147
012c
0134
012d
0151
013c
014c
0143
0147
0141
015a
0133
0136
0146
013d
015f
0143
0145