ffff
fffa
0001
0003
0002
fffd
0000
fffc
fffe
0002
0001
0002
0001
fff8
0001
fff6
0000
0000
ffff
0002
0003
0000
0005
fffc
0008
fffc
0000
fffd
fffe
fffe
ffff
0000
fffc
0001
0003
0004
fffd
fffd
0003
fffe
0001
fff8
ffff
0001
0002
fffa
fffb
0000
ffff
0000
0002
fffd
0005
ffff
ffff
fffc
fffd
fffe
fff8
0001
0000
fffc
fffd
fffe
0004
0002
0005
ffff
0002
0004
0002
fffc
0005
0002
fffe
0003
0004
0001
fffe
fffc
ffff
fffc
ffff
0007
ffff
0004
0002
0004
fffb
fffd
fffe
0007
0000
fffd
fffd
ffff
fffa
0004
ffff
fffd
fffe
fffd
0000
0001
fffe
0001
0000
0002
fffc
fffd
0002
ffff
fffd
fffe
fff9
0000
0005
0000
0007
0004
0006
0001
0003
0002
fffe
0005
fff4
ffff
0003
ffff
0001
0003
ffff
0003
ffff
0000
ffff
ffff
fffc
0002
0000
fffd
0003
ffff
fffc
0001
ffff
0004
0000
0001
fffb
fffd
0006
0002
fff7
0000
fffe
fffa
0002
fffd
ffff
0003
0006
0000
0000
fffb
fff6
0000
0000
fffc
0002
fffe
fff9
0002
0005
0000
0002
0001
000a
fffc
ffff
0003
0002
fffb
0000
0002
0001
0000
0005
0000
fffe
0003
fffd
fffc
0000
0005
fffb
0000
0005
fffc
0001
0002
ffff
0003
fffe
0006
0002
0006
0002
ffff
0006
fffa
0001
0001
0000
ffff
0000
0000
0000
0001
fffb
0000
0001
0000
0002
fffe
ffff
fffe
fffc
0000
fffe
fffd
0002
0004
0000
fff9
0001
0003
fff9
ffff
0000
0005
fffc
fffe
0003
0002
0006
0003
0001
fffd
0003
0001
0006
0001
0007
fffc
0003
ffff
0000
fff6
0005
0002
fffc
0003
ffff
fffe
fffc
0002
ffff
fffd
fffc
0002
0002
0000
0002
0000
0000
0000
fffb
0007
0005
0002
fffc
ffff
0001
fffe
0004
fffd
fffd
0005
fffb
0001
0006
fffe
fffc
0000
0002
0005
ffff
fffd
0000
0005
0001
0001
fffe
fffe
fff9
fffb
0002
0002
ffff
0003
fffe
0001
0002
ffff
0004
0002
0000
ffff
fffd
0001
ffff
fffd
0001
0000
0002
0000
ffff
0000
ffff
fffd
fffd
0002
fffd
0005
0008
0002
fffb
0003
0000
fffe
fffc
0007
0006
0001
0004
0003
0003
0005
fffc
0004
0002
0000
fffc
0002
0006
0003
0005
fffe
fffd
0000
0005
0001
0008
0004
0000
0002
0002
fffe
0002
0002
fffb
fffe
ffff
0000
0003
0004
fffb
ffff
0004
0001
0001
0006
0003
fffe
fffc
0003
fffd
fffe
0005
fffe
ffff
0003
fffd
0001
0002
0008
ffff
0003
0002
fffe
0007
fffb
0002
fffb
fffa
0000
0002
fff9
fffc
0006
ffff
0002
fffa
0000
ffff
0002
fffd
fffc
0000
fff9
fffe
0004
0001
fffe
0000
0003
fffe
0000
0001
0002
0000
fffc
0005
fffa
fffa
fffd
0003
fff8
0005
0006
fffc
fffa
fffa
ffff
ffff
fffe
0001
0001
0002
0003
0002
0001
0000
0004
fff9
0000
fff8
0001
0000
fffa
0001
fffb
ffff
0002
fffb
0001
0001
fffd
fffe
fffd
ffff
0002
fffb
fff8
0000
fffb
0001
fff9
0000
0001
fffd
0004
fff8
0001
fffc
0004
ffff
fffd
0002
0005
fffe
fffe
ffff
fffc
0005
fffc
0004
0001
0002
0000
ffff
fffe
fffe
0000
fffd
fffb
fffc
0003
fffd
fffe
0002
0002
fffb
fff6
0000
fffd
fffa
ffff
fffe
fffd
ffff
0004
fffd
fffe
fffd
0001
0006
fffe
0003
ffff
0003
0002
0009
0001
0004
fffb
0002
fffd
fffa
0001
fffa
0000
fffe
fffe
fffc
0003
ffff
fffd
fffc
0001
0001
0001
fffd
fffa
0000
fffc
fffe
0006
fffd
ffff
ffff
fffd
ffff
fffc
fffc
fffe
0000
0003
0001
fffd
fff9
0004
fffb
0005
0005
fffa
0004
0005
0004
0004
0007
fffc
0001
fffe
fffd
fffd
0006
0004
ffff
fffc
0006
ffff
0000
0002
0000
fffa
0002
0008
0000
ffff
fff6
0001
fffb
fffe
fffc
0004
0002
0006
fffd
fffe
fffc
fffe
0005
0005
0001
0004
fffd
0005
0002
fffd
0006
ffff
fffb
fffe
0003
0000
ffff
ffff
0007
fffe
0007
0003
fffd
fffe
0000
0001
0002
fffe
0001
0005
ffff
0002
0008
0001
fffe
0002
fffe
fffc
ffff
0003
ffff
0002
ffff
0000
fffc
fff8
0000
0001
0000
fff7
fffa
ffff
0002
0005
0000
0001
0002
0009
0002
fffd
fffc
0009
0002
fffd
0003
fffd
0001
0003
fffb
0005
ffff
ffff
fffe
ffff
0001
0002
fffd
fffe
0007
fffc
0004
0005
0000
fffb
fffc
fffd
0000
0002
0007
0002
fffe
0001
0001
0002
0004
fffb
fffa
0000
fffd
fffd
fffa
0003
0005
0000
fffe
0002
0001
fffa
fffc
0000
0002
0000
ffff
0003
0002
fffc
0002
fffd
0002
fff9
0002
fffb
0004
0000
fffb
0005
0002
0001
0000
0006
0000
fffa
fffb
0003
0002
0003
ffff
0000
fffc
0000
ffff
ffff
0000
fffc
ffff
0005
fffd
0002
0009
ffff
0001
0001
fffb
fffd
fffa
ffff
ffff
0005
ffff
fffc
fff7
0003
fffb
0004
fff8
fffe
0001
0000
0003
fff7
fffe
0001
fffa
0000
0000
ffff
fffa
0001
fffd
fffe
0001
0003
0002
0001
0002
0000
0001
fffe
0001
0001
0002
0005
fffb
fffe
0000
fffc
0004
0005
ffff
0003
0000
0001
fffc
fffc
0005
ffff
0007
0008
0002
0000
fffe
0004
0000
0000
0007
0002
fffd
0002
0000
0003
ffff
fffd
fffe
0002
ffff
fffa
0000
fffb
fffe
0000
fffd
0005
fffd
0006
fffb
ffff
0001
ffff
0002
0002
0002
0000
fffb
0006
ffff
fffd
0008
fffc
fffc
fffe
0001
fffe
fff7
ffff
0007
0002
0005
0001
0001
fffd
0000
0003
0000
0002
0008
0003
0001
fffe
fffc
fffa
0000
fffd
fff9
fffd
0005
0001
0000
0000
0003
0006
0000
0004
fffe
0000
0003
fffc
fffd
0005
0000
fffe
fffb
0004
fff9
fffe
fffe
0002
0008
0001
0002
ffff
fffe
0006
fffb
fffe
fffc
0004
0003
fffd
0004
ffff
ffff
fffd
0001
0000
0000
0004
fffc
0006
fffc
fffe
ffff
0001
0000
0005
0006
0006
ffff
0002
0005
fffb
fffa
0004
0004
fffd
0005
fffe
fff9
0000
0001
0004
0001
fffb
ffff
ffff
0001
fff8
0005
0000
fffd
0002
0003
0004
000b
fffd
fffe
fffd
fffc
0003
0002
ffff
0001
fffe
0004
0001
0003
fffc
fffd
fffa
000a
0000
fffd
0007
fff9
0000
fffb
0008
0002
0001
fffc
fffe
fffd
0001
fffc
0003
fffe
fff7
fffc
0004
0001
0002
0001
0003
0009
fffc
fffa
0001
0006
0000
fffe
ffff
fff8
0002
0002
0004
0000
0002
0005
fffb
0003
ffff
0004
0000
ffff
0003
0001
fffd
fffd
fffc
fff9
0000
fffc
0004
fff8
0000
fffd
fffe
fffe
fffe
fffe
0004
0000
fffa
0006
ffff
ffff
fffd
0005
fffc
0006
0002
0004
ffff
0003
fffe
fffa
fff9
fffe
ffff
0007
0000
fffb
0000
0000
0001
ffff
fff7
fffb
0005
fff8
0003
0001
0001
0007
fff8
0003
0001
ffff
fffb
0000
0002
fffa
0003
fffa
0006
ffff
ffff
ffff
0000
fffa
000a
fffd
fffa
0000
ffff
fffb
0004
ffff
0001
0003
fff6
ffff
fffb
0004
fffa
0002
fff9
0003
ffff
fffc
0004
0004
fff8
fffd
0006
0000
fff9
0000
fffb
0007
fffb
0003
0004
0002
fffc
0000
000b
0005
fffa
0002
0002
0001
ffff
0000
0000
0002
fffd
0006
0002
fff6
0001
fffc
fffb
fffe
fff9
ffff
0000
0003
0005
0001
0002
0004
fffd
ffff
0000
0006
fffa
0000
ffff
fffe
0002
0004
ffff
0000
fffa
ffff
fffd
0003
0005
fffd
0005
ffff
fffc
fffa
fffb
0009
0002
fffc
fff6
fffe
0001
0003
000c
0006
0004
fffd
ffff
fffd
0000
0007
0001
fffd
fffd
0006
ffff
0002
ffff
0001
fffa
fffc
0001
000b
0006
fffd
fffc
fffe
0000
0001
fffc
0001
ffff
0002
fffb
0000
0003
fff8
fffb
0002
fffd
0003
ffff
ffff
0002
0004
0002
ffff
0002
fffc
0002
fffd
0002
0001
0001
0003
ffff
0000
ffff
0001
0001
fffd
0002
0000
0002
0005
ffff
0001
0000
ffff
0001
0006
fffd
fffe
fffc
fff9
fffc
0000
0000
0000
0001
ffff
0003
0001
fffd
fff9
fff7
fffc
0001
0008
fff8
0003
fffb
fffb
0001
fffd
fffe
0001
0008
0000
fffe
000b
fffd
0008
0005
0002
fffe
0002
fffd
0001
0001
fff8
ffff
0000
ffff
0007
fffb
fff9
0000
ffff
0007
fffc
fffe
fffd
0003
0000
0007
0003
0000
fffe
0002
fffa
0000
fff9
fff9
0001
0002
0007
fffd
0005
0005
0003
fffb
fffc
0003
ffff
0005
fffd
0000
0007
fffe
ffff
fff9
0002
0001
fffe
fffe
fffe
0005
fffe
0006
0004
0002
fffd
fffe
fffd
ffff
ffff
fffd
0008
fff9
fffc
0000
0000
0001
fffe
ffff
fffe
ffff
0000
fffe
fffa
0006
fffc
fff8
0009
0007
0000
0009
0001
0005
0006
0010
0000
fff7
fffd
0005
0003
fff7
0003
fffd
fff8
fffb
0001
0005
0001
0001
0002
fffb
fff6
fffd
0005
0002
ffff
fffd
0001
ffff
0003
0000
0004
0001
0000
ffff
fff4
0001
fff7
fffd
0005
0005
fffe
0007
fffc
ffff
fff8
0000
0009
0000
0007
0001
ffff
fffe
ffff
fffc
ffff
0005
fff6
ffff
fffd
0003
fff7
0004
fffb
fffb
000a
0001
0001
fff8
0001
0004
0000
0002
0008
fff8
0005
ffff
fffc
0002
0001
ffff
fffe
0000
fffc
0003
0004
0005
fff9
fffe
fff6
0002
fff4
fff7
0007
fff7
fffc
ffff
ffff
fffe
fff9
0001
0001
0006
fffd
0004
fffe
0000
0005
0005
fffc
fffd
0004
0009
fffe
fffe
fffb
fffd
0002
ffff
0000
0006
ffff
fffe
0004
fffd
ffff
0003
0005
fff4
ffff
fff8
fff8
0004
0001
fff8
000a
0000
0004
0002
fff7
0006
fff7
0004
fff8
fff7
0009
0004
fff8
0004
fffa
0003
fff7
0001
fffa
0004
fffd
0002
0003
fffc
0017
ffff
0006
fffc
0004
fff9
0001
fffe
fffe
fff9
0000
0000
0008
0002
0000
ffff
0003
fffd
0001
0004
0002
0004
0001
0002
0003
0000
fffe
ffff
fffc
0001
0000
fffa
fff8
fffb
0001
fffe
0000
fffd
ffff
0005
0001
ffff
fffd
0000
0001
fffe
fffb
fffd
fff9
0002
fffa
fffe
fffd
0000
fffc
0003
0004
fffd
fff9
0000
0000
0000
0001
ffff
0004
ffff
0004
0004
0000
0001
fffc
0004
fffb
fffc
0000
fffb
0002
0000
0000
fffc
fff8
fffe
fffe
fffe
0007
fffe
0000
fff9
0001
fff9
0000
fffc
fffa
0001
ffff
fffe
fffe
0002
ffff
0005
0003
fffa
0006
0003
0002
fffb
0004
0002
0002
0001
fffd
fffe
0005
ffff
fffd
0002
0003
0005
0007
fffe
fffc
0000
0009
0001
0002
0005
fffd
0002
fffd
0006
fffd
fffc
0003
fffe
0003
0001
0004
0001
ffff
fffb
0008
0000
0000
fffd
fffe
0002
fffb
0000
0002
0004
0000
fffe
0003
0002
ffff
fffd
0002
0001
ffff
0000
fffe
0002
0007
fffd
fffd
fffd
0000
0005
0007
fffe
fffe
0007
ffff
0000
0002
0000
ffff
fffa
0003
0001
fffd
0004
0004
ffff
fffc
0000
fffb
fffe
fffd
0003
0005
fffd
fffe
0000
ffff
fffd
fffd
0001
fffe
fffe
0009
0000
fffb
0002
fffe
fffc
fffe
0000
0001
fffa
0002
fffe
fffd
fffe
0003
fffe
fffe
fffb
fffc
0000
ffff
0000
0003
0004
fffd
0000
0002
ffff
0001
0009
0004
fffe
ffff
0005
fffb
0006
fffb
0001
fffc
0001
0003
fffb
fffc
0000
0003
fffb
0003
fffd
0000
fffc
fffc
0001
fffb
fffc
0001
ffff
0002
0006
0000
0002
0002
0001
0004
0000
fffd
0001
0000
ffff
fffe
ffff
0000
0001
ffff
ffff
0000
0000
fffe
0000
0002
0005
ffff
0002
fffd
fffa
0001
fffe
0003
0002
0004
0008
ffff
fffe
0000
0005
0002
0001
fffb
fffe
fffc
fffd
ffff
fffe
0006
0000
0000
0001
0006
ffff
fffa
0001
0004
fffe
fffc
0006
0009
0000
fffd
fff7
fffa
0007
fffd
fffe
0005
0000
fffc
0001
0003
0004
0001
0002
fffd
0007
0000
fffd
fffa
0005
0000
fffe
0007
0002
0001
fffe
fffe
ffff
ffff
0006
0002
0001
0000
fffe
fffc
fffd
ffff
fff9
0003
000a
0005
0001
0005
0008
0005
0000
ffff
fffb
0001
0001
0000
0002
ffff
ffff
fffb
fffd
ffff
ffff
0008
0006
fffd
0000
0001
0004
fffe
ffff
0003
fffd
ffff
0002
0002
0006
0008
ffff
ffff
0004
0000
0000
fffe
0000
0001
ffff
0004
fffe
0003
0002
fffc
0003
fffa
0003
fffe
fffc
0002
0002
0002
0000
0001
fffe
fffe
fffd
fffe
fffd
fffd
fffa
fffa
0006
0005
fffd
0003
0005
0002
ffff
fffd
0002
ffff
0004
0001
fffc
fffd
fffd
0000
0001
0001
fffb
fffb
0004
0006
fffe
0002
0000
fffb
0005
0008
fffe
fffe
fffc
ffff
fffb
0008
0005
0003
0004
fffe
fffd
ffff
0004
0002
0004
0008
ffff
0001
0003
0000
0003
ffff
ffff
fffe
ffff
ffff
0002
0004
0000
fffe
0003
fffe
0000
0000
fffe
0000
fffd
0005
fff8
0004
0003
fff9
ffff
0006
fffe
ffff
fffd
0002
0005
0001
0001
fffc
0003
fffa
fffb
0002
fffd
fffe
fffe
fffc
fffd
ffff
0005
fffa
0001
0002
0002
0005
0001
ffff
0002
fffe
ffff
ffff
fffc
fffa
fffa
0005
0003
0003
0001
0002
fffe
0002
fffb
0004
0002
fffe
0006
fffc
0007
ffff
0002
0001
fffd
0000
fffd
0006
0002
ffff
0002
0000
0005
0000
0006
0003
fffd
fffd
0002
0004
fffe
0003
0003
0002
fffb
fffe
ffff
fffb
ffff
fffc
0000
0003
0001
0003
fffe
0003
ffff
fffd
ffff
0000
0004
fffe
ffff
fffe
0000
fffd
fffc
0004
0002
0005
ffff
ffff
ffff
0003
0002
ffff
fffd
0000
ffff
fffd
0002
0001
fffd
fffa
fffe
0002
fffe
fffe
0000
0000
fff6
fffd
0003
0001
0005
0003
fffe
ffff
fffe
0000
0001
fffc
fffb
fff9
0005
0003
fffe
fffe
0002
0002
0000
fffb
fffc
0005
0000
0002
0003
0004
0003
0000
0004
0002
0004
0002
0000
0003
0005
fffd
ffff
0002
0007
0003
0002
ffff
0005
fffb
0006
0003
0003
0001
fffb
0000
0000
fffb
ffff
0002
fffe
fffc
ffff
0006
ffff
fffc
0002
fffb
0005
ffff
0001
fffa
fffc
fffd
fffc
0003
0003
fffc
0005
fffc
fffd
ffff
fffc
0005
0001
0001
0004
fffd
0005
0004
ffff
ffff
0000
fffe
fffa
fff1
fffa
0001
0003
ffff
0007
fffe
0001
0003
0001
0007
0004
fffe
0000
0001
0006
0000
fffd
fff8
0002
fffd
0003
0001
0000
fffe
fffb
ffff
ffff
0001
0006
0002
0001
0000
fffd
fffc
0001
0004
0001
fffe
fffd
0000
0006
0006
0005
0001
ffff
0002
ffff
fffb
fffd
0002
0006
0001
ffff
fff8
0000
0000
fffd
0007
0006
0001
ffff
0004
fffe
ffff
0001
0001
0002
0008
0005
0004
fffc
fffd
fffd
fffc
000a
ffff
0006
0006
ffff
fff9
0000
0001
ffff
0004
fffc
0002
0002
fff8
fffb
0001
fffe
ffff
fffe
0000
fffe
0003
0001
fffb
0001
0002
0006
0002
000b
0000
fff9
0007
fff6
fffb
0004
0002
fffa
0002
0000
ffff
ffff
0006
0007
fffb
fffa
0000
0009
0004
fffd
fffe
ffff
0001
fff9
fffe
0000
fff8
fffe
fff8
fffe
fffc
fffe
fffd
ffff
0003
fffd
fffc
0004
ffff
0005
0001
0000
ffff
0000
0002
0000
ffff
fffb
0002
0000
0001
0003
0001
0000
ffff
0001
fffe
0003
0002
fffb
fffb
0005
fff6
0005
0007
000b
fffe
0002
fffb
0004
ffff
fff9
ffff
fffe
0003
0000
000c
0001
fffe
fffd
0008
0001
0002
ffff
0002
0001
000a
0000
fffe
0001
0002
0002
0004
0002
ffff
0004
0000
fffd
fffe
0006
fffe
ffff
0001
0001
0003
0003
fffc
0000
000a
0005
0005
fffc
0003
fffd
0000
fffc
fffe
fffc
fffe
fffc
0001
fffe
fffc
fffc
fffe
fffd
0002
0003
ffff
0003
0004
0000
0006
0001
0002
fffd
fffc
0001
0001
0003
0003
fffc
0001
0002
ffff
fffd
fffd
0007
fffd
0002
0003
0002
fffb
fffc
0003
fffe
0006
fffd
ffff
fff8
0000
0000
0000
0002
ffff
fffc
0005
ffff
ffff
fffe
fff8
0000
0002
0002
fffb
ffff
fffa
0002
fffe
0008
0001
fffe
fffd
0002
0007
fff8
fffc
0000
fffd
0001
0001
fff6
0004
0006
fffe
fff9
fffc
0006
0003
0001
0005
0000
0002
0001
000b
ffff
fffc
0002
0002
ffff
fffe
0001
0005
0009
fff9
0007
fffe
ffff
ffff
fffc
0003
0003
0001
0000
fffa
0003
0005
fffb
0007
0008
0000
fffc
0001
0001
0008
fffc
0004
0004
0004
0005
0004
ffff
0001
fffd
0005
fffd
0004
ffff
fffd
0008
fffd
fffb
fffd
fffe
0004
fffd
0001
0004
0004
0005
fffd
0004
000a
0005
fffa
0005
ffff
0001
0002
fffa
0003
fff9
fffd
0001
fffd
0002
0001
fff8
fffe
0000
0011
0003
fffb
ffff
0005
fffa
fffe
0000
0000
0007
ffff
0005
0002
0004
0003
0001
fff9
0000
fffc
fffc
fffa
0003
0004
000a
fffe
0000
ffff
0001
fffe
fff6
fff8
0001
0001
fffd
fffd
0003
0004
fffa
0001
0001
ffff
fff7
0000
fffc
0000
0009
0002
fff8
0006
ffff
fffc
0001
0005
fffb
000a
0000
fff5
0006
ffff
0003
0009
fffd
fff0
fffe
0000
fff9
fff9
fffa
fffa
fff8
fffc
fffe
0003
0007
ffff
0000
ffff
0004
0007
fff9
fffb
0002
0001
fff5
fffb
0000
fffb
0001
fff9
0004
0007
0002
0007
0008
ffff
fffc
0004
ffff
ffff
0004
0001
fffc
fffc
0000
0000
fff7
0004
0004
fffa
fffb
fffb
ffff
fffb
fffb
ffff
0000
fffd
fffa
fffb
0008
0000
0004
0002
0001
0007
0005
fffe
fffc
fffc
0004
fff9
0002
fffa
ffff
0000
0000
fff8
fffd
0000
fffb
0004
0005
fffe
0000
fffe
0005
0004
0000
0007
fffb
0006
fffd
0003
0000
0009
fff3
fff9
0003
0002
0003
fffa
0007
fffa
0004
0001
fffe
0001
0002
0000
0002
fffa
0007
0002
fffd
0000
0002
fff9
0004
ffff
fffb
fff9
fff5
0000
0005
fff8
0008
ffff
0004
0001
0003
0007
0005
0002
0011
fff9
ffff
fffe
fffe
0002
0006
0009
ffff
fffe
fff8
fff6
fffd
0000
0000
fffc
0001
ffff
fffe
fffc
fffc
fff8
0005
ffff
0005
fffb
0001
ffff
fffa
0002
ffff
fffa
fffe
0001
ffff
ffff
0000
0001
0002
0001
fffb
fffb
0002
0007
0001
0000
0001
0000
0004
fffb
ffff
0004
fffd
0002
0009
0002
ffff
0003
0005
fffd
0000
fffd
0004
fffc
0002
ffff
0000
0000
fffe
fffe
fffe
fffd
0001
0004
fff8
fffe
0001
ffff
0003
fffb
fffc
fffb
0000
0001
0001
fffb
0003
0000
0004
0001
0000
0001
0004
0003
0005
0001
0000
0003
0005
fffe
0000
0009
fffd
fffe
0003
fffd
0003
0005
0002
0003
ffff
ffff
ffff
0001
0002
0000
0001
fffe
0003
0007
fff9
fffb
fffe
fffe
fffe
0007
fff8
0002
0001
fffc
0001
0002
fffb
0003
ffff
fffd
0005
ffff
0004
ffff
ffff
0001
fffd
fffd
ffff
fffb
0000
fffe
fffe
0002
ffff
ffff
0003
0001
0006
fffc
0002
0000
fffb
0007
0003
0003
0002
0004
0006
0000
ffff
fff9
0005
fffc
0001
0000
fffb
0008
ffff
0002
fffe
fffc
0000
fffd
0003
0002
fffc
ffff
0005
0000
0000
0000
0004
0006
0005
fffc
ffff
0004
fffd
fffd
0001
0002
ffff
fffe
fff6
0005
0005
fffb
0002
fffe
0006
fffb
0003
0000
fffb
0001
ffff
ffff
0003
fffc
0000
fffe
fffc
0002
fffd
fffc
fffd
ffff
fffd
0000
0000
0006
fff9
fffd
0004
fffd
0002
0006
0003
0000
fff9
0004
fffb
ffff
0006
fffb
0003
fffe
0002
ffff
0000
fffc
fffb
fffe
0001
0001
0001
0002
0003
0005
0000
0005
0000
ffff
fffb
fffd
ffff
0006
0001
fffd
0009
ffff
0001
0000
fffe
000d
0007
0004
fffe
fffd
0004
0008
0000
fff5
fffa
fffa
0004
fffb
fffc
fffe
ffff
0004
0001
0001
0001
0006
fff4
fffa
fffb
fffb
0005
ffff
fffe
0005
0001
fff9
0000
fff8
0003
0002
0000
0000
fff5
fffd
0005
fff9
0001
0006
0002
0005
0007
0002
0003
0000
fffe
0000
fffd
0001
ffff
fffc
fffc
0001
ffff
fffe
fffd
0004
fffd
0005
0003
000d
fffc
fff8
0006
fffa
ffff
ffff
fffe
fffe
0004
0002
fffc
0001
ffff
0009
ffff
fffe
fffe
fffe
fffe
0000
fff8
0008
0005
fffe
fffc
fffd
0004
0002
0005
0001
fffe
ffff
0005
0002
fffa
fffd
0008
fffa
0003
0004
0002
0003
fffc
0006
0000
0001
ffff
ffff
0001
0007
fff6
0001
0000
fffe
fffc
fff8
ffff
fffc
fffc
0004
0003
0004
fffb
0004
0003
fffd
fffc
0002
0001
ffff
fffc
0004
0007
0001
0001
ffff
fffc
fffe
ffff
0007
0002
0001
0008
0000
fffb
0005
fffe
0001
fffc
0005
fffc
0001
0002
0000
0004
0002
0004
fff8
fffb
0001
000a
0002
0004
fffd
0001
fffd
fffa
fffc
0005
0002
0000
0000
fffc
fffd
fffc
fffe
fffc
fffd
0006
0008
0002
fffe
fff9
0006
ffff
0006
0004
ffff
ffff
0000
ffff
fff2
0000
0001
0003
0006
fffd
0008
fff9
0002
fff4
fffb
ffff
fffe
0003
0005
0003
0004
0007
0001
0007
fffc
fff4
fffe
fffd
fffd
fffc
0004
0005
0000
fffa
fffc
fff9
0002
fffb
0003
ffff
fffa
0005
0005
0004
0000
fffc
0009
fffd
0009
fffe
0000
0004
fff9
fffc
fffb
ffff
fff6
fffb
fffd
0002
ffff
fffe
0004
0001
0002
0001
0006
ffff
fffc
ffff
0002
fffd
ffff
0001
ffff
fffd
0004
fff9
fffa
0004
fffb
0002
0000
0001
fffc
ffff
0001
0003
fffc
0001
0000
0004
0001
0002
fff8
0006
0001
0005
0003
fff8
0004
0001
0000
0001
0002
ffff
0006
0000
0004
0001
0004
0000
0002
fff9
fffe
0001
fff9
fffe
0000
0005
fffe
0001
0005
fffc
0003
ffff
0004
0002
0003
0004
fffe
fffb
0001
0003
0005
fffa
fffd
0000
0003
0002
0001
fff8
fffa
fffa
0003
0000
fffa
0004
0006
0001
000a
0002
fffc
0001
0009
ffff
0004
0001
0002
0001
fffe
0001
fffb
ffff
0000
fffa
0003
0001
fffe
0003
0002
0000
ffff
0004
0000
0005
fff7
fff7
0005
0002
fffe
fffe
fffd
fffa
0001
0002
0003
0003
0006
0003
ffff
0000
fffe
0005
0001
ffff
0004
fffe
ffff
0000
0001
0009
fff9
0001
0000
fffc
fffd
0001
0001
ffff
fffd
0004
0004
fffb
fffe
0001
0000
0001
0000
0000
0001
0000
0000
fffd
000a
0001
0004
0002
fffe
0002
0001
fffe
fffa
0004
0005
fffe
fffe
ffff
0002
ffff
0005
0002
0001
0001
0001
fff9
ffff
fffb
0001
0003
0004
ffff
fffa
0006
ffff
0000
0002
0003
0000
fffe
0004
fffe
0002
0001
0000
0002
fffd
fffc
0000
0002
0001
0001
0000
0002
ffff
0001
fffb
0004
0005
0004
0003
ffff
fff9
0000
0002
0002
fff8
fffd
0002
0003
0008
fffd
0006
0005
0000
0000
0006
fffc
fffc
0004
fffe
fffd
0002
0001
fffd
fffe
0004
0001
fffb
0001
fffd
0005
0002
0004
fffe
0000
ffff
fffc
0004
fffd
0000
0000
0001
fffc
fffb
fffc
0002
0000
ffff
fffe
fffc
fffe
fffe
fff8
fffd
ffff
0000
0000
0001
ffff
0000
0003
fff7
ffff
fffb
ffff
fffa
ffff
0002
0003
fffb
0003
0003
fffb
fff8
fffe
0003
ffff
0001
0002
fffd
0002
0002
0000
0006
0006
0001
0002
ffff
0007
0001
fffd
0002
0000
0003
0000
fffe
fffe
0002
fffb
fff9
0002
fffe
fff9
0001
0005
fffc
fffc
fffa
fffa
ffff
0001
0001
ffff
fffb
ffff
0002
0007
fffc
ffff
0001
0002
0004
fffc
fffb
0003
0002
0001
0000
fffa
0001
0008
0006
fffa
0001
fff9
0003
0002
0003
0001
fffe
fffb
ffff
fffe
0000
fffe
fffb
0001
ffff
0000
0005
0005
ffff
0002
0000
0003
fffc
fffd
0002
0001
0008
fffe
ffff
0004
fffd
fffe
0002
fff8
fffd
fffe
fffd
0004
0000
0002
fffb
fffd
ffff
0000
fffe
0004
0002
0006
0007
0007
0000
fffc
0000
ffff
0001
0007
ffff
fffc
0004
0000
0000
fffd
fffd
0003
0005
ffff
0000
0004
0002
ffff
0000
0000
0005
0001
0000
0002
fffe
0002
0001
0000
fffe
fffa
0004
0000
fffc
fffd
0009
fffe
0002
0000
fffd
fffc
ffff
0002
0002
ffff
fffd
fffc
ffff
0003
0001
0003
0001
0004
0000
fffd
0002
0000
0002
fffc
0001
0000
fffc
fffc
0004
000a
ffff
0002
0004
0004
fffd
fffb
fffe
0000
0008
fffd
0003
fffe
fffb
0003
0003
fffe
fffd
fffa
fffd
0005
0005
fffe
ffff
0007
0001
fffa
fffe
fffe
0007
fffe
fffe
0000
0005
ffff
0002
ffff
fffe
fffc
0005
0001
fffd
0002
fffe
0000
fffe
0005
fffb
fff8
fff4
0003
0003
0008
fffa
0005
fffc
ffff
0000
0004
0000
fffb
fffd
fff4
0009
fffc
fffc
0005
fffa
0000
0000
fffd
0006
0006
fffd
fffd
0006
fffd
0004
0002
fffb
0008
0005
0006
0007
0000
fffa
fffc
fffa
000a
fffe
fffc
0002
ffff
ffff
fffb
fff7
0006
ffff
ffff
fffe
0006
0000
0004
0004
0003
0003
0002
0000
0004
0003
fffa
ffff
fffa
0004
fffa
fffe
fffe
fffb
0000
0008
fffe
0006
0007
0001
fffe
fffc
0002
0006
ffff
000b
fffe
fffc
000b
0002
0002
000a
0005
0008
fffe
0005
fffa
ffff
000a
0003
fffe
0002
fffd
0006
fffb
ffff
000a
0001
0008
0004
0000
fff8
0001
fffd
0000
0004
fffd
0004
fff8
0002
0001
0003
0002
ffff
fffb
fff9
fffe
fffb
0002
000c
0003
000d
fffd
fffe
0004
0009
0009
0007
0004
ffff
0001
0005
fffe
0002
fffe
0005
0002
0004
fffa
fffd
fffc
fffd
0001
0002
fffd
0003
ffff
fffb
ffff
0005
fffb
ffff
fffb
0004
ffff
0005
ffff
fffc
0004
fffc
fffd
fffb
fff4
fff6
0005
0003
0000
fffe
0000
0005
fff7
fffa
fffe
0009
0001
ffff
0000
fff0
fffe
fffb
fffc
0002
ffff
0002
0004
fffc
0004
fffb
fff5
0003
fffc
000c
0001
fff8
fff9
0001
0000
0005
ffff
0008
0005
0002
0000
0003
0005
0001
0007
fffb
fffa
ffff
000c
0002
fff9
fffc
0006
fffb
fff9
fff7
0003
fffd
fff7
0002
fffc
fffe
000a
000a
0002
0007
0009
0001
fff6
ffff
fffe
fffb
fffb
fffc
0003
0002
0003
fffc
0004
fffc
fffe
fffe
ffff
0000
0000