0128
0119
011e
0128
011e
0124
0122
0129
011e
0129
011c
0121
011d
011c
012d
0128
011b
011e
011e
0126
0113
0120
0126
0137
0119
0124
011f
0120
0122
0118
012a
0128
0129
012b
0126
0138
012a
0117
0124
0120
0124
0126
0123
0123
0131
011e
0121
0128
012c
011e
011b
011e
0119
0129
012a
0126
0116
0124
011b
0123
011a
012e
0118
0123