011a
0118
0127
010e
0128
0121
012d
0111
0122
0112
0129
0120
0129
012d
0117
0125
0120
0120
0120
011c
0124
0120
011f
0119
0128
011f
0126
0126
012d
0135
0118
0119
0122
0124
0119
010f
012b
011b
012c
011d
011c
0120
0117
011a
0125
0148
0118
0134
0124
0138
012b
0126
0113
011c
010f
0126
013a
013f
011d
0121
0114
012c
0123
012b