0147
0155
0141
015a
015a
0127
0137
015c
0159
0161
0141
0172
0148
0141
0158
015f
0142
017e
0127
0148
0137
0159
0152
0142
0159
0181
0155
0143
014f
0154
018a
0162
015b
0130
0150
0143
013d
0141
013e
0137
0162
0165
0156
0173
015e
01c8
0147
0149
0133
0130
0140
016b
015f
0163
0136
0134
015b
014a
0159
015a
018e
0149
0133
014b