fff9
000a
fffc
fffc
0013
fff3
0005
ffee
fff4
0005
0003
fff8
fffa
0001
000e
000e
0002
000b
0004
0004
fffc
ffed
fff9
000a
0004
fffb
000c
fffd
fff8
fffb
0013
fff3
ffff
fff2
fff3
000f
0005
fff7
fffe
0002
000b
fff9
ffff
0005
0013
0014
000d
000a
fff1
ffff
fff9
000a
fff6
0001
fffe
ffff
fffb
ffeb
000b
0003
fffa
0015
0008
0001