0009
0000
0003
0002
ffff
fffa
fffd
fffd
0002
0003
fffb
ffff
fff6
0007
ffff
0005
0001
0003
fff9
0002
0000
0000
ffff
ffff
000a
fffb
0007
0004
fff8
0002
fffc
ffff
0001
0003
0003
0003
0005
0002
0002
fff9
0001
fffa
0001
0001
0002
ffff
0001
fffe
0000
0006
0006
0001
fffa
0004
fff7
0000
0003
0000
fffc
fffe
fffc
0009
fffb
0001
0004
0006
0001
0001
fffe
0002
fffc
fffd
0009
0007
0000
0000
0005
0007
fffe
fff9
0003
0003
0001
ffff
0000
ffff
fffe
fff8
fff7
fff6
0002
0002
0005
fff9
fff9
0005
0000
fff1
0005
0005
0006
0000
fff2
fff7
0001
0002
fff9
0007
ffff
0001
0003
0005
0002
fffe
0005
0002
0002
fff6
0004
fffe
0006
0006
0001
fffc
ffff
0003
0003
0000
0001
ffff
fffd
0005
fffb
0005
0007
fffe
fffb
0002
fff9
0000
fffd
0008
fff9
fffc
0000
0001
ffff
fffa
fffa
fffa
fffd
0002
fffa
fff9
0002
0002
000b
fff8
fff9
0000
0003
0003
fffa
fffc
fff5
000b
0005
ffff
ffff
0000
fffe
0003
0007
fffd
0004
0000
0006
fff9
0003
fffc
0001
000a
0000
0000
0006
fff8
fffa
0001
0003
ffff
000b
ffff
0001
0001
0009
ffff
fff9
0005
0008
fff8
fff0
fffb
0005
0005
fff7
0006
0000
fffd
0005
fff7
fffe
0009
0000
0008
fffe
fffe
ffff
fff7
0002
fffd
fffb
fffc
0005
0006
0001
0002
fff5
0004
0004
fff8
0003
fffe
fffd
fffd
0007
0003
ffff
ffff
fffe
0002
0003
0000
0001
0002
0005
0002
0002
fffb
0003
fff8
0000
0005
ffff
fff9
fffa
fffc
0003
0000
fffe
fffb
0003
0000
ffff
0003
000d
0000
fffb
ffff
fffc
fffd
fffd
0003
0000
0001
fffc
fffd
0002
0003
fffe
fff8
fffc
0001
ffff
0002
fffa
0000
fffe
0001
0000
fffd
0001
0002
0000
0000
0000
fff9
fffe
0007
0002
0008
ffff
0008
0000
ffff
0001
fffd
0007
0006
0004
0003
0001
0000
0001
fffc
0002
0000
0002
0004
fff6
0000
fffc
fffe
fff8
ffff
0002
ffff
0007
fffe
0007
0005
0003
ffff
fffc
0004
0000
fffe
0004
0001
ffff
0003
0001
0002
ffff
fffd
0006
ffff
0000
0006
0000
fffe
000a
fffe
0002
ffff
0000
fff9
0000
0000
0004
0002
0003
ffff
0008
fffd
0000
fffd
0000
0003
fffd
0003
0007
0004
ffff
fffb
ffff
fffb
0003
ffff
0004
0000
fffe
0005
fffe
0001
ffff
0001
0002
0002
fffb
fffb
fffc
0004
fff4
0001
fffd
fffc
0004
fffe
fffc
fffb
fffe
fffb
0002
0008
0000
0001
fffc
0003
ffff
fffc
fffe
0006
fff9
0006
fffd
fffd
fff9
fffa
0006
0004
fffe
ffff
fffe
fffd
ffff
0000
0002
fffd
0001
fff7
0001
0000
fffc
0005
fff9
fffe
fffd
ffff
0002
0004
fffa
0002
0000
fffe
0004
fffe
ffff
0005
fffd
ffff
ffff
0000
fffd
0001
fffa
fffc
fffa
0007
fffd
fffd
0004
fff7
fffc
fffb
fffc
0000
fffb
0001
0002
0002
0001
fffd
0007
0003
0003
fffa
0003
0001
0002
0004
000d
fffe
0005
0001
0001
ffff
ffff
fffe
0004
0001
0007
fffe
000a
0003
0002
0000
0000
0001
0000
0000
0001
fffb
fffd
fff9
0002
fffc
0001
ffff
0001
0001
ffff
fffd
fffd
0004
ffff
ffff
fffc
ffff
fffb
0002
0002
0002
fff8
0003
0006
0002
ffff
0006
0002
0002
fffd
fffe
0000
fffd
0004
0009
ffff
0001
fffb
0004
ffff
0008
0001
fffc
fffc
0002
0002
0001
0001
0002
ffff
0007
0000
fff8
fff9
0004
0001
0002
0000
0002
0003
ffff
fffc
fffe
fffc
0000
0001
0002
0000
ffff
0005
0002
fffa
0000
fffd
fffd
fffe
ffff
0004
0005
fff9
fffe
fffe
fffb
fff2
fffe
0004
0003
0001
0000
fffb
fff9
0005
0000
0002
0000
ffff
ffff
fff8
0003
fffe
fff7
fffc
0000
fff9
0000
0002
0003
ffff
fffb
0000
0000
0001
0004
0007
ffff
0000
000d
fffe
fff9
fffe
0000
0003
0002
0001
fffa
fffd
0004
fff9
ffff
0003
0003
0007
fffb
fffe
0001
0000
fffe
0003
fffc
0003
0001
0004
0003
0001
0003
0003
000c
0008
0001
0006
0001
fffe
ffff
fffe
0007
fffc
fffc
0002
0000
fffc
fffe
fffd
0002
fffa
0007
ffff
0001
0006
fffd
fff7
fffc
0001
fffd
fffb
0003
fffe
0003
0000
fffe
fffd
0003
0000
0002
ffff
0000
fffc
0001
0000
fffe
0009
0003
0002
fffe
0005
0001
fffc
fffd
0001
ffff
0003
0007
0000
0004
fffa
fffb
fffe
0001
fffd
fffc
fffe
fffc
000c
0004
0001
0005
ffff
fffe
fffd
ffff
0007
0001
0001
fff8
fffd
fffb
fffd
fffb
0006
0002
ffff
fffc
0002
0001
fffe
fffd
0008
fffb
ffff
0001
ffff
fff9
fffb
0005
fffd
ffff
0007
fffe
0004
0005
0003
fffc
ffff
0001
ffff
0006
fffe
0004
0000
0000
0004
0000
fffd
fffa
0003
0001
fffe
fffc
0004
0001
0008
0001
fffe
fffe
fffd
fffc
0006
0002
0004
0005
fffd
fffd
0001
0005
fffb
0001
0000
0003
0002
0003
fffa
fffe
fff9
fffe
fffa
0007
0000
fffe
fffe
0002
0003
fff9
0000
ffff
0006
0001
fffb
fffb
0000
0008
ffff
0003
ffff
ffff
fffc
fffd
fffe
0003
0006
0003
0003
fffc
fffd
0002
0002
0001
fffe
fffe
fffd
0004
fffa
0002
0003
fffe
ffff
0003
fffc
0001
fffe
fffd
fffa
fffa
fffa
0003
0000
0004
ffff
fffe
ffff
fffd
0001
ffff
0000
0000
fffe
fffe
0003
0003
0000
0001
fffd
0001
fffc
fffc
0001
0000
fffc
0000
fffd
fffe
ffff
0004
fffd
fffd
0003
0006
0003
ffff
fffa
0001
0004
0001
ffff
0002
0000
fffe
fffe
0001
ffff
fffd
fffb
0003
0000
fffd
0000
0000
fffe
0003
ffff
0001
0006
0001
0002
fff7
0005
0007
ffff
fffe
fffd
0005
ffff
fffc
ffff
0003
0001
fffe
0003
fffe
0003
fffb
0004
0001
0002
ffff
0003
ffff
fff7
0008
fff7
fffe
0000
0003
fff8
0001
fffa
0007
ffff
0001
fffa
0006
fffd
fffd
0000
0005
fffd
ffff
fffe
fffe
0002
0002
0001
0001
0005
ffff
fffe
0003
ffff
fffe
0002
0000
ffff
0002
0001
fffe
ffff
0005
0001
fffb
ffff
0001
fffc
fffd
fffe
0005
0004
0001
0003
0001
0003
0001
0004
0001
0003
0002
fff9
ffff
0001
fffd
0003
fff6
fff9
0008
0004
ffff
0002
ffff
0001
0006
0006
0001
fff8
0001
0009
0005
ffff
0002
0000
0000
0001
0000
0000
0000
fffe
0003
fffa
fffe
0005
fffe
ffff
ffff
fffd
0001
0000
ffff
fffc
0001
0001
0006
fffd
fff9
0008
0001
fffc
ffff
ffff
ffff
fffd
ffff
fffe
ffff
0000
0006
0001
fff8
fffe
fffd
fffd
0006
fffd
fffe
ffff
0006
0002
0004
fffe
fffa
fffd
fffe
fffb
0005
0002
0005
0000
0009
0000
0002
fffe
ffff
fffd
fffd
0001
0002
0000
0001
0002
0002
fffd
0003
0001
0005
fffd
fffc
fffc
ffff
0002
0003
0007
fff9
fffd
0001
0006
0000
fffc
0002
fffc
fffe
0001
fffc
0000
0004
fff9
fffd
fffc
ffff
0000
fffd
fffe
0003
0001
fffc
fffe
fffc
0001
fffb
0001
0003
ffff
0000
0001
0004
0004
fffb
fffd
fffc
0004
fff8
0003
0000
ffff
fffd
000a
0003
fffe
0000
ffff
0000
0001
000a
0004
ffff
0002
0006
0005
fffa
0009
fffd
fffc
0000
0000
0001
ffff
ffff
fffe
0000
0000
fffe
ffff
fffb
fffb
ffff
0004
0003
fffe
ffff
fffa
fff8
fffe
fffb
fff9
ffff
0002
fffb
0001
0001
fffe
0002
fffd
0004
ffff
0002
ffff
ffff
0000
0004
000a
0000
0005
0006
0002
0002
0003
fffa
fffd
0005
0003
fffe
fffd
ffff
0004
0000
0002
0002
0003
0003
0002
fffe
fffd
0003
0007
fff7
ffff
fffa
fff9
fffc
fffb
fffb
fffa
0003
0002
0002
0002
0001
fff6
fffe
0004
0003
fffc
0003
0007
fffa
fffe
0001
ffff
0001
fffc
0002
fffb
fffc
0002
0003
ffff
fff9
fff9
fffc
0003
0009
0006
fffc
0006
0003
0002
0000
ffff
0002
0000
fffe
fffa
0000
0006
fffe
0002
fffd
0001
ffff
0000
0002
0000
fff6
fffe
fffa
0002
0000
0000
fffc
0000
0001
fffe
0003
fffe
fffd
0001
fff7
0005
0003
0005
0001
fffe
0005
ffff
0001
0007
0002
0000
ffff
ffff
fffd
fffc
fff7
0005
0002
0000
fffc
0003
0005
ffff
fffd
fffe
0002
fffd
fffc
0001
fffd
0000
fffd
0001
0001
fffd
fffa
ffff
fffe
0007
fffd
0004
fffc
fffd
fff9
fffe
fffc
fffd
0001
0001
fffb
0005
0001
fffe
0004
0000
ffff
0006
fffd
fffc
0001
0001
fffe
fffe
0000
0000
fffe
ffff
0001
fffd
000a
fffe
0004
fff8
0001
0004
fffe
ffff
0002
fffc
ffff
fffc
0001
fffe
fffd
0001
0001
fff9
0000
fffc
0002
fffb
000c
0003
0004
0000
0004
ffff
0001
fffb
0003
fffc
fffb
0004
0001
0007
ffff
0008
fffd
0001
0004
0002
0000
ffff
fffe
fffd
fffa
fffd
0002
fffc
fffd
0001
fffc
0003
0000
0006
0001
ffff
fffe
ffff
fffd
fffb
0004
fffc
0002
0001
fffb
0003
fffe
0005
0001
fffb
0001
fffd
fffb
0004
0005
fffe
0001
fffc
fffc
fff9
ffff
ffff
fffd
fffb
fff8
fffc
fffb
0005
fff9
fffb
0002
fffe
fffc
0004
0005
ffff
ffff
fffe
0000
fffb
0003
0003
fff9
fffc
0004
0001
fffa
fffe
0005
0002
ffff
0006
ffff
fffb
0004
0008
0000
0006
0003
000a
fffd
fffd
fffd
0001
fffe
000a
fffd
fffe
0003
fffc
ffff
fffd
0003
fffc
fffe
0000
ffff
0002
0001
fffc
0003
0006
0005
fffe
fff8
0001
fffb
fffc
fff8
fffe
0004
fffa
fff9
0009
fff6
0003
0001
fffd
ffff
0003
0001
0004
fffe
0005
fffc
fffe
0001
0004
ffff
0001
0001
0001
fffb
0002
fff9
0004
ffff
0002
fffa
0001
fffc
0003
0003
fffa
0003
ffff
0002
fffa
0002
fff9
fffb
0001
ffff
0008
ffff
0000
0004
0000
fffc
0002
0000
fffe
0001
0000
0000
fffe
fff9
0000
fffe
0006
0002
0005
0000
0008
0000
0005
ffff
fffe
0004
0004
fffe
fff8
0007
fffe
fffe
fff8
fffd
ffff
fffa
fffe
fff8
0000
0004
0000
fffc
0007
fff8
0000
fffa
0004
0003
fffb
ffff
0000
0000
fffe
0001
fffc
fffe
0001
0000
fffd
0002
fff8
0006
0001
0003
fffc
0000
0006
0003
0003
0000
0000
fffe
fffd
0003
0004
fffa
0007
0005
0005
0006
0004
fffe
0002
0003
fffd
fffa
ffff
0001
0006
fffc
0000
fffc
0003
fffb
0000
0004
fffa
fffe
0000
0000
0001
fffb
0002
ffff
fff6
0004
0001
fffe
0003
0000
0001
fffd
0002
0003
fffe
0000
0001
fffd
fffc
0003
0005
fffe
0001
0001
0001
0002
0001
0003
fffd
0002
ffff
0003
0001
0000
fffe
ffff
fffb
fff9
fffe
fffe
fffc
fffe
fff8
0004
0002
0000
0000
0003
0005
fff9
0001
fffd
fffe
0000
fffb
0003
fff8
0001
fffe
0000
fffa
ffff
0003
0002
fffc
0001
0002
0000
0003
0004
fffd
0003
fffe
fffa
0000
0002
0002
fffe
ffff
0002
fff8
0002
0000
fffe
0000
0001
0007
fffd
fff5
fff8
0004
0000
0003
fffd
fffa
fff8
fffa
0003
0004
ffff
fff9
ffff
0000
0000
0001
0005
ffff
0000
0001
0003
fffd
0001
fff6
0007
fffe
fffe
0003
0004
fffe
fffd
ffff
ffff
fffc
0008
0003
ffff
0004
0004
ffff
fffe
fffc
0002
0000
0006
0004
0002
0000
0001
ffff
0000
0003
ffff
fffd
0002
fffd
ffff
fffe
0003
fffd
fffa
0006
fffd
ffff
0001
fffd
fffd
fffe
0000
0002
0000
fffa
fffe
fff9
0000
0001
ffff
fffd
0007
0000
0006
fffe
fffa
0003
fffe
fffd
0000
fff9
0002
0006
ffff
ffff
0006
0001
0000
0007
0001
fffe
fffb
fff9
fffc
fffe
0002
0000
fffd
0001
fff7
0000
0001
0006
0006
0002
0008
000b
ffff
0002
0001
0002
0002
000b
0002
ffff
0002
fffc
0001
0001
0005
fff9
fffb
fffb
fffc
fff7
0002
fff9
ffff
fffa
ffff
0003
0000
fff9
0001
ffff
0000
0006
ffff
0000
fffd
0000
fffd
fffc
fffb
ffff
0006
0004
0000
fff8
fffd
0002
0005
fffb
fffb
ffff
0002
0001
0000
0003
0007
fffd
0006
0002
fff8
0003
0004
0007
0000
fffc
fffc
0007
fffc
fffe
fffe
fff5
0004
0000
fff9
0005
ffff
0006
fffe
fffe
fffd
0005
fffb
fffb
0001
0006
fffd
0003
0005
0006
0004
0003
ffff
fffa
0004
0005
fffd
0004
0001
fffe
ffff
0001
0001
fff9
fffa
0000
fffc
0001
0002
0007
0003
0001
0002
0008
0001
0003
fffa
fffc
fff7
ffff
0006
0001
fffd
0006
0002
0009
ffff
fff9
0002
0003
0002
fffa
ffff
0006
fffe
fffe
0001
0001
0008
0005
fffd
0001
fff8
fff7
fffe
ffff
ffff
fffe
0002
fff6
0003
fffd
0004
ffff
0001
0006
0001
fffd
ffff
0005
0000
0001
fffd
ffff
fffd
fffe
fffc
0003
fffb
fffe
0000
0002
fffb
0007
0000
fffe
ffff
0000
ffff
fffd
0001
0000
0007
fffa
ffff
0000
ffff
fffe
0003
0000
0003
0001
fffc
fff7
0004
0003
0000
fffc
0005
0004
fffa
0003
0000
0000
0001
0001
0000
0002
fffb
0008
0001
0002
0002
fffd
0000
ffff
0000
fffe
fffe
ffff
0002
0003
0003
0000
0002
0001
0007
0007
0001
0004
0002
ffff
fffc
0000
fffc
0000
fffa
0003
0000
0006
fffa
0005
fffd
0002
fff8
0003
0001
0002
ffff
0000
fffd
0003
0006
fff9
0002
0000
0000
fffe
0000
0000
fffd
0002
fffe
0005
0000
ffff
fffd
fffe
0005
fffd
0000
0006
0000
0004
0000
0005
0003
0004
0005
ffff
0002
fffb
fffd
0001
0001
0002
0001
fffd
0000
0005
0000
fffd
0002
0001
0002
0002
fffe
0001
0004
fffc
fffb
0002
0000
0002
0002
fffd
ffff
0002
fffc
fffc
0002
fffb
0005
fffe
fffe
fffd
fffd
0002
0003
0002
fffc
fff8
fffe
0000
fff8
ffff
ffff
0002
0001
ffff
0000
0001
fffb
0000
0004
0002
0000
0002
fffe
ffff
0001
0004
0005
0001
0001
0000
fff7
0007
fffc
fffb
ffff
fffe
0001
ffff
0000
0003
ffff
0003
0001
0004
fff9
0005
fffb
0001
fffc
0002
ffff
0003
fffe
0005
ffff
0003
ffff
fffc
0004
0009
0005
fffe
fffe
0002
0004
fffb
0005
0006
0003
fffe
ffff
fffd
fff8
fffe
0000
0002
fff9
fffc
fffc
0002
fff9
ffff
0000
0007
fffd
0007
0002
0000
ffff
fffa
0001
0003
ffff
0003
fffd
0002
0006
fff8
fffe
0003
0002
fff9
0005
fffb
0004
0002
0001
ffff
fffd
0000
fffc
ffff
fffe
0006
0004
0000
0006
fffc
0000
0006
0003
fffc
fffb
0000
fffd
ffff
fffe
0005
0000
0003
0001
fffc
fffb
fffe
ffff
fffb
fffd
0003
ffff
0000
fffe
0003
fffe
fffa
0001
0004
0001
fffc
0002
fff5
fffc
0001
fffe
fffe
ffff
ffff
fffe
0003
ffff
fff8
0001
fffd
0004
fffc
fffe
0001
fffd
0002
0004
0002
0003
0004
0000
0007
0003
0003
0000
0003
fffc
ffff
0003
0003
0000
0004
fffe
0001
0004
fffc
fffe
fffe
fffc
0006
0001
fffd
0006
0002
fff9
0004
0002
0000
fffb
0002
0005
0000
0001
fffc
0000
fffd
0001
ffff
fffb
0002
0003
000a
0001
fffd
0002
000a
0002
fffb
0003
fffb
0003
fffb
0003
0006
0001
0002
fffd
0002
fff9
0007
fffb
0002
0002
0004
0001
fffe
0000
fffd
0002
0002
0001
0003
fffa
0007
0008
fffe
fffc
0002
0000
fffe
0002
0000
0004
fffe
fffd
0000
fffb
0004
0006
fffd
0001
0007
0001
fff8
fffd
fffb
ffff
ffff
fffd
fffd
0001
0003
0001
0002
0004
fffb
0000
0000
0000
0000
0004
0005
fffd
fffc
fffc
fffa
0002
fff9
0003
fffd
ffff
ffff
0004
fffc
ffff
fffd
fffd
0000
ffff
0008
fffc
fffd
ffff
0003
fffa
0001
0009
0004
0001
0003
fffc
ffff
ffff
0000
0006
ffff
fffe
fffe
ffff
fffc
0002
0000
fffd
fffd
fffe
0005
fffd
0003
0003
0003
ffff
ffff
fff6
fffe
0007
0000
0003
fffd
ffff
ffff
fffe
fffc
ffff
0000
0003
0008
0001
0004
fffc
0000
0000
0002
0004
0000
0002
fffc
0001
fffe
0002
ffff
0001
fffe
fff7
0009
fffd
0005
fffe
0002
ffff
0007
0002
0005
0002
0004
fffa
0001
0006
fffe
0000
fffd
ffff
0001
0000
0004
fffc
fffe
fff6
fffe
0004
0004
fffb
0004
ffff
0001
fffb
fffc
fffe
fff8
fff4
fff7
fffd
fff9
fffb
0002
fff9
0002
0003
0003
ffff
0005
fff9
fff9
ffff
000b
fffe
0000
0004
0000
0001
fffe
0000
0002
0005
0003
0002
ffff
0003
fffc
ffff
0001
fffc
0004
0000
fffc
fffc
fffa
fffd
fffd
fffc
fffc
ffff
fffd
fffd
0001
0001
0000
0005
0002
0008
ffff
fffa
0004
0000
fffc
0003
ffff
0001
0002
0007
fffd
ffff
0001
fffc
fffe
ffff
0001
fffc
fffb
0001
ffff
0006
0005
fffd
0000
fffd
0001
fffd
fffb
fffe
0004
fffe
0007
0001
fffe
fffe
0001
ffff
fffa
0004
0000
0006
0007
fffd
0004
0004
0004
fffb
fffe
0003
0004
0002
0001
0005
0001
fff7
fffe
ffff
0003
ffff
fffd
0000
0005
0003
0000
0000
0001
0003
fffe
fff7
0003
0004
fff9
fffc
fffa
0001
0005
0002
ffff
0001
0000
0000
fffd
fffe
fffd
0000
0002
0001
0000
fffe
0004
0004
fffe
0001
0001
0001
fffe
0001
ffff
0005
0004
fffa
0003
fffc
fffe
0009
0000
0005
fffa
0000
0002
0003
0005
fffb
0003
000a
0005
fff9
fffc
fffd
0004
fffe
fffd
0005
0002
0002
fffc
fff6
fffc
fffc
fffd
0003
0002
0005
0002
fffb
0002
fffc
0002
ffff
ffff
fffe
0000
0001
0000
ffff
0003
0000
fff8
0000
ffff
fffe
0000
0000
0004
fffe
0004
0006
fff8
fffe
fffd
ffff
fffe
0003
0001
0003
0004
fffc
fffc
fffd
0000
0003
fffd
fffe
fffd
0005
fffd
0002
0000
fffa
0003
0000
0001
0000
fffb
0001
0002
0002
0000
0002
fffa
0001
fffe
0006
fffc
0003
0000
0002
fffe
fffe
fffd
fffc
0001
0001
fffb
0002
fffe
fffe
0005
0003
fffd
fffb
0008
fffa
0001
fffa
0000
fff8
fffb
fffd
fffe
0003
0001
fffc
fffb
0001
ffff
fffd
0000
0000
0002
0000
0000
0000
0004
0005
000a
0003
0003
0004
ffff
ffff
0003
0004
0003
0001
ffff
0004
0003
ffff
0001
fffb
fffd
0001
0002
ffff
0000
0001
0003
fff9
0005
0005
0002
fffe
fffd
0004
ffff
fffb
0002
ffff
fffe
fffb
0000
fffe
0001
fffe
0008
0004
0001
fffc
0004
fff8
fffd
fffe
0000
0001
0001
0004
fffe
0005
0004
fffe
0006
0000
0002
fffa
0002
0002
fffd
0004
0003
fff8
fffe
fffa
0001
fff5
0001
fffe
0001
fff9
0003
ffff
0008
fffb
fffc
0004
ffff
fffc
ffff
fffc
0004
fffd
fffd
fffc
0003
0006
fffd
fff9
ffff
0002
0000
0000
0007
ffff
fffc
0002
fff9
0003
0001
fff9
0003
fffe
ffff
0001
0000
fffd
0002
ffff
0000
0001
fffa
0000
fffe
0002
0000
0004
fffd
0005
fffa
fffe
ffff
fff8
fffe
fffc
fffe
fff7
0005
0001
fffd
0003
0001
0002
0002
fffd
fff1
0000
ffff
0008
0000
ffff
0003
0004
fffb
0001
fffb
0001
0001
0001
fffc
fffb
0004
0003
0001
fffa
fffd
0001
fffb
0000
fffb
0004
ffff
fffe
0001
fffe
fff8
0004
0000
fffe
0006
ffff
0001
0002
ffff
0003
0007
0000
ffff
0004
ffff
0005
0006
ffff
0009
fff9
0000
fffc
0000
0008
0004
0005
0000
fffe
0001
0001
0002
0005
fffd
0005
0006
0003
0007
ffff
0006
0002
ffff
0003
fffc
0000
0001
fffd
0005
fffd
fffc
0000
0008
0000
ffff
ffff
0002
0005
fffc
fffa
fffe
0003
0003
ffff
fff3
0002
0001
0002
fffa
0004
fffb
0005
0001
0001
fffc
ffff
0002
0004
0005
ffff
ffff
0003
fff6
ffff
0001
ffff
0000
ffff
ffff
0001
0007
0000
0006
0000
fffd
ffff
0006
fffb
ffff
0002
fffe
0005
fffd
0004
ffff
fffe
ffff
0004
fffb
0003
0003
0005
fff9
0000
0000
fff7
0002
0001
fffe
fffc
fffa
fffc
0000
0002
fffe
0001
0000
0000
0000
0000
fffb
0002
fffd
0001
ffff
fffe
fffd
0000
0002
fffb
fffd
0004
fffe
0005
0006
0001
fffe
0003
0003
fff7
0004
fff7
fff7
0000
0000
fffd
0003
fffb
ffff
0000
0005
fffd
0003
0005
0008
0001
0002
ffff
0001
0007
ffff
0000
0007
0000
0003
ffff
fffe
0007
0003
ffff
0001
fffd
fffc
0006
0002
ffff
0002
0003
0000
fff9
0001
0004
fffd
fffe
0004
0004
fffc
0007
fffd
ffff
0002
0003
0004
fffc
0001
0000
ffff
0003
fffe
fffc
fffe
fff8
fffb
0002
fffd
0000
ffff
0001
0001
0000
ffff
0002
0004
0004
fffd
fffb
0006
fffd
ffff
0005
0003
0002
0006
0003
ffff
fffb
ffff
0001
ffff
0002
fff9
0003
fff5
fffb
0003
fffd
0000
0000
0000
0000
0003
ffff
0004
fffe
fffe
0000
ffff
fffc
0006
0001
fffe
0000
fffd
fffe
0001
ffff
0000
0000
fffd
0004
0001
0001
0000
fff7
fffb
ffff
fffd
0005
0003
0002
0007
0005
0001
fffc
0003
fffe
fffe
0003
ffff
0000
0002
0003
0003
0002
fffb
0006
0003
0003
ffff
fffe
0004
ffff
fffd
fffd
0004
0003
0004
fff2
0005
0003
0000
fffe
ffff
0001
fffc
fffc
fffe
fffd
0003
0000
fffd
0005
fffb
ffff
0006
0001
fff9
fffd
fffa
0005
0001
0001
0003
0000
fffe
fffe
fffc
0002
0002
fffa
0004
0001
ffff
0000
ffff
0000
0000
fffc
fffd
0004
0009
0000
0001
0001
fffe
fffd
0000
fffd
fff9
ffff
fffe
0001
0002
fffc
0004
ffff
ffff
ffff
0001
fffb
0002
0001
fff6
0003
fff8
0001
ffff
0000
fffe
0001
0004
fffa
fff8
0003
fff7
fffb
000f
ffff
0003
0003
0002
0002
ffff
0002
0008
fffe
0001
fff8
0004
0004
0001
fff7
0008
0008
0000
fffd
0008
0000
fffe
0006
0006
0003
fff9
fffe
0001
fffb
fff8
0005
0000
fffc
0005
0002
0003
0004
fffe
fff9
0001
fffe
0001
0004
0004
0001
ffff
0003
0001
fffd
fff9
ffff
fffd
0003
0002
0001
fffc
0002
0000
fffd
0004
0002
0002
fffc
fffe
0004
0003
0002
0003
0000
0005
0000
0002
fffe
0002
0007
0005
ffff
0005
fffe
fffa
fffc
0004
fffb
fffb
fffa
ffff
fffc
fffd
0005
fffd
ffff
fffd
0002
fffb
0000
0001
0004
fffe
fffc
fffe
0002
fffe
fffa
fffc
fffe
0002
0000
ffff
0001
0002
fff9
fffb
fffb
0008
0004
fffe
ffff
fffc
0007
0004
0001
ffff
0000
000b
fffd
0004
fff9
ffff
0002
ffff
fffe
ffff
0002
0006
0006
0000
0001
0002
fffe
0003
0003
0001
fff8
0001
0002
0003
0002
fffd
0003
fff9
0002
fffe
000b
fffb
0000
0000
fffc
0000
0009
0002
ffff
fff8
0000
0007
0000
fffc
fffe
ffff
ffff
000c
fffc
0003
0001
fffb
fff7
0000
fff7
0000
0003
0000
0001
0009
fffa
0003
fffd
0000
fffd
0005
0004
fffd
0000
000d
0002
fffc
0000
ffff
0005
0001
ffff
0001
0001
ffff
0001
fffe
0001
ffff
fffe
fffa
fffd
fffb
fffb
0001
0007
0004
0006
fffc
ffff
0002
fffc
fffd
0009
fffa
0002
0004
fffc
0006
0000
0001
fffb
ffff
0001
fffe
fff9
0006
fffc
0000
0002
fffc
0005
0003
fffe
0003
fffe
0001
ffff
0002
0004
0003
ffff
0009
fffd
0005
fffc
fffa
fffb
fffa
0002
fffd
0000
0001
0000
0001
fffe
fffe
0001
0005
0002
0002
0000
fffe
0003
0002
fffc
0000
0000
0002
0006
0000
0003
0000
0005
0005
0003
0002
0009
0004
ffff
fffa
0007
0006
0001
0003
ffff
ffff
fffb
0002
0002
ffff
0003
0000
0000
0001
fffd
fffd
0000
0000
fffc
0006
ffff
0006
0001
0004
0002
0001
fff5
fff9
0001
fffe
0005
0006
0000
0000
0001
0004
0003
0000
ffff
fffe
fff9
0001
ffff
ffff
0002
0009
0001
ffff
fffd
ffff
0001
0000
fffd
fffe
fffc
0000
0005
ffff
fffc
0002
fffc
fffb
0003
fffe
0000
0000
0000
0006
0004
0006
ffff
0002
0000
0002
0002
0000
fffb
0005
fffe
0003
fff8
0000
fffe
fffe
0007
0004
0002
0002
fffa
0000
ffff
fffb
fffd
0009
0004
fffc
fffd
fffe
fffe
ffff
fffe
ffff
fffc
0006
0002
fffe
ffff
fffd
0001
0000
0006
0007
0001
0005
0003
fff9
ffff
0008
0007
0000
0002
0001
fffe
0000
fffc
fffe
0000
ffff
0003
fffc
0002
ffff
fff7
0000
0000
fffe
ffff
0002
0006
0003
0000
fffb
fffd
0003
0001
fffe
0001
0006
0001
0003
0000
fffc
0003
0000
0006
0002
0001
0003
fff8
ffff
0004
0002
ffff
0001
0002
0003
ffff
0001
ffff
0003
0000
fffc
0007
0001
ffff
0006
0006
0002
fffd
fffe
ffff
fffb
0009
fffb
0004
0001
fffb
fff7
0001
fffd
0005
0000
0006
fffc
0000
0002
fffc
0003
0000
0001
fffd
0004
0004
0004
0006
0000
fffb
ffff
ffff
0001
0000
0002
ffff
fffe
0001
fffd
0007
fffc
0003
0002
0002
0005
0000
0002
0003
0001
0001
ffff
0004
0003
fffd
0003
0003
0003
0003
0003
0000
0006
fffc
0005
0001
fffd
fffd
0006
0001
0003
0006
fffa
0000
ffff
ffff
fffe
ffff
0002
0005
fffb
fffd
0005
fffc
fffc
fffe
fffd
0000
fffb
0004
fffd
fffc
0004
fffc
fffb
0000
0005
0000
fffb
0001
0003
fffe
0003
fffe
0004
fffd
0000
fffb
0002
0001
0001
ffff
0002
ffff
fffe
fffe
fff8
fff8
0000
0004
0000
ffff
fffc
fff8
0000
fffd
0000
0001
0001
0001
fffa
0002
fffe
ffff
0003
0005
0005
0001
0001
0003
fffe
0008
fffd
fffe
0003
fffc
0005
0001
ffff
0000
ffff
ffff
ffff
fffb
0007
fffd
fffd
0001
ffff
fffc
fff7
ffff
fffe
0003
ffff
0004
0003
0003
fffc
0001
ffff
0000
fffc
0003
0001
ffff
0000
fffe
fffe
ffff
0002
fffe
0002
ffff
0003
ffff
ffff
0004
0002
ffff
0003
fffd
fffd
ffff
0001
0000
ffff
fffe
fffd
0006
ffff
ffff
fffc
0003
fffc
fffa
fffe
fff9
0002
ffff
0004
fffe
fffc
fffd
0004
fffe
0004
000a
fffd
fffc
ffff
0000
0005
0003
0000
0001
0004
ffff
0000
0000
0007
0002