000b
ffe3
fff2
0005
000a
0015
001c
000e
0014
000d
000b
fff5
fffc
0000
fff6
000c
0003
ffea
ffe2
0000
ffe8
fff4
fff6
0001
ffff
0015
0012
ffff
0019
fff7
fffa
ffe4
fffa
fff5
fff0
ffec
0004
0002
000a
ffef
0015
0006
fffc
fffa
001d
0014
ffde
002a
ffe5
ffe8
ffe2
000c
001c
0018
0019
0009
fffe
fff8
000e
0015
0017
fff6
ffdf
fff5
fffa
0009
000b
ffea
fffc
001e
fff2
0004
0008
fff5
fff5
ffdc
0008
0000
0013
0013
fff0
0002
0002
0003
000b
0001
fffa
fff8
fffe
000b
fffe
fffa
0008
000d
fff2
fffd
fffc
000d
fffa
fffe
ffee
0008
ffff
fffc
fff7
0003
0002
fffe
fff5
fff3
0007
000b
0002
fff6
0002
ffea
ffff
ffff
0008
000a
ffee
001b
fffd
000d
fff9
fff4
fffd
0011
0009
000a
0015
0022
ffce
0022
0003
0004
ffe5
0005
fffe
fffb
0003
0006
0007
ffff
fff5
fffb
0009
fff1
fff1
0018
fff5
000c
000d
fffb
fff8
ffe5
ffdd
0004
0004
001d
fffd
fff3
fffd
fff3
000f
0002
fffe
fffa
000b
000f
ffd1
001d
fff9
fffb
000d
fff9
fffd
000c
0001
0005
ffef
ffff
0001
fff8
fff5
000a
000d
fff1
000e
ffe8
000e
000f
0011
fffa
0008
0006
0005
0014
0006
ffe7
0002
000f
000e
0030
0005
0002
ffee
fff4
0008
fff7
0005
fff0
fff0
000a
0002
000b
000f
ffea
0012
fff1
ffee
fff6
0004
fffc
fff8
fff0
0005
fffe
0020
fff7
000c
fffd
fff9
fff8
0000
0004
001c
0015
ffec
fff1
fff9
ffff
fff8
000b
0004
0004
fffb
fffd
fffa
fffb
fffe
fff2
fffc
0002
0001
ffec
ffee
0003
000d
fff5
0000
0006
fff0
0007
0014
fffe
fff1
ffd3
0007
fff6
001e
0008
ffff
fff5
fff4
ffff
0020
0004
fff6
fffd
ffe7
fffa
0004
000a
0009
000e
ffed
ffeb
0015
0011
0004
001a
ffdb
fffa
0002
000b
000c
fff0
fff2
fff2
ffe3
fffc
0009
0006
0017
0007
fffa
ffe7
0008
0002
fff7
fffe
0003
0015
0009
0010
0002
ffeb
0003
001a
fff0
fffb
0008
fff1
fffc
0019
fff1
0000
0003
fff4
fff8
ffd4
0003
ffff
001e
0002
000b
0001
fffa
0004
0000
fffe
fffc
fffb
0000
0009
0008
fffe
0013
0006
ffe1
0001
000a
0015
fff3
000f
ffee
000b
0006
0003
fff2
0004
0006
ffed
ffef
ffec
000f
000b
0014
0009
0001
fffe
fffe
fff6
fffb
000a
fff5
0019
fffe
0011
fffd
ffed
fffc
0012
fff9
0004
ffe8
0011
000c
ffe7
fff0
ffff
ffef
000e
000f
0007
fffc
0003
ffea
fff0
0019
ffe9
fffc
fff7
fffc
000a
0019
0023
0011
ffe9
000b
ffff
fff5
0000
fff2
0011
fff4
fff3
0009
ffec
000f
fff7
0007
0005
000d
000a
fff6
000a
fffc
000d
0011
0001
0000
000a
ffe8
001c
000c
fff2
fffa
0009
fff9
ffeb
0001
0007
0007
ffff
fff8
ffec
fffd
ffed
fffe
000a
0014
ffe8
0004
ffe8
0007
0001
0004
0023
fffa
fff8
fff4
ffe4
0025
fff5
fff3
fff3
fff2
fffa
fffe
0006
ffee
0001
0001
0008
0001
fff1
0014
fff4
0011
fff9
0006
0005
0015
fffb
fff5
0005
fffd
fffb
0003
ffeb
0012
000f
fff8
ffea
000b
0009
fff5
0015
0019
0003
fff1
fffa
0015
ffea
0014
fffc
0005
ffed
fffb
fffa
0005
fffb
fffa
0013
0002
ffed
0010
fff9
0000
0010
000d
0027
fff8
ffff
ffe7
ffee
0010
0001
fffa
fff5
ffef
0006
ffff
ffff
0001
fffc
0003
000c
fffd
fffa
0014
0008
fffe
fff5
ffff
fff5
0016
fff9
0001
0000
0004
0003
000d
0007
0014
0012
ffee
fff5
fffc
fffd
fffe
000e
fff7
0005
fffe
fff7
0015
ffe9
0001
fff6
0005
000e
fffc
fff0
0006
fff3
0000
0000
fffb
0015
fffd
000c
000e
fff8
0000
ffd8
0000
fff5
000e
0009
fffc
0007
0007
0007
0000
0014
fff7
fff5
fffd
000c
fff8
0004
0004
0000
fffc
000a
ffed
0001
fffa
fff2
fff8
000b
ffef
fff0
0000
0005
000a
0006
fffc
ffea
fffe
000f
000a
ffeb
0008
ffef
000d
ffff
fff3
ffff
ffed
0028
fffe
0007
0001
ffe3
0007
0010
0016
fff0
fffc
001a
0003
fff9
0016
fffe
000e
0014
ffff
0021
0001
fffb
ffea
ffed
0005
ffe8
ffff
fff5
0002
fff6
000f
0011
fff0
fff8
0005
fffc
fff4
fff8
0000
ffee
0007
fff6
0002
0005
0010
ffee
fffe
fff9
fffb
fff0
ffee
0004
0013
0014
fff6
000b
0002
000a
fffd
000e
000b
000c
fff6
ffe8
ffeb
0001
000a
ffe2
fffa
001c
fffd
0009
0001
fffa
fff6
0004
002d
ffe7
0002
0000
0004
fffe
0000
0003
fff6
fff3
fffe
ffea
0000
0001
fff6
fffd
fffc
fffa
000a
ffee
fff1
fffe
0012
0002
0016
ffee
0010
fff1
fff4
0005
0001
ffeb
fff0
fffc
ffea
0011
0005
fff7
fffe
ffff
0003
0005
ffff
fffb
0010
0017
0005
0011
0027
000b
fffc
fff3
ffe9
fffd
0009
0004
0004
fff5
fff8
0007
0005
fff4
fff2
0011
0011
ffdd
0004
ffec
0000
0014
0007
0022
fffb
0009
fff6
fffb
000f
ffef
fff5
0004
0011
fff9
0010
000e
0002
fff5
000e
ffff
0001
fff3
0006
0007
0013
fff7
0011
0000
0011
fffe
ffff
0015
0003
fffe
fff9
000c
0010
001a
000e
fffa
fffe
000f
fff6
0013
fffa
000d
0000
fff8
0005
ffec
fff7
fffc
0009
0001
fff9
fff6
0002
ffef
fffa
000b
000e
ffff
000a
fff8
ffff
0014
000f
0011
fffb
0002
0003
fff0
0011
fff6
ffef
fff6
fff6
0003
000a
0004
0008
0000
0002
fffc
ffff
ffeb
000b
ffef
0004
ffec
000a
fff0
0016
fff5
0000
000d
0014
0001
fff8
ffff
0004
0014
000c
fff6
0007
0005
0009
001f
0004
0006
fffb
0009
0007
ffe6
0001
fffa
0009
000b
ffff
fff6
0006
000c
000a
0005
ffff
fffd
0016
fffd
fff8
fffb
0002
0026
0008
ffec
ffc5
ffe3
0012
0015
0010
fffa
ffe7
0008
000c
fff4
fff7
ffec
0009
0008
0004
0016
0004
001a
0001
ffee
fff4
0009
fff4
fffe
0012
ffec
fff7
0005
000c
ffee
001c
0006
ffee
fffd
fffa
0004
fff3
0001
0013
ffe8
fff7
ffea
001b
ffe8
001c
fff9
fffc
000e
000c
fffc
000d
0004
fff5
0018
ffff
ffe8
0011
0006
0001
0011
000b
0034
fff9
0006
ffe4
fffa
0008
fff5
0003
fff8
ffed
0004
fff3
0010
0009
fffb
fffd
000c
fff2
ffee
0018
fff7
fffe
ffef
0004
fff5
0028
fffa
fffc
0002
0001
0000
000c
0010
0018
0014
ffe2
fff8
ffff
fffc
0005
000c
fff2
0012
fffc
0002
0010
ffe0
0002
fff3
0003
0009
fffa
ffe3
000b
0011
000c
0011
ffc5
0015
fff6
0001
fff8
000c
0048
0004
0000
fff6
fffc
0005
0015
000a
0006
ffe4
fff6
0016
ffda
000c
fff5
ffe8
ffde
fff5
fff8
0036
fff1
fffc
ffe5
ffed
fffe
ffd3
000d
fff2
000c
fff5
ffea
000a
0025
002a
000c
fff0
ffcb
000c
0000
fff6
ffff
ffe7
0004
fff4
0016
ffed
0020
fff9
0024
001a
000c
0015
fff7
fffa
000f
003b
000c
ffdd
ffeb
fffb
ffe5
ffd4
ffe6
fff8
ffff
fff4
fffe
001e
0020
001c
fffd
fff9
0007
0008
ffec
ffda
ffe6
0037
ffed
ffe1
fff9
fff7
fffc
002f
0004
fffa
ffeb
000a
0014
ffd4
fff3
fff0
fff3
0008
fff6
0019
0005
0032
ffb2
fff9
ffd1
0033
0005
0015
0011
ffd5
0002
ffd4
0012
fff8
0018
0001
0006
001d
fffc
ffea
0022
0004
fff2
0009
0007
ffeb
fff9
0015
fff3
0001
0002
ffed
fffa
ffdb
0009
0002
0015
0012
ffeb
0003
0005
0007
0007
fffe
fff0
fffc
fffa
0009
fffd
fffd
0001
0015
fff2
0001
0002
0011
0000
fffb
ffef
0004
fffb
ffff
fff3
000a
fffe
0004
ffe8
fff3
0000
0004
0001
ffff
0006
ffe7
fffb
ffef
0007
0000
fff1
0022
ffff
000d
fffa
fffb
000a
000e
0005
ffff
0008
0017
ffd2
ffe0
ffff
fffa
0019
001c
000c
0003
0022
0002
ffe1
000b
0021
fff0
fffa
ffbf
ffe6
ffcd
0001
0028
fff5
000a
ffe4
fffe
fff2
0013
ffdd
ffdd
ffff
fff6
0020
ffc4
fffe
0002
fffb
0003
ffd8
001b
ffd6
0024
ffde
0006
ffbd
002a
0011
0025
fff7
ffda
ffee
fff4
003b
ffe0
0014
0014
001d
0019
0025
0028
000b
0002
ffec
fffd
0005
ffef
fffd
0018
fff1
0003
fff9
fff7
fff8
ffe5
0002
0007
000e
0011
fff9
0002
0008
fffa
000b
ffff
fff6
fffd
0001
0008
fffb
fff1
0002
0004
ffe6
ffff
fffd
0004
fff5
ffff
fff1
000e
fffc
fffb
fff5
0007
0007
0002
fff6
ffe3
fffb
0007
fffc
ffff
0007
ffe4
fffe
fff5
0003
0005
fffb
0013
0007
0000
fffc
0003
000f
0013
ffff
fff7
fffb
000d
0003
ffe7
ffff
0001
fff4
0002
0004
0026
0000
ffff
fffc
ffea
ffff
fffa
fffe
fff3
ffed
ffff
0009
0003
0000
fffb
0012
fffb
fff9
ffeb
0015
fffe
fff8
ffe8
000a
fffe
0022
0014
0010
0002
fff9
fff8
fff9
fffa
0016
000d
fff7
fffb
fffe
0009
ffed
0023
000b
0011
0002
0001
fffe
fff0
000a
fff4
0007
0001
000b
fff6
fff6
0001
0010
fff4
fff9
0013
ffed
0011
0001
ffed
fff8
ffe7
0008
fff8
0006
0015
ffe7
0013
0004
000b
0008
000e
fff3
0002
fff2
0007
ffec
fffb
0002
0001
fff7
fffa
ffff
0013
ffec
0000
ffe4
000c
0002
fff8
ffeb
0004
fffa
fffb
fff6
ffe9
0004
0008
ffff
fffb
0004
fff0
fff7
0005
0006
0001
ffef
0011
ffee
0007
fff7
0003
fff6
0010
fff7
000c
000a
fff0
fffe
000f
ffea
0013
fff2
fff3
ffee
ffe9
0003
0000
0011
0013
fff6
fffb
ffff
0003
0012
fffe
0004
fffc
fff2
fffd
fffe
fff2
000b
0003
ffeb
fff4
fffa
000d
fff3
fffe
ffd3
0028
0007
0008
fff2
0003
fff8
0009
fff6
fffc
001c
0001
0006
0002
0007
ffeb
fffd
0003
000a
0009
0002
0005
fffa
000a
fffe
0000
0006
0012
000c
ffe5
ffe7
0020
0002
ffd1
0024
ffde
ffe9
0001
ffff
fffe
ffe9
000d
fff2
fff1
0005
0004
0003
000d
ffe7
ffe3
0027
000a
0015
0018
fffe
0019
ffea
fff3
0008
0009
fffb
0008
000f
ffee
0000
fffd
fff0
0012
0027
fffd
0017
0002
0003
0018
0007
ffe7
000f
0017
ffe1
0032
0003
fffe
0004
ffe6
fffb
0011
ffef
fff4
0005
fff9
000c
0005
000d
ffee
fff6
0018
0003
fffc
0004
0009
ffff
0012
000a
0035
0003
fff4
ffec
fff0
000a
fff6
fffa
fff9
ffe5
0014
fff2
0008
0008
0002
ffff
0005
ffec
fff7
0000
fff7
fffb
fff0
0004
fffb
0023
fff2
001a
ffff
fff7
fffb
0007
0006
0027
0019
ffdf
fff0
fff9
0001
fff7
0015
fffc
0003
fffd
fff9
000b
ffdc
0007
fff2
fff9
000f
0000
ffe3
0000
fffe
0011
fff8
fff1
001b
ffe9
000c
0009
0000
ffeb
ffd1
0008
fff7
000d
0014
ffeb
0003
fffc
fff2
000c
000e
fff2
ffee
fff9
0015
ffec
fffe
0009
000a
ffe1
0005
0008
000b
fffa
ffff
ffdc
000b
0005
fffc
0000
0005
000b
fff8
ffea
fff0
000d
0021
000a
0001
0002
ffe9
fffe
fff9
000f
fffc
fffa
001c
ffff
0011
fffc
fffb
fffe
0025
0012
fff3
0002
0011
0013
ffde
0009
ffed
0005
001c
000d
0029
fff5
fff2
ffe1
ffe4
000b
0006
fff0
ffea
ffed
0003
0006
fffa
0006
fff1
0009
ffff
0005
fff2
000d
fffd
000c
ffe3
0009
0003
0014
fff3
ffea
fffe
0013
fff6
ffee
fff4
0006
0011
fffb
ffff
0003
0006
fff7
0017
0005
000b
fff7
fffa
0012
ffe8
000a
0008
0014
0008
fff8
fff8
0011
ffea
fff7
0017
000f
ffe0
001b
0001
0015
001b
0019
0022
0001
fff6
ffed
fff1
000f
0009
fffb
0003
fff2
fff2
0014
0004
0012
ffea
ffe4
0002
fff3
ffe4
0012
0007
fff1
fff1
ffeb
0003
0024
fff6
fff8
000e
0003
fff6
ffee
fffa
001c
000a
fff1
ffea
000c
fffb
ffef
0014
0009
0000
fff1
fff5
001d
ffee
0000
ffef
0014
001a
fff2
0004
0010
fff5
000b
ffef
fff2
0015
fff5
000f
0004
fff6
ffed
ffd0
000a
fffc
000b
0013
fff8
0011
fffb
0001
000e
000e
fff2
fff9
fff5
0022
ffd9
fffe
000d
0006
ffe2
0006
fffb
000e
ffe6
fff6
ffdf
0013
0003
fff4
fff4
0011
0006
fff6
fff2
ffe9
0004
0016
0009
fffb
fff0
ffec
0006
fff4
000e
fff7
ffff
0020
fff9
0004
fffc
fffa
fff4
0029
ffe4
0016
0009
ffee
fff9
000f
ffef
000e
0014
ffee
fff4
ffbf
0008
000b
0025
0019
ffe5
0000
fffd
000b
001a
ffef
0008
fff9
fffe
fff8
fff5
0004
000d
000e
fff6
0009
fff9
0011
fffd
0005
ffe9
0003
fffc
0003
fff6
0004
fff9
fff3
ffdd
ffda
000a
000e
0002
fff4
0016
ffde
fffa
fff8
0007
000b
ffee
001f
fff9
000c
fffb
fffa
fffb
001a
0010
0032
0001
0009
0002
000b
fff9
fff9
ffdf
ffee
ffc8
ffbc
0005
0008
fff0
0028
ffe7
0019
001e
0017
0022
ffe3
002c
ffee
ffda
fffb
ffef
ffef
ffe7
0002
0002
0015
0000
002f
0002
fffa
ffc2
0015
ffe6
000d
0017
ffee
ffee
000c
ffb5
ffed
0049
ffff
0026
0009
0003
ffff
ffe7
ffea
fff9
fff7
ffec
002a
fff0
ffe3
0005
0000
0015
002d
0022
0000
0012
fff0
fff6
0019
000a
0028
ffe5
ffeb
fff7
fff5
0009
fffe
fff7
0005
ffea
0007
0007
0012
fffe
0017
ffd7
ffff
ffe5
001b
fffa
001c
fff5
0005
fff1
fff8
0016
0009
fff5
001b
ffea
0000
0010
ffe6
ffe5
0002
000b
000e
ffc7
ffeb
fff9
001b
0006
ffe3
0008
ffd2
ffd2
001d
0026
000c
0028
000a
fff4
fff9
fff7
000d
000d
0025
fff4
0000
000a
fff9
ffe3
001d
fff5
000f
000f
ffff
fff7
ffda
000c
0004
001e
001d
fff7
0002
000a
fffd
0011
fffb
fff4
fff5
0014
0013
fff7
fffd
0008
000a
ffe1
0002
fff0
0012
fff1
fff6
ffe0
000a
fffc
ffef
0010
0005
ffff
fff8
0004
fff4
fffe
0007
000b
fffe
0008
ffec
0009
ffea
fff5
ffff
ffed
0025
0008
0016
fffb
0004
fff0
0012
fffe
fffd
fffd
001b
fff8
ffeb
0015
fff7
fffd
0018
0000
0039
fff9
0009
ffd2
fff4
0015
fff2
0007
fff4
fff6
0004
fffd
fff9
0008
fffd
fff7
0008
0002
fff1
0011
fffb
fff1
fff1
0007
ffeb
0011
fff6
fffe
fffb
000e
fff4
0001
0004
0009
0012
fff1
fff8
0002
ffff
fff9
000e
0001
0000
fff5
fff6
001c
ffde
0009
ffeb
0004
0016
fffc
fff4
fff3
0011
0009
ffe8
0002
0010
ffee
fffa
fff8
ffeb
ffe9
ffd9
fffa
fffe
0004
002d
fff0
ffe8
0000
ffff
001c
0002
fffe
ffeb
fff9
0001
000f
fffb
0001
0015
0009
fff7
0017
000e
0001
0007
ffdd
0012
fff1
0014
fff9
0000
0002
ffef
ffda
fff4
001c
0009
0004
000b
000e
fff6
fffb
ffe6
0000
fffc
fff4
001d
0000
000c
0005
ffe6
0007
0024
fffe
000e
fffc
fff2
0001
000e
fffd
0008
ffff
ffef
fff9
ffd8
0008
0001
0012
000d
fff5
0011
0006
0009
0009
fffd
0003
fff4
fff9
0004
fff0
0000
0008
0004
fff3
0007
0007
0018
fff5
0000
ffee
0007
fff1
fffe
ffff
000c
0005
fffc
ffde
ffeb
0018
0003
0007
0000
0002
ffec
0004
fff6
0002
ffff
ffec
0024
fff7
0013
0004
fff6
0009
0014
0003
fff6
000f
000c
fff3
0027
ffee
0016
0010
fff6
fff2
ffdf
0004
000a
001e
fffb
fff8
0007
0000
fff2
0009
0019
ffed
ffee
000b
001f
fff8
000c
0000
000c
ffee
fff4
fff2
0007
fffa
0007
fff4
0015
fffd
ffe6
fff4
0008
0004
0007
ffe8
fff8
0003
0007
fff3
fffa
000e
fffa
0000
000f
0006
0004
ffe7
000d
0008
000d
ffe8
ffed
0001
0025
001b
0003
fff4
0016
0019
fff1
0001
fffc
0001
000c
0009
0022
fff6
0002
ffdd
fff0
0009
fff9
fffb
fff2
fff3
fffc
000d
0001
0009
0003
0002
0014
fffb
fff9
0007
fffb
0019
fff4
fffb
fff7
0017
fff0
fffd
0007
fffb
0007
0011
000b
fff7
0016
fff9
fff7
fff3
0004
fff6
0015
fffe
fff9
fff6
fffc
0009
ffe0
ffef
0000
ffff
fff9
ffff
fff3
0000
fff0
fffc
0021
0002
fff6
0013
0002
fffe
0009
0011
0028
fffb
fffe
ffee
ffe0
000e
0000
fff6
fff7
ffeb
000a
0006
fffd
000a
fff0
0001
0005
fff5
fff7
000f
0005
fff8
fffc
0000
0002
0019
fff7
fffa
ffff
0008
fffd
fffe
fffb
001c
0008
fff8
ffee
fffa
0001
fffa
000f
0014
0009
fffb
fff8
0005
ffed
0011
ffe9
0007
000d
fff5
ffee
fff5
0002
0006
fff8
fff7
000a
fff1
ffff
fff7
fff2
fff5
ffdb
0007
0008
fff8
0015
fff2
0008
0007
0006
0016
fff8
0003
fffb
fff8
0002
fff4
ffef
0003
000c
fff3
0005
0000
0009
fff9
fffe
ffe7
0006
fffb
0009
0002
000a
fffc
fff9
ffe9
ffe7
000f
000f
0009
0000
0007
fff2
fffd
fff0
0012
fffe
fff5
001d
ffff
0006
fffe
ffea
000c
001e
fffa
0007
0007
fff3
fff5
000e
fff6
0009
0009
fff2
fffc
ffdd
000e
ffff
002c
0010
fff9
0005
000a
ffff
0001
0004
fff6
fffc
0002
000a
fff4
0000
000b
0009
fff3
0003
0002
0012
fff0
0006
ffef
0010
0000
fffe
fffa
0004
0003
fffc
ffeb
ffeb
0007
0002
0004
fffb
fffe
fff4
fffb
fffd
0001
0007
fff4
0012
fff8
0005
fff5
0002
0000
0014
0008
fff0
0002
0015
fffd
ffed
0007
fffd
ffef
0008
0012
0029
0005
fffc
ffe5
ffef
0014
0001
0005
fff9
fff5
ffff
ffff
000a
0007
fff2
fff9
fffc
fff6
fffc
000b
000a
0003
fff6
fffb
0004
001a
fff7
0006
0007
0003
0001
0001
fffe
0013
0005
fff3
fff6
0002
0000
fffb
0013
fffe
0001
ffff
fff8
000b
ffef
0007
ffe5
0000
0004
0004
fffe
fff5
000d
fff5
0012
0027
ffd6
fffa
fff8
000c
fffd
fffd
0008
0008
fffa
fff8
0000
0000
fff4
fffd
fffd
ffec
fff9
001c
fff8
fff1
fff6
0010
fff7
fff7
ffe2
001e
0014
0014
0006
fff9
ffed
fffb
fffd
ffef
0027
0020
fff3
000e
fffd
fff9
0000
0001
ffea
000c
0018
fff1
0024
000a
ffee
fffe
ffeb
0016
fff2
ffed
ffff
000a
0013
fff7
fffa
fff5
0008
ffec
fffa
fff1
0005
0005
0001
0000
fff2
0002
fff1
ffee
0006
0005
0002
ffd5
000f
fffd
001a
ffff
ffe8
0000
fffb
fffe
0003
fffa
ffff
0008
ffe4
fff3
fffe
0006
0018
000a
0010
fff8
000a
ffea
000b
fff8
001b
000e
ffff
fff4
fffa
000e
000c
0015
000a
0003
0004
fffc
0003
ffe9
000e
ffff
000b
fff2
000b
0000
fff1
fff6
000e
0002
fff1
fff9
0017
0016
fff2
fff9
fffa
000b
0012
000b
0019
0001
000d
ffea
fff5
0009
fff4
fffb
0009
0002
0002
000d
000a
0004
ffe6
0006
0007
fffa
fff7
0008
0006
0005
ffea
000c
ffef
0009
fff9
ffff
0007
0003
fff2
fff2
ffef
0008
000e
0004
fffa
ffff
000a
fffa
0013
0008
0001
ffff
fff7
0010
fff2
0004
fffd
0009
0004
0001
fff6
fff5
0012
0009
ffcd
0010
000d
fff3
fffb
0004
0004
ffee
ffd7
0000
fff4
000f
0008
001b
fff1
fff1
fffd
0010
fff2
0014
fff4
fffd
ffec
0003
fff9
000b
0014
ffeb
ffe5
fffd
0002
0025
0004
ffd9
fffa
000f
fff7
fff5
fff6
000c
fff6
ffec
fff4
001a
fff3
fffa
0015
fff8
fffb
0008
0009
0005
fffe
001b
000c
ffff
0016
0015
0006
0008
001f
fffc
ffff
0006
fff6
fff9
0013
fff5
0009
fffd
fff9
fffc
ffe0
000c
0004
0011
000e
ffef
000a
0008
000d
000a
0003
fff4
0002
fff9
000f
fffa
fffd
0002
0016
fff7
0003
fffe
000e
fff0
ffff
fff0
000c
0000
ffff
0000
0003
fff6
fffc
fff3
ffec
0001
0009
0001
fff3
000c
ffe9
fff7
fff5
0008
0009
ffea
0021
0003
000d
ffff
fff5
0004
0010
fffe
fff7
0004
fffe
ffed
0003
ffff
0003
fff5
ffef
001b
fffd
fffd
fffd
0000
ffff
fff7
0009
0007
0004
0000
0010
fff8
000d
fffa
0002
ffff
0010
0003
000a
0008
ffdc
0007
ffed
0009
ffec
0014
fff6
fffb
fff5
fffd
fff6
0004
0024
001b
fff1
fff8
0005
0003
fff1
0002
ffed
0005
0015
0005
ffef
0008
000f
0001
0009
0002
fffc
fff5
0005
002a
ffef
fff2
000e
0018
ffe5
0002
ffe0
0002
ffef
fffb
0013
ffed
0003
ffe0
ffe2
0012
fff0
fffd
0009
0000
0012
0009
0016
ffff
ffe3
0004
0003
0006
fff6
001e
ffec
000e
fff9
0005
fff5
001b
ffee
fff5
0005
fff5
fffd
ffef
001a
0027
000c
fff2
fffb
fffc
0003
0018
000e
000b
0007
ffe1
ffd8
0009
ffe5
0008
fff6
000f
fffe
fff2
0005
fffa
fff0
000a
0003
0002
fffb
ffe8
ffee
0002
ffef
fff6
fff7
fffd
fff2
000f
0002
0002
fff8
ffff
0010
0015
ffec
fffe
0016
fff1
ffe7
0002
0008
0005
001d
fffe
ffe9
0007
000f
0008
0000
ffef
000c
fff6
0007
fffd
fffd
fffb
0000
0002
fff7
0004
ffeb
0009
0007
0009
fff4
0010
ffeb
000d
0012
ffea
fff3
ffff
0016
0010
ffdc
ffec
0003
fff9
000a
fffe
0003
fffe
fff8
fff9
fff5
ffef
fffd
0000
001b
fffe
0000
0000
fff6
000c
fff9
fffd
ffff
fffa
ffff
0013
0000
fffd
fff3
000c
0006
fff3
ffff
001a
fff7
0001
fff6
fff9
000a
000e
0002
0007
0007
0012
fff7
0006
000d
fffa
000f
000b
fff8
fffa
ffff
fff8
000b
fffd
0004
ffff
0005
fffd
ffd9
fffc
fff4
0003
0001
fffe
ffef
ffd9
ffe7
002f
0026
ffd6
ffe9
fffc
0006
0024
ffe0
0028
001b
0011
ffef
0023
fff8
0009
fff5
fff9
fff7
0003
0003
000e
001a
fff0
ffe2
fff5
000f
ffc9
ffe4
fff6
0022
fffd
ffcc
0002
ffee
fffa
fffb
fff6
fff5
0025
0007
ffe7
ffea
0023
fff2
fff5
0010
0010
0015
ffd4
000f
001e
fff0
ffe3
0015
fff9
ffc7
0005
0021
0014
fff6
fff7
ffdc
fffd
fffc
0006
ffed
fffc
0022
fffd
0012
0007
0007
fff5
ffd0
001a
fffd
0013
0016
ffe5
0005
0002
0008
0002
fffc
0000
fff9
0008
0028
fff1
ffeb
000d
0003
ffcc
fff9
ffff
0015
ffe6
0008
ffef
000f
000b
fffa
0003
fffd
0004
fffe
fff6
ffe5
ffed
0014
0008
ffeb
ffff
ffea
0004
fffa
000f
000d
ffeb
0026
fffd
0003
fffd
ffff
fffe
0015
fff7
000b
0008
ffd5
fff4
0024
fff0
000c
fffb
fff2
fff0
ffda
fff9
fff6
0013
0011
fff9
fffc
0008
fff3
0005
0008
fff7
ffe6
0003
001a
0003
0010
0006
000d
fff1
fff1
0002
000e
fffc
000d
fff8
0014
0012
fff7
0007
fff0
0008
fff5
fffd
ffff
0007
0010
0005
fff6
0007
ffe1
0003
fff7
0006
000d
ffec
001c
0007
0006
fff0
ffd5
0009
000e
0011
0005
ffff
0028
000a
fffa
001a
0011
0002
0012
0010
0044
fffa
fffa
ffe0
ffe8
000e
0015
fffe
fff6
fffc
0013
fff5
ffeb
0004
0000
fff8
000b
ffeb
ffd4
000a
0002
fffd
ffd0
fff2
ffe5
0013
fff7
0006
0000
0011
000e
fffe
fff8
001f
0009
ffd9
fff9
fff5
ffef
0003
0004
fff6
001a
fffc
fff9
0012
ffd2
0007
fff7
fffe
0022
000b
0006
fffe
ffe2
fffa
0020
000b
fffe
0007
0001
0008
000c
001a
0033
0007
0002
fffd
ffd3
0013
fff7
fff2
fff2
ffe9
0009
ffea
0008
000d
000d
000e
0003
ffed
fff9
000f
fff7
fff6
ffee
0002
0004
001c
fffb
000d
ffee
fffd
0009
0002
fff5
0025
0004
ffd9
fff3
000f
fffe
fff8
001d
0017
001a
0005
0004
001f
ffd6
0013
fff7
fffa
fff5
fff4
fff2
000d
fffd
fff0
001a
0011
ffe0
0014
fff2
fff7
0014
0013
002d
fff7
ffff
ffde
ffef
0019
fffb
fffd
0001
fff2
ffff
0009
0004
000b
fff6
000a
0009
fff6
fff0
0019
0002
000a
fff4
000b
fff8
001b
fff3
fff7
000e
000c
fff4
fff8
0007
001d
001d
fff7
fff3
fff2
0005
fff8
001e
ffff
0007
fff4
fff6
000b
ffe2
0006
ffee
0006
0013
0003
ffe6
000d
0005
000b
fff3
fff6
fff7
0007
fff4
fff7
0000
fff7
0037
fff9
fff5
0002
000b
fffc
fffc
0000
fff2
fff2
0006
0023
0028
ffeb
ffd2
0006
fffc
fff6
0004
0000
fffc
ffe9
ffeb
fff3
0005
001c
fff0
0012
fffa
fff8
fff7
fff3
0017
0001
fffe
0002
fffe
fff8
fffc
fff2
fff9
fff7
ffff
0009
0021
0006
fffa
ffef
000b
fffa
001d
fff9
fffa
000d
000d
0005
fffe
ffce
002b
ffe5
0006
ffd8
fff3
fff8
fff1
fffc
fffd
fffe
0024
000b
0015
0006
0002
0007
000e
ffbf
001f
ffee
001a
ffff
000a
0006
0023
ffe7
fffc
0003
ffff
ffe0
0018
ffff
000a
fff8
ffea
0000
0005
fff8
0007
0010
fff2
ffde
0012
ffef
fff0
0000
fff1
ffe3
0019
0012
000c
0019
0015
0017
000d
ffeb
ffff
fff7
0013
0017
001f
0001
fffa
001f
0014
000b
0006
ffe6
0010
0007
0043
fff6
0009
ffe0
ffeb
fff1
0029
ffee
0005
fff8
000d
000b
fff3
0022
ffe8
0005
000f
fff9
fff1
0022
0012
fff6
fff9
fffe
fff4
fff8
ffe2
fffd
fffe
0018
0008
fff4
000e
001d
0008
000d
fff1
fff4
ffe4
fffe
000b
fff1
001a
fff8
ffef
0001
fff3
ffef
ffe6
ffe7
fffa
000e
0003
0021
0005
fff1
001b
002a
ffdd
001e
000c
ffe8
0000
ffe5
000c
000b
0016
0006
fffd
fff3
ffe8
ffe4
ffda
0004
0012
0021
0020
fffc
fff2
fffc
fff5
000a
ffef
fffd
ffed
0007
000d
ffef
fff4
fff6
fffb
0002
0004
ffe9
0008
003f
fff8
ffe8
ffec
0011
0013
ffea
0008
fffa
0003
ffec
fffc
0006
0002
ffef
ffe9
fffa
fff1
0014
0011
fff9
ffeb
0006
fff8
0000
0008
0007
ffde
000a
fff7
0015
0017
000d
0027
fff7
fffa
ffd5
ffee
001e
0013
0012
fff9
ffe2
ffef
fff7
0007
fffe
0001
fffb
0007
fffa
fff5
001b
0000
ffff
ffe3
fff7
000c
0029
ffec
0003
0003
fff1
fff1
000e
0019
fffb
0013
ffea
ffef
0009
000a
ffef
001a
000d
000a
ffeb
fff4
001b
ffe1
0001
fffe
0001
0011
0004
fff0
0004
0002
0017
ffe6
fff8
000d
0008
0010
0001
fff5
0005
ffe1
fff0
fffc
0009
000b
fffc
0010
0014
0000
000c
0003
0000
fffa
000e
0014
ffeb
000d
ffed
000c
ffea
0003
fff1
fffc
fff5
fffd
fff9
000c
ffeb
ffed
ffec
0004
0019
000f
fff1
ffed
fff3
0000
0006
fffa
fff4
fffd
0000
0005
0011
fffb
0005
0018
fff3
0011
0003
fff6
0000
0012