000b
fff6
0005
fffa
fff9
000b
0009
fffc
ffed
0015
000a
ffed
0003
fff2
ffeb
fff3
000a
ffff
0030
0002
fff3
0018
fffe
0008
fffa
fff4
fff6
0014
000b
0027
0000
001a
fff3
000a
ffef
fff4
fff9
fff5
0004
000b
ffe9
ffe1
0004
fff9
fff9
ffee
0003
0003
fffe
000e
0005
ffe3
fff8
fffd
ffff
000f
fffd
0016
000a
0010
000e
ffd8
000e
ffe7
000b
0000
fff1
000a
0026
001a
fff5
0041
0000
0019
0009
ffcf
003d
ffd5
ffdb
fff5
0015
ffe4
0001
000e
003b
002e
0013
ffd2
ffda
0002
ffce
0005
0031
0040
fffc
0028
0029
0007
fff8
0007
ffe8
ffe3
fff4
0005
fffc
fff1
0017
fff0
ffdc
ffcc
000a
ffe3
0010
ffd6
ffee
ffc6
ffd3
fff5
001f
ffeb
0015
0027
0005
fff5
ffeb
0002
0003
ffe1
fffd
fff1
fff4
001a
ffff
001d
ffea
0039
fff2
0022
0025
ffe3
0026
ffec
fff0
ffe1
0011
ffe9
fff1
0018
0011
0036
0006
0009
ffd7
fffd
fffd
000c
0013
0016
0003
001b
0009
000f
ffef
fffa
ffe6
fff6
0000
fff3
fff8
0001
0017
ffe4
0008
fffb
fff4
fff4
fff5
fff2
ffef
ffd0
ffe9
ffea
001e
ffe5
0009
0014
0015
fff7
0007
0000
0008
ffea
0009
000a
0000
0013
0002
000f
000b
0001
ffe8
0028
000b
000d
fffe
ffe5
fff0
fffb
fff6
fffd
000d
ffea
ffe7
000c
fff3
fffb
ffef
fff9
000d
001e
000d
0019
ffea
0005
0012
0004
ffed
ffe6
fff7
0007
ffe7
0013
ffff
0011
0004
fff3
000e
fff4
fff4
0012
0010
ffe6
0001
ffef
0006
fff4
0014
0004
0002
0011
0014
fff0
fff9
fff7
0001
ffed
fffe
fffd
0000
fffc
fff8
0001
0004
fffa
fffd
fffa
fff9
fffa
ffff
0002
0005
fffe
fffe
0008
0002
fffd
0001
fffd
0006
0000
0001
ffff
fffb
0000
0003
0008
0001
0002
0004
0004
ffff
fff8
0002
0001
fffb
fffd
000b
0000
0001
fffc
0000
ffed
0002
0007
fffe
fffd
0002
0003
fffa
fffe
0000
0007
000b
0008
fff8
fffe
ffff
0000
0004
0001
fffc
fffb
ffff
0001
fffd
fffe
0001
fffe
fffc
fffd
0000
fff9
000a
0004
ffff
fffd
0002
ffff
0001
0002
0008
0000
0001
0003
fffd
0001
fffa
fffe
0005
0008
fffc
0002
ffff
0005
0002
fffe
0003
0006
ffff
ffff
0007
ffff
0001
fffc
0003
fff0
0005
0007
0002
fffe
0002
0000
fff8
fff9
fffd
fffe
0006
0000
fff9
fffe
fffd
0001
0001
0007
fffe
fffe
0001
0003
0000
fffb
fffb
fffe
0008
fffc
0003
0008
fffc
fffe
fffd
0004
fffe
fffd
0003
fffa
fffc
fffe
fffa
0003
0004
fffe
0001
0000
ffff
fff6
fffe
fffc
0000
fffc
fffc
0007
0001
fffc
0001
0003
fffc
fffd
fffe
0001
0004
0011
fff9
fffd
0002
0001
fffe
0007
000c
0002
fffd
0003
fffb
fff9
0000
0001
0006
0003
fffc
fffc
0005
fffc
0005
0005
0000
0001
0000
0000
0003
0003
0006
0003
fff9
ffff
0000
0000
0000
0003
fffd
0000
fffc
ffff
ffff
0000
0007
fffd
000a
0003
0000
fffd
fffe
fffd
0000
0000
0004
0002
fffd
fffe
0004
fffe
fff7
fffc
0002
0002
0002
0013
fffa
fffd
ffff
0002
fffd
0001
0004
0000
0003
0001
fffa
fffc
0003
ffff
0004
fffd
fffa
fffd
000a
0013
fff2
0003
ffeb
0016
0003
fff6
fff7
fffb
000a
000c
0016
0006
ffeb
fffe
0002
fffe
0010
0006
fff2
fff7
0000
0002
000d
0000
fffc
ffee
fff9
0001
0009
0004
ffff
0008
fff1
0005
fff2
ffff
0000
ffe4
fff7
0000
fffe
ffeb
fffd
0002
fffc
0000
0001
0007
fff8
ffea
0010
000b
0006
fffc
fffc
0006
0010
0008
fffc
fff5
0002
fff9
0006
0008
0004
0005
fff2
fff8
fffb
000c
fff5
fff2
0008
fff7
fffc
0008
0004
0007
0007
0013
0006
fff8
fffe
fff3
ffff
0001
0002
fffd
0008
0013
0001
fff7
0005
fff3
0008
0002
fffa
ffff
fffc
ffff
0008
fffd
fff7
fff7
0005
0009
0008
fffa
0006
0007
0000
0001
0001
ffed
0005
0011
fffb
ffe9
0001
fffe
000b
fff7
fffa
fff6
fff5
000e
0006
fff0
ffe5
fffa
0000
001f
000b
000d
fffe
001d
0002
ffe2
0029
fffe
ffe4
0006
000e
ffcd
fff2
003f
0020
002c
0005
fff2
ffd6
ffff
ffe9
fff9
000c
0020
fff7
002c
001f
001b
0004
fff6
0009
0003
0010
ffca
fff8
0001
fff1
ffd0
ffff
ffde
ffe9
fff7
0002
ffda
fff1
ffd1
fff6
ffd8
0019
fffc
0002
0017
0017
fff7
0001
001a
0025
fff1
0005
000a
0001
0005
0000
0009
0008
0001
fff3
0003
fff7
fff4
001c
0005
ffec
ffff
0010
fff8
0004
0004
0010
0001
0003
ffe2
fffa
fffa
ffeb
ffff
fff8
ffff
000c
0002
fffe
000b
fff9
fffb
0003
0000
000e
0007
0003
000b
fffb
fff2
fffc
ffeb
0010
0001
0006
0002
fff1
fff6
fffc
0004
fffe
000a
ffff
000c
000a
fffd
fffc
0001
fffc
0007
0000
fffb
fff5
0008
0006
000e
000f
0012
ffe8
000a
000a
ffec
0011
000f
fff3
000d
0003
0005
001b
0000
fff6
0009
0006
fff6
0009
0002
0001
ffe7
0012
0019
ffe8
0011
fffc
0005
ffea
fff1
fff0
ffec
0009
0002
fffd
fff1
fff3
ffe8
fff9
ffec
fffa
fff2
0000
fff8
0007
fff4
0002
ffe8
0001
0007
0013
0009
0005
0001
0001
fff9
fffe
fff9
fffc
ffff
fff1
0005
000b
0006
fffc
0009
fffd
000b
0007
fff4
0018
0008
ffee
0002
000f
fff5
fff5
000e
001d
0006
0008
ffe8
ffe6
fff4
fff0
ffff
0012
000f
001d
0016
0006
0004
fffb
ffff
fff7
0010
fffc
fffd
0002
0003
0005
ffed
0002
0001
0007
fff6
fffe
fff4
0002
fff2
fffd
ffeb
000a
ffff
fffa
0003
0000
ffe5
fffc
000a
0007
0002
fffc
0002
000e
fff2
fffc
000b
000d
0009
ffe9
0015
fff3
fff1
001b
0000
ffed
000c
0005
fff5
000e
0004
fffe
0005
fffb
fff9
0003
fff5
fffa
fff6
0001
0011
fffe
0020
ffe5
0006
0002
fffb
001a
fff9
0019
fff8
fffe
0005
ffff
fff8
000d
fff4
0005
fff4
0004
ffea
fffd
fff0
ffff
ffd8
0002
fff9
0006
000c
fff9
000c
ffff
0003
0010
fff7
fff6
0002
fffb
fff7
0007
000f
0002
ffff
ffe3
0011
fff9
0001
0001
0012
fffc
0002
000e
ffff
000f
000b
0006
0008
ffd8
ffff
ffef
0004
fff9
0013
ffe7
0022
0018
0012
ffe8
fff3
fffc
fffb
fff7
fff5
0010
000e
ffec
0001
fffe
fff3
fff8
ffe8
0002
fffb
fffa
0007
000c
ffe9
000e
0001
0012
0010
fff3
000b
0008
0004
fff6
fff7
fff4
fff1
0006
0003
000e
fff9
0009
ffff
fff9
fffe
fff9
fffa
0005
000e
fff0
0002
000f
fff8
fff2
0006
0000
fff2
fff7
fffe
fff7
0010
0010
fffd
000e
0008
fffe
fff8
000b
fff2
0006
ffef
0003
fff9
fffb
0008
ffff
fffa
fffe
fff4
fffe
000e
0006
0000
000f
000a
fff9
0014
fffc
000e
0005
0018
fff5
fffa
ffe1
fff1
fffd
0000
0004
fff3
ffe9
0001
fff9
0001
0003
ffff
000e
0005
fffa
0002
0022
fffa
0001
0014
ffef
fff8
0008
0002
ffef
0005
fff5
fff5
0000
fff4
0008
000a
000e
0008
0010
fff8
ffed
fff6
ffe9
fffa
fff7
fffc
0009
000f
fffc
0002
fff5
000c
0004
0002
ffea
0012
0009
0003
0004
0007
0000
0007
0006
0015
fffa
0003
0000
fffd
000c
fff1
fffb
fff3
000d
fff6
fff6
ffef
0017
ffff
0008
000a
000e
fff4
fffc
ffe9
fff0
fff8
ffea
fffa
0014
001e
000f
0012
ffeb
0006
0011
0002
0012
fff1
ffed
ffeb
002b
0001
0018
000f
fffc
fffc
ffc3
ffdd
0000
fffb
0004
fff4
fffc
0001
000c
fff5
0009
ffe4
000b
fffa
000d
0018
0022
ffea
fffc
0026
ffe2
001f
0008
001a
ffe9
fff8
ffe0
ffee
ffee
000d
fff9
0005
ffe5
0011
0020
ffef
000f
fffd
0016
fffc
fff1
ffed
0017
fff3
ffee
0015
fff4
000c
fffe
0005
ffe4
000c
fff9
ffe7
0002
ffe9
0005
fff6
001c
0006
0015
fff4
fffa
fffc
ffdd
ffe8
ffef
fffd
000e
0007
0003
0004
fffc
000d
0007
fff7
0003
000c
0010
0001
0007
0002
0002
0010
0001
0026
000a
000e
fffb
fff7
ffff
fffb
fff7
fff0
0012
fff4
fff4
0007
0001
fffa
fff9
0005
ffff
0002
fff9
000d
fffb
0009
0007
fffe
0004
0002
fff3
0006
0007
fff7
fffb
000b
0003
000b
0000
fffc
fff4
fffc
fffc
fffd
0003
fffe
0002
0008
fff9
0001
0001
0007
fffd
0001
0004
0005
fff8
fffe
0001
fff2
0001
000d
fffc
fff3
ffff
fffe
fffc
fffa
0001
fff1
000b
0000
fff3
0002
0005
0000
0001
0003
0003
fffe
0006
fffd
000b
fffc
fffc
fffd
000c
fff6
000c
fffe
fffa
0001
fff3
0003
0008
ffff
fff9
0002
0004
fff7
0003
fff6
ffff
0002
000d
0009
0008
fffb
fffd
fffb
0002
ffff
ffff
fffa
0002
fffe
0001
fffd
0000
ffff
ffff
ffff
ffff
0006
ffff
fff9
0000
000b
fff6
0007
fffe
0003
fffe
000a
fffd
fffe
0006
ffff
fffc
0004
0001
fffb
0001
ffff
fff9
fffe
ffff
ffff
fffd
0003
0002
0000
fff8
fffd
fffc
fff4
0009
0001
0001
0000
ffff
fffe
0000
0004
0008
0005
0000
fffe
fff7
0007
fff3
fffd
0003
0010
0001
0002
fffb
0003
0000
fffe
0003
0005
fffa
0001
0012
fffc
fffd
fff9
0001
ffe4
000b
fffe
0004
fff8
0004
fffa
fff0
fff9
0003
ffff
0007
000c
fff4
ffff
fffe
0000
0006
0007
fff7
000d
000f
fffd
fffd
fff8
0005
fff2
0009
fff7
0000
0010
fff7
0005
0016
fffe
ffeb
000a
0008
ffeb
fffd
ffe8
fffb
0006
0015
0009
0014
ffff
fff8
fffa
0001
fff2
fffc
fff4
0002
0002
0008
fff7
0008
fff9
0001
fff7
0003
0011
0002
000c
0001
0009
fff9
000d
ffff
0005
000a
0014
fffe
ffff
fffa
fff6
fff8
0001
0005
fff0
fff9
fffd
0008
fff9
fff0
0009
fffd
000d
fff4
000a
0000
0004
0006
0001
0012
0004
ffef
fffa
000a
fffa
fffc
000c
fffd
0012
0005
000c
ffff
0000
0002
fff6
fffe
0000
0004
001d
0005
0008
000b
0005
fff8
fffc
fffc
fff1
fff4
fff6
0004
ffee
0003
0007
fff5
fff9
fffa
fff5
fffc
ffec
0001
fff7
0008
0005
fff1
0001
0005
0005
0007
0009
fffe
fffc
0014
fff1
ffe0
0007
ffff
0009
fffe
0031
ffde
0022
000c
0004
fffd
fffb
ffed
fff3
0016
ffed
fff5
0015
fffb
001c
0001
ffd9
ffe7
ffe4
fff3
0003
0008
0013
000a
0019
0026
001e
ffe9
0007
fffa
0004
fff3
fff2
0005
000c
000c
fff2
ffec
fff0
0006
fff9
fffb
ffeb
0006
ffe7
fff3
ffe6
0016
fff9
000f
0012
0015
ffdf
fff8
fff5
fffe
000a
0001
ffff
ffff
fffe
0010
fff6
000a
ffff
fff6
fff4
fff5
fff7
0003
0008
fff2
fffc
000a
fff9
000a
0004
ffff
0004
0000
0013
0006
ffff
fffd
fffc
0003
fffc
fff7
000c
ffff
0008
0000
ffff
fffc
fff4
fffe
fffd
000e
fff8
001c
ffee
ffff
fff0
0007
fffe
fff4
0002
0011
fff3
fffb
fffa
fffe
0001
000d
0007
0005
0001
fffe
fffd
0001
0015
0002
ffec
ffff
0008
0015
fffd
fffc
0025
fff5
fffb
0000
0011
fff3
fffc
fff9
0007
fff7
ffe5
ffea
000c
000c
0028
0015
0008
fff7
000f
fff7
fffc
0013
0002
0009
fffc
fff9
0005
0011
000e
fffb
0015
ffee
fff4
fff6
fff5
ffe4
fffe
0014
0011
fffb
ffe8
fff9
fff3
0002
fff4
0002
ffe5
ffe8
0007
0001
000c
fff9
fff9
ffff
001c
0014
000f
fffc
0017
000e
000a
0015
000e
001b
fff2
ffeb
fff1
000a
ffef
ffe9
fff9
000c
0001
ffff
0018
0023
0003
ffd7
fff3
0004
0006
ffec
ffe2
0019
000f
ffec
fffe
ffc9
fff9
000d
0006
ffe2
ffd9
ffd8
fff1
fff2
ffe8
0019
fff7
fffe
001e
0028
fffa
ffe9
0008
fffb
001f
0007
000e
0024
0011
fff0
000f
0001
0002
0000
000e
0009
ffcf
fffe
0005
ffca
0013
0005
000b
003a
001c
0019
0006
ffc6
0024
ffd0
fffe
ffed
0009
fffa
ffd7
0005
ffe3
0003
fff2
fff7
ffff
ffde
ffc7
0003
fff8
ffbf
0008
ffe2
0009
000a
000e
0021
0007
0006
0015
0034
000c
000b
0032
0012
fffb
fff7
ffea
0000
ffe9
fffd
ffe0
ffec
ffcf
fff8
0008
fff2
0001
000a
fff4
0013
0023
003c
ffd1
0018
0005
ffd9
0000
fff1
0026
ffee
0013
0014
0015
0001
0012
ffce
0011
fff4
ffec
0013
fff7
fff9
ffe0
0010
fff0
0000
0017
0016
000f
fffd
ffef
ffef
ffea
fff3
000a
fff3
000f
0007
0022
000d
0006
fffc
0007
fff7
fff6
000d
ffe9
000b
0017
001b
ffeb
ffff
ffe5
ffed
ffea
fff7
ffe7
ffe7
ffee
ffe9
fffd
001f
000e
0000
0014
0019
ffca
ffe5
0001
ffdb
fff1
ffdf
001d
000e
002d
0025
002b
001a
fff4
ffb0
003b
fff2
fff5
0004
ffff
ffe3
ffde
0015
ffdd
0009
0021
0026
0004
fff1
fff7
ffbe
ffc9
ffd2
0017
ffd9
0005
0003
0013
0004
ffff
fffc
000e
ffe5
0028
0027
0007
0033
0011
ffe9
ffe6
000b
fffd
ffcf
0004
0003
ffc5
fff4
fffe
0028
ffcb
0009
ffea
0020
0007
001d
ffdc
0012
0014
ffeb
000b
0000
0005
fffe
0001
0001
ffff
fffb
fffb
fffc
fffe
fffc
0004
fffb
ffff
ffff
0004
0002
ffff
0000
0000
fff5
fff9
0003
0007
0002
fffe
0005
0004
0001
fffb
0001
fffe
0005
0002
0000
0002
0002
fffa
0003
fffc
fff8
fffd
fffe
0000
ffff
0008
fffd
0003
fffc
0002
fffd
0003
0007
0004
0008
0004
fffb
fff7
0000
fffd
fffd
ffff
0002
fff7
0003
0005
0006
fffc
0001
0006
0005
ffff
fffe
0003
fffd
fff5
fffd
0001
0002
fffd
0002
0000
0005
0001
0001
0002
fffd
fffc
0003
0004
fffa
fffc
0004
0006
0004
0002
fffe
0006
ffff
fffc
fff8
0002
fffc
ffff
0004
0002
fffb
ffff
fffc
ffeb
0006
0003
0003
fffc
0002
fff8
ffef
0002
fffe
0000
000b
0008
fffd
ffff
0002
fffe
0004
0004
0005
fffc
0005
0000
fffc
0004
0009
fffa
0004
0001
fffb
fff8
fffd
0000
0004
ffff
0000
ffff
ffff
0004
0000
fffa
fff9
0004
ffff
000c
fffa
0006
fffe
0007
0000
fffb
0002
0002
0003
fffd
0002
0002
fffd
0001
0004
0005
0000
0001
fffe
ffed
0006
0007
0001
fffb
0004
fffb
fff5
ffff
0000
0001
0006
0005
0001
0003
0004
ffff
fffa
0000
0006
fffe
0004
fffd
fffe
0002
0006
fffc
fffe
0002
fffb
fff8
0002
ffff
0003
ffff
fffe
ffff
fffe
0004
0001
0000
fffa
fffc
fffc
0003
fffa
fffb
0001
0006
0001
fffe
0000
0000
ffff
0001
fffc
0002
fff9
0004
0004
0007
fffd
fffe
fffd
fff2
000a
fff9
0000
fffc
0001
fffe
fff9
ffff
ffff
0001
0006
0006
fffb
0002
fffc
ffff
ffff
0007
fffd
fffe
000e
fffd
fff4
fffa
fffb
fff1
fffa
fff4
fff9
0015
fff7
fff8
0004
fff6
fffa
001a
0008
fff4
0000
fff5
fff3
000e
0008
0007
000e
fffe
000b
ffe8
0004
ffef
fff8
fffa
0006
0003
000a
fff9
0000
0007
fff9
fffe
0004
000d
000e
0006
fffc
0003
000d
0004
ffea
000e
0009
0011
fffe
0008
fff6
fff7
fff7
0012
fff2
fffd
fffa
fff8
0007
fff2
000b
0005
0001
fffb
000d
0001
0004
fffc
0003
001c
fff9
0003
fff5
ffe1
fffe
0017
0003
fff9
0018
fffc
ffff
0017
0008
ffe0
0009
0011
000e
fff0
0002
0002
0003
fffa
0013
fff9
000e
000e
fff3
fff9
0005
ffeb
0002
0002
0002
0015
0005
0014
ffe8
fff1
fff3
ffff
fff0
0006
0003
fff9
fffe
0003
fffc
0004
fff9
0002
0003
ffe5
0007
fff4
001b
fff0
fff4
0015
0010
0021
ffdb
0011
0005
002b
fffe
fff7
ffe8
ffee
0003
fff2
fff8
001c
0001
0010
fff8
0004
ffe6
0010
fff0
0018
fff3
ffe4
fff1
001f
fff8
fff8
000b
fffe
ffe9
fff4
000a
fffa
0011
fff2
fffd
000a
000c
ffff
fffa
000a
0009
ffec
000e
ffeb
ffee
0003
000d
002e
ffff
0011
ffef
fffa
000b
0001
0002
ffe6
0000
fff6
0007
fffd
000e
ffff
0000
fff7
0005
0003
fff7
000e
fff7
ffee
fff1
fff7
fffa
0003
fffc
0000
fff5
fff7
fffc
000b
0004
0002
0003
0005
0000
fff5
ffec
0000
fff8
000a
000e
0006
0007
fffb
fff8
0004
0002
000d
fffd
0007
0005
0007
0007
000e
0005
fffb
0000
fff9
fffb
000c
0006
ffff
0005
0014
0005
ffff
0001
0007
fffd
fffd
ffff
ffca
fff1
0019
ffde
0008
0007
001e
ffce
fffe
003d
ffe8
0014
0005
ffec
fff8
0019
ffeb
ffe8
0012
ffe8
0026
0023
0024
ffed
000f
ffd7
0009
fff6
0014
ffe0
0014
ffca
0012
0004
ffd9
0007
ffdb
fff6
ffca
fff9
0012
fff4
ffe0
001d
ffeb
ffed
0013
fffd
000a
000d
ffdf
000e
0004
000a
0000
ffe3
000b
0011
fff0
001a
001f
0013
fff5
ffeb
001f
ffd9
ffe4
fff6
fff1
ffdd
ffc8
001b
fff3
0019
ffea
ffdd
0014
002d
0009
ffc9
0037
ffec
ffff
fff0
ffa7
001c
ffef
0019
0026
0058
0002
fff3
ffea
0012
0003
0014
ffd2
001e
0061
fff8
0050
0018
0011
0033
0049
fffc
000e
0018
003b
ffdc
ffe2
001d
fff2
ffda
0050
ffe2
ffe2
ffe9
0018
ffc7
ffda
ffa2
fffb
fff2
0025
0042
ffe9
0010
0011
ffe7
0000
0006
000f
000c
ffe0
0008
000e
fffd
0003
ffdd
0003
0026
fff1
ffe7
0033
0032
ffe9
ffd9
fff1
0006
fffb
fffc
ffe8
0003
fff2
ffda
ffff
0000
ffe4
0015
ffee
ffed
fffb
fff6
0017
0005
001b
000a
000f
0002
0024
ffeb
000a
fff1
001b
0000
0012
0002
000d
0022
0009
000c
ffef
0000
fffb
ffd7
fff9
fff7
ffe2
0004
0004
0017
fffb
fffe
0013
fff6
0039
002a
002c
ffed
0043
000f
fff3
0013
fff9
ffe8
fff2
0031
0002
0002
0018
0001
0036
fff4
000f
ffdb
ffdc
ffce
000d
fffe
0039
ffeb
0005
fff8
0024
ffd9
ffde
fffe
fffe
000c
ffff
ffcc
ffb5
ffe5
fff0
0002
ffc9
fff0
fffc
ffd8
fff7
ffc8
ffba
000a
0004
0027
ffd9
0024
0022
0028
0015
fff5
ffe0
ffd6
fffa
000e
ffea
ffff
fffa
fff4
fff9
fff7
000d
000e
fff5
000c
fffb
0003
0002
000d
fff9
0000
fffc
fff1
0012
0000
0009
0006
ffff
fffa
0003
fff7
ffff
0004
fffa
fff0
fffa
fff7
0000
000e
0004
fff7
000d
fff9
0002
0004
0004
fffd
0002
0011
fffb
0006
0006
fffc
fff7
0019
000b
fff0
fffe
fffe
fff7
0005
0001
fff1
0000
000f
0009
0013
0004
0000
fffe
000a
fffe
0008
fffd
0001
fff5
0009
fff6
000a
0009
ffee
0002
0005
0000
fff8
000c
0003
fff9
fff7
fff3
0006
000f
000f
fffc
000c
0006
0009
fff7
0001
fffb
000f
fff8
0004
0000
000a
fff4
fffe
ffff
fffd
fff9
fffd
0003
0005
0014
0003
ffff
fff7
0008
0009
000b
0006
0004
fffc
0001
fff7
fff0
fff9
0008
0003
fff8
0006
fff0
0002
fffa
fffb
0008
fff9
ffed
fff1
0007
fff6
0000
fff4
0006
ffff
0001
0000
ffe5
0002
fffe
fff5
fffe
ffff
0001
0012
0018
fffa
fffe
0011
0002
fff9
fffd
ffe8
ffee
0008
fff4
000c
fffd
0006
fffd
0008
fff9
001b
fffe
0007
0001
000c
0007
ffe8
0015
000d
fffc
fff9
0013
000c
0005
ffec
fff6
fffd
ffed
0005
fffd
0005
000f
ffe9
0015
fff0
0006
fff1
fff9
fffe
0008
0004
000a
ffee
0012
0000
fff0
000e
fffe
ffff
fff7
000e
fff7
0003
000d
0015
001c
fffc
fff0
ffec
0002
ffe7
fffe
0010
0017
0006
0015
0002
000c
fffb
fffa
0000
0005
fff8
fff6
fffa
000c
0009
ffe6
fff8
ffe9
ffff
fff6
0003
ffee
fffb
ffe2
fff1
fff2
0010
0001
0005
0009
0006
fff6
fff8
0004
000a
0009
fffd
0002
0000
fffc
fffb
0004
0006
fffb
0001
fffd
fff9
fff3
0005
0003
0003
fffd
0005
ffff
0003
fffe
0006
ffff
0001
0000
fffe
0004
fffa
0002
ffff
000b
0001
0004
0005
0001
0002
fff6
fffd
0002
fffd
0001
0008
0002
0004
0003
0000
ffeb
0008
000a
0002
fffe
0005
fffe
fff1
0006
ffff
fffd
0009
000a
ffff
fffb
0003
fffe
0003
0007
ffff
0005
0007
fffe
fffe
fffb
0001
fff9
0006
fffc
fffe
000c
fff6
0004
0009
ffff
fffb
0004
0004
fff5
fffd
fff9
0003
0006
0009
0005
000d
0001
fffe
fff9
fffd
fff8
0000
fff9
0001
0002
0002
fffa
0004
fffe
fffd
fffe
ffff
0009
0001
000c
0001
0004
fff9
0007
fffe
0007
0005
000b
fffe
fffe
fffe
fff5
fffe
ffff
0000
fffd
fffc
fffc
0002
0001
fffc
0001
0001
fffe
fff6
0002
fffc
0005
0003
0007
ffff
0005
fff8
0002
0008
0000
fffb
fffd
fffb
0009
0009
0000
fffa
fffa
0001
0001
0000
ffff
fffd
0005
0002
0004
ffff
0004
0002
fffd
0005
ffff
fff9
0002
0001
fff9
0001
0011
ffff
fff9
fffb
fffe
fffd
ffff
0005
fffc
0008
0000
fff9
fffc
0006
fffa
ffff
ffff
0001
fff8
0001
0000
0000
ffff
fffe
ffff
0003
0001
fffd
ffff
fffe
fff8
0002
ffff
0003
ffff
ffff
0000
ffff
0005
0007
0003
0000
0000
fff7
ffff
fff9
0000
0002
0006
0001
fffc
0000
0000
0001
fffe
0001
0007
fff9
0000
0009
0002
fffd
fffe
ffff
fff1
0002
fffe
0003
fff8
0000
fffe
fff7
fff9
fffe
0000
0005
0002
fff9
ffff
0000
0003
0001
0004
0001
fffe
0004
fffd
0001
0002
0004
0000
0004
0000
fffe
fff7
0005
0000
0008
0002
fff9
0000
fffd
fffd
0005
fffe
ffff
ffff
ffff
0001
fff9
fffc
0002
0007
0002
0001
0001
0000
0001
fffa
0004
0008
fffb
0001
000a
0005
ffff
fffb
0001
ffec
0006
0001
0003
fffa
0003
0002
fff7
fffb
fffa
0000
0004
0007
fffc
0001
0001
fffe
0000
0003
fffd
0008
000a
fffe
0001
fffc
0005
fff4
0008
fffa
ffff
0010
fff4
0004
000c
0003
fff3
0004
0005
fff2
fffc
fff2
0000
0003
0014
0007
000e
fffd
fffa
fff9
0001
fff9
0001
fffa
0002
fffd
0002
fffa
0005
fff7
0000
fff8
0002
000e
fffe
000a
fffd
0009
fffb
0008
0001
0007
000b
0012
fffd
fffe
ffff
fff9
fffb
0002
0001
fff4
fffc
fff9
0003
0004
ffff
0002
0009
ffff
fffc
0006
0005
0006
0000
000a
0002
0002
fffe
0005
fff9
ffff
fffc
fffb
0001
0003
0001
0001
0001
fffe
0003
0005
0004
fff9
0002
0004
0002
0000
0000
0006
0006
fffd
0000
0004
fffb
0005
ffff
0000
ffff
0012
fffd
fffb
0002
0001
fffc
0008
000a
fffb
ffff
0001
fff8
fffc
0004
fffd
0001
0002
fffe
fff6
fff9
0005
0001
0001
fffd
0001
0003
fffd
fffc
0000
fff8
fff8
0001
0001
ffff
fff9
0007
fffb
0008
0005
0008
0004
fffd
fffd
fff8
0009
fff8
0002
fffe
0003
fffe
ffff
0001
ffff
fffe
0001
fff9
0003
fff8
0000
0006
fffd
0000
0008
fffb
ffef
0004
0005
0001
0002
0000
fffb
fffa
0002
0000
0000
000a
0006
fffc
fffb
ffff
0002
fffd
0005
fffa
ffe2
0005
ffff
ffd4
0032
ffd1
0012
fffc
0019
fff6
000d
0003
ffed
ff9d
ffe8
001e
fffd
000c
0003
0009
001b
0005
000b
fffd
ffed
ffeb
fff2
ffe8
000a
0002
002c
002d
ffe2
fff8
0012
ffe1
0003
001b
0009
000c
0020
ffd6
ffe1
000d
002f
0000
fff6
0011
fff1
0005
ffeb
ffe3
fffb
ffd5
000c
0026
fff3
000a
ffff
fff2
ffef
0011
002a
0009
fff8
fffa
000c
fff5
000f
ffe9
0007
fffa
0015
0010
fff8
000b
0004
ffe7
0017
000e
fff1
000e
000d
fffb
fffe
0011
000d
fff9
fff7
fff5
0002
0008
ffef
fffa
ffff
0005
0006
0004
0007
0008
001f
ffee
ffdd
000a
ffed
fff4
000f
fffa
fff4
fffb
0005
0003
fff2
fffb
000b
ffec
ffdf
0005
fff3
ffec
ffff
ffec
fffe
000d
002d
fffe
ffeb
fffb
fff4
002a
000f
ffef
001d
ffed
fffe
0013
0005
ffe6
ffee
ffd1
0010
ffe1
0006
fff3
001e
001b
fff4
ffed
ffe3
fff8
002e
0037
ffff
000b
fff6
ffe2
ffe9
fff8
0019
0020
ffdb
ffef
0008
0009
fffb
0002
ffff
0024
ffe1
fff5
001f
ffec
0003
0009
0014
ffee
0018
0007
0019
fff2
0008
ffdb
0015
fff5
fff3
fff5
0006
ffff
0005
fff7
0002
fffa
ffff
0041
ffeb
fff9
ffe5
0027
0018
ffed
ffe1
000a
0002
fffe
fff2
0023
fff0
ffe1
fff2
000a
0013
0004
0016
0009
fff0
000b
0007
ffe4
0000
001c
ffec
ffdf
001b
0009
ffff
fffd
ffe2
ffef
0006
0009
000a
0019
ffff
ffe6
fff3
0008
001e
0005
ffe9
000b
0016
ffea
0014
fff4
ffe2
fffd
fff8
0041
fff9
ffe6
0002
fff9
fffc
fffb
0002
fffe
0001
0007
ffff
fffc
0000
0005
fff7
ffff
fff5
fffc
fffd
ffff
fffd
0008
fffe
fffb
0004
0003
fff9
0002
fff9
0003
0001
0006
0008
ffff
0003
ffff
0002
0000
fffe
fffe
0002
fffd
fff9
0008
0000
fffe
0004
000d
fffb
fff9
0003
fffd
fff3
0003
0007
0004
0008
0002
0000
fffc
0007
fffb
0004
0006
0003
fff7
fffe
fffd
fffc
fffd
0005
0001
0001
0000
fffe
0003
0002
fff4
0007
fffb
0001
0007
0008
fffe
0000
fff8
0001
0009
fffd
fffe
0001
fffb
0001
0001
fffd
0001
fffe
0007
0006
fffb
fff4
fffd
0002
0000
0003
fffe
0005
0002
fffe
0007
0006
fff9
0003
fffe
0003
fffe
0014
0001
fff4
0002
0009
fffd
0003
0009
0002
0002
0000
fff1
fff8
0007
0000
ffff
0005
fffa
ffff
0000
0004
000a
fffc
0001
0002
0003
fffc
fffd
fffa
fffc
fffd
fff9
fffb
0006
fffd
fffc
0003
0002
fffe
0001
fffa
fffc
fffe
0000
0009
0003
fffb
fff9
0004
0002
fffa
0004
fff8
ffff
fffa
0002
0000
fffd
fffe
000a
0000
fffc
0005
ffff
ffee
0008
0002
0000
0003
0003
0003
fffa
0009
fff8
ffff
0008
0003
fff5
0004
0002
0002
0000
000b
0003
0001
fffc
0006
0005
fffe
fffc
0006
ffff
0004
0002
0008
0000
fffd
fffa
0003
ffff
fffc
0000
0004
fff8
0006
ffff
ffff
fffc
0002
0002
fffa
0003
ffff
0000
0001
0000
fffe
fffe
0006
fffa
fffa
0002
0003
fff3
fffc
ffff
fff9
0006
000f
fff3
fffc
0000
fffd
fffe
fffe
000a
fffc
fffe
0001
fffb
0000
0008
0001
fffe
0001
0001
fffc