0001
ffff
fffc
0002
0002
0001
0000
0002
ffff
0003
0000
0002
0000
0001
ffff
fffe
0000
fffe
ffff
0002
0000
0001
0002
0003
0002
fffe
0004
0001
ffff
ffff
ffff
ffff
0002
0001
0002
0000
0001
0000
0000
0001
fffd
0001
0001
0000
0002
0003
fffb
0000
fffd
fffe
0001
ffff
fffe
0001
0001
0000
ffff
ffff
fffe
0000
0002
fffd
0002
ffff