fffd
0003
0004
ffff
0000
ffff
0003
fffa
ffff
ffff
0003
fffe
ffff
0000
0004
ffff
ffff
0002
0002
0000
fffe
0000
fffd
fffe
0000
0003
0000
ffff
0000
fffd
0000
fffe
ffff
ffff
fff9
0000
0000
0001
fffd
0005
0003
fffb
fffe
0003
0001
0000
0003
0003
0001
ffff
0000
0002
ffff
fffc
ffff
0002
0003
ffff
fffe
0003
fffd
0004
0001
0007