fffc
fffc
0000
0000
fffe
fffe
fffc
fffd
fffb
fffd
fffb
fffd
fffa
fffd
fffb
0003
ffff
fffa
ffff
fffc
fffe
fffd
ffff
fff9
fffc
fffa
fffc
fffe
fffd
0001
fffa
fffb
fffb
fff8
0000
fffa
fffc
fffe
fff9
ffff
fffe
0003
fffd
fffb
0000
fffe
fffc
ffff
fffa
fffb
fffa
fffe
fff8
ffff
fffa
fffc
ffff
fffc
fffb
fffc
fff8
fffc
fffc
fffb
fff9
fffe
fffd
fffc
fffd
fff9
ffff
fffa
0002
fffb
fffd
fffe
fffc
fffb
ffff
fff7
fffc
fffb
fffe
fffb
fffc
fffd
fff6
fffd
ffff
fffb
fffa
fff8
ffff
ffff
fffc
ffff
fffa
fff9
fffb
fffd
fffe
fff9
fff8
fffb
fffc
fffd
fffc
fffa
fffe
0001
fffa
fff8
fffc
fffd
fffb
fffd
fffa
fffb
fffe
fffc
fffc
fffe
ffff
fffb
fffd
fff6
fff7
ffff
fffc
fffb
0000
fff4
fffd
0006
fffe
fffd
fffa
fffb
fffe
ffff
fffc
fffe
fffa
0001
fff8
fffe
ffff
ffff
ffff
fffc
fffd
fffd
fffe
0000
fff9
fffe
fffd
fffd
fffe
fff8
fffe
fffe
fffb
0000
ffff
ffff
fffa
fffb
fffe
0002
fffd
fffd
fffe
fffd
fff7
fffb
fffd
fffa
fffe
fffa
fffd
fffd
ffff
fffe
fffe
fffc
0001
fffc
fffb
fffa
fffc
fff9
ffff
fffb
fffc
fff9
fffc
fffd
0000
fffe
fffe
fffd
fffa
ffff
0000
fffd
fffd
fffa
ffff
fffb
fffd
fffb
fffd
fff9
fffb
fff8
fffb
fffb
fffb
ffff
fffc
fffd
0000
ffff
fffe
fffb
ffff
fffa
fff8
fffa
fffc
fff8
fffc
0001
fffd
fffc
fffb
fffe
fffb
fffe
fff9
fffd
0000
fffc
fffc
fffc
fffc
fffe
0000
fffd
fffe
fffe
fffc
fffb
fffc
fffd