fff9
0011
0011
ffe6
0002
ffe6
fffd
fff8
000a
ffe9
fffd
ffe7
0006
0003
fffc
000a
0014
000a
000e
0006
000b
ffe2
ffe8
0009
ffff
fffb
ffdf
fff1
0007
fffd
0000
ffef
000b
fff9
0002
0010
fff2
fff1
fffd
000e
0017
fffc
fffd
fffb
0009
000b
002d
0022
0009
0003
fffa
fffd
0001
fffe
ffeb
fff8
fff8
fff1
fffb
0009
000d
0015
ffeb
0014