ffff
fffd
0004
fffe
fffc
0003
0000
0000
0006
fffb
ffff
0007
0002
0003
fffd
fffe
0002
0004
fff9
fffa
0000
0001
ffff
0004
fffe
0005
0002
ffff
fffa
ffff
0000
ffff
fff9
0001
0000
ffff
0003
0001
fffb
ffff
fffc
fffa
0003
fffb
000c
0004
0007
fffe
0000
0009
fffb
0000
fffb
fff8
0000
fffb
0008
fffb
0002
0000
ffff
ffff
0001
fffd
0003
0001
0002
fff8
0003
fffc
fffe
ffff
fffe
0001
000a
0000
0009
ffff
0002
ffff
0006
0005
fffc
0000
0001
0006
0003
0006
0003
fffe
0004
fff8
0006
0001
0003
fffe
ffff
0000
0007
0001
ffff
0000
fffd
fffe
ffff
0003
0004
ffff
0003
0000
fffb
0000
000b
fffb
0000
0006
0000
0000
0004
0004
0003
0000
fffe
ffff
ffff
0004
0003
0001
0004
fff6
0005
fffe
fffe
fffc
0000
0002
0003
0000
fffb
fff6
fffa
fffa
0003
ffff
0000
0002
fffe
fffd
fffd
fff5
0001
fffc
0000
fffb
fffb
0001
0008
fffd
fffc
0006
fffb
0003
0005
0003
ffff
ffff
fffd
fffb
fffb
0006
0005
fff6
fffc
fffb
0002
0005
fffc
fffe
0005
fffd
ffff
0002
fffd
fffa
0006
fffa
fffb
0003
0002
ffff
ffff
fff8
0008
0002
fffe
0002
0001
0006
fffd
fffa
fffd
ffff
fffc
fffd
ffff
fffd
fffd
0003
fffe
0002
0004
ffff
fffc
fffa
fffe
0002
0005
fff9
ffff
0006
0000
0009
0003
ffff
fffd
000c
fffc
0001
0007
0004
0002
fff8
fffc
fffb
0003
0002
0000
fffc
000b
0002
0003
fff9
fffd
fff8
ffff
fffe
0005
fffd
0002
0003
fffc
fffd
0005
fffb
fff8
0003
fffa
0005
fffe
ffff
fffe
fffd
0002
fffe
0009
0000
fffd
0007
fffa
fffc
0000
fffe
ffff
ffff
ffff
fffe
fffb
0003
0003
0002
0000
0003
fffb
0005
0001
ffff
fffc
fffe
ffff
fffa
fff9
0000
ffff
fff8
0002
0000
0005
fffe
ffff
0006
0003
0000
0000
fffe
0002
fffd
ffff
0003
0002
ffff
fff6
0006
0008
fffc
fffe
fffc
fffe
0004
fff9
0002
0005
fffa
0002
000c
0009
fff8
fff8
0004
fffa
fffd
000b
fffd
fffc
fffe
fffc
fffc
0003
0003
0002
000b
0009
fffb
0002
fffc
0004
fffe
0001
0000
ffff
0008
fffc
0000
fffc
0006
fffd
0001
0003
fffe
0001
0000
ffff
0004
0001
0001
fffd
fffe
ffff
fffe
fff9
0005
fffe
fff7
0001
0002
fffe
0002
fffd
fff9
0000
0002
0003
fffc
fffb
0003
0003
0004
fffd
fffe
0008
0005
0005
fffe
fffe
fffb
0001
0004
0000
0005
0007
0008
0007
0000
0009
0009
ffff
ffff
fff8
fffc
ffff
0001
ffff
fff6
fffa
0007
fff9
0005
0004
fffe
0006
fffe
0000
fffd
fffa
ffff
fffb
fffc
0002
0001
fffe
0005
0002
0004
0004
0001
ffff
0000
ffff
fff9
0000
fff8
fffd
ffff
fffd
0004
fffb
fffb
0008
0004
0000
0004
0004
ffff
fffc
ffff
0006
0003
ffff
fffd
fffe
000e
fffe
0001
0007
fffc
0007
0003
0007
fff9
fffc
0008
0001
0009
0000
0003
0002
0007
fffb
fff9
fffe
ffff
0000
fffb
ffff
0000
0006
0004
ffff
0002
0006
0002
0008
fffe
ffff
0000
fffe
fffe
0002
fffd
0001
0003
0005
fffc
0003
0001
0006
fffb
fffd
fff9
0000
0004
0007
fffa
ffff
fffd
fffb
0004
0004
fff4
fff5
fff6
0005
000a
0003
ffff
0003
0007
fffe
0004
0005
fffe
0003
fff7
0006
fffc
0003
fffa
0006
ffff
0001
fff9
fffb
0005
fffd
fffd
fffd
0001
0003
fffe
0003
fff6
0000
fffe
fffd
fffb
0002
0003
0009
0000
0001
0005
0003
0002
0008
0004
0000
fffc
0006
0003
0001
fffd
0002
ffff
fffe
0000
fffd
ffff
fffa
0005
0003
0003
ffff
ffff
0002
0005
0002
0001
0000
ffff
0003
fffa
0007
0004
0002
0002
0009
0003
0001
0002
0003
0001
0008
fffb
ffff
fff3
fffc
fff5
0004
0001
ffff
0001
0001
0003
0004
ffff
fffb
fffe
0002
0006
0004
ffff
fffd
000a
fffe
fff8
0002
0007
0001
0003
fffc
ffff
0009
0000
0001
0001
fffc
0000
0002
fff9
fffd
fffd
fffc
0001
fffc
0001
fffe
0004
0003
0001
0000
0000
0009
fffc
0002
000a
0002
0000
fffc
fffe
0006
0003
0003
0006
0005
ffff
0005
0004
fffe
0000
fffe
0000
fffe
0000
0004
fffb
fff9
0002
0001
0000
0001
fffc
000b
fffe
0004
fffc
ffff
fffc
ffff
0001
0007
fffa
0006
fffe
0004
0003
0009
0007
0002
fffa
0005
0002
0001
0007
ffff
fffd
000f
fffd
fff9
fffe
ffff
0002
0003
0003
000b
0000
0006
fffd
0004
fffe
fff9
fffd
fffb
0003
0005
fff5
0000
0000
0005
fffd
fffc
0000
fffd
0000
fffe
0001
0002
0000
fffb
0001
fffd
0002
0000
0003
fff9
0003
0002
fffc
0005
ffff
fff9
0005
fffc
0008
fff9
fff9
fffa
0001
0004
fffd
0001
fff9
fffa
fff9
ffff
0000
fff7
0000
fff9
0001
fffe
fffe
0001
0001
ffff
fffe
fffd
fffe
0000
fffc
0001
0005
0002
0002
0003
fffb
fff9
0003
fffa
0005
0003
fffc
0004
fffe
fffd
ffff
fffe
0006
0002
ffff
fffe
fff6
0006
0001
0001
0000
fffe
0001
fffe
0003
fffd
0004
0003
0002
ffff
0000
fffe
fffd
0000
0008
ffff
0000
ffff
0000
0007
ffff
0002
0001
fffd
0001
0002
0001
fffd
0004
0000
0007
0001
ffff
fffe
0002
0002
ffff
0004
fffe
fffc
0007
fffd
fffb
fffe
0002
0004
fffd
0000
fffe
fffd
0004
fffb
fffa
0002
0005
0007
fffa
fffe
0005
0004
fffe
0000
ffff
0003
0003
0001
0002
fffa
fffe
fff8
0005
fffa
ffff
0003
0001
0003
ffff
fffe
fff9
fff8
fffd
ffff
0004
ffff
0003
0001
0004
0003
0003
fffa
fffc
ffff
0003
fff7
fffd
0003
fffb
fff9
fff8
0001
ffff
fffe
0005
0007
0001
fffd
0001
fffb
0009
0007
0003
ffff
fffd
fffa
fffe
fff6
0000
fff9
0003
ffff
0005
fff6
0000
fffa
0002
0003
0000
0001
0000
0003
ffff
ffff
0002
0000
fffd
fffb
fffe
000c
0006
fffe
fffc
0003
fffe
fff8
fffd
0007
0000
fff6
fffd
0002
0004
fffe
fffe
0000
0001
0000
0005
fff9
0000
0009
0005
fff9
0002
fffe
fffd
fffa
fffd
0006
fffd
0000
0006
fffe
0005
fffa
0000
fffb
0003
0003
fffc
0002
fffc
0008
0002
0005
fff9
fffd
fffa
fffd
0005
fffb
ffff
fffb
000b
fff5
fff7
fffd
0003
0006
0007
0003
fffe
fffc
fffd
fffb
0001
0000
0002
0001
fffd
0002
0007
0001
ffff
fffc
0004
0001
0001
fffb
ffff
fffe
fffb
0003
0000
fffd
0000
ffff
fffc
0001
ffff
0006
0002
0003
0004
0001
fffd
0000
fffa
ffff
fffa
0006
0006
0003
0003
0000
ffff
fffd
fffb
ffff
0000
0001
0001
fffd
0003
0002
0002
0007
fff9
fffa
0000
fffb
fffd
ffff
0000
fffe
fffa
ffff
0005
0000
0004
fffd
fffb
0002
fffc
0003
0004
0001
0002
0004
ffff
0003
0005
ffff
0005
0004
fffd
fffe
0004
fffe
fffb
0003
fffe
fffb
0003
0000
0000
fffa
0005
0000
0003
fffb
0002
fffe
0006
0001
0000
fffe
fffb
0003
0001
fffd
0002
fffe
0003
fffd
fffe
fffc
0004
fffc
0004
0001
fffe
fff5
0004
fffc
0001
0002
0005
fff6
0002
0000
fffc
0004
0003
0000
fffe
fffd
0005
0002
fffc
0004
fffa
0000
ffff
fff9
fffd
0000
0000
0000
0004
fffc
0004
0000
fffc
0001
fffa
0005
0001
0005
fffe
0000
fffe
fffe
0002
0003
fffb
0008
fff9
0006
fffd
fffa
0001
0000
ffff
fffe
0002
0009
0000
0004
fff7
fff6
0001
0003
0001
0003
0003
000a
0001
0007
0003
fffc
0002
fffa
fff8
0002
0001
fff5
0001
0002
fffc
fffd
ffff
0000
0002
fffd
0002
0001
0002
0001
fffd
0003
ffff
ffff
0004
fffe
0002
ffff
fffc
ffff
fffc
0006
fffc
fff8
0008
0000
0005
fffd
fffd
fffd
0004
ffff
0003
ffff
ffff
0001
fffd
0005
ffff
fffb
0001
fffb
0000
fffe
fffc
fffb
fffc
fffe
0006
fffb
0005
0009
ffff
0004
ffff
0003
fffd
fffc
0001
0006
fffd
0000
0001
fffa
fffd
fffd
0001
ffff
0007
0001
fffe
0006
0000
0002
0001
0001
0000
fffe
0005
0005
fffc
ffff
0004
0003
0005
0008
fffc
fffb
fffb
fffc
fff7
0006
0001
ffff
fffd
fffe
0001
0002
0006
fffe
0002
fffe
0004
fffd
fffa
0003
0006
fffc
fffd
fffb
0005
0003
000b
0008
0001
0003
0000
fff8
0000
fffb
0000
0006
fffd
0006
0001
ffff
0006
0004
0002
0004
ffff
fffd
0004
fff9
0001
0005
fffa
fffd
0000
ffff
0004
0000
0001
0000
0002
fffe
0003
ffff
0005
000f
0001
fffa
0002
fff9
ffff
ffff
fffd
fffb
fff7
fffc
fffe
0007
ffff
fffc
0001
0005
fffa
fffa
0005
fff8
fffe
0000
fff9
fffd
0006
fffc
0001
0003
ffff
fffe
0001
0004
ffff
fffd
ffff
fffd
0000
fffc
fffc
0008
0003
fffc
0001
fffb
fffe
0001
0000
0009
0006
fff8
fffb
0004
ffff
0005
0001
0005
fff8
fffb
0002
fffb
fffc
0000
0005
0002
0001
0000
0005
0001
fffc
0000
ffff
0003
fff7
fffd
0001
0004
fffb
0006
ffff
0003
fffe
fff7
fffb
0004
0003
fffd
fffa
0006
fffe
0002
0004
fffa
0004
fffa
0005
0001
fffe
ffff
fffb
fffd
ffff
fffc
fffa
fffa
0001
fffa
0008
0004
0002
0005
0005
0001
fffd
0009
fffc
ffff
fffa
fff5
0006
ffff
0003
fffd
0001
fffa
0002
fff9
0003
fffd
fffa
fffe
fffe
fffd
fff7
fffa
0003
0007
0006
0000
ffff
fff7
0004
fffe
fff8
fffd
0002
0006
fffa
0006
fffb
fff8
0003
0001
0002
0001
0006
0007
fff8
fffd
0006
fff9
ffff
0006
0002
0005
fffc
ffff
0000
fff7
ffff
0000
0004
fffe
fff9
fff8
ffff
fffd
0003
fffe
0003
0000
0009
fffc
0001
fff9
fff7
0003
0003
0000
fffe
ffff
0003
fffa
fffe
fff7
0000
ffff
fffb
0007
0005
fffb
fffc
0001
ffff
0004
fff9
fffc
ffff
fffc
0005
0004
fffa
fffb
0000
0004
0000
0003
0002
0002
fffb
ffff
0000
0001
fffc
0001
fffc
0005
fffd
0000
fffe
fff8
fffe
0004
0002
0003
fffc
0005
0002
0000
0006
fffc
fffe
0000
0000
0009
0006
ffff
ffff
0006
0001
0004
0000
0002
0004
0002
0004
fffe
fffa
fffe
0000
0002
fff8
0002
0002
0000
fff7
ffff
0001
fffe
fffe
fff7
0004
fffd
fffc
0003
0004
0000
fffe
ffff
0000
0002
fffc
0005
0002
0002
fffe
0004
fff7
0009
0001
0004
0003
0004
0001
fff9
0002
fff6
0002
0001
fff7
fffe
0006
fffb
fff8
ffff
0001
fffd
0001
0007
0001
fffc
0003
ffff
fffe
0000
0009
fff9
0000
0006
0002
0002
fffc
fffe
fffc
fffd
fffb
0000
ffff
0002
fffd
0008
0007
0004
0000
0004
0005
fffc
fffe
0006
fffd
ffff
0000
ffff
fffa
0002
0000
fffb
0002
0003
fff4
0001
0001
fffd
fffb
fff8
0003
0003
fffb
fffe
0003
0002
0002
fffd
0003
0006
ffff
fffe
0008
0001
fffb
0005
fffe
ffff
0000
0000
ffff
0005
0000
0004
0003
0001
0000
ffff
fffb
fffe
fff8
0000
000a
0001
fffb
0005
0001
0001
fffd
fffd
fffc
fffa
0004
0006
0009
fffc
0005
0001
0005
fffe
ffff
fff9
fffd
fffc
0003
fffc
fffb
0000
0001
fffa
0002
0007
fffa
fffd
0003
0002
0000
0002
fffc
fff7
fffe
0004
fff6
0002
0002
fffc
fffe
fffe
0004
0004
0004
0000
fffe
0008
0006
ffff
fff6
0000
0003
0000
0003
0004
0001
0004
0000
fffd
fffc
fffe
0003
fffe
0007
0003
fffe
0004
fffe
ffff
0001
0004
0007
0008
fffb
fffb
fffd
fffe
0003
0008
0001
fffe
0007
0001
0003
fffd
fffa
fff9
fff8
fffe
0001
0001
0004
fffd
0000
fffb
fffe
fffc
fffd
ffff
fffa
0005
0002
0003
0000
fff8
fffc
0006
fffe
fffb
ffff
ffff
fffe
fffe
0003
fffa
fffd
0001
0002
0001
ffff
fffc
0002
0004
fffe
0008
fff2
fffb
ffff
fffc
fffe
0001
fffd
fffc
0004
0003
0004
fff8
fff9
000a
fffe
0000
0003
fffd
ffff
fffd
0001
0003
ffff
0002
fffc
0000
fffd
0007
0004
000b
fffd
fffd
fffd
0000
fffe
0003
fffc
0000
0005
fffe
0000
ffff
fffc
0002
0002
fffc
ffff
0004
fffd
0000
0002
ffff
fffe
0005
fffe
fffb
ffff
ffff
fffb
0003
fffe
fffc
0003
ffff
0003
fffc
0001
fffb
0000
ffff
fffb
ffff
fffb
fffc
0005
0004
0001
0000
0005
0004
0002
fffd
0003
fffe
fff9
0001
fffd
ffff
ffff
fffb
fffe
fffe
fffe
0001
0000
fffe
0000
0005
fffc
0008
fffd
ffff
0000
0002
0009
0007
fff9
ffff
0000
0003
0000
0005
0001
0006
0000
ffff
0000
fffe
fffe
0008
fffc
fff8
0006
0003
fffd
0008
0002
fffe
0007
ffff
fffc
0001
0005
0003
0001
0003
0007
0005
0005
fffe
0009
fff9
0002
0000
fffc
fffe
0000
0006
ffff
0003
0004
0006
0005
ffff
fff4
0000
fffb
0002
0000
0002
fffe
0000
0000
fffd
fffb
fffe
0004
0004
fff9
fffe
0002
0000
0009
0003
0001
fffd
fffd
0000
fffe
0001
fffe
ffff
fffc
fffe
0002
ffff
0002
0009
0000
fffe
fffc
fffe
fffb
fffc
fff9
fffc
0009
0000
0002
0003
fffc
fffc
fffb
0004
fff9
fffb
000a
0003
0002
0001
0003
ffff
0001
0001
0004
fffe
fffd
fffe
0007
0005
ffff
0000
0008
fffe
fffc
ffff
0009
0003
0003
0005
fffb
fffd
0007
0000
0002
0001
0002
0007
0002
fff9
fffd
fff8
0001
ffff
fffc
0004
fffa
fffd
0002
0007
fffa
0001
fffc
fffa
0006
0002
0000
0009
0000
ffff
ffff
0004
ffff
fffe
fffe
fffe
0006
0003
ffff
fff6
fff9
fffc
0003
fffe
fff8
0001
0003
fffd
fffa
ffff
0004
0002
0000
fffc
fff7
0000
0007
0003
0000
0001
ffff
0001
0000
fffb
0004
fff9
0004
0000
0002
0008
0004
0006
0004
0003
fffc
fffe
0003
fffe
fffd
fff9
0006
0004
fffd
fffb
ffff
0007
000a
0001
0009
0005
fff9
0008
0001
0001
fffe
fffc
0004
0000
0001
0001
ffff
0000
0004
fffb
fffe
0004
0006
fffa
0004
0001
0002
0005
0003
0001
0003
fffc
fffc
fffa
0003
0000
fffe
fffd
fff8
ffff
ffff
fffb
fffc
0009
fffe
fffd
fff8
0002
fffe
fffc
0000
fffd
0009
0006
ffff
fffe
fffd
0003
0001
0005
ffff
0001
fffd
fffe
0009
fffa
fffd
fffd
fffb
fffc
0001
fffa
0002
fffa
fffe
0003
0000
fffc
0003
0005
fffa
fff8
fffd
fffe
0009
0004
fffe
ffff
0002
ffff
0002
000b
0002
0004
fff6
fffb
0001
0002
fffa
0000
fffe
0000
0005
0000
fffa
fffa
fff1
0008
0005
0002
0004
000b
fffa
0000
fff4
fffa
0003
ffff
fffb
fffe
0007
0007
0003
fff8
0005
0000
fffb
fffa
0002
0002
0001
fff7
0004
fffa
0000
fffb
0007
fffe
fff9
fff7
0003
fff8
fff9
fffe
0004
0000
0005
0004
fffe
fffe
fff6
fffc
fffb
0002
0006
0007
fffe
0004
fffc
fffd
fffa
ffff
0003
000b
fffa
0002
fff7
fffb
0004
0005
fffd
fffe
ffff
0001
0003
0000
fff8
fffc
fffe
0000
0000
0006
0004
fffe
ffff
ffff
0008
fffd
0000
0000
0005
fff9
fffc
fffc
ffff
ffff
fffc
ffff
0001
fff7
fffd
0008
fffd
ffff
fffd
0006
0007
fffd
ffff
0003
0004
fffc
fffd
fff9
fffc
fffd
0003
fff7
0003
0005
0006
fffe
fffe
0007
0002
0002
ffff
ffff
fffd
fff6
0002
0000
0009
0006
0000
fff9
fff9
fffe
0008
0007
0002
0006
fffd
0000
fff8
fffe
0005
0005
ffff
0002
0002
0004
0006
0001
fffd
0002
fffd
0002
ffff
0001
fff8
ffff
0007
0002
0004
0003
ffff
ffff
0001
0001
fffc
fffe
0006
0002
0001
fff5
fff9
0005
fffd
fffd
0002
0008
0004
0000
fffe
0000
0003
0007
0001
0000
fffc
0005
0001
fffc
0001
fffc
fffc
ffff
fffe
fffd
0003
0000
fffb
fffb
0001
0005
0002
fffa
0005
0008
0001
0003
fff6
0001
0003
fffc
0001
fffa
0003
fff9
fffe
fffe
fff7
0000
fffb
0005
fffd
fffb
fffc
0004
fffd
0001
0002
0001
0004
fffe
0004
ffff
0006
fffe
fffa
000a
fffa
0001
fffd
0003
0003
fffd
0002
0004
fffe
0005
fffc
0000
0000
fffa
0001
0004
fffe
fffd
fffc
000a
ffff
0004
fffa
fffd
ffff
0000
0003
0003
fffc
fffe
fffc
0004
0004
0001
ffff
0006
0000
0000
fffa
fffd
fffa
000a
0006
fff6
fffb
ffff
fffa
0001
fffa
0002
0008
ffff
0000
0001
0008
fffc
fffe
fff5
fff9
0001
0002
0003
fffb
0002
fffe
0001
fffa
fffd
ffff
0001
0004
0001
0003
0001
fffc
0005
fffe
fff9
ffff
0006
0007
ffff
fffd
0008
fffd
0002
0005
fffc
0004
0007
0000
0006
0001
fffd
0004
fffe
0000
fffd
fffe
0002
ffff
0003
0000
0000
0000
0008
ffff
000b
0007
0001
fffd
fffb
fff8
fffd
fffe
0006
fffc
0001
fffe
fffd
0000
fffe
ffff
0004
0000
fffc
0002
fffe
fffa
0002
0007
0001
0002
fffe
0004
0006
fffd
ffff
0004
fffa
0003
fffa
0004
0001
fffb
0005
0005
0002
0002
ffff
0002
0009
fff5
fffa
ffff
fff6
0007
fffe
fffa
0003
0000
fffe
ffff
fffb
0001
fffc
ffff
ffff
fffb
0001
fffd
fffc
fffe
fffd
fffd
0007
fffe
fffb
ffff
0006
0002
ffff
ffff
fff8
0004
ffff
0005
fffd
0003
fffc
0001
0006
ffff
0001
fff7
0004
0008
fffc
000a
0003
fffc
0000
ffff
0001
0000
fffb
0004
000b
0002
0001
ffff
0001
0008
fffd
ffff
ffff
0005
0000
fffb
fffe
fffb
fffd
0002
0003
fffb
fffc
0000
fff9
ffff
ffff
0001
fff9
0000
0002
fff8
fffb
0003
fff5
0001
0004
fffe
0001
0005
0006
0006
fffc
fffb
0003
000b
0002
0000
fff9
fff9
0000
fff7
0001
0004
0003
fff5
ffff
0000
fff3
0001
0008
fffd
0003
0000
fffe
fffd
0007
0003
0003
fffe
0006
0001
0007
0004
000a
fff7
fffd
fffe
ffff
fffe
0001
ffff
0008
0001
0000
fffb
fffc
0004
fffe
0001
0001
ffff
fffd
ffff
0000
0003
0000
fffd
fffd
ffff
fffd
0003
fffa
fffe
fffe
0006
0000
fffd
0001
fffe
fff9
ffff
fffb
0003
0002
0003
ffff
0006
0001
0000
fffe
fffd
0001
0003
0002
0000
0000
0001
fffe
0001
ffff
0003
fffb
ffff
0001
fffa
fffc
ffff
0000
fffb
fffe
0003
fffe
0005
fffc
0001
0007
0000
0001
0002
0005
0004
fffe
0001
0005
fffe
0000
0004
0002
ffff
fffe
ffff
fffb
fffa
0002
0001
0002
0002
0001
fffb
0003
ffff
fff9
ffff
0004
fff7
fffe
fffd
fffe
0004
0000
0003
ffff
0004
0004
fffe
fffd
0002
0000
fffc
fffc
0000
ffff
ffff
0003
fffc
0002
fffe
ffff
fffe
fffc
ffff
fffe
0002
ffff
0000
0003
fff9
fffc
fffb
fffd
0000
0000
fffe
0006
0002
0005
fffa
ffff
fffa
0004
0000
fffe
fff1
0001
0003
0002
fffd
0001
0003
0002
0000
0002
0001
fffb
0000
0005
0005
0004
fff6
0001
ffff
0005
fffa
fffa
0003
fffe
fffc
0000
0002
fffc
ffff
0004
0000
0002
ffff
ffff
0003
0000
0002
0000
0003
0007
fffb
fffe
0005
fffe
0004
0000
fffe
fffc
0000
fffc
fffd
0001
fffe
fffc
0008
fffb
000b
fffe
0001
0003
fffd
0000
fffd
0002
0001
ffff
0002
0000
0002
0007
0002
0001
0000
0001
fffe
0008
fffe
fffd
0001
0002
0001
0003
fff9
fff9
0004
fffe
ffff
0001
0000
fff9
fffa
0004
fffe
0001
fffc
0002
0005
fffe
fff9
fffd
0000
fffe
fffd
ffff
0006
fffa
0001
0000
0005
ffff
0006
0001
0000
fff9
0003
0002
0002
fff9
0008
0002
0003
0007
0000
0005
fffd
0003
fffc
0000
0008
fffc
0001
0005
fffd
0005
ffff
fff7
0001
ffff
fffa
0003
fff9
fffb
0000
0005
0002
ffff
fffa
ffff
0008
0008
0001
fffc
0000
fff5
0006
fff3
0003
0001
0001
fffe
fff7
fffe
fffe
fffe
0006
0000
fffe
0003
0003
fffb
0003
0004
fff8
fff9
0002
ffff
0007
0004
fff8
0002
fff4
0005
0000
0004
0002
fffa
0007
ffff
fffa
fff4
ffff
fffb
ffff
0004
fffe
fffe
0001
fffd
0003
0002
fffd
0007
0001
0000
fff7
0005
fffb
fffd
ffff
ffff
0005
0000
0000
fffc
0008
fffe
fffb
0006
0000
0003
ffff
fff8
0006
fffc
0008
0003
fff9
fffe
fffc
fffb
fffb
0002
ffff
ffff
0005
0000
0003
fffe
0001
0007
fffd
0001
0004
fffe
fffd
0002
fffa
fff9
0005
fffd
fff8
0007
0002
fff7
ffff
fffe
0001
fffb
fffa
0006
ffff
0001
0005
ffff
fffd
0005
0002
ffff
fffc
0001
fffe
fffb
0009
fffb
fffe
fffd
fffe
0004
ffff
fffd
ffff
0001
0002
0009
ffff
000a
fffd
0001
0005
0001
fff7
0000
0001
fffe
0000
0004
fffa
fffe
0008
0001
fff7
fffd
ffff
fffa
fff6
fffd
0001
0004
fff8
0001
0000
0003
0004
fffb
0004
0001
0000
fff9
0001
fffc
fffc
0001
0004
0002
ffff
0000
ffff
0003
0002
0000
0003
ffff
fffe
0001
0003
0000
ffff
0001
fff9
fff7
fffc
ffff
fffc
0002
0008
0004
0002
0004
fffe
0003
ffff
fffc
fffc
0001
0000
0004
0001
fffb
fffa
0000
0003
0002
0000
fffc
0005
0000
fffb
fffb
0008
0002
0002
fffe
0003
fffc
0001
0001
0004
fffd
0002
0001
fffb
0003
0000
0005
0004
0001
0008
0003
ffff
fffc
fffe
fffe
fff8
ffff
0008
ffff
fffc
0002
0006
0001
0002
0002
0002
ffff
0004
fffb
0007
000c
fff4
ffff
0002
0001
fff6
ffff
0000
fffd
000b
ffff
fffc
0006
fffe
0004
0000
ffff
fffb
0003
ffff
fffd
0005
fffe
fffe
fffa
fffc
0004
0001
0006
fffd
ffff
0006
fffd
fffd
0003
fffe
fffe
fff6
fffc
fffa
fffe
ffff
0007
fffd
0005
0000
0008
fffe
0007
fffc
fffc
ffff
fff9
0005
0004
0000
fffa
0004
0005
0002
fffd
ffff
fff9
ffff
fffb
fff5
0004
0001
fffd
0000
fffa
0000
ffff
fffe
fffe
0006
fffd
fffd
0001
0006
fffc
fffb
fffb
fffe
0009
0005
ffff
0000
0005
0008
000a
fffe
fff6
ffff
0003
0001
0001
0001
fff9
fffe
fffe
0000
fffb
fffa
0002
fffd
0002
fffc
0008
000a
fffc
fffd
0004
0002
fff8
0006
ffff
0000
0002
000a
fffe
ffff
fffe
0009
0004
0005
0004
0003
0000
0000
fff7
0003
0003
fffb
fffc
fffc
0009
0004
ffff
fffe
fffb
fffc
0002
0004
fffd
0001
fffc
0004
fffb
fffd
fffa
fffa
0000
ffff
fff3
0006
0001
0003
0007
0000
0000
fffe
0002
fffd
0005
ffff
fffa
0003
0003
0008
0005
fffc
0000
fff5
fff3
0000
fffc
ffff
ffff
0002
0000
0002
ffff
fffe
fffe
ffff
fffb
0009
0006
fffc
ffff
fffa
0000
000a
0004
0000
fffd
fffb
0003
ffff
0000
fffe
fff9
0000
fff7
0000
0001
fffe
0004
0001
0000
0005
ffff
000c
fffb
ffff
0005
0007
0005
fff9
fff8
fffe
0005
0002
0006
0001
0001
fffd
fffe
ffff
0003
fffc
0003
0002
0003
0002
fffc
0001
0004
ffff
0005
ffff
0002
fffb
fff8
0009
0009
0006
fffd
0000
ffff
ffff
fffe
fffc
0006
fffb
fffa
0003
0001
0000
0005
0004
0001
0007
0006
ffff
fffe
0008
0000
0002
fffc
fffe
fff9
fffe
fffe
fffd
fff9
0004
0000
fffb
fffe
0003
0005
0001
ffff
0001
fff9
0003
0000
fffd
ffff
fffe
0003
fff8
0003
0004
fffc
0005
fffa
0008
0009
fffd
fffe
fffe
fff3
0003
0003
fffb
fffb
fff9
fffb
0001
0002
fffc
fffd
fffd
ffff
0002
0003
fffe
fffe
0002
fffb
0007
fffe
fffe
ffff
0005
0001
fff9
fffa
0001
ffff
fffc
0001
0001
fffc
fff9
0005
0000
fff4
ffff
fffe
0005
fffc
0001
fff9
fffe
fffd
0002
0007
fffd
0007
0004
0002
fff6
fff9
0003
0004
fffe
ffff
0005
fff2
0003
0005
fff8
0007
0001
ffff
fffd
fffe
fffe
fffb
0000
0000
fffb
fffe
0003
0001
fffd
0002
0005
fffc
0009
ffff
fffc
ffff
0004
fffc
fffa
0000
fffd
fffe
0002
fffe
fffe
fffe
fffa
0004
0002
0005
0001
fffc
fffe
ffff
0005
0003
ffff
fff8
0002
0005
fffe
fffa
0002
0001
0000
0002
fffd
fffb
ffff
0003
0003
fffd
0003
0003
ffff
fffc
0001
fffe
0002
0003
0002
fffc
ffff
0005
0004
0007
fffb
0000
0002
fffd
ffff
ffff
0007
fffb
0003
fffb
fffc
0003
0003
fff7
0004
ffff
fffd
0006
000c
0009
0000
0007
0002
0000
fffe
fff9
0000
0006
0002
0006
fffe
ffff
0003
fff9
0000
0004
ffff
fff8
ffff
0006
0008
0002
0002
fffc
0005
0000
ffff
fffa
0006
ffff
0003
0006
fffc
0005
0003
0002
0005
0003
0001
fffd
0005
0005
000d
0004
0003
000a
0002
fff9
fffa
fffc
ffff
fffe
fffe
fffd
0002
fffb
0001
0001
fffe
0006
0004
0000
fffd
fffb
fffa
0002
0008
0001
fffb
0002
fffd
0000
0008
fffe
0006
0003
ffff
0000
0000
0007
fffd
fffa
fff5
0001
ffff
0008
0004
fffc
fffe
ffff
0005
0001
0000
0000
0002
0002
0000
0000
0003
fffc
fff3
fffe
fffd
0004
fffd
0002
0002
0003
0001
0001
0004
0004
fffa
fffe
0000
fffd
0006
0004
fffb
fffd
ffff
0009
0000
fffd
0003
0003
0002
0003
0004
ffff
fff8
fff7
ffff
fffd
0006
0002
fffe
fffe
ffff
0006
fffa
fffb
fff7
0005
0000
0006
0002
0004
0001
0006
fffd
fffe
fffb
0000
0005
0004
0005
0007
fffb
0006
0001
0008
fffa
0003
000a
0002
0004
0003
0002
0000
0001
0001
0009
fffa
fffc
0001
0001
fffc
fffa
0001
fffd
0003
0000
0001
0003
fffe
fffc
fffb
0003
fffe
0002
0001
0000
0005
0000
0006
0001
fffd
0004
000b
fff7
0001
0003
000a
0000
fffc
0004
fffc
fff7
ffff
ffff
fffe
0001
000c
0002
fffc
0002
0000
0005
fffb
fff6
0001
0002
0004
fffa
fffd
0006
ffff
fffa
fffe
0001
0002
fffd
0003
0001
0002
0000
fffc
0004
fffd
fffc
0002
0006
0003
0004
0003
fffe
fffd
fffb
fff8
0000
0004
0004
fffe
0001
0001
fffc
0003
fffd
ffff
fffe
0001
000a
fffe
0000
ffff
fffd
fffe
ffff
0006
fff7
fff7
0000
fffe
fff9
fffc
0000
0001
fffc
0001
0007
0000
0006
0005
fffd
fffc
0008
0006
0000
fffe
0004
ffff
fffc
fffc
0002
0006
fff8
0001
0007
fffd
ffff
0005
ffff
0006
0005
0001
0001
0006
fffd
fffd
fffa
0000
0001
0006
fffe
0004
ffff
fff6
fffe
0001
0003
fffd
fffd
0003
0001
0004
0002
fffe
0002
fffe
fffd
fffe
0000
fffe
0002
0000
ffff
0005
fffa
fffd
fffa
fff9
fffc
0003
0008
0000
0003
fff8
0004
fffc
ffff
fffe
0002
fffe
fffd
fffc
0005
fffd
0005
fffd
fffa
fffe
fffa
0000
fffd
0008
fffe
0000
0002
0006
fffa
fffe
0002
0001
fffe
fffb
fffe
0000
0002
fff6
fff5
fff6
0008
0000
fffc
0001
fffb
0001
0000
0000
0001
0005
0000
ffff
fffb
0001
ffff
0007
ffff
fffd
0003
fff7
fff9
0000
0001
fffc
0001
fffb
fffc
fffa
ffff
fffb
0002
fffd
0002
ffff
fffd
0003
fff9
0002
fff5
0001
0002
0003
0004
0003
fffc
0001
ffff
0000
fffa
fff8
0002
0000
0000
0000
0000
0003
0002
fff6
0007
0007
fffe
0001
fff9
0001
0008
fff3
fff9
0002
0000
0000
fffb
0000
0000
fffc
fffd
fffc
0004
fffb
ffff
0000
0003
fffd
0005
0001
0001
0002
0001
0002
0004
0000
0000
0003
0001
0000
0005
fffe
fffa
fffd
fffb
fffa
ffff
0003
0003
0002
0000
0002
fff7
0007
fffb
0001
ffff
fffe
0002
0007
0002
0004
0001
0001
0002
fffd
0003
0005
fff9
0003
ffff
000a
0004
0006
fffe
fffa
fffa
ffff
ffff
0001
ffff
0001
0005
fffe
ffff
fffd
fffe
0001
ffff
fffa
0003
0002
fffd
fffe
fffb
0003
0003
000a
0004
ffff
fffa
fff9
fffc
0000
fffa
fffb
0006
fff7
fff9
0002
ffff
fffb
fffc
fffd
fffc
0001
0002
ffff
0002
0003
0005
0002
0007
fffe
000a
0008
0002
0005
fffd
0007
fffb
fffb
0007
0000
fffb
fffd
fffe
0002
fff8
0000
0000
0002
0003
0002
0007
0001
fffd
fffc
fff8
fffe
fffe
0002
fff7
0002
0000
fffd
0008
0002
0006
0005
fff2
fffe
fffa
0006
fffd
fffe
0001
0002
ffff
0002
0000
0004
0007
fffc
0001
000a
0000
0006
ffff
fffe
fffe
0005
0009
0009
fffb
fff9
0001
0005
fffb
fffb
0005
000e
fffd
fffc
0005
0003
0000
fffb
fffa
0000
fff7
fffe
0001
fffa
0003
fffd
fff9
fff7
0004
fff7
fffc
fffd
0001
fffe
0002
0002
0001
fffe
ffff
fffd
fffc
0000
0006
0004
0003
0003
fffe
0005
0006
fffd
0006
0001
fffe
fffc
ffff
0000
0001
0000
0007
0000
fffc
fffd
0002
0003
0002
0002
0000
fffc
fffb
0005
0004
fffd
fff7
0003
0002
0000
0003
0003
fffa
0001
fffe
0001
0006
ffff
ffff
fffd
000a
fffb
fffe
0000
fff5
0002
0001
fffe
fffe
0004
ffff
ffff
fffa
ffff
0004
0002
0003
fffd
0003
0004
0005
0003
fffe
0005
fff8
0002
0000
0002
0001
0000
ffff
fffe
0005
fffd
0005
fffa
ffff
0007
0005
ffff
0002
fff9
0004
fffe
ffff
fffd
0009
fffd
0008
0002
0001
0001
ffff
ffff
ffff
0009
0002
0003
fffb
0002
fffe
0003
fff5
0006
0002
fffc
0003
0000
0001
fffc
0008
0003
0001
fffa
0004
fffa
ffff
fff8
fff7
fff5
fffc
fffe
fffd
0009
0002
fffc
0003
0007
0003
0000
fffd
000a
fff8
0001
0004
0001
0003
fffa
fff9
fffe
0002
fffe
0003
fff6
0004
fffd
0001
0004
0000
0002
0006
fffc
fffb
0007
fffd
ffff
fffb
ffff
fff8
fff8
0002
0000
0006
fffc
0006
fff7
fffb
0002
0003
0007
0003
fffd
fffe
0002
000a
0002
0000
0004
fff7
0008
fffa
ffff
0008
0001
000b
fffd
fffc
0001
0000
fffa
fff5
ffff
0003
0000
0004
fffb
fffb
fff6
0001
0005
0002
fffe
fffd
0000
fffb
fff4
0003
fffb
0005
0005
ffff
fffe
fffe
0000
fffb
0003
0005
0005
0003
fffd
000c
0002
fffd
fff9
fffa
0000
fffe
0003
0001
0004
ffff
fffa
0000
0003
0004
000a
fffd
fffe
0001
ffff
0001
0000
0008
ffff
0006
fffa
0008
fff8
0004
fffd
0005
ffff
000c
0000
fffe
0001
0002
0005
0003
0001
fff9
0003
0004
0005
fffb
fffc
fffa
0003
0006
fffe
0000
fffd
fff9
fffb
0003
0005
fffe
fffb
fff8
0001
0006
0004
0001
0004
0000
0008
0001
0000
fffa
0008
fff9
0002
0001
0001
ffff
fffe
0007
fffe
0000
ffff
ffff
fffa
0003
fffe
fffe
0004
0002
fffc
fffc
0006
ffff
0003
0003
0004
0002
fffa
0003
fffe
fffa
0006
0001
fffe
0002
ffff
0006
fffc
0000
fffc
0005
0000
000c
fffb
fffd
0001
fffe
fffb
fffd
fffb
0009
0002
0000
0001
fffb
0006
fffb
fff7
fff8
0005
0008
0005
0007
ffff
fffd
fffb
fffb
0001
0000
0001
fffc
0001
0001
fff8
ffff
ffff
0004
ffff
0007
0001
fffe
fffd
fff8
0001
0000
0002
0006
fffd
0003
0006
fffa
0004
fffb
fffd
0002
fffb
0002
0002
fffc
0006
0005
ffff
0002
fffe
fffe
fffe
fffa
0006
0004
0001
fffc
ffff
fffd
fffd
0001
fff9
0003
0001
fff9
fffe
fffd
0004
0002
0006
0005
fff9
0001
0005
0001
0001
fffd
fffa
fff7
fffe
0000
fff8
fffc
fffc
fff9
fffe
fffd
0007
0002
fffe
ffff
fff3
fffe
0006
fffc
0002
fffe
fffa
ffff
fffe
fff6
0002
fffa
0006
0003
fffd
0005
0003
ffff
0000
fffc
fffd
fff8
fffb
fffe
0005
fffc
0004
0004
0007
000a
fffd
0001
0000
0006
ffff
0002
fffd
0007
fffe
0003
fffe
0003
0003
fffd
fffd
ffff
fffd
fffe
0002
fffe
fffb
fffb
fffe
0001
0000
fff6
fffc
ffff
ffff
0007
ffff
fff6
0000
fffd
0003
0006
0004
fffb
0003
0004
0000
0006
0004
ffff
fffe
fffe
0001
ffff
fff9
ffff
0002
fffd
0005
0006
fffb
fffc
0003
fffe
ffff
0005
0002
0002
0007
0005
fffd
0004
fffb
0005
fffd
0007
0002
0008
0003
fffd
0007
ffff
fff9
0004
0000
0004
0004
0005
fffc
0003
ffff
0003
0008
fffa
fffa
fffe
fff9
0002
0004
0000
fffe
fffe
0003
0001
0000
0007
fff8
ffff
fffc
fffc
0003
0004
0002
0002
fffb
0000
0001
0006
ffff
ffff
0006
0000
fffc
fffd
ffff
fffc
0002
0002
fffe
fff7
000c
fffd
0000
0004
ffff
0004
0000
fffd
fff8
fffe
fffc
0002
fffc
0004
fffc
0002
0007
fffd
0007
fffc
0004
fff8
0003
0009
0005
ffff
fffb
0000
0002
0002
fffc
fffd
fffe
0005
fffd
fffd
0002
0000
fffa
0000
0002
0001
fffd
0004
0000
0004
fffe
0002
0001
0004
fffc
0000
ffff
ffff
fff7
0007
0002
0001
fffc
0001
0005
0005
0001
0008
0008
0000
fffe
ffff
fffc
0000
ffff
ffff
ffff
0000
000a
0008
0002
fff7
fffc
fff9
0006
0002
0002
0001
fffa
0001
0004
0000
fffb
0008
fffe
0002
0000
0004
0001
ffff
0002
0002
0003
0005
fffe
0001
fffd
fffa
0002
ffff
0007
fffc
0003
0001
fffa
0001
fffe
0001
fffb
fff8
0003
0001
0001
000e
0000
0005
fffc
0001
0003
0001
0000
0002
fffa
0008
fffe
0004
0005
ffff
fffd
ffff
ffff
fff8
fffd
fffa
0003
fffb
0001
0005
fff9
fff9
ffff
0005
0001
0008
fff8
fffe
fffe
fffb
fff9
0005
0002
0007
fffd
0000
fffd
0008
0004
fffe
ffff
0001
0000
0003
fff9
0000
fffc
0001
fffa
0003
fffa
0003
0004
0007
fffe
0003
0005
fff5
ffff
fffc
0002
fffd
0000
fffd
0000
fffe
0003
0005
fffd
fffd
0000
fff9
fff8
0003
0001
0002
fffa
0001
0005
fff5
fffc
0000
fffe
fffe
0003
fffd
ffff
ffff
ffff
0003
ffff
0003
0005
ffff
fffa
0002
000b
0002
fffd
0003
0004
0004
0008
0000
fffc
0004
fffc
fffd
0002
fffc
ffff
0008
fffb
fffa
0003
0004
0005
0001
0006
0000
0005
0007
fffa
0000
0003
0000
fffd
0007
fff8
fffb
0001
0000
0003
0000
fffb
fffc
fff8
fffa
0005
fffc
000b
0003
fff8
ffff
0001
fffe
0002
ffff
ffff
0002
0003
0007
fffc
fffe
fffd
0000
000b
0003
fff6
fffd
fffe
0003
ffff
0001
0002
fff9
0002
0006
0004
ffff
fffb
fff6
0003
0002
fffd
fffc
fffe
0002
0006
0000
fffb
0001
0006
0003
fff8
fffb
0000
0001
fff8
ffff
0001
0003
0001
fffd
0009
0005
0004
fffe
0003
0005
fffd
fffd
0007
ffff
fffd
fffc
fffc
fffb
0009
fffc
0002
fffd
0000
0002
fffb
fffc
0001
0007
fffd
0004
fffe
0001
0006
0005
fffc
0005
0004
fffe
fffd
0008
fffe
0002
fff7
0002
ffff
fffe
fff4
0003
0001
fffd
0005
fffe
0003
fffb
0003
0003
fffd
fffe
fffc
fffe
0008
0001
fffd
fffb
0005
fff6
0001
0000
fffe
0004
0007
0001
0002
fff9
fffe
0000
fffc
0008
0003
0003
fff8
0004
0002
0001
fff8
fffe
0000
fff8
0002
fffd
0005
ffff
fffc
fffd
fffa
0002
fffd
fffe
0000
fffa
fff8
0002
fffe
0003
0003
0000
0002
fffd
fffa
fffc
0006
0000
0004
0004
0001
0001
fffd
0002
0002
0001
0005
fffe
0003
fffc
ffff
fff7
0002
0004
fffd
ffff
0007
fff7
fffe
0000
fffd
ffff
0006
0004
0002
0004
fffc
ffff
fff8
0001
fffe
0004
0002
0001
fffb
0001
0007
fff7
0002
0002
fffb
0002
0001
0003
fffc
fffd
fffc
0001
fffa
000b
fffa
0008
0008
0001
0000
fffc
fffd
fffd
fffe
fffe
0002
0004
0003
0004
0001
ffff
0003
0004
0004
fffc
fffd
0000
fffe
0002
fffd
fffe
fffc
fff3
ffff
0007
fff8
0002
0004
ffff
fffd
fffb
0006
0002
fffd
0005
fffd
0005
0002
0009
ffff
0000
fffd
ffff
0001
fffd
fff9
ffff
fffb
0002
fffd
0004
0007
ffff
fffc
0006
fffb
0003
0005
ffff
0005
0007
fffc
fffb
0003
fff8
fffc
0002
ffff
0005
fff9
0002
fff9
0000
0005
ffff
fff9
ffff
0004
fff9
0002
fffb
0004
0002
ffff
fffd
fff9
fffd
0001
fff8
fffa
fffd
ffff
fffd
0002
0001
0003
0006
ffff
0003
0002
0002
fffa
000b
0004
fffc
0002
ffff
0001
ffff
fffe
0003
fffc
0004
fffc
fffd
ffff
0001
fff5
fffc
fffe
fffd
0005
0001
fffb
0001
fffb
0006
0001
fffa
ffff
0000
0004
0000
fffd
0006
fffc
fffa
0001
0000
0004
0005
fffc
fffe
0001
0001
fffe
0002
ffff
fffb
0000
fffe
ffff
0000
0003
0004
0002
0006
0002
fff9
0003
0000
000a
fffc
fffe
0002
fffe
000b
0004
fffe
0003
0001
0003
0002
ffff
0005
fffe
fff8
0000
0002
fffa
0003
fffd
0003
0004
0008
0005
0001
0009
fffe
0003
0003
fffc
ffff
0001
0001
0003
ffff
fff6
0005
fffe
fffb
fffe
0002
fffc
fffb
ffff
0000
0005
fffb
fff8
fffe
fffa
0001
fffe
fffd
fffd
0006
fffe
fffd
0004
fffc
0002
0006
fffe
0000
0002
fffe
0000
0001
fffb
0003
0001
0002
fffb
0006
0007
0005
0005
fffc
fffe
fffb
0003
0000
0001
0004
0003
0003
fffe
0001
fffc
fffd
0000
fff9
0002
fffc
0007
ffff
0004
0003
0009
fffc
0003
fffc
0001
0004
0003
0000
0006
fffa
0002
0002
0007
0003
fffc
0000
0002
fffc
000b
0003
0001
0001
0004
fffd
fffc
fffe
ffff
fffa
0006
0004
fffd
0004
fff8
fffd
fffd
fffd
fffb
0001
fffe
fffa
ffff
fffc
fff8
0002
0006
fffe
0002
ffff
0005
0000
0000
0005
fff9
fffe
fffe
fffb
0001
0001
fffa
0003
0006
fff9
0008
ffff
fffb
ffff
0006
fff7
fffa
0001
0004
0003
0004
0000
fffc
0004
fffa
0008
0001
fff9
0004
0002
0002
0003
fffb
0003
0001
0003
0000
0000
0001
ffff
fff9
0002
fffa
0006
fffd
0004
0003
0000
0004
fff9
0004
fffe
fffd
fffd
0001
fffa
0005
0003
0002
0003
0000
fff9
ffff
fffa
fffd
0005
fffb
0004
ffff
ffff
0001
fffe
ffff
fffd
ffff
0008
0000
fffc
fffb
fffb
fffb
0002
fffe
fff6
fffc
0002
fffc
ffff
fffe
0006
fffd
fffe
0002
ffff
ffff
fff2
0004
fffe
0000
0001
fffd
0003
0002
0004
0002
0005
ffff
0003
fffe
0000
fffc
0001
ffff
fffd
0002
0001
0003
0003
fffe
0001
0007
fff9
0002
fffd
fff8
0002
0003
0003
0001
fffe
0001
000c
0005
0000
0001
0005
fffb
fff9
0001
ffff
ffff
fffd
0001
0000
fffd
0001
0002
0001
0000
0002
fffc
0002
ffff
0002
0005
0006
0000
ffff
fffd
0008
0003
fffd
ffff
fff7
0004
ffff
0001
0000
0000
0005
0001
0002
0006
fffe
0000
0003
fff8
0005
fffd
fffc
0000
0001
fffb
0001
0005
fffe
ffff
fffa
ffff
ffff
0004
0002
fffc
fffe
fff8
0001
0002
0005
fffb
ffff
fffe
0009
0006
0000
fffd
ffff
0002
fffa
0001
ffff
fffc
0003
0003
0002
0007
0001
0000
fffb
0004
fffa
fffe
0004
fffc
fffb
fff9
ffff
0002
0004
0009
0002
ffff
fffe
fff7
0002
ffff
0000
0004
ffff
0000
fffc
fff7
ffff
fff9
fffe
0002
fffe
0002
0006
0002
0003
0000
fffd
fffc
0006
0009
0006
fff6
0002
0000
0001
fffe
0008
fffa
000a
fffb
0001
ffff
fffc
ffff
0003
fffc
0000
0000
0000
ffff
fffd
0001
0000
0000
0008
fff3
fffd
0001
fffd
fffa
0008
0003
fffb
ffff
0002
0001
fffc
0008
0002
fff9
0000
0000
0008
0005
0001
0002
fffc
0003
0000
0000
0002
0003
0000
fff9
fffc
0002
fffd
0001
fffe
fffe
ffff
ffff
fffd
fffc
0004
0001
0006
0002
0000
0003
fffd
0006
0000
fffe
0000
0003
fffd
fffd
0001
fffc
0004
fffc
0007
fffa
0005
ffff
0002
ffff
0002
fffc
0000
fffb
fffd
fffd
0003
ffff
0001
ffff
0000
fff7
0003
fff9
0003
fffb
0004
fff7
0002
0002
0006
0001
fffb
0005
0004
fff8
fffd
0007
0007
fffe
0003
fffd
0001
0003
fffe
0001
fffb
fff4
fffb
0003
0007
fffd
0002
ffff
0003
fff9
0000
ffff
0006
fffe
0001
fffd
0009
fff9
fffd
0004
0002
0007
fffe
ffff
0004
fffe
0000
000b
fffc
fffd
0000
fffd
fffb
0001
fff9
fffc
0006
ffff
0003
fffe
fffc
fffc
fffd
0004
ffff
fffe
fffe
fffb
fffd
ffff
0002
0000
0004
fffe
fffa
fffe
ffff
fffa
0002
0005
fffe
0004
0008
ffff
0002
0006
ffff
0001
0005
ffff
0007
fffb
fffb
0003
fffa
0001
fffd
0008
0008
0000
0009
0002
0005
fffb
0000
0002
0001
0000
fffc
fffc
0005
0001
0001
0003
0001
0003
0001
fffd
fffd
0006
0003
0000
0006
fffa
fffa
fffb
fffb
fffd
0001
fffe
fffa
0004
fffc
0002
fffc
0003
0003
0003
ffff
fffe
ffff
0005
ffff
0002
fffe
0004
0009
0003
fffe
fffb
0001
0004
0003
fffa
0001
0005
0004
0005
fffc
0004
0003
fffa
fffd
0002
fffc
fffe
fffe
ffff
fffd
0000
0002
fffd
fffd
fffb
fffd
fff6
0002
0000
000c
fffe
fff4
fffb
0007
0004
fff9
fffc
ffff
fffc
000c
0005
0003
0005
0000
fff9
0004
fffd
0008
0001
ffff
0001
ffff
ffff
ffff
ffff
0003
0001
0003
fffc
fffa
0006
0002
fffc
0003
fffe
fffa
fffb
0006
fffe
fffe
fff9
0002
ffff
fffd
fffb
fff6
fffe
0003
fffe
0001
0004
ffff
0000
fffe
fffc
0002
0003
0003
0001
0002
0000
0003
0003
ffff
0005
0002
ffff
000c
0007
ffff
ffff
0006
fffb
0002
fffd
fffe
fffd
ffff
fffd
fff7
ffff
0002
fffb
fffa
0008
fffe
ffff
0009
fffe
fffe
0001
0004
0001
fffa
0002
ffff
0009
fffe
0001
ffff
0008
0007
0009
fff8
0001
0006
0003
0001
ffff
0001
0003
0003
0007
0006
0007
0008
0001
0003
0001
0002
0000
fffe
fffe
fffe
0000
fffe
0001
fffd
0004
fffa
0001
fffd
fffe
fff7
fffb
0003
0001
fffb
fffa
0005
0002
0003
0004
fffa
0004
ffff
ffff
0000
0000
0001
fffd
ffff
fffc
0005
fffb
0001
0003
0000
0003
fff8
fffd
0004
fffe
fff7
0001
fffc
ffff
0007
0001
fffc
0002
fffe
0002
fffd
fffd
0002
0005
0007
0004
ffff
0000
fffe
0002
fffd
ffff
ffff
fffb
0002
fffc
ffff
0005
fffd
fffa
0002
0001
0001
0003
fffc
0007
fffb
fffd
fff7
0002
fffd
0001
0000
0002
fffd
0000
0005
0001
fffe
ffff
0001
0001
fffd
fff7
fffc
0004
ffff
0002
0003
0001
fffd
0002
fffc
fffe
0001
fffb
0007
fffd
0005
fffa
0000
fffd
fffc
0003
0002
fffb
fffa
fffe
0002
fffd
ffff
0007
fffc
0004
0005
fff9
fffe
0002
ffff
0003
0001
0003
0004
0004
0006
0002
0002
fffd
0002
0001
0000
ffff
0002
0004
fffd
0002
ffff
0008
0005
0003
0003
fffe
fffe
0006
0002
fffd
ffff
0002
0000
0001
0006
0002
0002
fffa
fffd
fffe
0003
0006
0005
ffff
0001
fffe
000a
fffb
0007
ffff
fffc
fffe
0000
0002
0005
fffe
0000
0006
0001
fffe
ffff
fffe
0001
0002
0003
0000
0000
ffff
0008
fffc
0002
ffff
fff9
0005
0000
fffc
fffc
fff7
0008
0006
fffe
0000
fffc
0006
0001
0004
0007
0009
fffc
0006
0001
0000
0002
0006
0001
fffd
fffb
0003
fffb
0001
0000
fffe
ffff
fffd
0002
0009
fffe
fffa
fffa
0000
fffa
0001
0005
0007
0003
0008
0004
ffff
fffd
0002
0001
0005
0003
fffe
0008
ffff
000a
fffa
0001
0002
0001
0004
0001
0000
0003
fffd
fffc
0002
0006
fffd
fffd
fffd
0003
0004
fffd
fffd
0000
ffff
fffb
fffc
0003
0000
0006
fffc
0003
fffd
0003
fffc
ffff
0004
fffb
ffff
0001
fffe
0003
000a
ffff
0002
0000
0006
0002
fffe
fffb
ffff
0005
0002
fff9
0001
0004
0003
fff9
0003
fffc
ffff
fffb
0001
0000
fffa
fffd
fffd
fffd
fffb
fffa
0004
0000
fffd
0003
ffff
fffe
0000
0000
0003
ffff
0001
fffd
0004
0001
0002
0000
0001
0005
fffd
0006
fffc
0002
fffe
0001
fffe
fff9
fffc
0008
0003
fffc
0006
0004
fffd
0001
0002
0001
fff7
0003
0001
0005
fffa
ffff
0000
0003
fffd
ffff
0002
fffd
0001
0000
0000
fffa
fffb
0003
0001
ffff
0005
0000
fffb
fffc
fffb
0001
0000
fff9
ffff
0000
fffe
fffd
0002
0004
0001
0000
0004
0001
fffd
0006
0000
0000
fffb
0001
0001
0001
fffa
0004
fffc
0000
0007
000c
0001
0004
fffa
0000
ffff
fffe
fffc
0003
0000
ffff
0002
0001
0000
fffc
fffd
fffd
fffd
0005
fffe
0001
fffe
0004
fffb
0006
0001
ffff
0001
fffd
0001
0003
0004
fffa
0007
ffff
0003
0002
0004
0003
0000
0002
fff9
fffc
fffe
ffff
fff9
0005
0003
000a
fffa
0005
0005
fffb
fffe
0004
0001
fffa
fffe
0004
fffd
fffc
0003
ffff
fff9
0000
fffe
0001
fffe
0006
fffc
0005
0008
fff6
fffc
0004
fffe
0002
0005
ffff
0008
0001
0006
fffa
fff8
fffe
0002
fff7
0006
0001
0008
fffe
0002
0004
fffd
0004
0002
0001
0000
0006
0000
0004
0007
fff8
fffe
0001
0001
0002
fffe
0000
fffe
0001
fff6
0002
fff9
fffc
fffd
fffd
0005
0003
0005
0007
0000
0000
fff9
fff6
fffd
fffe
fffd
0002
0004
0000
0006
ffff
fff7
0002
0002
0002
0007
fffe
0008
fffd
000b
0000
0000
0004
0003
fffa
fffd
0007
0000
0004
ffff
fff5
fff9
0000
0009
0003
fffe
0002
0000
fff9
ffff
0004
fffd
0000
fffa
fff6
0007
fffe
fffc
0003
ffff
0001
0005
fffd
fffb
0001
0005
0002
0002
fffd
fffe
ffff
fffc
0001
0009
fffe
fff5
fffb
0001
fff9
0005
0009
0004
fffd
fffd
0001
0005
fffe
0006
0001
0000
0000
fffe
fffe
ffff
0007
fffd
0003
fffd
0005
ffff
fffe
0001
0002
0003
ffff
0002
ffff
fffd
ffff
0002
0001
ffff
0003
fffe
0003
0003
fff8
0006
0006
fffb
0001
0003
0001
ffff
ffff
0002
0005
fffc
ffff
0002
0008
fffe
fffc
ffff
fffc
ffff
0001
0002
0000
fffa
000b
0001
0005
ffff
fffd
ffff
000f
fff8
0001
0000
fffc
0007
0000
0001
0000
ffff
0001
0000
fffe
0004
fffb
000b
0002
fff9
0004
0003
0008
fffb
0003
fffb
ffff
0000
fffd
0005
fffc
0002
0002
0002
0002
0000
ffff
0002
0000
0004
fffd
0000
0001
0007
0004
0001
fffc
fffd
0008
fffc
ffff
000b
0000
ffff
ffff
ffff
0003
0001
fffd
fffe
0003
0006
fff9
ffff
fffb
fffa
fff5
fffc
0005
fff6
fff9
0000
fffd
fffb
fffd
0000
000c
fffb
fffd
0002
fffa
fffe
0003
fffb
0004
0000
0001
fffe
0005
0001
fffa
fffd
0001
0000
ffff
fffd
0001
fffa
fffc
fffb
ffff
fffd
0000
0003
fffb
0001
fffc
0003
0001
0004
0004
0002
0004
fffa
fff3
0004
fffd
fffe
0005
0007
0007
0003
0002
fffc
0004
fff9
fffe
0000
0000
fff6
0004
fffd
ffff
fffd
fffe
ffff
fffc
0002
ffff
0000
000c
fffc
fffe
0000
fffc
fff4
fffd
0002
fffe
fffa
ffff
0002
0004
0000
0009
0002
fffd
0001
0002
fff7
0003
0003
000e
fffb
fffc
fffd
0001
fffc
fffd
0008
0005
0005
fffa
0002
000c
0005
0000
0004
0002
fffc
0001
0006
0002
0007
0005
0000
0006
0000
fffb
fffc
ffff
0009
fffe
fffc
fffb
ffff
0002
0001
0008
fffd
fffe
fffb
fff7
fffc
fffd
fffa
0001
0001
fffa
ffff
ffff
fff2
fffe
fffc
fffc
0007
0007
0002
0000
0002
fffb
0002
0003
0002
0000
fff9
0004
fffa
0002
fffe
fff6
0006
fffe
0003
0000
0005
0004
0003
0003
fffc
0004
0003
0001
fffc
0008
fffc
fffc
0004
0003
ffff
0004
fff6
0000
fff9
fff9
0001
0004
0002
ffff
fffd
ffff
fff8
fffc
ffff
0001
0005
0004
fffe
fffb
0003
0002
0005
ffff
0002
0002
fffd
0008
fff8
fffd
0001
0006
0001
0000
0004
0004
0003
fffe
0000
0000
ffff
ffff
0004
0002
ffff
fffc
fffd
0007
fffb
0003
0003
ffff
0002
0001
0003
0004
0001
0005
fff8
0008
0006
0006
0004
fffc
0005
0003
fffa
fffd
0001
fffb
ffff
fffe
fffd
0007
fffe
0000
0000
fff6
0004
0004
0001
fff9
fffe
fffc
fff7
0003
fffc
0005
fffe
fffd
0000
fffc
0000
fffe
fffc
0005
0005
fffc
fffb
0000
0002
fffe
000a
0004
fffd
0003
0004
fffc
0005
0003
0002
0002
fff9
fffd
0000
fffc
0001
fff9
fffd
0001
fff8
0005
0001
0001
0009
0000
fffb
fffd
0000
0005
fffd
ffff
0005
ffff
fffb
fffd
0003
0001
0000
fffb
0004
fffa
fffb
0005
fff6
0002
fffa
fffb
fffe
ffff
fffa
0000
0003
ffff
ffff
ffff
0000
fffd
0002
0000
0000
fffd
fff8
fffd
0005
fffe
fffe
0002
0000
0000
0001
0001
ffff
0001
fffa
fffc
0005
0001
0000
fff5
0003
0000
fffc
fffb
0000
0003
fffa
0000
0004
000a
0002
fff7
0002
0003
fffe
0003
fffc
0009
ffff
0001
0006
0005
0003
fffc
0006
0000
fffa
0000
fffe
0003
0000
fffd
fffe
0005
fffe
0006
fffc
0001
0004
0000
0000
fffe
0002
ffff
ffff
0004
0003
fffe
0000
0008
0001
0002
fff8
fff5
0003
0005
0005
fffd
0003
fffd
fffd
fffd
0002
0001
ffff
0001
0001
ffff
0000
fffc
0007
0005
0001
0001
0007
0003
0006
fffd
ffff
fff5
fff8
fffe
fffd
fffe
0000
ffff
fffc
fffc
fffe
0003
0007
fffd
0004
fffc
fffc
fff9
0004
0002
0000
0006
0000
0001
ffff
0002
0001
fffa
0000
0001
0004
0006
0000
ffff
fffe
0004
0000
0002
0001
0001
fffc
0003
0005
0004
fffc
ffff
0003
000a
0002
0007
fff8
0006
0001
0001
fffe
0005
0005
0004
fffa
0006
fffb
0004
0001
ffff
ffff
0001
0003
0003
0001
0001
0001
0004
fffb
0005
0000
0004
0003
fffd
0001
0006
fffb
fffd
0000
0001
ffff
0001
fffc
fffe
fffd
0001
ffff
0000
ffff
fffe
0005
0004
0003
fffc
fffd
0002
0004
0002
0001
0001
fffe
0005
fffb
ffff
0000
0001
fffe
fffb
0001
fffe
fffa
0002
0003
0004
0004
0001
0004
fffe
0001
fffd
fffe
0001
fffd
fffd
0000
0003
0002
0001
fffd
ffff
fffb
0001
0002
0002
fffd
fffd
fffe
0001
ffff
ffff
0000
fffc
0004
fff9
fffb
0003
ffff
0000
0000
0003
ffff
0000
fff9
0000
0006
0000
fffe
fffd
0003
0001
0001
0000
fff9
fffe
0000
fffc
fffa
0000
fffc
fffc
ffff
fff9
0004
0007
0000
0008
fffc
fff9
0004
fff8
fffa
fff9
fffa
fffb
0000
fffd
0002
0002
0002
0004
0002
0007
0001
0005
000b
fffc
fffe
ffff
ffff
0000
ffff
0002
0001
fffd
0004
0002
fffe
fffe
0000
fffc
0006
ffff
0006
0003
ffff
ffff
fffb
fff8
fffe
fffd
0001
0003
0000
0001
fffd
0004
0002
ffff
ffff
0006
fffa
fffe
0001
0001
0002
fffe
ffff
fffe
fffc
0002
0002
0001
0001
fff7
fffa
0000
0002
fffa
0003
fffd
0003
fffd
0006
fffd
fffe
0003
0004
ffff
0006
0009
fffa
0003
0006
0003
0001
fffd
0007
fffd
fffd
0001
fffe
0000
0006
fffd
0006
ffff
fffe
fffd
0000
0004
fffd
fffc
fffe
0001
0004
ffff
fff7
0001
0000
0001
fffe
0000
fff6
fff7
0001
0002
fffe
fff6
fffb
0004
fffc
fff8
0009
0000
fffb
0001
0000
0000
fffe
0002
0001
0001
0005
0002
fffc
fffe
0003
0003
fffd
000a
0001
fffb
0001
fff8
0001
ffff
0006
0003
fffb
fffe
0007
fffe
fffd
fffd
0002
fffc
0000
fffc
0004
0000
fffa
fffd
0006
0004
000b
0002
0001
0004
fffa
fffd
0000
0001
0001
fff9
fffb
0000
fffd
fff8
ffff
fffe
0001
0001
0000
fff9
0001
0000
fffb
fffb
fffd
0002
0000
fffe
fffe
0002
0002
fff9
ffff
ffff
0001
0005
fffd
0001
fff5
0000
ffff
fffa
0002
ffff
ffff
ffff
0005
0003
0004
0004
0004
fffe
fffd
fffe
0006
0001
0007
fffc
fffd
fff8
0006
fff7
0007
ffff
0007
fffc
ffff
0003
0001
fffd
ffff
0003
fffe
0000
0001
0000
0001
0003
fff9
0002
fffa
0004
0002
0000
fffd
fffc
0001
0004
0002
ffff
fffa
0005
0002
0002
ffff
fffe
ffff
fffe
0001
0000
0000
0001
ffff
0006
fffe
0002
0002
fffe
0000
fff8
0005
fff4
0001
fffc
0005
0005
0001
fffd
fffe
fff6
0007
0000
0008
ffff
fffb
fffd
ffff
0003
0000
fff8
fff8
0001
fffe
0001
0005
0004
0005
fffd
0002
0000
0002
fffe
0000
fffa
0006
fffd
fffd
0000
0006
fffe
ffff
0004
0000
0002
fffc
fffb
fffe
fffe
fffb
fff9
fffd
0005
0001
fffd
ffff
ffff
0002
fffb
fffc
fffc
0005
fffd
0003
fffd
0002
0004
fff9
fffe
ffff
0002
ffff
0005
0008
0001
fff8
0006
0003
0000
0003
fff8
0002
fffe
0006
0003
0006
fffe
000a
ffff
fffd
fffe
ffff
0002
0000
fffd
fff9
0000
0002
0001
0005
0000
0003
fffa
0003
fffd
0001
0004
0009
0002
0000
fffe
0002
0001
0000
0001
0001
0003
fff8
0005
ffff
0007
0001
fff5
fffe
0006
fffc
fffd
fffc
0001
0003
fffa
000a
ffff
fffe
ffff
0002
fff6
0007
fffe
0002
fffe
fff6
0001
0001
fffd
fffa
0000
0005
0000
0000
fffd
0000
fffc
fffc
fff6
0005
0001
0000
ffff
0001
0004
fffd
0001
fffc
fffd
0000
ffff
0001
fffe
ffff
fff7
fffd
0002
fffe
0007
fffe
fffb
fffb
0001
fff4
0007
0005
fffe
ffff
0001
0001
0001
fff7
0002
fffc
fffd
0001
fff8
fffc
fffa
ffff
fffe
fffe
fffb
fffd
0004
ffff
0007
ffff
0001
0007
0000
fff9
0003
0006
0001
fffe
0000
0009
fffb
0000
0001
0003
fffb
0004
0001
0003
0001
0007
fffb
fff9
fffc
0002
0004
0000
0003
0003
fffd
fffc
ffff
0002
fffd
fffc
fffe
fffc
0004
fff9
0003
fffe
0004
0004
fffd
0008
fffe
0003
fffc
fffe
0000
fffe
0005
0002
0007
fff4
ffff
0006
fff3
fffe
0003
0000
0001
0002
0003
0002
0002
0009
ffff
fffb
ffff
0000
fffc
fffb
0006
fffe
0001
0000
0007
0002
000a
fffb
0004
ffff
fff9
fffd
0006
fffc
fffe
0003
0000
0002
fffb
fffd
fffd
ffff
fffe
fffd
0003
0007
fffe
0004
0004
0002
fffe
fffa
fffd
fffd
0002
0005
fffe
0002
fffb
0005
0000
0000
fffc
0001
0004
fff9
fffa
fffe
0003
0003
0005
fffd
0001
fffd
fffd
fff3
fffc
0009
fffb
0005
0000
fffb
0002
0000
fffd
fffd
0006
0000
fffb
fffd
0003
ffff
0000
ffff
fff8
fffa
fffb
ffff
fffe
0004
0000
0002
0001
0003
ffff
0001
0001
0002
fffe
0006
fff7
0001
0001
0008
0000
0004
0003
0002
0003
ffff
fffd
0004
fffe
ffff
0002
0003
fffd
fffe
0003
fffa
0000
0002
fffc
0004
ffff
0000
0002
fffc
fffd
0004
0003
ffff
0004
0002
000b
0002
fffe
fffe
0003
0000
ffff
0005
fffd
0004
0002
0004
0006
0006
0001
0001
fffd
fffe
fffe
fffe
fffc
fffd
fffe
0001
fffe
fffb
fff7
0003
fff6
fff7
0004
0001
0000
0002
0002
0001
0005
0000
0004
fffe
0003
fffa
0000
0005
0000
0002
fffc
0003
fff4
0003
0003
0001
0001
0002
0000
ffff
0003
ffff
0001
0006
fffe
0004
0006
0001
0004
ffff
fffa
0003
0001
fffb
fff8
0003
0001
0000
fff6
0006
0005
fffc
fffb
fff8
0002
fff9
0004
fffe
0001
0002
fffc
fffb
fff5
ffff
0002
0003
0004
0001
0002
fffc
ffff
0002
ffff
0005
fffc
fffc
0004
fffb
0002
fff8
0002
0006
fffb
fffc
0000
0004
fffd
0004
fff5
fffb
0005
0003
0009
0001
ffff
0006
0002
fffd
0001
ffff
0005
fffe
0005
0005
fffc
fffa
fffa
fffe
0003
fffc
0001
0005
ffff
0002
0000
fffe
0002
ffff
fffa
0003
0005
fffd
0004
ffff
0003
fffe
0005
fffa
0004
0003
0004
ffff
fffe
0000
fffd
fffa
0002
fffe
fffc
fffa
fffe
0007
0006
0003
fffe
0003
0005
ffff
fffe
0002
fff6
0004
ffff
0003
fffd
0008
0004
fff4
ffff
fffd
0000
ffff
fffe
fffe
fffc
fffd
fffb
0002
ffff
fffe
fff8
0002
0004
ffff
0001
0009
fffc
0003
fffe
0001
0000
0005
fffb
fffa
0005
0006
fffc
0000
fffe
0002
fffb
0000
0006
0007
ffff
0005
fffe
0000
ffff
0001
0003
fffc
fff7
fffe
fff9
0006
0002
fffd
0006
0002
0001
0003
0005
fffb
0006
0002
0006
0002
0002
0000
0003
ffff
fffe
ffff
fffc
0008
fffc
fffc
ffff
000b
0003
fffd
0002
0003
0005
0005
0006
fffe
fff8
0007
0008
0004
0005
0001
0000
0003
0001
0002
fffc
fffc
0007
000c
fffe
0000
0000
0000
fffb
0004
0001
0000
fffe
0001
0002
0001
fff8
ffff
0006
0004
fffa
0004
ffff
0005
0008
fffc
fffa
fff8
0002
ffff
fffe
0007
0001
0001
0002
000a
fffc
ffff
0000
0004
ffff
ffff
fffe
fffc
fffa
fffa
0000
0002
fffe
0004
ffff
fffe
fffe
0005
fffd
fffc
fffd
fffa
fffc
0003
fffe
fff8
0001
0000
fffd
000a
fffe
fffd
fff8
fffb
0004
0004
fffc
0003
ffff
fffe
fffa
fffd
0005
0002
fffd
0004
fffe
0005
ffff
0006
0004
0003
0001
0003
fffe
fffa
0005
0001
fffe
fffe
fffa
0002
fffa
fffa
ffff
0008
fffa
0002
0006
ffff
fffd
fffd
0004
ffff
fffe
0000
0003
fff7
0007
0001
0007
0006
0002
fffa
fff9
0007
0005
fff9
ffff
fffe
fff8
0002
fffb
ffff
ffff
0001
fffe
0000
0005
fff8
0000
fffc
ffff
0009
fffd
ffff
fffd
0009
0000
fff8
0002
fff9
0003
fffc
fffb
fffd
0002
0002
0004
0003
fff4
0005
fffc
fffd
0001
0005
0006
0000
0007
fffd
000c
fffc
0003
0000
0001
fffe
0006
0000
fff4
fffa
ffff
000b
fffe
fff8
fff6
ffff
0002
0004
0002
fffb
fffd
fffb
0002
0005
fffd
0001
0000
fffe
0002
fffc
ffff
0000
ffff
0000
0004
0000
fff9
0001
0002
0004
ffff
fffd
000a
fffe
fffd
fffe
fffa
0001
fffe
fffe
fffc
0000
fffb
0007
0009
0002
0002
fffe
fffe
0007
0001
0002
fff9
0000
fff8
fffb
0008
0005
fffe
0000
fffe
fffe
000f
0007
0009
0004
fffa
0000
0002
0000
0001
fffc
ffff
0003
0004
0003
fff9
fffc
fffe
0004
fffe
ffff
fff8
000a
fffa
0002
0001
ffff
fffd
0004
fffc
0005
0002
0003
fffd
fffe
fff5
0001
0003
0005
ffff
fffd
0003
0001
fffb
fffa
0002
0000
0003
fffb
ffff
0007
fff8
fffc
0002
0002
0008
fffb
0006
fffe
0000
0001
0004
fff8
0003
fffe
0000
0003
0004
fff8
0002
fffe
fffd
ffff
0000
fff9
0003
0001
fffb
ffff
ffff
fffb
fffd
fffb
fffc
0007
0004
0001
ffff
fffa
ffff
0003
0004
fff8
0009
fffb
fffe
0000
fffe
0002
ffff
0003
0004
0008
fff6
0003
0002
fff7
ffff
ffff
0008
0002
0003
0004
0008
0003
0005
fff9
0004
0000
fffc
fff7
0001
ffff
fffe
0002
fff8
0003
0000
ffff
0008
ffff
0001
0003
0000
0003
ffff
0000
0001
fff9
ffff
0005
0003
0001
0005
0007
fff6
fffe
fffe
fff3
ffff
fffe
0001
ffff
fffe
fffc
0002
0008
0004
0000
fffd
0001
0005
000a
fff6
0001
0002
0002
ffff
ffff
fffb
0002
0006
fffd
0002
0007
fffd
ffff
fffb
fffd
0003
0001
fffa
0001
0008
0001
0004
fffc
0006
0001
0003
fffe
0007
ffff
fffc
fffa
ffff
0001
0001
fff5
0001
fffc
fff9
0000
ffff
0002
fffa
0000
fffb
0006
fffa
0003
fffd
0006
ffff
fffe
0003
fffd
0003
0002
fffb
0000
0004
fffe
fffe
0002
0002
0001
0001
ffff
fffe
0000
0001
0004
fff7
0005
fffc
fffe
ffff
fff9
0004
ffff
0005
0005
0001
fffa
0002
0001
fffa
0004
0003
0001
ffff
0000
0002
fffa
000a
0001
0002
0005
ffff
0007
0003
0007
fffb
fff7
0001
0004
0004
0006
fff9
fff5
ffff
fff7
0001
ffff
ffff
fffd
0004
fffa
fffd
fffe
0006
0006
0005
fffb
0003
fff9
0002
000a
0003
ffff
0004
0002
0004
0006
fffb
fff9
0001
0003
0000
fffd
fff8
0005
fffd
ffff
0006
ffff
fffe
ffff
0005
0001
0005
ffff
fffa
0003
0008
0003
ffff
fffe
fffb
fffc
0004
0000
0001
fffe
0005
fffe
fffb
fffe
0002
fffc
fffa
fffc
fffe
fff9
0004
0002
fffd
fff4
0004
000b
0004
fffa
0001
fff8
fffb
0006
0002
0001
fffd
0001
fffe
0002
0006
0004
0005
0006
0000
0004
fffe
fffa
0000
0001
0007
fff7
ffff
fffd
0003
fffc
0000
fffb
ffff
0000
fffb
fffc
fffc
0002
ffff
ffff
fffe
0004
fffa
0000
fffd
ffff
fffe
fff8
fff9
fffe
fffc
fffa
fffa
000e
0004
0008
0000
ffff
0004
0006
0001
0004
ffff
0000
fffc
fff9
0000
fffd
fffe
0007
0001
0007
0006
0000
ffff
ffff
fff5
0002
0003
ffff
0001
ffff
fffc
0003
0003
0001
fffe
ffff
ffff
ffff
fff4
fffe
0005
fffb
0001
0002
ffff
0003
0000
fffe
0000
fffd
fffb
ffff
0002
0002
0001
ffff
0005
0006
fffc
0002
0003
000c
fffd
0007
0002
0001
ffff
ffff
0001
fffb
0008
0003
fffe
fffc
fff9
0002
0006
0000
0001
0002
fffa
0005
0002
0000
fffb
fff7
0001
0002
0007
0008
0003
0001
fffd
fff6
0001
0001
0003
ffff
0002
0004
0001
fffb
fffe
0004
0000
ffff
fffb
0002
0001
0003
fffa
ffff
0000
0002
ffff
ffff
fffd
0003
0000
0001
fffc
fffc
fffe
fffb
0000
0003
fffa
fffb
0000
fffd
fff8
0000
0004
0002
fffe
0002
0003
0008
ffff
0002
fff8
0000
fffe
0005
0000
fff8
fff9
0001
0004
fffe
fffe
fffe
0002
0003
0007
0003
ffff
0001
0005
fff8
0001
0007
0001
0001
0008
fffc
0000
0004
fff9
0002
0000
fffe
0004
0003
ffff
0009
fffb
0003
fffd
fff9
ffff
0003
fffe
0005
000c
0005
0004
ffff
0001
0000
0006
0008
fffe
0000
0006
0004
0000
fffe
fffe
fff9
ffff
0004
0000
0008
0000
ffff
fff3
fffd
fffe
fffe
fffd
0004
ffff
0003
ffff
ffff
0006
ffff
fff9
fffb
fff9
0008
0001
fffc
0002
ffff
0001
0004
fffc
0002
0003
000a
0001
fffa
0001
ffff
fffc
0001
fffb
fffb
fffd
ffff
fff4
0001
fffe
0001
fffc
0006
0001
0003
0000
fffa
0007
ffff
0002
0002
0000
0000
0006
fffc
0000
fffc
ffff
ffff
fffe
fff7
ffff
fffe
ffff
ffff
0000
0000
0003
fffd
0008
0002
0000
0003
fffc
0000
fff5
0008
0003
fffd
0004
fff9
ffff
0008
0004
fffa
fffb
0001
fffc
fffa
fff8
0006
fffe
fff8
0004
ffff
fff8
fffc
fffe
fffe
fff5
0000
fffb
0003
0003
0004
fffe
fffc
0001
0002
ffff
0008
fffb
0004
0005
0004
fffc
0001
0003
0005
fffd
0003
fff9
0000
fffc
fff9
fffe
fff6
0007
0000
fff9
0005
fffd
fffa
fff8
fffb
fffb
0003
fffe
fff3
0000
ffff
fffd
0004
0003
0004
ffff
fffc
0004
fffe
fffe
ffff
fffd
fffd
0001
fff6
fff9
0000
ffff
0003
0002
0007
ffff
0004
fffd
fffe
0002
0008
0000
0004
0000
fffc
fff9
fffd
0003
fff7
fff6
fffe
ffff
0004
fff8
0007
0001
0001
fffd
0005
0001
0003
0003
0004
fff7
fffd
fffb
0000
ffff
0001
0001
fffe
0000
0001
0006
0004
ffff
0004
fffc
fffc
0002
0000
0007
fffd
0007
fffa
0000
fffd
fffe
fffc
0004
0000
fffc
fffe
0000
fff6
0002
0007
0001
fffc
fffb
fffd
0001
fffc
ffff
fffd
fff7
fffc
0000
fffe
000b
fff9
0000
ffff
fffb
0000
0006
fffe
fffe
0004
fffb
0001
fffe
0003
0004
0005
fff7
fffc
fff8
0004
fffc
fffe
0009
000e
fffb
0002
fffb
fffd
fffc
fff5
0003
0003
0006
fffb
0006
0001
fff9
0004
ffff
0002
0004
0001
fffb
0001
000d
fff9
fffd
fffd
0002
0002
0003
0003
0003
fffd
0007
0005
fffe
0005
fff9
fffc
0001
0002
0005
0008
0007
0001
0001
ffff
fff8
fff9
fffb
fffc
ffff
0005
0006
0002
0005
0001
fffe
ffff
0006
fffc
0004
000b
0004
0000
0003
0001
0007
0001
0001
0000
fffe
fffb
fffa
000a
0002
ffff
0007
0001
0002
0002
0004
fffb
fffe
0004
0002
0005
fffb
0004
fff8
0006
fffb
0000
0000
fffa
fffc
0001
fffe
0004
0002
0009
0003
fffe
0004
ffff
fffe
fffa
0002
fffb
0000
ffff
fffd
0001
0006
fffe
fffb
0000
0001
0000
fffe
ffff
0005
fffd
000a
ffff
0000
fff8
fffd
0000
0002
0006
ffff
0005
0000
fffc
0003
0001
0003
0001
fffb
0009
fffd
ffff
fffd
fffe
fffc
fffd
fffd
0000
0000
0002
fffe
0001
0001
ffff
fff9
ffff
0004
fffa
0000
0002
fff8
0000
0000
fffe
fffe
0002
fffd
fffa
0003
0007
fff8
0001
0000
fff8
fffb
ffff
fffb
0001
0005
0002
fff9
0002
fffc
0001
0002
0002
fffb
0005
0002
0003
0004
0000
0001
fffd
0001
0003
0001
0004
0000
fffd
fffc
fffa
ffff
0000
fffc
fffc
ffff
fffc
0000
fffd
fffe
0003
000c
0009
0005
0003
0000
0002
0003
0000
0000
fffb
0006
0004
0005
fffd
0008
0003
ffff
fffd
0009
0004
0006
ffff
0007
0002
ffff
fffc
fff7
fffa
0002
0001
fffc
0006
0003
fffd
fff9
fffc
0001
0000
0003
0006
0008
0002
fffb
0000
fffa
0004
fffc
0001
0001
ffff
0004
0002
0000
fffb
0000
0000
ffff
fffd
0001
0000
fffb
fff7
fff7
0008
ffff
0003
0002
0006
0000
fffa
0002
fff9
000b
fffc
000d
000a
0004
0003
0003
fff9
0005
0003
0003
fff7
fffe
0001
0005
fffc
fffd
0006
0005
0003
0007
0001
fffc
ffff
ffff
fff9
fffa
fffe
0009
fffb
fffd
0004
0001
ffff
0000
0009
fffb
0004
0000
0006
0001
0003
0000
0002
fffd
fffd
0006
fffe
fffd
0000
ffff
fffe
0004
fffa
fff5
0003
fffd
ffff
000a
fff9
0002
fffd
ffff
ffff
0000
0002
fffc
0001
fff9
ffff
fffd
0002
0001
fffe
fffc
fff4
0000
ffff
fffd
0008
fffe
fffd
fff9
fffe
fffa
fffe
fffb
fffe
0005
0000
fffe
0007
0006
0007
0002
0000
0007
ffff
fff8
0006
0007
fff7
0001
fffa
fffb
0006
0004
fffb
0003
0000
fffd
0002
fffa
0000
0008
000b
0006
0002
fffd
fffe
fffc
0005
0000
0003
0006
0005
fff7
fffa
0001
ffff
0006
fffc
fffd
0003
0000
0000
fffd
ffff
ffff
0000
0001
0005
fffd
fffc
ffff
0003
fffa
0001
0008
0002
fff9
fffc
fffc
0008
ffff
0002
0005
fff7
fffe
0000
0000
ffff
0000
0003
0001
ffff
fffc
fffe
ffff
0006
000a
fffe
0001
fff8
fff5
ffff
0002
0001
0008
0004
fffa
0003
fffe
fff7
0003
0002
0001
0005
0001
0004
0001
0001
fffd
0002
0005
0003
fffc
0005
fffd
fffe
ffff
0002
0002
0004
0000
0006
fffc
fffc
fffc
fffe
fffd
0004
fffd
0000
0005
0008
fff9
0003
000b
0001
0000
0005
0005
fffd
0001
0003
0010
0004
fffc
0002
0000
0005
0008
0002
fffd
0003
0003
0002
0009
0007
0003
ffff
0003
fffe
fffa
fff9
fffe
fffd
0008
0001
0008
0006
fff9
0002
0000
fffc
fffd
fffa
fffb
0000
0003
0005
0003
0005
0004
0003
0001
fff6
0003
fffa
0001
0003
0001
0001
0000
fff7
0004
0003
0003
fffd
fffd
0002
fff8
0001
0007
000a
fff8
fff8
0000
0005
0003
0002
fffb
0002
ffff
0005
0003
0000
0000
0000
fffe
0001
0008
fffe
0004
0006
0000
ffff
fffe
fffc
0007
0001
0007
fffc
fffd
fff9
0003
0000
fffe
fff8
fff8
0007
fffa
0007
0004
0002
0009
0008
ffff
fffb
fff6
ffff
fff8
fff9
fff5
0004
fffb
ffff
0000
0000
fffc
fffc
fff9
0002
fffa
ffff
fffe
000b
0001
fff5
0007
0000
fff8
fffa
0008
fffa
fff7
0002
fffa
0004
0002
0007
0006
0005
fffe
0001
fffc
ffff
fffa
fffa
fffb
fffd
0004
fffc
0003
fffc
ffff
fffa
fffd
0006
0009
ffff
0007
fffe
fff9
0003
fff9
fffb
0002
0005
fffe
fffe
0008
000a
fffc
fffd
0004
ffff
0002
0004
0007
0003
0004
ffff
0001
ffff
fffb
0003
0002
ffff
0001
fff9
0000
fffc
0002
0004
0001
fffd
0007
ffff
fffe
fffe
0001
fffa
0001
0002
fffb
fffa
0004
fffe
fffa
0004
0002
ffff
0005
fffe
0007
0000
0002
fffe
0001
0002
0002
0007
0000
0000
fff5
ffff
0000
fffd
0000
0004
ffff
0000
0003
fffa
ffff
0004
fffe
fffd
fffe
0006
0003
fff9
ffff
0000
0004
fffa
fffc
ffff
0000
0004
0009
0000
ffff
0002
0002
fffa
fffd
0005
0002
fffe
0004
000b
0001
0005
0002
0002
0002
0004
fffc
fffa
0002
0001
0003
fffe
0004
fffe
fffe
0009
0007
ffff
0000
fffe
fffe
0004
fffc
0000
fff9
0003
0006
fffc
fffc
fff6
fffc
0001
fffb
0003
0003
ffff
0002
0001
ffff
0000
0001
0002
fff9
0002
0002
0005
ffff
ffff
0004
0001
0000
fffd
0003
ffff
fffb
fffe
fffd
fffc
fffd
fffb
000a
fffc
fffe
fffe
fff6
0003
fffc
0003
0001
0001
fffa
fffa
0003
fffc
0001
fffe
fffc
0001
0003
0003
0001
ffff
0001
fff8
0004
0000
0002
0003
0004
fffd
ffff
0002
fffa
0000
0001
fffd
0003
0004
0003
ffff
fffa
fff9
fffc
0007
0001
fffe
0003
0000
0008
0004
fffe
0000
fffb
0001
0003
fffb
0007
0002
fffe
0000
0002
0003
0006
fffe
0000
0008
fffe
fffc
0002
0005
fffe
0006
0003
fffb
0000
fff7
0003
0000
0002
0002
0002
0003
fffa
0007
fffa
0005
0000
fff7
fffe
0002
ffff
0007
0003
0006
0001
fffb
fffb
0003
0006
0004
0005
0006
0008
fff9
0000
fffd
0002
fffd
fffd
0003
fffe
fffd
fffb
000b
0009
0004
fffe
0001
fffe
0002
fff9
0001
0001
0003
0005
0009
0004
0001
fffa
0000
0001
fffb
0000
fffe
fff8
fffd
0002
fffd
0000
ffff
fffd
0002
0002
fffe
fffb
0001
0003
fffe
0000
fffd
fffd
0007
fffc
0004
0009
fff9
0009
fffd
0000
ffff
fff5
fffe
0001
fffa
fffc
0003
fffe
0000
0005
ffff
fffb
ffff
0004
0009
0001
fffb
0004
fffe
fffe
ffff
fffc
fffb
fffd
0001
0003
fff9
0003
0002
000a
fffb
fffe
0002
fffd
0004
0005
0000
fffd
fffc
0005
0001
fffb
fffa
fffe
fffa
0000
000a
0004
0000
fff8
fffb
fffe
0008
0002
0000
fffe
0004
0003
0001
0000
0001
0004
0001
fffe
0007
fffe
0001
ffff
0001
fffe
fffb
0003
fffa
0002
0002
0001
ffff
fffa
0004
0001
ffff
0003
fffe
fffe
0005
0003
ffff
ffff
fffa
fffd
0001
000a
0001
fffb
0005
fff4
ffff
0000
fffe
000b
0009
fffd
fffb
fff7
fffd
fffe
0004
fffc
fffd
0001
0007
ffff
fffb
0001
ffff
0006
0002
fffd
0008
0003
0004
fffd
ffff
0004
0000
0004
0000
0001
0002
fffc
ffff
0001
fffb
fffd
fffb
0001
0002
fffd
fffc
0000
0000
ffff
0002
fffd
000a
0006
fffc
0005
fffb
0007
fffd
fffe
0004
0003
ffff
0005
fffb
fffc
0006
000a
0004
0000
0002
fffe
0000
ffff
fffc
0001
fffb
fffb
0005
ffff
0001
0003
fffa
0008
fffc
fff7
0006
fffe
ffff
fffd
fffd
fffd
ffff
fffc
fffd
0005
fffe
ffff
fffc
fffe
0005
fffd
fffb
0000
fffe
0002
0001
0005
0006
0004
fff8
ffff
0000
0005
0006
0004
0003
ffff
fff5
fff8
0002
0002
fffd
fffa
0004
0001
fff9
ffff
0007
ffff
0002
ffff
fffc
fff6
0009
ffff
fff9
0003
0004
0000
000b
000b
ffff
0008
fff9
fffa
0007
0001
ffff
0000
0001
0004
fff8
0002
ffff
ffff
000c
fff9
fffe
0001
0006
0003
0002
fffa
fffd
fffe
0003
0000
fff1
fffd
fffa
fffd
0003
fffe
0002
0003
ffff
0001
0005
fffb
fffe
0002
fff8
fffb
fffe
0003
fffd
fff8
0001
0004
0001
0009
fffe
ffff
fffd
fff9
fffe
0006
fffb
fff3
ffff
fffd
0002
0001
0006
0002
fffe
fffc
fffe
0007
fff8
0006
0006
0005
fffc
ffff
0003
fffd
000c
ffff
fff9
fffc
000c
0000
ffff
fffd
fffb
fff7
0003
0000
0003
0004
0000
fffd
0001
fffe
0009
fff8
0005
000a
fffc
0005
fff6
0006
0005
0003
0003
0009
fffe
0004
fffd
0001
fffe
0000
ffff
fffb
000d
fffc
ffff
0001
fffb
0003
0001
fff7
fffd
0001
fffd
fffc
0000
0000
0003
fffe
0003
fffe
fffe
0005
0002
0007
0007
ffff
0000
fffc
0000
fff8
fffe
0006
fffe
fffd
0001
fffd
fffe
fffe
fff7
0000
fffa
0004
fffe
0007
0000
ffff
fffe
ffff
0000
0001
0009
ffff
ffff
0007
0000
0003
0000
ffff
0004
fffe
0005
0002
fff5
0009
0007
fffe
ffff
ffff
ffff
fff7
ffff
0001
fffd
fffc
ffff
ffff
0000
0001
fffb
0001
fffd
fffc
0006
ffff
0004
fffe
0001
0001
fffd
0003
0007
ffff
0005
0001
fffe
0005
000a
0002
fffc
0006
0006
fffd
fffd
fffe
0004
0002
fffb
fff7
ffff
0001
0000
ffff
0000
0000
fff8
0006
0003
fff5
0000
fffb
fffe
0005
0004
0007
0001
fffe
fffc
fffa
0000
fffc
0001
0005
0002
fffa
0005
fffb
fff9
0009
0002
fff9
0001
0002
0000
ffff
0001
fffb
0007
ffff
0004
0001
0002
0002
0008
0007
0003
0005
0005
fff7
0001
0003
fffe
ffff
fffc
fffd
0001
0004
fffc
0003
fffb
0001
000e
fffc
ffff
0002
0002
fffd
fffc
0000
0001
ffff
0003
0000
fffa
fffc
0008
fffe
fffc
fffd
fffe
0004
0002
fffb
0005
fffa
fff8
0003
0001
ffff
fffb
0001
fffd
000d
fff8
0000
0002
0002
fff5
ffff
fffe
0005
ffff
fffe
0004
0003
0004
0001
0005
fffa
fffc
0007
fffe
0004
fffe
0000
fffd
fffe
ffff
fffe
ffff
0001
0008
0002
0007
0005
fffb
ffff
0001
fffd
0002
0002
fffe
0004
0003
fff5
fff9
fffd
0002
0002
fff8
ffff
0003
0005
0001
0005
0003
ffff
0002
000d
fffa
0001
0001
0002
0007
0002
0000
ffff
fff6
0004
0001
fffa
0002
fffd
0004
fffc
0001
0001
fff9
0002
0001
0001
fffd
0004
ffff
0005
fffb
fffc
0004
0002
0002
0000
0003
fffb
ffff
fffe
0007
0000
0008
0000
0002
fffd
0006
0004
0008
0000
0000
0004
0002
0001
fff8
0000
0008
0001
0002
0003
fff7
0007
fffc
0003
fffc
fffe
0000
0008
fffe
0003
0001
fffe
fffd
fffe
ffff
0002
000a
0002
fff7
fffa
fffd
fffe
fffc
0000
0000
0002
ffff
0001
0001
0002
ffff
fffc
fffb
000a
0003
fffd
0002
ffff
0004
0002
ffff
0000
0000
0003
ffff
fffd
ffff
fffb
ffff
fffe
0004
fffa
0002
0002
0001
fffd
0000
0006
fffe
0005
0005
0001
0005
0002
0001
0001
0002
0004
0001
fff7
0004
0002
0002
0001
0000
0008
0009
0005
000d
fffb
ffff
0003
fffb
0006
fffd
fffc
000c
fff6
0000
0004
0001
0008
fffc
fffc
fffe
ffff
0000
0002
fff7
fff8
0001
0003
fffe
fffc
0004
ffff
0004
fffd
0006
fffd
0005
0001
0000
0002
fffe
fffe
fffe
fff6
ffff
0001
fffe
fffc
0006
0002
0006
0005
0002
fffe
0007
0008
fffd
fffc
0003
0004
0002
ffff
0004
fff9
fff8
fffd
0001
0000
fffe
fffd
0004
fffa
0003
0002
fffe
fffb
ffff
fffe
0001
fffb
fffc
fffd
fffd
fffc
0002
0001
fffc
0001
fff8
0002
fffa
0001
fff6
0007
0004
fffe
fffd
0004
fffc
0005
0000
0000
0001
0001
fffd
0003
fffa
0000
0006
0006
0001
0002
0004
ffff
fffb
0004
fffb
0007
0001
fff8
0002
0005
fffb
0002
fffc
fff6
fffe
fffd
0004
fffd
0009
0000
0005
fffb
0002
0000
0001
fffa
0005
0004
fffc
fffd
fffd
0002
0000
0000
0001
0000
0001
0001
000b
fffd
fffb
fffd
0002
ffff
0001
0003
0004
0004
0003
0007
ffff
0002
0005
fffa
fffe
0005
0007
0006
0000
ffff
0007
0004
0003
fffb
fffb
fffd
0003
0001
0003
0002
fffe
ffff
0005
0002
0004
fffe
0002
fffd
fffd
fffd
fffd
fffe
ffff
ffff
0001
000a
ffff
ffff
fff7
0001
0004
ffff
0007
fffc
fffc
0000
ffff
0004
0002
fffb
0000
fffd
fffd
ffff
0002
0000
0001
ffff
fffa
fffc
fff6
fff9
ffff
fffa
0001
fffc
fffc
fffe
fffc
0001
0008
fffe
0007
0002
fffe
fffd
0005
0000
0003
fff7
fffd
0004
0009
0004
0007
0002
0002
0001
fffd
0007
0009
0001
fff8
ffff
0003
0008
0008
fff8
0001
0000
0005
fffd
0009
fff9
0000
fffa
fffe
fffe
0006
0008
fffd
ffff
fffe
000b
0001
0001
fff7
0007
0001
0004
0001
fff7
fffa
fff7
0004
0001
0005
fff4
fffe
0006
0000
fff9
0005
0004
ffff
ffff
fffe
0001
fffe
fffe
fffd
0000
0000
fff9
0008
0007
fff9
0002
0002
0006
fffd
0000
0000
0002
fffc
0001
fffa
fffd
0005
fffb
fffd
0009
fffe
0002
fffe
fff9
0005
0001
0007
0001
fff9
0000
0003
fffd
0003
0003
0008
fff8
fffb
000b
0008
0003
fffd
ffff
0005
000a
ffff
fffa
0000
fff6
0005
ffff
fff8
0005
0002
fffe
0002
fffd
ffff
fffc
fffe
fffc
0006
0003
ffff
0000
fffc
fffd
0002
fffd
0005
0008
0004
fff9
fffc
fffc
fffd
0002
0000
fffc
0006
fff3
0003
0001
0002
0003
0002
fffd
0007
0007
0001
fffb
fffc
0007
fffb
fffc
ffff
0001
0002
fff4
fffe
0001
fffc
0007
fff8
fffe
0001
0005
ffff
fff8
fff9
0002
fffb
000a
0004
fff7
fffd
fff5
fff9
fffd
0002
fffe
0004
fff8
fffe
0000
0001
ffff
0001
0004
fffe
0000
fffc
0001
fffe
0003
fffc
0004
0007
0005
0000
fffa
fffa
0005
fff9
fffd
0000
0005
0006
fffd
0001
0001
0002
0003
fffe
0008
fffc
0008
0001
0004
0000
0006
0000
0001
fffd
0004
0002
0001
0004
0000
ffff
0003
0004
fffc
fffc
0002
0000
fffe
fff8
0000
fffe
0002
000a
fffe
0001
0009
ffff
0007
0003
0003
fffd
0005
ffff
fff8
0003
0005
ffff
fff8
0007
ffff
fffe
0001
0004
0000
0004
0001
fffe
fffe
0004
fffb
fffd
0002
0001
fffc
ffff
fffe
0002
0003
0000
fff8
0002
0001
000a
fffe
0002
0000
0009
0004
0001
0002
fffe
0001
fffe
0002
fffc
fffd
0000
fffd
0002
fffb
0004
fffb
fffc
0006
ffff
fff8
fffa
0003
0005
fffd
fffd
0001
fff7
0000
0003
0008
fffd
fffe
fffb
fff8
0005
0001
ffff
fffa
0003
0002
fffd
fffd
ffff
0008
fffd
0004
0003
fffe
0003
0006
ffff
fffc
fffd
fff9
0002
0000
0000
fffe
fffe
ffff
0000
0000
fffc
fffd
0001
ffff
0006
0007
fffb
fffc
0004
0001
fffc
0003
ffff
fffb
0000
0007
fffe
fff9
fffb
0000
fffa
fffa
0002
0001
0000
0001
0003
ffff
fffd
fff9
fff9
0004
000a
0009
fffe
fffa
0002
0002
0004
0001
0000
fffe
fffd
fffd
ffff
fff8
0002
0000
0005
ffff
0008
ffff
0002
fffb
0001
fffa
0000
0009
0000
0002
fffa
fff8
fffe
0001
fffc
0005
0008
0009
0004
fffc
0000
0009
000b
fffe
fffb
0001
0004
0002
ffff
0003
0000
0001
0001
fffe
0003
0006
0003
0007
0007
fff8
fffb
fff8
0001
000b
0003
ffff
0003
fffe
fffe
fffd
0004
fffb
0000
fffc
fffb
fffe
0001
0005
fff9
fff8
fffe
0003
0000
0002
0001
0004
fffe
fffc
fffc
ffff
fffb
fffc
0002
fffb
0001
0004
0005
0003
fffe
fffc
fffc
0002
fffb
ffff
0003
0000
0000
000a
0000
0003
fff7
0002
0000
fffe
0009
0000
0007
0002
fff7
ffff
0001
fffe
0005
0001
fff9
ffff
fffd
fffc
0000
0000
0001
ffff
fffc
0006
0001
0001
0001
fffb
0004
0002
fffc
fffc
fffe
fff7
0001
0000
0003
0002
fffc
0001
fff9
ffff
0000
0002
0001
fffe
fffe
0002
fffc
fffe
0002
fffe
fffe
0007
fffc
0003
0006
0008
fffd
fffe
0002
fffd
0002
0002
fff8
0004
fffb
0002
0001
0002
fffa
000d
fffa
ffff
0003
000b
0000
0009
0003
0003
0003
fff7
0002
fffe
0000
0004
fff9
0009
fffe
0002
ffff
0000
fffc
fffc
000a
fffc
0007
fffe
0001
000c
0001
0007
0008
0002
0006
0003
0002
0000
ffff
0004
0000
0004
0004
0003
fffd
0004
0006
fffd
ffff
fffc
fff9
0003
0003
0006
fffe
fffa
fff8
0001
0000
fffa
0002
0006
0001
ffff
0006
0000
0000
ffff
fffc
0006
fffc
0002
fffc
fffa
fffb
0007
0003
0000
fffb
0001
0002
ffff
0000
0005
0006
fffe
fffc
fffe
0008
ffff
0004
fffd
fffa
fffb
fffc
0001
0004
fffb
ffff
fffd
0001
0000
0005
0002
0001
ffff
fffb
0002
fff7
0000
fffa
fffe
0000
ffff
0002
fffe
0002
0004
ffff
fffe
fffc
0001
0000
0001
fffa
0002
fffe
0000
ffff
fff8
0008
0003
0003
000b
fffe
0001
fff8
ffff
fffe
0001
fffe
0003
0001
0003
0004
0003
fff8
fffd
000a
0003
0004
fff8
0004
fff8
fffc
0004
fffd
0000
0004
ffff
0000
fffb
fff8
0006
0004
0001
fffd
0000
ffff
fffc
fffa
0001
0002
fff8
0005
0003
0008
000a
0000
fffb
0003
0003
fffe
0003
0006
0000
fff9
0001
0005
0002
ffff
0000
0002
0003
0004
0004
fffb
fffc
fffc
fffe
fffb
0004
0004
0001
0002
fffb
ffff
0004
0001
0006
0007
fff8
ffff
0005
fffe
fff9
0005
0000
fffd
0004
fff7
0001
0001
000a
fff6
fff8
0003
fffb
0005
fffc
fffe
fffb
0000
fffb
ffff
fffe
fffa
0005
fffd
0009
0006
0006
fffd
ffff
0005
0000
fffd
fffe
fffe
0000
fffe
0000
0002
0000
fffe
0002
fffe
fffb
0005
ffff
0000
0004
fffe
0006
fffa
fffe
0002
0001
ffff
fff8
fffb
fffd
ffff
0005
0003
0003
fffc
0001
fffb
ffff
ffff
0008
0005
fffe
ffff
0003
0004
fffa
0001
fffd
0000
0003
fffc
0005
0000
fff9
0003
fffe
0003
fffc
fffa
0006
fffa
0003
fffa
fffe
fffd
fffc
0005
0007
0003
fffd
0002
fffa
0004
fffc
0000
fffb
0003
0007
fffe
fff8
0008
fffd
0001
0002
ffff
ffff
fffa
fffa
0001
0008
fffc
0003
fff7
0000
fffb
0003
fffc
fff7
0006
0003
0002
0006
0000
fffa
0004
ffff
0000
ffff
fffe
0005
ffff
000a
0005
0003
0002
fffe
0002
fffb
0001
ffff
0006
ffff
0002
0000
0002
fff7
fffb
0001
0003
0002
fffd
ffff
0002
0000
0004
fffd
fffc
0004
fffe
ffff
fffd
0003
fffc
0000
0000
fffd
ffff
0002
0005
fffb
0001
0001
ffff
fffb
fffa
0002
0001
fffa
0003
ffff
0006
0001
fffe
fffd
fffe
fffd
0008
0004
0000
0001
fffd
fffe
0000
0000
0001
0004
fffe
0002
0004
ffff
fffe
0007
0000
0002
fffa
0005
fffb
0002
fffd
0003
0008
000a
fffc
0001
0000
fffa
0008
0005
0000
fffb
0008
fffa
fffb
0002
ffff
0002
0006
fffe
ffff
fff7
0000
0005
0002
0007
0000
0000
fffb
0006
ffff
fffe
fff9
ffff
0003
fff9
0004
fff5
fffc
fffb
0000
fffb
0004
0009
ffff
0003
0003
0003
0003
fffe
0008
fffc
0002
fffa
0005
ffff
0004
fffe
0007
fff8
fffc
fffc
0002
0001
fff7
0003
0007
0003
fffb
0002
0007
ffff
fffb
fff6
ffff
0001
0008
0003
fffb
fffd
fff7
fffd
0002
fffd
0004
ffff
fff9
0002
fffa
0002
fffe
ffff
0000
0000
0002
0001
fffe
0000
0002
0006
ffff
0001
fff7
0002
fff8
0001
0002
fffc
0007
0002
fff4
0004
ffff
ffff
fffd
0000
fffb
0002
ffff
0002
ffff
fffd
fff8
fffb
fff8
0003
fffb
0001
0000
ffff
fff8
0003
fffe
0000
fffa
0001
0006
0003
0003
fff3
0007
ffff
0002
fffa
fffa
000a
0003
fff9
0002
0001
ffff
fffe
0008
fff7
0007
0003
0001
fffd
0001
0004
0000
0000
0005
0001
ffff
fff9
0006
ffff
0005
fffc
0003
fffe
0001
fffa
0005
fff8
fffd
0007
fffc
fffe
fffe
0006
0000
fffa
0003
ffff
0002
0002
fff8
fffc
fffd
0000
0003
fffc
0004
fffd
0003
0004
0001
0002
ffff
fff9
0000
0001
fffe
0000
fffa
0008
ffff
0000
0005
0004
fffd
fffe
fffe
0002
0001
0000
fffb
0006
0002
fffc
0004
fffd
fffd
fffe
0006
0000
fffd
0002
fffb
fffa
0003
0005
fffe
0004
0004
0005
ffff
fffe
0006
fffd
fffc
fffc
0002
fffb
fffd
0003
0003
ffff
fffd
fffd
0005
0005
0001
0003
0000
0003
0005
fffd
0005
fffd
0002
fffe
0006
fff9
fffd
fff6
ffff
0005
ffff
0006
fffd
0001
fffc
fffb
ffff
0008
0003
000a
0008
0001
0000
0004
fff7
ffff
0005
fffc
ffff
fffb
0001
0001
fff8
0006
0003
0001
ffff
fffc
ffff
0002
fff8
0000
fff8
000a
0008
0000
fff7
fffd
fffc
0007
fffa
fffb
0005
0006
fffe
0001
0006
0001
0004
fffb
0004
0004
fff9
0001
fffe
ffff
0001
ffff
0004
fff7
fffa
fffb
0003
0007
0004
ffff
0005
fff6
fffe
0000
0003
fffb
0005
0003
0001
0000
0004
ffff
ffff
fffc
0002
fff9
0001
000a
0007
fffc
fffc
fffd
fffe
0001
0006
fffd
0000
0009
0004
fff9
fff8
0001
fffe
0005
ffff
0001
0006
fffe
000a
fffc
fff9
fff9
fffc
0000
0005
0000
0000
fffa
ffff
fffb
000a
0003
0002
fffa
0007
fffb
fffe
fffd
fffe
0001
0002
fffc
ffff
0003
fffc
0004
fffb
0005
fffe
ffff
0003
0000
0002
fffa
fffd
000a
0003
0004
0004
0002
0000
0004
fffe
ffff
fff8
fffd
0001
0006
0005
0001
0004
fffc
0001
ffff
fffc
0005
0002
0001
0003
0001
fff9
0002
fffc
0002
fffb
ffff
0001
0000
0006
0002
fffc
0000
fff8
ffff
0000
0005
0008
fffe
fffc
fffc
0000
ffff
0004
0002
fff8
0004
0002
fffe
fff7
fffd
fffd
0004
fffc
0001
0006
0000
fffb
fffc
0000
0002
0002
0008
0005
fffc
fffd
ffff
fff9
fffa
fffd
0005
0004
0004
0000
0009
0005
ffff
fffd
ffff
0002
0003
0001
0007
fffe
ffff
fff9
000b
0007
fffb
fffd
0004
fffa
0006
fffe
fffd
0006
fffe
fff8
0004
0000
0005
fffc
0008
ffff
ffff
fff8
fff8
0000
fff9
fffd
fffb
fffd
0000
fffd
0004
fffe
ffff
0007
0000
0008
0005
fffd
0006
ffff
fffd
ffff
fffb
0000
0006
0001
0003
fffe
ffff
0001
ffff
fffb
0001
0000
0001
0002
0001
0003
fffa
ffff
fff7
fffd
fffa
0007
fffc
0004
0004
ffff
0005
0008
fffc
0005
0001
fffd
0001
0000
ffff
0001
0000
0001
fffc
fffd
0004
0003
0006
0000
0002
fffb
fffb
fffd
0000
fffd
0001
0003
0004
0004
0000
0005
0003
0000
fffe
0002
000b
fff5
0002
0001
0006
0000
fffe
0003
0005
fffa
0004
0006
0001
000d
0004
fffd
0004
fffa
0000
0000
0006
fffc
0007
fff9
0007
fffc
fffb
0003
0004
0004
0002
0000
0008
fffd
0001
0001
0000
ffff
fffc
fffa
fffb
000a
fffd
fffc
0001
0007
fffa
fffa
fffd
fffd
0002
fffa
ffff
fff8
0001
000b
fffc
0002
ffff
0003
fffc
fffe
0004
fffe
0002
fffc
fff7
fffd
fffc
fffb
fffe
0002
0004
0000
fffd
0008
0002
000a
fffd
0005
fffc
0003
fffb
0000
0002
fffc
fffb
0004
0005
ffff
ffff
0001
0004
0000
fffd
0001
fffd
fff6
0008
fffb
ffff
0006
0000
fffd
fffe
0001
fffe
fff7
0003
0003
fffc
0004
fffd
0004
ffff
0002
0004
ffff
0001
000b
fffe
0002
0003
fffe
0007
fffd
0000
fffa
0002
0002
fffe
0004
fffd
fffd
fff9
fffe
0005
0001
0007
ffff
ffff
0001
0000
0000
0002
0006
fffe
0007
0002
0005
fff9
fffe
000b
fffd
fff6
fffb
fffa
0000
0000
fffa
000b
fffe
fffe
0005
fffd
fffe
fffe
0007
0005
0000
ffff
fffb
0005
fffb
fffc
0000
fff7
0000
ffff
0000
0003
0003
fffc
fffa
fffd
0003
0005
fffe
ffff
0000
fffe
0002
fffd
fffc
fff9
fffe
fffe
fffe
0000
fffb
0002
fffb
fffd
fffc
0003
0000
0001
fffb
fffc
0003
0002
0006
fffe
fff8
0002
0005
fffe
fffb
fffc
fffd
0005
fffc
fffe
0004
0003
0000
0001
0005
0006
0002
fffd
0007
fffe
ffff
fffd
0003
0003
0006
0002
fffa
0004
0007
fffe
0001
0007
fffc
0001
fff9
0004
0001
000a
fffd
fffe
0004
fffe
fff9
0000
ffff
0003
ffff
0004
fffd
fffd
fffd
fff7
0004
fffd
0002
0003
0002
fffe
0004
fffd
0004
0002
0005
fffb
ffff
ffff
fff9
0001
fff8
0005
0000
fffa
0001
0005
ffff
0001
fff7
0006
0001
ffff
fff9
0003
fffd
0002
fffe
0000
0007
0000
0001
0001
0001
0002
fffb
ffff
0000
0000
0003
0000
0007
fffc
0000
fff9
fffc
ffff
0008
0000
fffd
fffd
fffd
fffe
0001
0000
0002
fffd
fff9
fffd
0004
fffb
fff9
fff9
fffe
fffa
0003
0006
ffff
fffd
0002
0000
0008
fffe
0000
0004
0003
0001
0001
fffc
fffe
0003
fffd
fffe
fff9
0005
0006
0005
fffd
000a
0001
0008
fff9
0009
0006
0006
fffc
0004
0008
ffff
0002
0000
0002
0004
0003
fffe
0007
0007
fffb
0006
0002
fffc
fffd
0000
fffe
0001
0000
0001
0001
0001
0005
0003
0005
fffe
fffb
0000
0000
fffd
0003
0003
ffff
0003
ffff
0009
fffd
0002
0005
fff6
0000
0000
0001
0004
fffe
0003
fff9
0001
0001
fffa
fff7
0000
fffa
0001
0001
0003
0000
fffc
0001
fffa
fff7
fffc
fff8
0006
0007
fffd
fffb
0001
0005
0002
0002
0000
fff6
0003
ffff
fffe
fff9
0004
fffd
0003
0002
0000
0000
fffb
fffa
0004
ffff
0005
fffd
fffe
0003
fffd
0003
fff5
0002
fff9
ffff
0003
fff8
000a
0006
fffe
fffd
fffa
ffff
0002
0003
0005
0005
0002
0000
0003
0007
0004
0003
0005
fff7
0002
fff9
fffd
0002
ffff
ffff
ffff
0004
0006
0002
0001
0006
fffd
0004
0002
fffd
fffa
fffc
0002
0001
fffe
fffb
0005
0006
0006
0001
0000
0003
fffd
0002
0002
0002
ffff
fffb
fffa
0000
fff8
fffe
0004
fffa
fffb
fffa
0005
fffe
0003
0003
0006
ffff
0004
0001
0002
fffe
fffa
ffff
fffc
0002
ffff
0003
0007
fffd
0005
0001
0002
fffe
0001
fffb
0001
0004
0000
0000
fffa
0000
0003
ffff
0000
fffb
0000
0000
fffd
0002
0000
fff7
0002
fffc
fffc
0000
ffff
0002
000a
fff9
fffe
fffc
fffe
0001
ffff
0001
0002
fff7
0001
0000
0000
0007
0000
0008
fffa
fff9
fffe
0002
fff8
0002
0001
0002
0005
fff8
0001
fffc
fff9
0003
0001
0005
0009
0001
ffff
fffd
0005
0000
0001
0001
0000
0003
fffd
fffc
fffe
0004
fffe
fffa
0001
fffe
0001
fffd
000d
ffff
0003
fff9
0000
0004
0008
0006
ffff
0003
0000
fffa
0005
fff6
fff9
0004
0000
0008
0004
0005
ffff
fffa
fffa
fffc
fffd
0005
fff7
0007
000e
0002
ffff
ffff
fff8
fffc
fffc
0001
fffd
fffe
0007
0008
0003
fffe
0003
fffa
0009
0001
0000
fffb
0004
fffc
0003
fffa
0002
0003
0009
0001
ffff
ffff
fff7
0009
fff9
fffc
0006
0004
0000
0003
0001
0005
fffb
0002
0000
fffd
0006
0000
ffff
000c
0002
fffd
fffc
fff9
fff9
fffb
0001
fffe
fffc
0002
0008
fffd
0001
0004
0003
0000
fff9
000c
0008
0000
fffe
fffe
0005
0000
ffff
0006
0003
0002
0000
0000
fff9
fffc
fffe
0007
0006
0005
fffc
0004
fffe
fff9
0003
0000
0004
fffe
0005
fffc
ffff
fffe
0004
fffe
fffd
0005
0003
0006
0000
ffff
0002
fffa
0000
0000
fffb
fffb
fff9
0003
0002
0000
ffff
fffa
ffff
ffff
ffff
0002
0008
0000
fffb
0006
0001
0002
0000
ffff
0000
0003
000b
0000
ffff
0000
0001
fff3
0005
fffc
0006
fffc
000b
0006
0001
fffe
0004
fffa
0001
fff9
fffb
0001
fffc
fffd
0005
0009
0006
fffb
fff9
0002
fffe
0006
0009
fff8
fffc
0002
000b
fffe
fffa
fffa
0009
0000
fff9
0002
fffe
0006
0000
fffd
0000
fffd
fffe
0005
0004
0002
0002
fffe
0000
fffa
fff5
0000
0001
0000
fffa
ffff
fffe
0003
0006
fff4
fffb
ffff
0005
0000
fffd
0000
fffc
fffd
fffa
fffc
fffc
fffd
ffff
fff8
fff7
0007
fffb
fffd
0006
fffd
fffe
0003
0001
0001
0009
0004
0002
fffd
0001
0000
fffe
fffc
fffc
fffa
000a
fffd
0006
0000
fff9
0002
0002
fffd
fff6
ffff
fffa
fffb
fffa
0001
0004
0003
ffff
0001
ffff
0002
0002
0000
fff7
fffe
0004
0001
0003
ffff
0000
0006
fffe
ffff
0000
0008
fffc
fff9
0003
0004
fffd
fff9
0008
0000
0000
fff9
0002
0000
fffd
0005
0001
0009
fffd
0002
ffff
ffff
ffff
0004
0002
0001
0002
0002
0003
fffb
0000
000a
fffe
0001
0003
0000
0002
0000
fffc
0000
ffff
fffe
0001
fff9
0000
fff8
0005
fff9
0006
0005
fffc
0006
ffff
0003
fffe
0004
fff9
ffff
0001
fff8
fffd
fffc
fffe
0002
0007
0000
0003
0003
fffc
fffc
0006
fffe
fffc
0001
fffb
0000
0005
0001
fff9
0001
0009
0002
0002
fffc
fffe
0006
fffe
0000
0000
0000
fffb
ffff
0002
fffc
0001
0002
fffc
fffa
0003
0001
fffe
0002
0000
0002
0004
0002
fffc
0004
ffff
fffc
0001
0000
fffe
fffa
0008
fffb
0002
000d
0000
fffc
0001
0003
fffd
0004
0000
0003
0000
0000
fffd
fffc
0004
0004
fffd
0003
0002
0002
0005
0003
ffff
fffd
ffff
fffc
0005
fff9
ffff
0001
fffd
0001
0001
0005
fffe
0005
fffb
ffff
0007
0004
0007
0000
fffd
0004
0002
0006
0000
0006
fff9
fffa
000a
fffe
0002
fffe
fffb
0004
0004
0002
0005
fffd
fffe
ffff
0002
0005
fffb
fffd
0005
fffc
0002
0002
0000
0001
fffd
0003
0005
ffff
0002
0007
0002
fffc
0002
fffc
0003
0000
0000
fffc
0001
ffff
ffff
0002
fffd
0002
0001
fffa
0003
0002
ffff
0000
0001
0002
ffff
ffff
0002
0009
fff6
0009
fff8
0008
fff6
fffa
fffc
fffb
fffb
fffa
0001
fffd
ffff
0003
fffb
fffe
0009
fff8
fffe
0000
fffb
0001
ffff
fffe
0003
fff8
fff5
0002
0005
0004
fff5
0001
ffff
0006
0002
fffb
fff8
fffa
0003
0003
fffe
0000
000a
fffb
fffe
0005
0000
0007
0001
fffd
fffd
0006
fffe
fffe
0001
0005
0002
0007
fffa
ffff
0002
0002
0004
0003
0003
0000
ffff
fffe
fff9
ffff
0005
fffc
0000
0003
0004
000c
fffd
fffa
0005
fffb
0003
0003
fffe
fff9
fffc
0005
ffff
fffc
fffd
fffa
0001
0002
000b
fffe
fffc
fffa
ffff
fff4
fffc
0008
000b
0003
fffd
0002
0001
ffff
fffe
000d
fffd
fffe
0002
0001
0001
0002
ffff
0000
0002
0002
ffff
0006
ffff
ffff
0001
fff8
0000
0007
0000
0004
fffa
0007
0002
0000
000a
0003
0004
fffc
0009
fffc
0006
fff5
0001
0003
0001
0001
ffff
0004
0005
fffd
fff6
fff6
0002
fffc
0000
fffa
0006
0000
ffff
fffe
fffb
0006
000a
0002
0004
0002
fffc
000b
0003
0003
0002
fffa
ffff
0008
0004
0006
0008
ffff
ffff
fffc
fffc
ffff
0007
0004
0008
fffa
0003
fff9
0000
fffc
fffc
0005
fffe
0000
0002
0003
fffb
0004
0003
fffd
0005
0003
fffe
0009
0002
0001
0002
fffd
0006
0004
0002
0006
fffe
fffb
0000
fffe
0007
0007
0000
fffd
0002
fffd
fff7
fffe
fffc
0006
0001
fff7
fffa
fff6
fffc
0007
fffd
fff9
0008
ffff
fffe
0002
0001
0009
000a
0000
fffc
0002
0001
0005
fffe
0001
0005
0000
fffe
0000
fffc
fffe
fff7
0003
fffc
0003
ffff
ffff
ffff
fffe
0001
fffd
0000
0003
0001
fffd
0002
0007
0009
fffe
0004
0000
0000
0000
fffd
0000
0000
0000
0002
fffa
fffe
ffff
0003
fff5
0008
ffff
0004
0000
ffff
000b
0001
fffb
fffa
0000
fff8
ffff
0002
0000
fffe
0006
fffe
fff9
fffc
fff9
0004
000c
fffd
0002
0001
fffd
fffd
fff8
0003
0000
fffb
fffd
fff8
0006
0001
fffc
ffff
fffb
0008
0005
0003
0000
0002
0004
0002
0002
fffe
fffc
fff5
0004
0001
0006
ffff
0002
0001
0006
fffd
0001
0003
ffff
0001
fff7
fffd
fffe
0002
0004
fff7
ffff
fffd
0002
0005
0000
fffa
0002
0006
ffff
fffd
0003
fffc
0001
0000
fffc
0007
0000
fffd
0002
0001
fffd
0002
fffd
fffb
0006
0001
0000
0001
fffc
0002
fffc
fffb
0001
fffd
0000
0001
0000
fffc
fffb
0006
fffe
0001
fff5
0003
fffe
0000
ffff
0002
0002
0001
0008
0007
0002
0000
0004
0001
000a
fffc
fff7
ffff
0004
0003
ffff
0008
fffa
0002
0002
ffff
0003
0006
0003
fffe
fff7
0006
0000
fffe
0002
0002
fffa
fffe
fffc
fffd
0003
0002
0003
0009
fffe
ffff
fffc
0000
0002
ffff
0001
fff8
0005
fff7
ffff
0000
0000
0001
fffc
0004
0004
fffe
0000
0004
0005
0000
0001
0000
0003
fffc
0000
0006
0005
fffd
fffe
0001
fffe
0002
0001
0004
0003
fffc
fffe
0001
0007
fff6
0001
fffe
fffc
0000
fffd
0009
0002
0000
0001
fffd
fffc
fffb
0000
ffff
0004
0000
fffe
0001
0001
fffe
0002
0000
0005
fffe
0003
0001
0001
0004
fffd
0001
fffe
fffd
fffc
0004
fffc
0008
fffd
0004
0000
0006
0007
0001
fffa
0002
fffc
fffa
ffff
0003
0001
fff5
0000
0006
fff8
0004
0005
0006
0003
fffe
0002
fffd
0001
fffe
0002
0009
0001
0002
0007
0001
ffff
ffff
fffa
fffd
fffa
fff3
fffe
ffff
fffd
0005
fffa
fffe
0005
fff7
fffc
0003
0004
fffa
0001
fffd
fffa
0002
0006
fff6
0005
fffb
ffff
ffff
0004
0007
fffa
0005
0008
0003
0006
fff7
000b
fff9
0001
0003
fffe
0007
0003
0004
0004
ffff
fffa
0004
0002
ffff
0006
0005
ffff
fffd
0008
0005
0008
0001
0004
fffe
fffa
0002
0001
fffc
fff8
0006
0009
0002
fffc
fffc
fff9
fff8
fffe
0001
fffd
0004
0002
ffff
0000
ffff
fffa
0004
fffe
fffe
0003
ffff
0003
fffd
0002
0005
fffe
fffe
0002
0001
0005
0003
0005
0001
0007
fffd
0001
ffff
ffff
fffc
fffd
fffb
000c
0004
0005
0008
fffd
0004
fffb
0005
0007
fffc
0000
fffc
ffff
0000
fffe
fffd
fffc
0003
fffc
0006
0005
ffff
0001
ffff
fff9
fffd
0003
0001
0001
fffc
0001
fffa
fffe
ffff
0000
0001
fffa
fffb
0003
fffc
0005
fffd
0002
0000
0005
fffd
0006
0002
fff9
0004
ffff
ffff
fffa
0000
fffc
0004
fff9
fffd
ffff
fffa
0002
fffb
0004
0000
0005
fffe
0002
0002
fffe
0000
0000
0005
fffe
fffb
0003
0000
0005
0008
fffc
0007
0000
fffe
fff7
0004
0005
0001
0004
0003
fffc
fffe
0000
fffb
fffe
0001
0005
0004
fffe
0001
0004
ffff
fffb
fffc
0003
fffb
0001
fffa
0001
fffe
fffe
fffc
0003
fffc
fffe
0001
0006
fffa
fffe
fffd
0002
0005
0004
fffd
0002
fffe
fffb
fffc
0001
fff9
ffff
0009
0000
fffb
fffa
ffff
0007
0008
fffb
0004
0002
fffe
0003
0000
fffd
fffb
0005
0003
0002
0000
fff5
ffff
0006
fffb
fffb
fff9
0002
0004
0003
ffff
fffe
0004
0004
0003
0003
fffa
0005
0002
0006
fff8
0003
0005
fff8
0001
0000
fffa
0001
fff8
ffff
0000
0005
0000
0003
0007
fffd
fffc
0001
fffc
000a
0008
000b
fffc
0005
0004
fffa
fffe
fffb
ffff
0001
fffe
ffff
0005
fffe
fff7
ffff
fffd
fffb
fffd
0007
0003
0007
0000
fffc
fffc
0005
0003
fffc
0007
0000
0001
0003
0004
ffff
fffa
fffb
ffff
ffff
ffff
fffe
0007
0005
fff9
fffa
0000
0007
0000
0000
fff7
0000
0005
0000
0008
0003
fffa
fffc
fffb
0002
0008
0005
0003
0001
fffb
fffe
fffd
fffb
ffff
0006
0007
fffc
0003
0008
0000
0002
fffa
ffff
fff5
0000
fffd
ffff
ffff
fffc
0001
fff7
0006
ffff
0002
fffb
0006
0002
0002
0001
fffe
fffe
0005
fffe
0002
0009
fff9
0003
0004
ffff
0002
fffd
fffe
fffe
0004
0002
fff8
0002
0006
0002
fffc
0002
0003
0003
0005
0000
fff7
0008
0000
fffc
ffff
0004
fffc
ffff
0003
0004
0002
fffa
0000
0000
0001
0002
0006
0000
0007
fffc
0008
0007
0000
fff8
fffe
fffa
0001
fffd
0000
0004
0003
fffe
0004
fffa
0006
0003
fffb
fffd
0007
ffff
0000
fffe
fffe
0001
000c
0007
0005
0007
0000
fffa
0006
fffe
0008
000a
fffa
0001
fffc
fffb
fff5
0004
ffff
ffff
0002
0002
0000
0003
0004
0005
fffa
fffc
ffff
0008
0009
0006
ffff
0004
fffc
0001
0001
fffc
ffff
0004
fffa
0004
0008
0005
ffff
ffff
0003
fff5
0002
0004
fffe
fffc
0003
ffff
fffa
fffd
0003
fffe
ffff
ffff
fffb
0000
fffd
fffe
0002
fff4
0001
0000
0005
0005
ffff
ffff
0006
0000
fffa
0000
fffe
fffc
0004
0001
fffa
0000
0002
fffd
0000
fffd
fffd
0000
fffb
fff9
fffe
0002
0004
0000
0001
0000
0002
fffe
fffe
0000
0006
ffff
0003
0000
fffc
fff7
0004
0003
0000
0002
0005
ffff
ffff
ffff
fffa
0006
fffd
0000
0006
0001
fffa
fff7
0005
ffff
0000
0001
0004
ffff
fffc
fffe
fffa
0004
0001
0006
ffff
0004
0003
fffe
0005
0005
ffff
fffa
0003
0000
0000
0003
fffe
fffd
fffc
0005
000b
0001
fffd
fffb
0002
0004
0000
0006
0001
fffe
0004
0000
fff9
fff9
fffd
ffff
ffff
fff9
fffe
0001
0001
0003
0003
fffa
0001
0002
0008
fffd
0001
0005
ffff
0005
fffd
fffe
0003
0005
ffff
fff9
0000
0006
0001
fffd
0005
fffe
fffa
fffe
0002
0004
0005
0002
fffb
ffff
fffd
0004
0000
0004
fffc
0002
fff9
0001
fffe
fffa
ffff
0006
0001
0000
fffa
0003
0002
0003
0005
000a
0008
0004
0000
fffa
fffc
0000
0007
fffd
0000
0007
fffd
0003
fffc
0000
fffe
ffff
0005
0003
fffd
0001
0000
0001
0003
0006
ffff
0008
ffff
ffff
0005
fffc
0000
fffd
0000
0002
0002
0002
0004
0003
fff9
0000
0003
0001
0004
fffd
fffe
fffd
0006
ffff
fffd
fff6
0002
0002
0007
fffb
0002
fffd
ffff
0003
fffd
fffd
0003
0000
0000
0006
fff9
fffc
0001
0004
0002
fff8
fffe
0008
fffd
0002
0001
fffe
0000
fffd
fffc
fff5
fffc
fff8
0003
fffc
0000
0007
0005
0004
fffc
0004
0001
ffff
0003
0003
0001
0006
0003
fff7
0004
000c
0009
fffe
fffb
fffe
0007
fffc
0000
0003
0000
0005
0005
ffff
0004
0000
fffe
0002
0006
0002
0000
0003
ffff
0005
fffe
fffc
fff9
0004
fffe
fff8
0004
fffa
0006
fffd
0001
fffd
0005
0005
0000
0004
fffd
fffa
ffff
0000
fffe
ffff
0005
0000
0006
fffd
0003
0005
000e
0002
fffe
0000
0002
fffd
fffc
0003
ffff
0006
0005
0007
fffc
fffb
0001
0008
0006
0005
0002
0004
fffc
fffb
fff6
fff9
0007
fffb
fffb
fffa
0003
fff9
fff6
fffd
0008
fffc
fffa
fffd
0003
0003
0005
fffe
fffa
0003
ffff
0005
0004
fffc
fffa
0003
fffb
ffff
0001
0004
fffb
0006
fffd
0001
ffff
0002
0000
fffd
fff4
fffd
fffe
0003
fff9
0004
fffb
fff6
0006
ffff
000a
fffe
0008
0000
0007
0002
fffc
0006
0000
fffd
0003
fff8
fff9
000a
ffff
fffd
fffa
fffd
0003
0003
000a
fffe
ffff
fffa
0002
fffc
0007
fffe
0003
fffd
fffd
fffd
fffc
0003
0005
0003
fffe
fffe
0003
000a
0004
fffc
0002
ffff
0004
0001
fff9
fff6
ffff
0002
0000
0004
0001
fffb
fffd
0004
fffe
fffb
fffd
ffff
fffe
0003
0001
fffb
fffb
0006
fffe
0004
0009
0000
fffe
fffc
ffff
fffd
ffff
0002
0000
ffff
ffff
fff9
0000
fffb
0009
fff6
0009
0006
fff5
0001
0000
fffc
0000
0007
000a
0002
0000
0001
0003
fffb
fff9
fffe
0001
0006
fffd
0001
0000
0001
0005
0008
fffa
0005
fffc
fff7
0000
0005
0002
fffe
0004
0000
0003
fffd
0001
0003
fffe
0003
0002
0006
fffd
0001
0003
fffc
ffff
0002
fffc
fffe
fffb
ffff
fff8
0004
0000
fffd
0003
0000
0003
0005
fffa
fffe
0000
fffc
fffd
fff7
fffe
0001
0005
0002
fffe
0004
0006
fffb
000a
fffd
fffe
fff9
0001
0002
fffa
0001
0007
0005
fffe
fffe
0000
fffa
0004
0004
0000
fff5
0007
fff7
0003
fffa
0003
0002
0008
ffff
0005
fff6
fffe
0004
fffc
fffb
0001
fffb
0000
fffe
0002
0005
fffd
ffff
0001
fffd
0002
ffff
0001
fff8
0008
fffc
fffb
fffc
0007
fffd
0003
0003
0003
ffff
0001
fffb
0003
0004
ffff
0000
fff7
ffff
0001
fff9
0004
fffc
0002
0008
ffff
0000
0003
0005
0003
0001
0007
0004
0000
0006
0002
0000
ffff
fffb
ffff
0001
0003
ffff
0004
0000
0000
fffa
0008
0006
fff8
ffff
0002
0000
fffc
0002
fffd
0000
0003
0009
fffb
0000
0000
0007
ffff
0002
0000
fff9
fffa
fffe
0002
ffff
fffd
fffe
fffc
fffe
ffff
0002
fffe
ffff
0001
0001
0006
0005
fff7
fffe
ffff
ffff
0002
0004
0001
0002
0002
fffe
000a
fffd
0008
fffa
fffc
ffff
0004
0002
fffe
0002
0001
fffd
0001
fffa
fffb
fffd
fffc
0009
0000
0000
fffc
fff7
0000
0002
fffb
fffc
0003
fffc
fffd
0001
0005
0005
fffe
fffb
0002
fff8
0005
0000
ffff
0000
fffc
fffe
0007
ffff
0001
fffd
fffe
0002
0001
ffff
fffb
0000
0001