fff4
0007
0007
0003
fffc
fff8
fff7
fffe
0003
fff5
ffff
fffb
fffd
fffb
fff5
0006
0005
000c
0016
fff5
ffff
fff4
0000
0006
000c
fffb
0002
fff5
000a
ffed
0002
fff8
0008
0002
0003
ffff
0008
fff7
fffe
fffb
0004
0005
0001
000d
000a
0005
0001
000f
fffc
000f
fffe
0006
0005
0008
fff9
fffc
fff6
fffd
ffff
fffb
fffd
0003
fff2
fffc