0002
fffe
fffe
0001
0001
0002
0000
0006
ffff
0003
fffe
ffff
fffe
fffe
0000
0000
ffff
fffd
fffe
0001
0001
ffff
0000
0001
0000
ffff
fffe
0000
0000
0000
0000
0000
0000
0001
0003
0000
0001
0002
fffe
fffd
fffc
0003
0000
ffff
0000
0002
fffd
0002
ffff
0001
0002
0003
ffff
0002
0002
0000
0000
0000
0000
0001
0001
fffc
0003
0000