0007
fffb
0002
fffe
0005
fffb
fffe
fff4
0001
0004
0003
0005
0005
0005
ffff
fffa
fffe
fffd
0001
0003
fff9
0003
0006
fff6
0008
ffff
0006
fffc
fffa
fffb
0001
fff6
000a
fffa
0006
fffc
fffd
fff6
fffe
0002
0001
0003
fff9
0002
0001
fffc
ffff
0007
0004
0007
0003
0006
fffd
0008
fffd
fffa
0000
0006
fffd
ffff
0004
0004
0002
0004
fff8
0003
fffe
fffa
fffc
fffc
0006
0000
fffc
fffe
fffb
0001
fffa
fffd
fffb
fffe
fffc
0002
0001
ffff
0000
fff7
0000
fffe
fffd
0003
000c
0004
ffff
0005
fff7
fffe
0008
ffff
fffd
ffff
ffff
0005
0003
fffb
fff4
0005
fffb
fffd
000a
0007
0006
000e
0002
0000
0003
0005
fffc
ffff
fffe
fff7
fffc
fff1
fff9
fffc
0006
0007
fffc
fffb
fffe
fffd
ffff
fffa
ffff
0007
0008
ffff
fffe
fffd
fff6
ffff
fffe
0001
0004
0006
0001
ffff
fffd
0002
0000
0004
0000
0002
fffe
0004
0007
0004
fffa
0006
000a
ffff
fffe
fffb
fffe
0001
ffff
ffff
ffff
fffa
0007
fffe
fff9
0000
0008
0004
0009
0005
fff9
0001
0003
0006
0001
fff7
0000
0001
fffd
fffb
ffff
ffff
fffc
fffe
0001
0002
fff9
0003
0008
fff7
fffd
0001
0008
fffa
fffc
0003
000b
000b
0001
0006
0004
0005
0004
fff7
0002
fffc
0003
fff7
fffc
fff8
fff7
fffa
fffd
0003
ffff
0003
0001
fffd
fff8
0004
0007
fffa
0005
fff8
fffc
0003
0002
0005
ffff
0001
fffa
0000
0002
fffa
ffff
fffc
0003
000b
0003
fffe
0002
0000
0001
ffff
fffd
0007
fff5
fffe
000b
000e
0000
0000
fffc
0007
0000
fffa
ffff
fff3
0003
000a
fffe
0000
0001
0005
0000
fffc
fff9
0000
0003
0005
000e
fffc
fffa
0001
fff7
fffe
fffe
0005
ffff
0004
0002
ffff
fffb
0006
0003
0009
000a
fffe
fffc
0003
0003
0000
0005
fffd
0005
fffb
0009
fffe
fffb
fffd
0002
fffd
0005
0008
fffe
fffa
fffe
000c
fffd
0002
0004
000a
fffa
ffee
fff6
0003
fff6
0001
fffa
0004
0001
fffd
0008
0003
ffff
fff8
fff9
0003
fffe
ffff
0004
fffc
fffd
0005
fffe
fffe
fffc
0008
ffff
fff6
0001
fffc
fff8
fffb
fffd
fffd
fffd
fff9
0000
0001
fffb
fff9
fffb
0000
fffd
ffff
0005
fffc
fff7
fffd
fffb
0000
fffd
0006
fff8
0001
fffd
fffc
0000
000b
0001
0007
fffb
0003
0000
fffe
0002
0000
0001
fff3
ffff
0002
fff4
fffd
0004
0000
fffc
fff8
fffe
0003
fffa
0000
0006
0001
0003
000b
0002
000b
0003
0009
0004
0002
fffe
fffc
0002
fffa
0001
ffff
ffff
0002
000b
ffff
0005
ffff
0009
0001
fff1
fff8
fff9
fff4
fffe
0003
ffff
0006
0002
0010
0000
fffe
fff5
0000
0002
0005
0003
0006
fff9
fffe
fff9
fffc
0004
0003
ffff
0000
fff8
0003
0005
fffb
0003
0000
fffe
fffc
0006
fff8
0004
0005
0005
fffe
0007
0009
0003
fff9
0005
000b
0000
0005
0003
ffff
0005
fffb
fffb
0002
0002
fff6
0001
0001
fffd
fffe
fff9
0007
fffe
fffe
0003
ffff
0001
0001
0001
fff9
0003
0008
fffe
fffd
0003
0006
0000
000e
0001
fffa
fffc
0000
0000
fffa
0000
fffd
fffd
fffe
0005
0000
fffb
0003
ffff
0003
fffc
0004
fffb
fffe
0005
ffff
0002
fff9
0007
0004
0000
0000
fffd
0008
0006
0002
0007
0000
fffc
0004
fffe
0009
0004
fffa
fff4
0000
fff8
0003
fff5
fffc
0000
fffc
0001
0001
0005
000b
0002
0001
fffd
fff9
0005
fffc
0004
ffff
ffff
fffc
fffe
0000
0004
fffb
0002
0003
fffc
0002
fffd
fffe
fffc
fffb
0002
ffff
ffff
fffb
fffd
ffff
0001
0004
0004
ffff
fffd
0005
fffa
0000
0001
0000
ffff
fff9
fff4
0001
0002
0005
ffff
fffb
0002
0005
0004
ffff
ffff
0005
fffe
0000
0006
0002
0004
fff7
fff8
ffff
0003
fffe
fffc
0004
0008
fffe
0007
0000
fff7
0000
ffff
0000
fffe
ffff
0005
fffc
fffe
0006
fffb
fffe
0001
0000
000c
0004
0004
0008
fff7
0004
0005
0002
ffff
0008
0002
0003
0002
0003
fffb
0004
fff8
0008
0003
fffe
fffe
fffd
0007
0001
fff9
fff9
0003
0001
0009
fffe
0002
0003
fffe
fffc
0002
0002
fffb
fffe
fffe
fffc
ffff
0003
0001
0003
0000
fffd
fffd
fff6
fffe
ffff
0005
000a
ffff
fffe
0001
fffd
fff9
fffd
0006
fffa
fffe
fffc
0008
ffff
fffe
fffd
0008
fffb
0001
0002
fffc
fffb
0004
0004
fffe
fffe
fffc
fffe
fff8
0000
fffb
0001
0003
ffff
fff9
ffff
0002
0000
0000
fffb
fffe
ffff
fffd
000c
fffd
fff6
0004
0001
ffff
fffe
0002
fffe
0004
0006
ffff
0003
0000
0003
ffff
000b
ffff
fffc
fffe
ffff
ffff
0005
000b
0004
0001
fffa
0005
fffc
0009
0005
fffd
fffd
0000
0000
0005
0006
fffb
0007
0007
0003
0006
fffb
fffe
0003
ffff
0002
0002
0000
fff6
fffc
fffd
0009
fffc
ffff
0005
ffff
0000
ffff
0000
0001
0000
0000
fffa
ffff
0000
0002
fffd
0004
0002
000b
fff9
0005
0004
0000
0004
0000
0006
0005
fffb
fffc
0000
ffff
fff6
ffff
fffd
0002
fffd
fffe
0004
0007
0005
0003
fffe
0000
0000
0006
0003
0000
fffe
0000
ffff
ffff
fffd
fff8
0006
0003
0000
fffd
fffe
fffd
fffe
0000
fffd
fffc
fffd
0002
0002
000a
0000
fffd
0000
fffd
fff7
0000
fffb
fffb
0004
fffa
0003
0000
0001
fffc
ffff
fffe
fff9
fff3
0006
0001
0003
fffc
0003
ffff
0002
0004
0007
0002
0004
0006
0001
fffd
fffd
0002
0001
0001
ffff
ffff
0002
ffff
0002
fffe
0002
fff8
0002
0006
fffd
ffff
0003
fffb
fffb
0002
fffa
fffe
0000
0000
fffd
fffd
fffa
fffd
ffff
fffd
fffc
0008
0004
0000
ffff
0000
0000
0000
fff9
ffff
fffa
0009
fff9
fffc
ffff
fff7
ffff
0003
0000
0000
0001
0003
0002
0004
0000
0001
ffff
ffff
0004
0004
fff5
fffc
0003
fffc
0002
0000
0005
0005
fffc
0004
0006
fff5
fffd
0005
0002
fff8
fffd
fffc
ffff
0002
fff7
0002
fffc
0002
0000
ffff
fffe
fffd
0005
0003
0000
fffe
fffc
fffe
fff8
fff8
fffc
fffd
fffe
0001
0001
fffd
0002
0000
ffff
0000
fffb
0005
0001
0003
fff9
fffe
0003
0001
0003
ffff
fffb
fffe
0003
fffe
fffb
0000
fff9
fffc
0003
ffff
0002
0002
fffa
fff8
000a
fffd
0000
ffff
fffe
0006
0000
ffff
fffd
0003
0002
0001
ffff
0001
fffd
fffc
0007
fffe
fff9
0004
fffe
0003
0002
0004
fff3
0001
0000
fffa
0005
ffff
fffa
0003
0009
fffe
fffc
000b
0005
0003
fffd
0007
0008
0003
0001
fffd
ffff
0005
000b
fffb
0005
0008
fffc
fffa
0001
0004
0003
0007
0004
0007
fffd
fff9
fff5
0005
0006
000d
0002
ffff
ffff
0003
0001
fffc
fffb
0005
0004
0004
fff7
0000
fffd
fffe
0001
fffe
fffa
ffff
0003
000c
0003
0002
fff8
0005
ffff
0003
0000
fffa
0002
fff8
0001
0004
0000
ffff
fffc
fffa
0004
0002
0001
0004
0004
fffa
0000
fffe
ffff
0000
0002
0002
0005
0004
fff3
0009
0003
0002
0000
0002
fffc
0002
fff9
fff4
fffe
0002
0007
ffff
0005
fff8
0003
0001
fffd
0002
fffc
0003
fff6
0008
fff7
0003
fffc
fffa
0008
0005
0004
fffb
0002
fff9
0000
0007
0006
ffff
fffc
0001
0003
0007
0003
fffc
000a
fffa
0002
0004
0001
fffb
000e
fffa
0005
fffc
0003
fff1
0003
0006
fff9
fff9
0003
fffe
ffff
0002
fffd
fffb
000e
ffff
0004
0006
fffe
0004
fffe
fffd
0000
fffc
ffff
0001
0001
ffff
0007
0004
fff7
fffb
fffe
0002
fffc
0006
fff8
fffc
fffa
0001
0007
fff9
0001
ffff
0005
000b
0006
fffd
fff9
0002
0006
0001
0002
fffb
ffff
0000
fff7
fffb
0000
0000
000a
0000
000b
0005
fffb
fffa
fffe
fffc
0000
fffe
fffd
0000
0006
ffff
0000
ffff
fffe
0004
fff9
0001
fffa
fffe
0002
fffb
fffe
0000
fffd
fffd
0004
0000
ffff
fff9
0008
fff5
0005
0006
fffe
0007
0004
fffb
fff6
fffc
0003
0009
0001
0005
fff8
fff9
0005
fffd
0000
fffc
fff7
0003
fff9
fffc
fffb
0001
fffe
0001
0001
fffd
0000
fffe
fffc
0005
ffff
fffa
ffff
0001
fffd
0002
0001
0002
0003
0003
0002
fffc
0001
ffff
0000
0005
fffa
0003
0001
fffc
fff8
fffd
0000
0000
0002
0000
0005
fffa
0001
fffd
fffe
0004
0001
fffa
0001
fffb
fffc
fffc
0002
0001
ffff
0002
fff3
fff9
0004
0002
fffc
0004
fffb
fffc
fffb
0000
ffff
fffd
ffff
0003
0007
fffd
fff9
fff7
0005
fffc
0006
0001
fffd
fffd
0000
fff8
fffc
0001
fffc
0004
fffa
fffb
fffd
0002
ffff
fffd
0008
fffd
fffd
0004
fff3
fffc
0000
0004
0003
fffe
0001
0003
fffe
0003
ffff
0001
0005
ffff
fffd
ffff
fffe
fff9
fffd
fff1
ffff
0001
0004
0008
ffff
0004
fffa
fffd
fffc
0001
fffe
fffa
ffff
0000
fff9
fffe
0002
0001
0000
fffd
ffff
ffff
0003
0000
0004
000a
0000
0005
0009
0006
ffff
0003
0001
fff8
0003
0005
fffc
fffc
ffff
0000
fffe
ffff
fffe
0005
0004
0003
fffe
0005
fff8
ffff
0004
0009
0002
0000
000d
fffe
0004
0005
ffff
fffa
0000
0009
0009
ffff
0005
ffff
fff4
0001
fffa
fff9
0003
fffb
fffc
fff8
ffff
fffc
0004
fffb
0004
0000
0006
0000
ffff
ffff
fff9
0000
0004
fff7
fffc
0005
0000
0003
fffc
0007
ffff
fffb
0002
000a
0006
0005
0006
0007
fff8
fffb
0002
fff5
000e
0003
fffb
ffff
0001
0006
fffe
0005
fffd
0002
000e
fffb
000a
0000
ffff
0003
fffd
0001
0000
fffd
0003
fffe
0000
fffb
ffff
fffc
0005
0005
0006
0000
fffe
0000
0001
0000
fffd
0000
000b
0002
fffe
fff7
fffa
fffc
fff9
0001
fffb
0002
fffa
ffff
0000
0008
fffe
fff9
ffff
fffb
0002
0002
0001
0000
ffff
0005
0002
ffff
0001
0007
0002
fffe
0002
ffff
0002
0004
fffc
fffb
0001
fffe
fffb
0005
fff8
ffff
0000
0007
ffff
0001
fffd
000a
0004
0003
000c
fffb
0004
ffff
fffd
0000
0001
0000
fffc
0003
fffd
0006
0001
0005
0000
0001
0003
0002
fffc
ffff
fffe
fffa
0001
fffd
0000
ffff
0004
fffe
0006
0001
0006
0006
ffff
0003
ffff
0001
0000
ffff
fff6
fffc
fffe
fff5
0002
fffc
fffc
0003
0003
0000
0004
fffd
0000
0001
0001
fffe
fffd
fffe
0000
fff9
0002
fffc
0004
0007
fffa
fffc
0007
fffb
fffe
0002
0000
0003
0003
0004
0001
fffc
fffd
0004
0002
ffff
0000
ffff
000a
0001
0003
0004
fffe
fffd
fff9
0007
0006
fffd
0000
0001
0001
fff6
fffd
fffd
fffe
ffff
0003
fffc
0000
fffe
fffc
0002
0001
0001
0002
0007
fff8
0002
fffe
0001
fffd
ffff
fffa
fffe
fffa
fffc
0001
fffe
0003
0005
fffc
0006
fffb
0005
0002
000d
0006
fffc
fffe
fffd
fffc
0001
0008
0001
fff8
0007
fffd
0001
0003
0000
ffff
fffd
fffe
0000
fffe
0004
000a
0000
0002
0001
0004
fffd
fff9
ffff
0002
0000
0003
fffd
0000
fffd
fffd
fffd
ffff
0007
fffd
ffff
0002
0002
fffa
fffe
0003
0002
ffff
0002
0000
0000
0001
0001
ffff
fffb
ffff
fffe
0002
0007
0000
0003
0004
fffa
fffd
fffe
fffe
0007
fffd
0002
0002
0000
0006
fffc
fffe
000a
fffd
0001
fffc
0000
fff9
ffff
fffd
0003
0004
0005
ffff
fffb
fffb
0005
fff9
0003
0002
ffff
ffff
0004
fffb
0004
fff3
fffb
fffd
0005
0003
fffc
0001
0001
0004
fffe
fffc
0003
fffb
0005
fff8
fffe
fffe
ffff
0002
0001
0006
0005
fffe
fffe
fff9
ffff
fffc
ffff
0003
0003
0006
ffff
ffff
0000
0003
ffff
fff8
0003
0000
0009
0000
ffff
fffa
0004
fffb
0000
0008
0000
ffff
fffe
fffc
0008
0002
fff9
fffd
0000
fffd
fffe
0001
0001
fff7
ffff
0005
0009
0004
0004
0000
fffd
ffff
0000
0002
fff9
fffb
fffa
0003
0009
fffd
0001
000d
0002
0009
0003
fff2
0000
0002
0000
fffe
0005
fffc
0004
0006
0000
000c
0006
fffd
0000
0003
0003
0000
0000
fffc
0004
fff8
0003
ffff
0002
fffb
0005
0000
0006
fffd
fff6
0006
fffd
ffff
0002
fffb
0005
fffb
0005
fffd
0002
0004
0001
fffc
0004
fffc
fffd
fffd
0002
0004
ffff
0005
0002
0001
fffb
fff5
fffc
0005
fffd
fffb
fffb
fffa
fff9
fffc
0000
ffff
fff7
fffd
0004
0001
0005
0008
0005
0005
fffe
0002
ffff
0002
fffa
0001
fffe
fffc
0001
fffe
fffd
0003
fff9
fffd
fffb
0000
0003
fffd
fff9
fffe
0002
fffe
fffc
fffa
0000
0003
0004
0001
fffd
0005
0006
fff8
fffe
fff8
0000
0002
fffa
0002
ffff
0001
0005
0000
fffb
fffb
0003
fffd
fffe
0009
fff8
0001
fff9
ffff
fffe
fffe
0001
0002
0001
0003
fffd
ffff
0007
ffff
fffb
0004
0004
fffd
0006
fffc
ffff
000b
ffff
fffe
fff5
fffe
0002
fffd
0002
0004
fffe
ffff
0005
0002
0002
0001
fff8
0002
0001
0000
0002
0000
fff5
0005
fffe
0006
0001
0002
fffc
fffd
0001
0000
fffe
0001
0001
ffff
0003
fffe
ffff
0001
fffc
0001
0003
0005
fffb
fffc
0004
0002
0001
ffff
0000
fffd
fffd
fffb
0006
fffe
0007
fffe
0003
fffc
fffb
0003
fffe
fffb
fff3
fffb
0000
0000
fffb
0001
ffff
0004
fffa
0002
fffb
fff7
ffff
000d
fffc
0003
fff4
0005
ffff
0003
0001
ffff
fffc
0001
0005
fffa
0000
0002
fffd
0002
0003
fffe
fffd
ffff
ffff
0001
0000
0001
fffb
0006
0002
0000
fff9
0008
0006
0004
fff8
0006
0008
fff9
0002
0007
0004
0007
fffb
fffd
fffd
fffa
fffc
0000
0002
fffd
fff9
fffe
0001
fff5
0007
0000
0002
0007
0003
0003
0001
0000
ffff
0001
0008
fffd
fffe
0000
fff8
fffc
0005
000b
0006
0004
0006
0002
fff7
000a
0001
0001
0004
fffb
0001
fff0
fff7
0002
0001
0004
0006
fffa
fffa
0009
0004
fffc
fffe
fffc
0000
0000
fffd
0001
000c
0005
0002
0001
ffff
fffd
0009
fffc
fffd
ffff
ffff
fff9
fffc
0002
fffa
0004
fffc
000a
0007
fffe
fffa
0000
0012
fffe
000f
fffd
0001
0001
0006
fffb
ffff
0004
0001
0003
0004
0001
0007
fffc
0000
000b
0001
fffd
fffc
fffa
fffd
0000
fffe
fffc
0006
0004
fffb
fff8
0000
0002
0003
0000
000b
fffd
0007
0000
0007
0008
000d
0007
fffd
0001
fffe
0004
0003
0009
0001
0002
0006
fff7
0009
ffff
ffff
ffff
ffff
0000
0001
0001
fffa
0005
ffff
0000
fff9
0002
0000
000a
fffa
0005
0004
0001
0003
0004
0003
fffd
fffd
fffb
fffc
0006
0005
0003
0002
fff9
fffa
fffe
0003
fffd
fffa
0003
0000
0003
0001
fff6
fffd
0000
0000
fffd
0002
0005
0006
0004
fffd
0000
ffff
fffa
fff9
0007
0003
fffb
0002
0005
fffc
fffd
fffd
0009
fff9
fffc
fff9
fffb
ffff
0000
fffd
ffff
fffb
0005
0002
0001
0002
fff5
0002
0005
0001
fff6
fff9
0005
0002
0004
fff9
0000
0001
0002
0000
0000
fffa
fffe
fffa
fffd
0001
0000
0002
fffc
fffe
0000
fffe
0002
0001
fffd
0001
0000
0004
fffc
fffc
ffff
0003
fff9
fff7
0007
fffb
fffd
ffff
0003
0006
fffc
0005
fffd
0003
0002
0007
0005
fffa
fffd
0002
0003
ffff
fffb
fffd
000a
0005
fffd
0004
fff8
0001
fff9
0002
0003
0005
0005
fffe
fffe
0005
fffd
0003
0000
fffe
0001
0001
fffd
000b
fff6
fffe
0000
0005
fff9
0000
fff9
0002
fff5
fffd
fffd
0004
0002
0003
fffb
fff6
fffe
0005
0000
0001
fffa
0004
0000
0004
fffe
fffd
fffa
fff5
0001
0008
ffff
fffb
0008
0002
0002
fff8
fffd
fffc
0005
0002
fffb
0002
0004
ffff
fffe
0002
fffb
0004
000a
ffff
fffd
0007
fffe
fff8
0000
0000
0001
fffa
0004
fff7
fff8
0002
0006
fff5
fffc
0002
fffe
0006
fff9
fffe
fffc
0002
fffe
0006
fffc
fff9
0008
0003
fffc
0003
0002
fffa
fff5
ffff
0000
0006
0003
0008
000b
fffe
fffe
0000
0001
0003
fffc
0007
0002
0003
ffff
0000
fffc
0006
0008
0004
fffd
fffd
0005
fff4
0009
fff8
0002
fffe
fffe
fffb
0004
fffa
fffa
0002
fffb
ffff
fff9
0001
000f
0000
fffa
fff5
0001
fffe
0002
0000
0003
fff6
0005
0000
0007
0000
fffb
0003
fff7
0005
fffb
0002
0005
0002
fffc
ffff
fff7
000a
ffff
0009
fff9
0004
0003
0002
0002
fffd
0001
fffb
000c
0000
fffc
fffd
0001
fffd
0001
fffb
0006
0006
fffa
0002
fffd
fffb
000a
0009
0004
fffc
0001
0005
0008
0008
0003
fffe
0004
fffc
000b
0005
0006
0007
0004
fff7
fff9
fffc
fffd
0005
fffd
fffe
0003
ffff
fffc
0001
0004
fffd
fffd
0003
ffff
0004
0000
ffff
fffc
0000
fffb
fffe
0004
fffd
0001
fff9
ffff
0009
fffc
fff9
fffe
0005
fffe
0004
fffa
fffd
fffb
fff4
0004
fffd
fffd
fffc
0005
0000
fffe
fffb
fffc
ffff
0006
fffe
0006
0000
0007
ffff
fffe
fffd
0003
ffff
0006
0005
0002
0009
0001
fffa
fffd
fffc
0005
fff7
0007
0002
000a
fffe
0008
fffc
fffc
0007
0002
0002
0000
fff8
ffff
0006
0000
0002
0000
fff5
0006
0000
fffb
0002
0009
0003
0002
0003
fffc
fffb
0005
ffff
0005
fff5
fff0
0001
ffff
0003
0005
fffb
ffff
0008
0001
ffff
0008
fff6
0005
ffff
ffff
000b
0006
0003
ffff
fff5
ffff
ffff
fffc
fff8
0005
fff3
0000
0001
fffc
fffd
fff7
fff9
0000
0005
0003
0004
fffc
0003
0002
fffe
fff8
fffd
0001
0006
fff9
0001
000d
0006
fffd
fffa
fffa
fffe
fffe
fffd
fffd
0007
ffff
0001
0002
0000
fffa
ffff
fffa
0003
000c
0004
0003
fff8
fff9
0006
ffff
fff6
0001
0007
fffe
0002
fffc
0003
fffb
0003
0001
ffff
fffd
fffe
ffff
0004
fffd
0001
0003
fffb
fffa
fffb
fffa
fffb
0003
fffe
fff8
0005
0003
fffd
0001
0008
0006
fffe
0001
ffff
0000
fffc
0001
0004
0001
0001
fffc
fffa
0000
0003
fffe
0001
0003
fffd
0000
0002
0002
0005
0005
ffff
0000
fffd
ffff
fffb
0001
fffe
0005
fffc
0006
0001
fffd
0000
0000
fffd
fffa
ffff
fffa
fffe
ffff
fffe
0003
fffe
0006
0001
0000
0007
fffd
0000
0006
0003
fffe
0000
0007
0000
ffff
0008
0000
0004
ffff
fffb
fffe
fffc
fffe
0002
fffd
0005
0001
fffe
0005
fffc
0007
fffc
0002
0007
fffa
ffff
0003
fffa
0002
0001
0001
fffe
0004
fffb
0002
ffff
fffd
0008
fff9
fffd
0000
fffd
0006
ffff
0006
0002
0005
fffb
0002
ffff
fffe
0003
0003
0001
fffc
0006
fffc
0001
0004
0002
0001
ffff
0007
0002
0004
0002
fffa
0001
fffc
0005
0000
0000
0006
fffd
ffff
0000
fffb
ffff
fffc
fff9
fff7
0005
fffe
fffd
fffc
0007
0001
fffd
fffe
0006
fffe
fffa
fffa
fffd
0007
fffe
ffff
fffa
0005
fffe
fffd
fffd
0002
fffe
ffff
0004
0007
0002
fffd
0008
0005
fffd
0007
0002
0002
fffe
fffe
ffff
0000
fffb
0009
ffff
fffe
0001
0002
0001
0000
0006
fffa
fffc
ffff
fffd
fffe
ffff
0002
0004
0000
0002
0001
fffc
fffa
0007
fffe
0003
0003
fff9
fff9
0000
0007
fffd
0003
0007
fffe
0001
0007
0000
fffb
ffff
0000
0002
0006
fffe
ffff
0004
ffff
ffff
fffd
0003
0000
0003
fffb
0006
ffff
0000
fffd
ffff
0002
0005
0009
fffd
fffd
0000
fffe
fffc
0007
0003
0003
0006
0003
0004
0003
0002
0008
ffff
0002
fffe
000a
0003
fffe
0003
0001
fffd
fff9
fffc
ffff
0000
fffc
fffd
fff9
ffff
0003
0002
0003
0001
0002
fffa
0001
0007
ffff
0005
fffc
fff9
0002
ffff
0000
fff8
fffc
0002
0005
0002
000c
0004
0003
0005
0008
0007
0003
0000
fffe
fffb
ffff
fff1
0006
fff5
0000
0001
0001
0000
0007
0006
fff9
0003
0005
fffd
fff7
0002
fffd
fffa
0005
0003
0001
0000
0002
ffff
0002
fffd
fffe
fff9
fffd
fffb
ffff
fffa
ffff
fffe
0002
fffe
fffb
fff9
fffa
fffe
0002
0001
fff8
ffff
ffff
0005
fff8
fff0
0006
0000
0002
0001
ffff
0007
0002
0007
0006
0000
0004
fff9
0007
fffd
0005
000b
0000
fffc
fff4
0007
0004
0005
0001
fffb
0001
fffc
0000
0004
ffff
ffff
0004
fff7
0000
0001
fffd
fffc
fffc
fffe
0005
fffe
0002
0000
fffb
fffd
0005
fffe
0002
fffd
fffd
0004
0001
0000
fffb
fff9
fffe
fffb
0002
fffe
0002
0007
0003
fffd
fffd
0003
0009
fffd
fffd
0006
0000
fffb
fffb
0008
fffe
ffff
0003
fffa
fffa
ffff
0007
0007
ffff
fffd
fff8
0003
0004
0004
fffc
0000
0001
fffa
fffc
0000
fffb
ffff
0000
0001
fffd
0003
0004
0000
000d
0000
0000
ffff
0004
fffb
fff6
0001
fff9
ffff
fffc
0007
0003
0002
fffa
fff8
fffd
fff7
fffa
ffff
fffd
fff9
fffd
0003
fffd
fffe
fffc
0007
0001
0001
0004
ffff
fff4
fff5
0000
0002
ffff
0002
fff7
fffd
000c
fffd
0006
fff9
fffa
fffd
0001
fffd
fffe
fff7
fff8
0004
ffff
0002
0007
fffb
fff5
ffff
0000
fffc
fffd
0004
0007
fffc
0000
000a
fffb
fffd
0007
0002
0000
fffc
0003
0007
0001
fffd
fffa
fffb
0009
fff9
fffa
fffa
fffe
fff9
ffff
0001
0004
0005
0003
fff9
ffff
0003
fffa
0000
0005
0000
fff8
fffa
fff8
0006
fffd
0001
0004
0002
0003
fffe
fffa
0008
0009
ffef
fffe
fffb
0006
0009
0007
fffb
fffe
fff3
0007
fffd
fffc
0000
fffd
0004
0005
0001
0007
0000
fffe
fffd
fffc
ffff
fffc
0004
fff7
fffb
0000
fffc
fff8
0000
0003
fff5
000e
fff8
0008
ffff
0008
0001
0000
fffb
0000
0008
0005
0005
ffff
0000
0004
ffff
fff9
0007
0005
0002
0001
0003
0006
0007
0012
0001
fff6
000a
0008
fffe
0000
fff7
ffff
0006
0003
fff3
0003
0003
0008
0005
0006
ffff
ffff
0003
000b
ffff
fffc
0003
fff8
0003
0005
0000
0000
0005
0001
fffe
0006
fff9
0007
0008
fffa
fff8
0008
0007
0001
0007
fffb
0009
fffb
0008
0004
0000
0002
0005
0007
fffa
0003
0001
ffff
0002
fff9
fff8
0003
0005
0003
0001
ffff
0009
0000
ffff
fffd
0008
0001
0001
0002
fffe
fffc
fffc
fff6
ffff
0004
000a
fffe
0004
0006
0000
fff9
ffff
0000
0007
fff3
000d
0005
0000
0004
0001
000b
0007
0013
fff9
ffff
fff8
fffc
fff8
0005
0000
fffb
0000
fffd
0004
0005
0005
fff8
0004
0000
0000
fff5
fffa
ffff
0001
0003
0007
0001
fff6
0000
fff3
0009
fffd
0002
0006
fffa
fffd
0005
fffd
0001
fffe
0001
0002
fff9
0007
000a
fffd
fffd
0006
fff6
0004
0007
ffff
0004
0002
fffc
0004
fff5
fff7
fffd
ffff
fffa
0003
ffff
0002
fffe
000c
000a
0005
0001
ffff
0002
fff8
ffff
0005
0004
0004
fffe
0000
fffe
0004
ffff
0002
fffd
fff9
0004
0001
0005
0002
ffff
0003
fffd
0003
0009
0002
0004
0003
0004
0006
0002
0000
0002
0001
0000
0000
0002
0002
fffb
0002
0003
0002
0001
0002
fffe
0000
fffe
fffc
fff9
ffff
0004
0001
0006
fffb
fff6
0003
ffff
0000
fffe
fffa
fffd
fffc
ffff
0001
0001
ffff
fff5
ffff
0003
fffd
0007
0004
0001
0002
fffe
fffe
000a
fffe
0002
ffff
fff4
ffff
0005
ffff
0000
0000
fffd
0005
0002
0001
fffd
fffb
ffff
0002
0001
fff2
0003
0005
0006
0000
0006
ffff
0001
ffff
0003
0002
fffd
0006
0009
0003
0003
fffc
0001
fffe
0000
0001
0006
0001
fffa
0000
0001
fff7
ffff
0002
fffd
fff9
0005
0001
ffff
0004
0002
ffff
fffd
fff9
fffd
000d
fffd
0003
0004
0001
0002
fffb
fffc
fff9
0004
0001
fffd
0002
fffe
ffff
fff8
fffd
fffb
fff8
0005
fffe
000d
0005
0002
ffff
0003
0000
0007
0005
0007
0000
fff7
ffff
0003
000a
0009
fffb
0003
0001
0000
0005
fffe
0005
fffd
ffff
fffd
0002
fffb
ffff
fff8
0004
fffe
ffff
fffe
fffa
fffb
0008
0000
fffe
fffd
fffc
fffb
0001
0003
0002
fff5
0005
ffff
0009
ffff
0000
fffa
fffe
0003
fffc
0007
ffff
fffd
0005
fffd
0001
000c
0000
0006
fffe
000a
0002
ffff
fffe
0002
ffff
fffe
0002
0001
fffe
fffb
ffff
ffff
fff9
0004
fff2
0003
fffb
fffd
fffe
0001
0006
0004
fffc
0001
fffb
fffc
0000
fffd
0003
fff8
fffb
ffff
fffe
fff9
fffc
fffe
fffe
ffff
fffc
0006
fffd
fff3
0002
0004
0003
fffe
fff5
0005
fff9
000b
fff8
0000
0000
0007
0002
0000
0008
0002
fffc
fffe
fffd
0000
fff9
0003
fff6
0004
fffe
0006
0005
0005
fffe
0000
fffa
0001
0007
0004
0000
0003
ffff
0001
0002
0000
fffe
0009
0003
fffa
fffe
fff5
ffff
000b
0000
000a
fffd
0005
fffe
0002
0004
ffff
ffff
fffb
fff5
fffb
0001
0002
fffc
0001
0005
0002
0005
fff6
fffb
fffb
fffd
0008
0004
ffff
fffc
0005
fff8
ffff
fffb
fffb
0002
fffe
0005
fff7
fffe
fffc
000e
0000
0002
0000
000c
fff7
fffc
0001
fff7
0004
0001
ffff
0006
0006
0003
fff7
fff8
0000
fff9
fff8
0002
0000
fff6
0005
fffb
0002
fffc
ffff
0005
0007
fffb
fff9
fffb
fffe
0005
0002
fffc
ffff
fffa
fffb
fffb
000a
0009
0003
0004
0001
0001
0002
fffa
ffff
0003
0005
000f
0001
ffff
fffe
fffd
0003
fff9
0002
0004
fff3
ffff
0009
fffc
fffe
fffc
fff7
fffd
0006
ffff
0005
fffe
0000
0007
fffb
0002
0004
0001
0000
0004
0004
fffb
fffb
0002
0005
0006
0005
0000
0003
fffb
0002
fffe
0005
fffe
fffe
000e
0006
fffd
0002
fffb
0004
fffc
0000
0003
0000
0000
0002
fffd
0000
0004
fff9
0000
0000
fffc
fffc
ffff
fffb
0002
0000
fff9
fffd
0000
fffd
0001
fff8
fffc
ffff
0000
fffc
0001
fffe
fff7
fffd
fffa
000e
0005
fffb
fff6
0002
0003
0006
fffc
fffb
ffff
0005
0009
ffff
0001
0000
fff6
0005
fffc
0008
fffd
ffff
fffd
fff8
0000
0000
fff7
fff9
0001
0001
0000
0002
0004
0003
fffd
0005
0006
fffe
fffd
fffd
fff6
0000
000b
fff4
fffd
ffff
fffb
fffc
fffc
0006
fff8
0005
fffe
fffb
0000
0003
fffc
ffff
fffd
0002
fffe
0003
fff7
ffff
000a
0006
fffc
0004
fffb
fff8
0005
ffff
0007
0007
0000
0001
fff8
fffb
ffff
ffff
fffe
fffb
0003
0005
0001
fffb
fff8
0001
fffc
0005
fffd
0004
fffe
0006
0008
fffe
0007
fffe
fffd
000a
0003
fffd
fff9
fffb
000d
fffa
fff6
fff9
0002
0003
0006
0002
fffc
0003
000c
fff6
fff5
000a
fff9
0000
0003
fffd
fff4
fff5
0003
0005
0008
0006
fffe
0001
0001
fffe
0004
0006
fffb
0001
fffe
0001
000a
0006
fffc
fff7
0000
fffa
fffe
fffc
0008
fff1
fffc
0003
0007
0006
000a
0001
0000
fffc
fffb
0004
0007
fffb
0005
fffc
0005
fff9
fffd
fff9
ffff
fff5
fffd
0003
ffff
000b
0006
fffa
fffd
0004
ffff
0003
0002
0006
0004
0007
fffc
0002
0001
0002
0002
0001
ffff
fffc
fffd
ffff
0001
0004
ffff
fffb
0001
fffc
fffc
fffb
fff7
fffb
0007
fffd
fff7
0004
fff2
fffb
0002
fff7
0003
fffe
0009
fffd
0002
fffb
0001
0003
0002
0008
0005
fffa
0002
0002
0004
fffb
fffa
fffb
fffe
fffd
0006
fffd
fff8
0000
fffc
fff5
fffa
fffa
ffff
fffb
0001
0004
0005
fff8
000e
0002
fff9
fff7
fff0
0001
fffe
000b
0002
fffe
fffb
0009
0001
0003
fffa
fffb
0003
ffff
0009
0002
fffc
fff7
0004
ffff
0001
fffc
fff9
0002
fffe
0000
fffd
0001
fffe
0002
0000
0002
fffd
fff9
0005
fffe
0001
0003
0005
ffff
0001
0000
fffd
fffb
0005
fffd
fffa
0007
fffb
fff8
fffd
0000
0003
0001
fff4
0008
0003
fffd
fffb
000e
0004
ffff
fff5
0001
fffc
0004
0007
fff9
fff8
0003
000c
ffff
0003
ffff
0004
000a
fff7
fff5
ffff
0004
0004
0000
fffe
fffc
fff8
fffb
fffc
fff6
fffd
000a
000a
0001
0005
fffa
0003
ffff
ffff
0004
fffd
fffc
fffb
fffd
fffe
0000
fff2
fffd
fffb
0000
fff6
fffe
fff8
0000
fffe
0001
fffb
ffff
fff9
000a
0001
fff8
0003
0007
ffff
fff8
0004
0004
0007
0002
0002
0002
0003
fffa
0002
fffd
0000
0002
fffb
fffc
fffb
fffc
fffc
fffd
0000
0002
0000
0002
fff6
0007
ffff
0004
0000
fffa
0002
fffc
0001
000b
fffd
fffe
0002
0002
0008
0007
fffd
fffc
fffd
fffe
fffe
fffb
ffff
0003
fffa
0004
0000
0000
0003
0003
0005
fffd
0005
0001
0006
000e
0007
fffd
000b
0006
0007
fff9
0000
0004
0000
0005
ffff
fff8
0006
0003
0006
fffb
0004
fffb
fffe
fffc
0001
fffc
0003
ffff
fffe
fffc
0002
0000
ffff
fffe
0001
000f
fff9
0005
fff5
0005
fffc
fffd
0000
fffb
0003
fff9
ffff
0000
0000
fff9
0007
fffe
0001
fff6
ffff
0005
fffe
0005
0000
0004
fffc
0001
fffa
fffe
0009
0001
0006
0005
fffd
0001
fffe
0002
0002
fff7
0006
fffd
fffd
0008
fff6
fffd
0008
fffc
0001
fffb
0000
0003
0002
0002
fffe
ffff
0003
fffc
0000
0006
fffc
0001
fffe
0002
0002
0000
fffe
0000
0003
ffff
0000
0003
0004
fffa
0004
fffc
0005
0003
fffd
fffd
fff6
0009
0005
0003
fffa
fffd
fff5
0005
0005
0006
fff6
0002
0005
ffff
0004
fff5
0003
0001
fffc
0000
ffff
0004
0005
0001
ffff
fffd
ffff
fffb
0002
0005
fff9
0000
fffb
0003
fffd
0004
0000
0001
fffd
fffc
0006
0005
0005
fffe
fffe
0007
0000
fff9
0004
0009
0006
fffe
fffe
fffe
0002
0000
fffe
0003
fffd
0001
fffe
0002
fffe
ffff
fff9
0003
fff7
ffff
0000
0004
000b
fffc
fffd
0003
0000
0005
fff9
fffd
0001
0008
0000
fffe
fff8
0002
fffd
0007
fff7
000a
0003
0008
0000
0003
0007
0001
fff9
0006
fffc
fff9
fffe
0009
0000
fffb
0003
0002
fffe
fffd
fffd
fffc
0000
0005
ffff
0005
000a
fffe
0002
fffe
fff9
0004
0001
0001
0003
fff3
fffe
fffc
0004
0000
0000
fffc
fff9
fffa
0002
fff9
000a
0002
0000
0008
0008
fffc
0000
fffc
0008
0001
0004
0005
0001
ffff
0003
0002
ffff
fffe
0005
0002
0004
0004
0000
fff6
0001
0006
fffd
fffc
0001
0008
0007
fffe
fffa
0004
0004
0004
ffff
0003
0002
0004
fffa
fffd
ffff
0001
0007
fffd
0005
fffe
fffa
0002
fffb
0000
0005
0004
fffd
fff6
fffb
0000
fffe
fff8
0003
ffff
0003
fffd
0001
0005
fffd
fffe
0005
000a
0004
0002
fffb
0006
0004
0002
0004
0005
0005
fffe
fffe
0001
fffd
0001
fff7
fffb
ffff
0001
000b
fffd
0002
0003
0002
0004
fffd
fffb
0003
fffd
0000
fffd
ffff
0004
0005
0001
fff3
fffb
0002
0004
ffff
fffc
fffc
ffff
0005
fffd
0003
ffff
0002
fff9
000a
fffb
fff8
0002
0000
0006
fffe
fffb
000d
000a
fff5
0005
0001
0007
0000
fffd
ffff
0001
0005
0007
fffe
0003
fffa
0005
000d
0002
0006
0008
000f
0000
fff9
ffff
0001
fffc
0001
ffff
0008
fffe
0007
0000
0008
fffc
0001
0000
fffc
fff8
ffff
0007
0000
0005
0002
fffb
0005
fff8
fffe
fff9
0000
0007
0006
fff9
fff2
fff3
fff9
0002
000d
000b
ffff
0005
0007
0002
ffff
fffb
0001
0001
fffd
0009
0000
0002
0004
0002
0004
fffe
ffff
ffff
0002
0005
ffff
0005
0001
fffc
fff9
fff8
fffe
0002
0009
0004
0003
0005
fffd
fffb
fffd
fffd
fff8
fff9
0007
ffff
0003
fffe
0002
0003
0004
0000
0007
0003
fff9
0007
fff6
0007
0007
0005
0008
0001
0004
fffb
fff9
0001
fff8
0002
fffc
0001
0001
fffe
0002
fffb
fffa
0001
0009
0007
fffb
0001
ffff
fffb
0008
fff4
fffc
fffc
0001
fffd
fff9
ffff
0004
000c
fff8
fffe
fffe
0002
fffb
fff9
fff8
ffff
0001
fff4
0006
fffa
fff9
0004
fff9
fffc
0001
0005
000a
0004
fffd
0003
fffc
fffe
0001
000c
fffe
0004
fffe
fffa
0002
fffe
0003
fffc
fff6
ffff
fffe
fff9
0002
0002
0007
000d
fff5
fffd
0009
0000
0001
fffc
0006
fffb
ffff
0000
fffb
0005
0002
fffa
fff7
0007
fffd
fff3
0008
000c
0001
000a
fffa
fff7
0000
0000
fff6
0004
0002
fffa
0008
0000
0006
0006
0007
0000
fffe
0000
fffa
0001
0002
0006
0009
fffd
000b
0002
fffd
fff7
0002
fffc
0000
0007
0000
ffff
fffe
0003
0005
0001
0000
0001
0000
fffe
fff9
fffe
0006
fffc
0008
0008
0001
0001
0001
0001
fffb
fffd
0002
0005
0001
0000
fffc
ffff
0000
0003
0008
000a
0003
fffd
0004
fffd
0005
fffd
fffe
0005
ffff
0002
0000
0001
0002
ffff
ffff
0005
fffd
0001
0002
0000
fffe
fffa
0000
0002
000a
0001
0003
0004
fffb
fff9
ffff
0005
0001
ffff
0002
000a
0001
fffe
fffc
fffd
0003
0001
0009
fffd
0007
0000
fffd
0005
0001
0000
fffd
0000
fffb
fffe
0003
0002
fffb
fffc
0004
0002
0001
fffa
0006
fffa
0004
0007
ffff
fffa
0001
0001
0005
0002
fff7
0002
0002
fffe
0003
0001
fffc
fffe
0002
fffe
fffc
fffb
fff8
fff6
0003
0002
0004
fffe
fffe
ffff
fffd
fffd
0001
ffff
fffe
0003
ffff
fffe
fffc
fffd
0008
0004
0000
fffd
0002
0004
0000
fffe
0002
0001
ffff
0007
0005
0008
fffe
fffd
0004
0001
fffe
0003
0002
fffc
0002
0004
0000
fff9
ffff
0002
fffc
0005
ffff
0006
fff7
0005
0002
0000
000a
000c
fffa
fff9
0004
0003
fff9
0003
0001
0007
0001
0000
0001
fffd
0002
ffff
fff9
0002
0007
0000
0005
0000
0002
fffd
fffe
0005
ffff
0002
0007
fff9
fffd
fffe
0001
0000
0002
ffff
0001
fff9
0002
fffc
0000
0004
0002
fffc
0005
fffd
0001
0000
ffff
fffe
0000
fffc
fffe
0002
0001
0007
0004
ffff
0004
0008
fff2
0000
0001
fffb
0004
0001
fffe
fffd
fff9
fffb
fffd
fffc
fffd
fff9
fffe
0004
fffa
0005
ffff
ffef
0004
ffff
0006
0001
ffff
fffa
fffe
0002
0001
fff6
fff8
0007
ffff
fffe
0008
0006
0005
0000
fffc
0002
0000
0005
0004
0000
0004
0004
fff8
0005
0004
0001
0003
0000
0001
0001
0001
0007
ffff
0000
fffb
fff9
fffd
fffd
fffe
000d
0008
fffd
0000
0001
fffa
0003
0001
0007
fffd
0005
0004
0003
0000
ffff
fffc
0001
fffa
0000
0002
0000
0004
0000
0007
fffd
0000
0005
0006
0001
0005
fffc
0000
0003
0003
ffff
0000
fffd
0000
fffd
fffb
fffd
0003
0002
0002
0000
0007
0002
0000
0004
0002
ffff
000b
fff7
0007
fffe
fffc
0008
0002
fff6
ffff
ffff
ffff
fffd
fffd
0008
0008
fffc
000a
ffff
0003
0004
fffb
fffd
0004
fff6
fffd
fff8
fffd
0008
000b
fff9
0000
0002
fffc
0008
fffe
ffff
fffc
fff6
0009
0006
fff9
0002
fff9
0007
0000
ffff
0002
fffe
fff5
000a
0005
0005
fffb
fff9
fff2
fffb
0001
fffd
0001
0001
fff9
fffe
0007
0005
000b
fffe
0001
ffff
0002
fffc
0005
0004
0007
0002
0001
0001
0000
0008
ffff
fffe
0000
fffd
0003
fffc
0000
0004
0005
0000
0006
fffa
ffff
fffa
0003
fffe
0006
fffb
fff9
0004
fff8
0003
0006
0000
fff3
fffc
fffb
ffff
0002
0001
000a
fffb
0007
fff7
0005
0006
fffd
fffc
fff5
fffa
fffb
ffff
0001
ffff
ffff
0000
fff7
0000
0005
fffe
fff7
fffd
fffe
0002
0004
fff2
0004
0004
0004
0005
0002
fffe
fffe
0001
0000
fffa
0006
fffc
0002
0003
0007
0003
ffff
0001
fffc
0002
0001
0006
0003
fff5
0000
0002
0003
fff6
0007
0001
0003
0006
0004
fffa
fffc
fffa
fff2
ffff
0000
fff9
0006
0006
fffb
0005
fffd
0004
0006
ffff
fffb
0003
fffb
fffb
0003
fff9
0002
0001
ffff
fffe
0007
0000
fffc
fffc
0001
fff9
0000
0002
fff8
0002
fffb
fffe
fffb
0000
0003
fffe
0004
0000
0004
0001
ffff
fffe
fff9
0004
fffe
fffb
fff3
fffc
0001
fffc
fff9
000b
0005
0008
0001
fffd
fffe
0001
fffd
0002
fff5
fff3
fffc
fffc
0001
0000
ffff
fffa
0002
0006
0000
0007
0006
0008
fffb
0002
fffd
0006
0001
ffff
0002
0000
fffe
fff9
0001
0008
ffff
0003
0001
0000
0001
0000
fffd
0008
0009
0002
fffe
0008
fffd
0003
000a
ffff
fffd
fffc
fffe
fffc
fffd
fffb
fffd
0000
0006
ffff
0004
0008
0008
0002
0001
0002
0004
fffa
0003
0001
000c
0002
fffc
0000
fffc
0006
fffb
0000
0007
fff7
0005
0002
0001
0004
0003
0004
0011
fffd
0003
fffa
0003
0005
0002
0001
0009
0008
0000
fffe
0007
ffff
ffff
0002
ffff
fffe
fff5
0001
ffee
0000
0000
0003
0007
fffb
fffb
0002
fffa
fffc
0007
fffc
fff7
0003
0006
0006
fff7
fffb
0002
fff7
000a
0002
000b
ffff
0008
0002
fffd
fffc
ffff
fffd
0009
0005
fffc
fffe
fff8
0003
fff6
fffd
fff9
fffd
0005
ffec
0002
fffd
fffe
fffa
0006
ffff
0001
ffff
0001
fffc
0000
0003
0005
0006
000e
fffc
fffa
fffb
ffff
0006
0002
fffc
fffb
0002
ffff
fffa
ffff
fff5
fffa
fffb
fffb
fffd
0000
fffc
0001
fffc
0004
0004
0001
0005
fff8
fffc
0003
0004
fffc
fff8
fffb
0003
fffe
0005
0009
000a
fffb
fff8
0008
0001
0000
0002
0003
0001
0000
000a
0002
fffd
0003
0000
fff9
fffe
0002
fff8
fffb
fff8
0009
0000
0005
0002
fffa
0000
0001
0000
fffb
0002
fffd
0000
fff6
ffff
fffc
fff7
ffff
fffc
fffa
fff8
fffe
fffd
0009
0004
fffe
fff8
0001
fffd
ffff
0006
0004
0003
0005
fff7
0001
fff8
fffc
fffd
fffc
fffb
0002
0002
0005
ffff
0009
0001
fffa
fffd
0001
fff9
0000
0007
0003
0002
ffff
ffff
0007
fffd
0007
0003
0006
0004
fff9
fffe
0002
0006
ffff
0000
0005
fffd
0008
ffff
0007
0000
fffc
fffa
ffff
ffff
fff6
fffb
fffc
fffa
ffff
fffa
0000
0002
fffd
0003
ffff
0004
0001
ffff
0002
0002
0001
0001
fff8
ffff
fff9
fffe
ffff
fffe
fffe
0008
000b
fffc
0009
0004
0002
0000
fffb
0001
0001
ffff
fffc
0001
0001
0002
0009
0005
fffd
0001
fff9
0004
0003
ffff
0005
fffe
fffb
0000
fffb
ffff
fffe
0009
0000
0003
fffd
ffff
0002
0008
0008
fffb
ffff
fffc
0000
ffff
fffe
ffff
0003
0000
fffb
fffd
0004
0003
fff8
0002
0001
0000
fffc
fffe
fff7
fffc
0004
fffc
000a
0000
0009
0003
0003
0009
fff6
fffc
fffc
0000
0001
0002
0006
0003
ffff
0006
0006
0001
ffff
ffff
fffe
0003
0000
fffd
0005
fff9
ffff
0007
fffc
0007
fffb
fffb
0001
fff6
0000
0000
0008
ffff
fffa
ffff
000b
fffe
0007
0000
fffb
0006
0004
0006
ffff
ffff
0004
fff5
fffc
000a
0004
0005
fffc
0000
0006
0005
fffa
fffd
0001
fff7
fffd
0003
0000
fffc
0006
fffb
fffd
0000
0001
0006
0009
fff8
fffc
0005
fffd
fff8
0002
fffb
fffe
fffb
0004
0006
0005
fff8
0001
fffa
0000
fffb
ffff
000a
0009
fffe
fff7
0002
0005
fffe
ffff
0003
fff8
0010
0004
fffb
fffe
ffff
0003
000c
0009
fff9
fffd
0006
fff9
fff7
0006
0004
fff6
0005
ffff
fffc
0002
fffd
ffff
0006
fffc
ffff
0008
0008
0004
0002
fffc
0001
0005
ffff
0000
fffc
0000
0007
000a
0003
0001
0000
fff9
0006
0000
ffff
fffb
0005
fffe
0000
0005
0003
0003
fffe
fffc
0000
0005
fff7
fff9
fffa
0002
fffc
0002
0003
fffa
fffb
0007
0002
ffff
0002
fffe
fff9
0002
0008
0006
0004
0001
0004
fffc
fffb
fff7
0000
000e
ffff
fff7
0007
ffff
fff8
ffff
0005
0002
0009
fffc
fff9
fffc
0009
fff8
ffff
0006
0000
0001
0004
0001
0005
fffd
fff5
0001
0002
ffff
fffd
0004
ffff
fffa
0009
fffd
0001
fffe
fffd
fffe
0000
fffa
fffb
0003
fff5
0003
fff9
0001
fffa
fff9
0002
ffff
fffc
fffe
0002
fffa
0003
fff7
fffe
0003
fffd
ffff
0002
0008
0004
ffff
fffd
fffe
0000
0002
0004
0001
000c
0007
0004
fffb
0000
fffc
0001
fffb
0000
0001
ffff
0008
0007
0005
0001
0004
fffc
0003
fffc
0005
fffd
0000
0009
fffc
0004
fff9
0008
fff8
ffff
0002
ffff
0000
fffc
0003
0003
0005
ffff
0001
0003
fffe
fffe
0001
ffff
fffd
0009
0004
fffd
0000
fffb
fffe
fff6
ffff
fffc
ffff
ffff
ffff
0004
fffb
0000
fff8
ffff
0000
0000
fff2
0005
0000
fffe
0005
fff5
ffff
ffff
fff8
fffd
fffc
fff6
0000
ffff
0000
ffff
0008
0003
0006
0003
fffb
0001
0001
fff8
0006
fffd
fffb
fffe
fffd
ffff
fffb
fffa
fffd
0007
fffe
fffa
fffb
fff6
fff8
0007
fff9
0001
0005
0006
fffb
fffd
0006
0007
fff7
0008
fff9
ffff
fffe
0000
fff6
0001
0006
fff5
ffff
fffc
0002
0006
fffe
0001
fffd
fff9
fffe
fff5
fffa
fffb
ffff
fff7
fff4
ffff
0002
0000
0007
0006
0002
fffe
fff7
fffa
0000
fffb
0000
fffd
fff6
0000
fffe
0002
ffff
0000
0001
ffff
fffb
0006
0005
fffa
ffff
fffa
0000
0003
0000
fff7
0002
fffc
0006
0002
fffc
0002
fffd
ffff
0003
0001
0002
0004
000d
fff8
0001
fffc
0008
0002
fff9
fffa
fff8
fffd
0005
ffff
fffe
0008
0008
fffd
ffff
fff9
ffff
0003
0007
0003
fff5
fff4
0000
0001
0001
fffb
0005
ffff
0001
fff7
0003
0001
0009
fff5
fffe
0000
0002
fff1
0004
0002
0000
fffe
0001
0009
ffff
0002
0003
0004
0002
0005
fffe
fffd
fffd
0006
fff8
0000
0002
0005
fff9
fff4
0006
0002
fffb
fff7
0005
fff8
0004
fff8
ffff
0005
0000
0006
0000
ffff
0004
fffb
fff7
0002
fffb
fff7
fffb
fffd
ffff
fffb
0002
0007
fffb
fff4
0009
0002
0001
ffff
0003
0007
fff9
0005
ffff
0001
fffa
fffe
fffb
0000
0001
0004
fffc
fffd
0003
0001
0003
fffc
0001
0006
fffc
0003
fffd
fffa
0002
0003
fffa
0000
fffe
fffe
0006
0000
fffb
0002
0000
fff9
0007
fffc
0004
fffa
ffff
0006
fffe
ffff
0000
0009
fff9
0003
fffe
000a
0006
0009
ffff
fffc
0009
fffd
0004
0002
0007
0000
ffff
fffc
0000
0000
0003
0003
fffb
0005
fff4
0003
fffc
0002
fffb
0000
0003
0000
0003
0000
0001
0001
0003
0004
0003
0003
fffe
0000
0003
0005
0000
0007
fffe
fffa
0006
fffd
0003
0002
0003
0001
0004
000b
0001
ffff
0002
fffc
0006
0008
ffff
0001
fff7
fffc
0003
0000
0003
0009
0004
0008
fffd
fffe
ffff
0005
0008
fffb
0001
0002
fffd
0002
fff8
0000
0008
fffb
0007
fffe
0004
fffd
fffe
fffd
fffb
fff9
0000
0002
0004
fffc
0009
0003
fffa
0001
ffff
0000
fff8
fffd
0004
0004
0006
0004
0005
ffff
fffc
fffd
0001
0003
ffff
0008
fffc
0001
0001
fffe
fffe
0002
fffa
fffe
fffe
fff8
fff9
fff6
0000
0008
fffe
0000
0005
fff9
fffb
fffe
fff5
0001
fff6
0002
0002
ffff
ffff
fff9
0007
0007
0000
0004
0002
0005
0001
0003
fffb
0000
fffb
fffe
0003
fffe
0003
0001
fffc
fffe
fffe
0001
0001
ffff
0006
fff9
0006
fffd
fffa
0005
fffe
0004
fffd
fff9
0001
0001
fff8
fffe
fffd
0003
fffc
ffff
fffe
fffe
fff7
0002
0009
0002
fffe
fffe
fffe
fffa
fffd
fffd
fffd
0008
0003
fffe
ffff
fffb
0002
0002
fffc
fff9
fffe
fffd
0002
fffc
0004
fffc
0008
fffe
ffff
0002
0001
fffd
fffe
fffc
fff9
0000
0001
0002
0001
fffe
0001
0001
fffc
0002
0004
fffa
0004
fffe
0000
fffd
0001
0000
0009
0000
fffe
fffb
0005
0001
ffff
0003
fffe
fffd
fffc
fffb
0002
0006
0002
0004
0001
fffe
0000
ffff
0000
0004
0009
0004
0008
0005
0000
0002
0004
0000
0002
0003
fffe
0008
0000
000a
0005
0008
fff3
0003
fffe
0004
0002
0006
fff8
0004
0003
fff8
fffb
0000
0008
fffc
0000
0002
fff9
0000
fffe
0001
fffb
fffa
0000
fffb
fff4
0001
0000
fffa
0006
fff8
0003
ffed
0007
000b
ffff
fffb
ffff
fffb
0004
0007
fffe
0002
fffc
fffe
fffd
0004
0003
0007
fffe
fff9
fffc
0005
0002
ffff
fff8
fffe
000a
0000
0002
0002
0002
0003
ffff
fffd
fff9
fffb
fffb
fffc
0001
0003
ffff
0000
fffb
0004
0001
0007
0003
ffff
0004
0000
0007
0003
fffc
ffef
ffff
ffff
fffe
000e
fffb
ffff
fffd
0002
ffff
0004
0000
fffd
0000
0004
0001
fff2
fffd
0001
0001
0002
fff8
fff7
0000
0003
ffff
0001
0007
ffff
ffff
fff9
0006
fffd
0002
0002
fff3
0004
fffd
0003
ffff
0002
0004
0001
fff8
0001
0006
fff9
fff7
fffe
0005
0000
fff8
0001
0001
fffa
0004
0002
fffe
0008
0000
0003
fffa
0000
fffd
ffff
0004
0001
0007
fff4
fffc
fffe
000a
0001
fff8
fffe
0004
ffff
0004
0004
0004
0003
0003
fffd
fffb
fffe
fffd
0000
0002
0005
0004
0004
0000
0006
fffd
0001
fffa
0003
fff6
fffc
fff8
fffe
fff0
0001
fffb
fffc
fff7
fffd
fffb
0007
fffe
0007
0001
0001
fffb
0002
0002
fff8
fff4
fff7
fffc
0000
ffff
ffff
0004
0000
0000
0008
fffd
fffc
fffd
ffff
ffff
000a
fffe
fffd
0005
0003
0000
fffc
fff8
ffff
fff9
ffff
fffd
0001
0004
0003
0000
0002
0004
fffb
0009
0008
0000
0005
fffe
fff8
fffb
ffff
000c
fffc
0003
fffe
0005
ffff
fff5
0001
fffe
0003
0001
fffe
0004
000e
fffb
0000
fff9
fffd
0002
fffb
0006
0007
0007
fff6
0002
fffa
fffd
fffb
0006
fff8
fffe
000a
0003
0003
0005
0002
fff7
fffe
fff5
ffff
fff9
0008
fffd
0006
fff6
fffd
ffff
0005
0004
0006
fffe
0005
0004
fff6
fff7
0004
0009
fffd
fffd
fffd
0000
0007
0004
fff5
fffe
0005
fff9
0001
0004
0001
fffe
ffff
fff9
0000
fffb
0002
0001
fffe
0001
0004
0001
ffff
0000
0001
0003
fffe
000b
0008
0000
000a
0004
fffc
fffc
fffb
000f
fff8
fff6
fff5
ffff
0001
0001
ffff
fffb
0004
0004
0002
0002
fffd
fffa
fffc
0007
0007
0003
fff8
fff9
0002
ffff
0008
0000
fff7
000c
fff5
ffff
fffc
0003
fffb
000b
fffb
0001
0001
0003
0002
fffb
fff9
0002
000a
0002
0003
fffe
fffe
0005
ffff
0009
0007
0003
fffa
ffff
0006
000b
0002
0007
0003
fff8
0000
0003
000c
0008
fffb
0001
0000
0001
0000
ffff
fffb
0003
fffd
fffb
0001
fffe
fffc
0007
fffc
0006
0004
fffc
0000
0000
fffb
0000
fffe
0009
0007
0001
fff6
0006
fffb
0007
0009
0012
fffb
fffd
fff0
fffa
fffb
fffc
fffd
000b
fff4
0005
000c
fffe
ffff
0006
0009
fffb
0005
fff8
fffb
0004
fffa
0002
0003
0000
fffa
fff5
0002
0008
fff8
fffc
0000
fffd
0001
0003
0001
0005
0003
fffe
000d
0008
fffb
ffff
0009
ffff
0001
0002
fff6
0002
0002
000a
0003
0005
0002
fffe
ffff
0000
0002
0008
fffc
0000
ffff
0000
fffd
fffc
0003
0001
0003
fffe
fffc
0006
fffe
0001
fffd
0000
ffff
0001
fffa
ffff
0006
0003
0004
0003
ffff
ffff
0003
ffff
0007
0000
ffff
fffc
0002
0003
fffb
fffe
fffd
0006
0000
0008
fffd
0000
0002
fffe
fffe
ffff
fffd
0003
fffe
fffd
0001
fffe
0007
0006
0004
fffc
0007
0005
0005
fffd
fffd
0003
0000
0001
fffd
0006
ffff
fff8
0000
fffc
0002
fffa
0000
ffff
fffe
0001
0002
fff9
0004
fffe
fffd
0008
0001
fffc
fffc
ffff
fffb
0005
0007
0006
0003
fffc
000a
0002
ffff
ffff
0004
0004
fffb
ffff
0005
0001
0005
fffd
fffc
0002
0004
0003
fffe
fffe
fffc
0004
0009
fffa
fffe
fffd
0005
0000
0001
fffe
fffe
0002
fffc
0005
fffe
fff9
0000
0002
0000
ffff
0001
0002
fffe
fffe
fffe
0002
fffc
ffff
fffa
0002
0003
fffd
0002
fffe
fffd
fffb
0000
0000
0003
0000
0001
fffe
0000
fffd
fffe
0000
fffc
0006
0007
ffff
0003
fffc
0000
0001
0002
0003
0006
0002
0001
fffe
0000
0000
0000
0000
0002
0001
0001
fffa
fffc
0004
0001
0001
fffe
0004
fffc
0002
fff9
fffb
fffd
0004
fffe
0001
fffe
fffc
fffe
fffc
0005
0000
ffff
fffc
0004
fffd
fffe
fffc
fff9
0004
ffff
0003
0000
0006
fffa
0004
0001
0000
0001
0002
fffb
ffff
fffb
0006
0002
0000
fffb
0000
0008
0004
0001
0000
ffff
0001
fffd
0003
fffc
fffd
fffe
0002
0000
0000
ffff
0007
0002
ffff
0003
0000
0001
0002
0003
fffa
0004
0002
ffff
0006
fffc
0001
fffc
0000
ffff
0004
0006
0000
0000
ffff
0003
0002
fffc
fffc
0000
fffa
0006
0006
0004
0005
0003
0003
0004
fff9
fffb
fffc
fffe
0004
0002
fffe
fffb
0006
0003
0004
0003
0006
0006
0003
0007
fff5
0000
0000
0001
0008
fff3
000a
0007
fffb
fffa
0006
0001
0005
0001
fff9
0005
fffe
0002
0002
0007
000b
0000
ffff
0003
0001
fff7
000b
0007
0001
0001
fff7
0003
0009
0009
0002
0002
fffc
0009
fffc
0003
0001
fffb
ffff
0001
0002
fff5
0003
fffe
fffe
fffe
fffb
0003
fffa
fffd
0004
0003
0004
0002
0003
0003
ffff
fffc
fffc
0000
fffd
0006
0009
0004
0007
fff5
0006
0002
0003
fffa
fffd
0003
0001
0004
fffe
0001
fffc
fffa
0003
ffff
0002
0004
fffe
0002
fffa
0002
fff8
0000
0000
0005
0007
0000
0005
fff7
fffe
0006
fffc
fffd
0006
0007
0002
fffe
ffff
0002
fffd
0003
fffb
fffb
0000
0000
0004
0000
ffff
fffd
0003
0002
0003
ffff
fff7
0005
0000
fffc
0000
fffb
fffb
fff9
0003
fffb
0003
fffd
0000
fff3
0002
fffe
fffd
ffff
fff4
0002
0006
0004
fffc
0005
0008
0001
fff7
0007
ffff
ffff
fffa
0006
0000
fffe
0002
0005
0001
0003
000f
fffd
0004
0001
fffb
0004
fffd
000c
fffd
0007
0004
0000
0003
fff8
0001
0004
0001
0001
0004
fffd
0006
0003
fffd
fffe
0008
0006
fffd
fffd
0000
0001
fffe
0007
0001
0009
0006
0000
fffc
fff0
fffb
0003
0001
0001
0005
fffe
fff6
fffb
0003
fffe
0002
0005
0003
fffa
0003
fffb
ffff
0002
0002
fffd
ffff
fffe
0007
0007
fffd
0002
0001
0002
ffff
fffd
fffa
0003
0001
0001
0006
0001
0008
0001
0002
0000
fffd
fffe
0000
fffb
0003
fffd
0002
0001
fffe
fffe
0003
ffff
0000
0005
fffb
fffc
0002
fffc
000a
0002
0002
0003
0001
fff0
0005
0000
0001
0002
0003
fffe
0002
0001
0006
0008
0001
0002
fffa
0001
fffe
0006
0004
fffb
fffc
0007
fff7
0002
0001
0000
0008
fffe
0001
0003
0000
0002
fffc
fffe
0003
fffd
0000
fffb
0003
fffc
0000
fffb
fffe
0001
0009
fffb
fff5
0001
0010
0008
ffff
0000
fff5
0003
fffd
fffd
0000
0003
fffd
ffff
0001
fffc
fffc
fffa
fffe
fffd
ffff
0005
0002
fffd
fff7
fffd
fffa
0002
0001
ffff
fffe
0004
fffa
0002
0004
0004
0005
fffc
0001
0003
fff9
ffff
fffc
000d
0005
fff9
0002
0000
0005
0008
ffff
fffe
fffa
fffb
fffe
fffb
0005
fffb
fff9
0001
0006
0007
0000
ffff
ffff
0007
0004
fffe
fffb
fffc
0001
fff9
0000
0002
0007
0001
0003
0007
0008
fffd
ffff
0003
0003
0002
0001
fff6
0002
0007
0003
0006
fffc
0007
0003
fffd
0007
fffd
0004
0005
0003
ffff
0003
0000
0002
fffb
fffb
fffd
0003
fffa
0003
0003
fffe
fffb
0006
ffff
fffc
fffe
0004
fffd
0000
0000
0004
fffb
fffa
fff9
fff9
0002
0003
fffc
000c
0005
0008
0007
fffe
0004
fffd
0005
fffc
fffb
000e
0003
ffff
fffe
fff9
0001
fffc
fffd
0000
0001
0006
fffe
0004
fffb
fffc
fffe
0001
fffa
0004
fffe
0000
fffb
0005
fff6
fffc
ffff
0003
0006
0008
fffe
fffe
fffe
0003
0004
fff5
0004
0000
ffff
0000
0002
fffe
000a
0000
fff9
ffff
0004
0002
ffff
ffff
0008
fff8
0002
0007
fffc
fffe
ffff
fff6
0002
fffe
fffb
0002
fffa
0005
fffd
0001
0008
ffff
ffff
fffe
0001
0002
0002
0002
fff4
fffe
0000
0008
000b
0000
0002
0007
ffff
0001
0009
ffff
0004
fff9
0005
0002
0001
ffff
fffb
0000
fffa
0004
fffb
0005
0002
fffc
fffd
ffff
fffd
fffe
0005
fff7
fff9
fffd
0002
ffff
fff6
0000
0001
0003
0008
fff7
fffc
fffe
0002
0000
000c
0008
0002
fffe
0000
fffc
0003
fffa
0002
0002
0004
0009
0002
0006
fffe
0004
fffd
0000
000b
0001
0005
0004
0002
0003
0005
fffd
fff7
0006
000a
0000
0006
fffa
0000
fffc
fff9
fffe
0001
0000
ffff
0004
0004
000b
ffff
0001
0009
0000
fff6
fffd
fff6
0002
0001
fff9
ffff
0003
0001
fff5
0004
0007
fff2
fffd
0001
fffd
fffc
0000
fffb
0007
0002
0001
fff8
0005
fff8
fff8
fffc
fffe
0000
fffd
000b
fffa
0004
0000
0000
0002
0009
0005
000a
0009
0002
0001
fffc
fffe
0001
000f
0004
0005
0005
0005
fffe
0002
0004
fffb
fffe
0002
ffff
fffb
0006
fffa
0002
0006
fffa
fffe
fffc
fffa
ffff
0005
0000
0007
fff2
0001
0007
000b
fffb
0002
000c
0009
0006
fffb
000e
0003
0007
fff2
fffa
0000
fffa
0007
fffd
fffd
fffc
000a
0002
000b
0004
0003
0001
fffc
fffc
0005
fffe
0006
0001
0008
fffc
fffe
0011
fffe
0003
0003
0005
fffb
0000
0006
fff5
fffb
0002
0001
fffb
0004
fffc
fffc
ffff
fff7
0006
fffd
0000
ffff
fffe
0003
0003
0006
0004
0000
fffb
0002
ffff
0002
0007
ffff
fffc
fffa
0004
0004
fffc
0001
fffa
0003
0004
fffb
0002
0005
0001
0005
fffe
ffff
0001
0003
fffc
0007
0005
fffa
fffa
0005
0000
0002
0002
fff9
0000
fffc
0007
0005
0004
0007
fffd
0005
fffb
000c
fff8
fffa
fffe
0004
fffa
fffa
0009
0002
fffa
fffc
0003
fffd
fffb
fff8
0002
fffe
fffc
0001
0003
0001
fffd
ffff
ffff
0000
0003
fffa
fff8
0001
0000
0001
fffd
0002
0005
0000
fffa
fffa
fffe
0004
0004
fffe
0004
0002
0002
000f
ffff
fffb
0001
fffd
fffb
0002
0002
fff8
0007
0001
fffa
0006
0004
0004
fffa
fffe
fffe
0003
0002
0000
0006
fffb
fffe
0001
ffff
0005
fff7
fffd
fffb
0004
0001
0006
fffb
fffc
0008
ffff
fffd
fffd
0001
0002
0001
fffc
0003
fffd
fffd
0003
fffb
0000
000a
fffe
fffb
fffb
0008
fffd
fff9
0003
0003
ffff
ffff
fff8
fffc
0000
fffe
0006
fffe
0000
ffff
0003
0005
0002
fff4
fff6
0001
0007
0000
fffe
fffc
0000
fffd
fffd
0009
fffd
0007
0000
0006
000b
0002
0003
0010
fffb
0003
fffe
fff6
fffe
fffc
0001
fffc
fffe
ffff
fff7
0003
0002
0000
fffa
ffff
0000
0003
0007
000d
fff9
0006
0009
0000
0003
0008
fffd
fff9
ffff
0007
0005
000a
0000
0003
0001
fffd
0001
fff6
0007
fffd
0009
fffe
0000
0000
0000
fffd
000c
fffe
0000
fffb
fffb
0003
0000
0002
fffb
0000
0002
0002
0003
fffe
0000
0002
0005
fff6
0004
0000
fffc
fffb
fff9
0002
0007
0005
0003
fff9
0003
0005
000a
0005
0004
0008
fffe
fffb
0006
fffd
0000
0005
fffd
0002
0009
0001
0007
0000
fffb
fffb
0006
0002
0003
fffd
fff6
fffb
0001
0003
ffff
0006
fffd
0003
0002
ffff
0009
0006
0004
0001
0000
fff4
ffff
fffe
0008
ffff
0001
fff8
ffff
000c
fff9
fffa
fffd
0000
0006
0002
0004
fffd
ffff
fff3
fffd
fff7
0001
fffe
0003
0003
0005
0009
0001
ffff
fffb
0006
0001
fff9
fff8
0007
fff8
fff9
fffc
0002
fffc
fffd
0002
0001
0004
000b
0006
0001
0005
0009
0004
ffff
0005
fff8
0009
fff7
fff9
ffff
0002
ffff
fffb
000a
fff6
000c
0002
0004
0002
fffc
0007
fffc
0006
fff8
0006
0009
0001
ffff
fffb
0003
0008
fffa
0000
0003
0000
0004
000a
fffd
000f
0002
fffe
fff8
fffe
fffd
0004
fffa
0003
000a
0001
fffc
fffb
0004
0007
0005
0000
fff4
fff3
0008
0001
fff1
000c
fffb
0003
0007
0002
fff4
ffff
fff9
fffe
fffb
fffc
fffc
0007
0001
fffe
ffff
fffb
ffff
0001
000b
fff6
fffd
0006
0005
0007
fff8
0001
fffb
0006
0004
0005
ffff
0002
fffa
fffc
fffd
0000
0004
0000
ffff
fffd
fffd
0006
0005
0006
0006
0003
0003
fffb
fffd
0003
0005
0000
fffa
000d
0007
000e
000c
0005
0005
fff4
fff9
fff7
0002
0002
0004
0003
ffff
000d
0006
fff9
ffe9
ffff
0001
fffd
fffc
fff9
0000
0007
fffd
0001
fffb
0001
0005
ffff
000d
0004
fffc
0007
fffe
0002
0003
fffe
0004
0001
0004
0002
0005
0002
0008
ffff
fffc
fff8
fffd
0000
fffc
ffff
fff8
0000
0001
0009
0009
0002
0001
fffc
ffff
fff8
fffa
fff8
0002
fffd
0003
fff9
0004
0006
fffb
0001
0000
fffe
ffff
0008
0005
0006
fffd
0008
fff9
fffe
fffd
0001
0000
fffc
fffe
0004
0004
fff1
fffc
fff3
fffa
0007
fffb
0000
fffc
0000
0003
fffb
fffd
fffb
0004
fffb
fff5
fffe
0000
0005
fff9
fffe
fffa
000a
0002
fffc
fffc
0005
fffc
000a
fff6
ffff
0006
0004
fffe
0003
ffff
0009
fffb
0000
fff7
fffe
0003
0000
0001
0005
fffa
0000
fffa
0002
fffb
fff9
0000
fffa
ffff
0001
0001
000d
fffe
0004
fffe
fff7
0000
ffff
fffc
0007
fffb
0000
0003
0004
0004
fffe
fffd
fffd
fffe
ffff
fff7
0004
0001
ffff
ffff
ffff
0002
0000
0003
0001
fffe
0001
0001
0002
0000
fffd
0000
0002
fffd
0002
fffb
fffe
ffff
ffff
ffff
ffff
0002
fffb
0006
0002
fffa
0003
fff8
fffd
fff8
fff9
fff7
0000
0005
0009
0002
fffb
0003
000a
0006
ffff
0001
0004
ffff
fff9
0003
0005
0000
0000
0006
0001
0002
fffa
0000
fffb
fffc
0002
0003
0003
0000
0000
fffa
fffb
fff4
fffe
fff5
fffa
0001
0007
fffa
fffa
fff5
0000
0002
000b
0000
0004
0001
0008
fffb
fffd
0001
fffe
0006
fffd
0001
0008
fff5
0002
0002
fffc
fffc
0001
0007
fff9
0002
0004
0002
fffe
0006
ffff
0002
ffff
fff8
fff8
0004
0002
fffb
fffd
0003
0006
fffe
0004
ffff
0008
0001
fff9
0001
fffc
0004
fffd
fff5
0000
fffc
0006
0001
fffc
fffb
0002
fff7
fff3
ffff
0006
fffc
fff9
0002
ffff
0004
0004
0002
0005
fffd
0000
fffa
0004
fff4
0004
fff5
0000
0007
0001
0000
fff7
fff1
0005
0008
0004
0005
0000
fffc
0002
0004
fffe
fffc
fffc
fffa
0000
0002
0004
fff8
0000
0004
0008
0000
0003
0005
fffa
0007
0006
fffe
ffff
ffff
fffd
0001
fffd
0002
fffe
0007
0004
ffff
0005
0004
0005
0003
0005
fffe
ffff
ffff
0000
fffc
0001
ffff
0002
fffc
fffd
fff9
fffc
fffa
fff9
0002
0003
0005
0003
0006
fffd
fffc
0001
0002
fffe
0004
fffd
0001
fffe
ffff
ffff
fff7
fffc
fff8
0002
fffc
ffff
fffe
fffb
0004
0009
ffff
0000
fff9
fff8
fffe
0004
fffe
fff7
fff9
fffd
fffd
fffe
0007
fffa
fffd
0000
0002
0003
0000
ffff
ffff
0000
0002
0001
000d
0005
0004
0000
0001
fffe
0004
000c
0001
0005
0005
fffd
fffd
fffe
fffe
0006
fffc
0001
0004
fffa
fff8
0002
0011
0002
fffe
0003
fffe
ffff
0005
ffff
0000
fffe
0000
fffd
0001
0006
ffff
0004
0002
ffff
0001
0011
fffd
fffb
0001
fffe
0001
0007
fffd
000b
0000
0007
fffe
0007
fffd
0009
0005
fffd
fffc
fffc
0001
fffe
0001
0005
0010
ffff
0000
0001
0006
0000
0006
fffe
0002
0008
fff8
ffff
0000
0000
0002
fffd
fff9
0002
0000
0002
0002
ffff
0001
0005
0000
0001
ffff
000b
fffd
000a
0000
0003
0002
0000
fff8
0002
fffd
000b
0002
0001
ffff
fffe
fffd
0002
fffa
0001
fffe
0003
0003
fff9
fffb
0006
0004
0003
0008
0006
0001
fff6
fffd
000b
0004
fff8
ffff
000b
0003
0006
0000
000b
fffe
0001
0007
fffd
0008
ffff
0003
0002
0003
0005
fffd
fffd
0005
fff8
fffa
fff8
0006
0003
fff7
fffb
0004
0001
0002
fff5
0002
fffc
0002
fffb
0002
fffb
ffff
fffe
0005
fffd
0000
fffc
0000
0004
0002
fffc
0000
0005
0000
0002
ffff
0000
fffb
0000
fffe
0007
0008
fffe
0007
0000
0000
0002
0000
0001
fffd
0006
fffd
0003
fffe
0007
0000
000a
fffe
fffc
0005
fffb
0008
fff9
0009
0001
fff3
0002
0001
fffb
000a
fff9
ffff
fff7
0003
0002
ffff
000a
0001
0001
0008
0001
0004
fffb
0003
0002
ffff
0003
ffff
0001
fffb
ffff
fffe
0001
fff9
fffe
0000
0001
0006
fffa
0002
0007
0004
0001
0000
0002
fffc
fffd
fffc
fffe
0007
0002
0005
fffe
fffd
ffff
000a
fffb
0000
0003
0001
0000
0000
0000
fffe
ffff
0004
0002
0003
fffa
0000
0003
0000
000a
fffe
0005
fffc
fffc
0007
0000
0008
0003
fff7
0009
0001
0003
fffe
0007
0006
fffd
fffc
0001
0001
ffff
fffb
0008
fffe
0003
0006
fffe
0006
0005
ffff
fffe
0008
ffff
0004
fffa
fff9
0001
0001
0000
0005
0008
0007
fffe
0005
0007
0007
fff8
0003
0003
0000
0001
0004
0000
0000
0008
0000
0001
fffe
fff9
0002
0004
0002
0004
fffd
0003
0006
fffe
ffff
ffff
fffb
0001
fffb
ffff
0000
0007
000c
fffd
0006
0001
fffe
fffc
fff7
fffc
0003
fffe
000d
fffe
fffb
0003
0008
fff9
0000
fffe
0002
fffe
0000
0000
fffa
fffd
fff9
fff9
0003
fffe
ffff
fffd
0001
ffff
0000
0006
fff8
000a
fffc
fffe
0001
0000
fff9
fffd
0000
0004
0000
0008
ffff
0004
fffa
0006
fffd
fff8
ffff
0002
fffd
0006
ffff
0007
0004
fffe
000c
0003
fffa
0001
fff9
fffd
fffb
ffff
0005
fff8
fffe
fffe
fffd
fffc
fffa
0003
0003
0002
0000
0000
ffff
fffe
fff8
0003
0000
fffc
0009
0000
ffff
0002
0001
0005
0002
0002
fff7
fffe
fffc
ffec
fffd
0007
0002
fffa
fff8
0003
0005
0000
fff7
0001
0007
fffc
0002
fffa
000a
0003
fffc
fffb
0007
fffd
ffff
fffe
0002
fffd
0005
0000
fffb
fffc
fff8
ffff
000b
0003
0001
fffb
0000
0004
fffc
fffe
0002
fffd
0001
0005
0002
fff6
0005
fffa
0009
fffb
0003
0002
0002
ffff
0001
0001
fff5
0000
fff5
ffff
0006
fffe
0001
0005
fffe
fffe
ffff
0000
0005
fffc
ffff
000a
fffd
fffe
0001
ffff
fffa
fffb
0001
fffb
fff6
fffe
0000
0000
fffe
0007
fffa
fffb
fffc
0009
fff5
fffc
ffff
fffc
0001
fffc
0003
fffa
0006
0003
fffe
fffb
0002
0001
0004
fffe
0005
fffc
0004
0001
0006
fff8
0002
fff6
000a
fffd
000d
0000
0006
fff9
0004
0000
0002
ffff
0004
0004
ffff
0002
0004
0003
0003
ffff
0007
fffb
0001
fffd
0004
fff6
ffff
ffff
0001
fffd
0004
fffd
0002
0003
0008
0001
fff9
fffd
fffe
fff4
0002
fff9
0001
0000
0003
0002
ffff
0001
0000
0007
000a
0002
ffff
0000
0000
0006
fffd
0003
fffb
fffd
0003
0007
fff9
fffe
000d
0002
0006
fffe
ffff
0008
0003
0003
fffd
0005
0006
ffff
ffff
0000
fffd
fffd
0005
0007
0000
0001
fff6
0002
fffc
000c
0004
0004
0006
fffd
ffff
ffff
fffe
fffd
0006
ffff
0002
0003
fffd
fffb
0006
fff8
0001
fff9
fff3
0004
000b
0002
0001
0003
000d
0001
0002
fffe
fffd
ffff
0000
ffff
0001
0004
ffff
0006
0004
0005
fffe
fffd
fffb
fffa
0000
fffb
0006
fffa
0009
0009
fff7
fffd
fffd
0005
0005
0001
fff8
0009
0007
fffc
fff8
fff8
0002
0006
000a
fff8
fffb
0000
0004
0005
0001
0005
0004
fffc
fffd
000f
ffff
0003
fff5
fff8
0007
ffff
0009
0000
ffff
0008
fffd
ffff
fff8
fffd
0004
0008
fffa
0003
0004
0003
ffff
fffd
0004
ffff
fffb
0005
0001
fffd
fffb
fffa
0003
fff8
0009
0008
fffe
fff7
0004
fff8
0004
ffff
fffe
fff7
fffc
fffe
0001
fff0
0009
000c
fffd
000c
fffb
0003
0001
fffd
0006
fff9
fff7
0000
fffd
0001
0003
fffd
0006
fffb
fffb
0003
0000
0015
ffff
0006
fff8
ffff
0003
0003
0000
fffb
fff9
0000
0003
0001
ffff
0001
0007
0002
fff9
fffd
fffd
0003
fffe
fffd
fff5
0001
fff3
0004
0001
ffff
fffb
fffe
0002
0000
0002
ffff
fff5
fffd
fffc
0000
ffff
0005
fff8
fffc
0005
0003
fffb
0002
fffb
fffc
fffd
fff4
fffd
fffe
ffed
fff6
0005
fffc
ffff
fffc
0008
fffd
0006
0008
0007
fffe
0003
fffc
fffe
0001
fff8
0000
0001
0002
000d
fffd
0002
0002
fffd
fffd
0006
fffd
fff9
0002
0005
fffa
fff9
0003
fffc
fffe
0000
fffb
0003
0000
0005
0007
000a
fff9
0005
fffc
0002
0000
000d
0005
fffa
fffe
0001
0007
0003
000b
0001
000a
fff8
0000
0002
fffe
ffff
fffe
0008
fffd
fffe
000b
0007
fffe
fff7
fffb
fffd
0005
0002
ffff
ffff
000d
0001
0006
0007
fffe
0007
fffe
0001
fffc
fffc
0002
ffff
0003
fff9
fff8
0007
0007
fff7
0000
0008
0002
fffe
0005
0005
0007
0006
0001
0009
0004
fffb
0001
fffe
0006
0004
fffb
0001
0003
0001
0009
fffa
0005
0001
fffe
fffb
fff6
fffc
fffb
0006
ffff
ffff
0001
0005
fffe
0002
0000
0003
0001
0004
0000
fff6
0002
0003
0008
0002
fffd
0003
fff6
fffa
0000
fffd
fff8
0004
0001
0003
ffff
fffb
0004
0002
fff9
0001
0002
0008
fffa
0004
0006
fff8
fffd
0004
0004
0001
0002
0004
0002
fffa
ffff
0005
0002
fffb
0000
0001
0005
0004
fffc
0001
0005
0005
ffff
0004
fffe
0009
0000
ffff
fffc
0002
000d
fff9
0006
fff0
0004
0001
fffd
0001
0002
0006
fffd
0004
ffff
0002
fffd
0000
0004
0003
000e
0000
0003
0003
fffd
fffd
fffd
0008
fffc
0009
fffb
0002
fffc
0004
fffe
0003
0002
0004
0004
fffc
0000
fffe
fffc
0002
fffe
fffb
0000
0000
fffe
0004
0004
0003
fffd
ffff
0000
0001
fffe
0003
0007
0002
ffff
fff6
0000
fffb
fff7
0003
fff5
fffd
ffff
0001
0001
0002
0005
0009
000a
fffd
0001
ffff
0005
0000
fff8
0000
fffc
0006
fffd
0005
fff7
0000
0001
fff9
ffff
0009
fff9
0003
0002
0002
0005
0000
fff6
fffa
0002
ffff
0004
fffc
fffc
fffd
0005
ffff
0000
0000
fffe
ffff
0000
0004
fff6
0001
fffe
fffb
fffc
ffff
0005
fffc
000a
0009
fffa
fffe
fffe
0004
0000
0000
0003
ffff
0004
fff9
0006
0003
0003
ffff
0001
ffff
fffa
fffb
fffb
0005
fffc
fffb
ffff
0009
0001
0001
fffb
fffc
fff8
ffff
fffe
0003
fffb
0005
0002
fffc
fffe
0004
fffd
000b
0008
0002
fffd
0002
fffa
0001
fffd
0003
0001
0000
fff7
fffc
0000
0007
fff7
fffa
0001
0003
0003
0007
0001
fffb
0001
0007
0002
0000
ffff
ffff
0006
ffff
0002
0001
fffc
0004
ffff
fffe
fffb
fffb
0004
0012
0009
fffe
0001
fff9
fff8
0006
fff4
0001
0002
ffff
fffb
0007
0005
0006
0006
0000
0003
0000
fff5
0000
fffd
0000
ffff
fffa
0003
0002
fffe
0008
0004
fffc
fffe
0002
000a
fffe
0008
0002
0002
0008
0003
0002
fffe
0000
0000
0006
fffa
0007
fffc
0008
0000
0003
0005
0003
fffd
fffb
fffb
0008
fffa
fffa
fffc
fff5
fff8
fffb
fffc
fffa
ffff
0008
fffa
0002
ffff
0007
0009
fffe
0004
fffc
fffd
fff7
fffe
0006
0003
fffe
0001
fffb
fffc
0001
fffb
0009
fffd
0004
fffe
0000
0001
0003
0002
0008
0007
fffe
fff5
000b
0002
0002
fff8
ffff
fffe
fffd
0004
fff7
fff9
0006
0006
fff8
0000
fffd
0001
0003
0004
0001
fffd
0004
fffd
0002
ffff
0000
fffc
fffc
fff8
0000
fff8
000b
fffd
0001
fffe
000a
fff8
fffc
fff3
0008
0001
fff4
0005
0003
000f
fffe
fffc
0002
0003
0000
0004
0007
0001
fffa
fffd
0009
0003
ffff
0006
ffff
0005
fff7
fffb
fffb
fffd
ffff
0007
0004
fffc
0008
0001
0001
0005
0004
0000
0001
fffd
0000
fffb
0003
fffd
0004
fffc
0002
0005
fffc
ffef
0005
fffc
0001
fffd
fff9
0002
0000
0005
0004
ffff
0002
0004
0001
fffc
fff9
0005
0003
fffc
0007
0000
fff5
fffd
ffff
fffa
fffe
0004
0006
0001
0009
fffd
0005
0005
0000
0000
0001
0004
0008
fffc
0004
0000
0009
000a
0000
0006
0001
0009
fffe
0001
0001
0000
fffd
fffd
0002
fffd
0008
0000
0006
000e
0005
0009
fff8
000b
fffd
0002
0003
0004
0002
fffb
0001
0001
fff9
0004
0004
0002
0002
0003
0009
0002
ffff
fffe
0009
fffb
0004
0002
0001
0001
fffa
fffa
fff9
ffff
0005
0003
0006
000b
0003
fffe
0002
0000
0002
0001
ffff
0003
0002
ffff
ffff
0003
fffb
fffd
0008
0000
0003
fffc
0008
fffb
0006
0003
0008
fffd
fffb
0009
fffa
fffe
fff9
0007
0003
000b
0001
fffb
0009
0005
000a
fffc
0006
fffe
0004
0000
fffe
fffe
0002
ffff
fffb
0003
fff7
fffe
0000
0005
0002
ffff
fffd
fffb
0005
0001
0004
ffff
0000
0001
ffff
0004
0000
0001
0004
0002
0002
fffd
fffb
fffe
0006
0001
fffe
fff8
0001
0003
0003
0000
0003
fffe
0004
fffc
fff8
0004
0000
ffff
0007
0003
fffd
0000
0002
0005
ffff
0006
fffb
0003
0001
0003
ffff
fffb
0002
0001
fffa
0009
fff8
fff9
0002
ffff
0001
fffb
fffd
0003
0010
0005
0004
fffe
0007
0007
0003
fffd
0002
fffc
fffc
fffb
ffff
fffd
fffc
fffc
0007
0003
0001
0006
fff8
0008
0001
fffc
fffd
000e
0001
fffa
0004
0004
0004
0005
0003
0000
0000
fff9
000d
0000
fffd
fffc
ffff
0004
fffc
fffe
fffe
fffd
0001
ffff
0004
0003
0006
0008
fff8
0002
fffb
0001
fff5
0009
0002
fff7
0004
fffc
fffd
0002
fff9
0001
fff9
0000
fffd
fffc
fff9
0002
fffe
0009
fffb
000b
0003
0001
0000
fff4
0002
ffff
0004
0000
0008
fffd
0001
fff9
fffe
0002
fff8
0004
ffff
fffe
0001
0001
0001
0000
0002
0000
fffc
000a
0004
0001
fff3
fffe
fffa
0000
0000
fff8
ffff
fffe
fffb
fffb
0001
0001
0001
0006
0004
fffb
fffa
0003
0000
0000
fffc
0001
0006
0003
fffd
0003
0002
0003
0008
0000
0005
0000
0002
fffc
0000
0008
0002
ffff
0005
0006
fff5
0002
fffe
0000
fff9
0004
0000
0006
fffd
0001
0000
0004
fffd
0004
0001
fffb
0005
0001
0003
0004
0001
ffff
0002
0005
fff7
fffe
0002
0008
0003
0008
0000
0002
fffc
0003
ffff
fffb
0005
fffe
fffd
fffd
0002
0005
0000
fffe
0007
0008
fff4
0009
ffff
0001
0008
0004
fffd
fff8
000a
0001
ffff
0002
fffe
0003
0001
0000
fffe
0002
fffe
fffd
0000
fffc
0006
fffa
fffe
fff8
0002
0002
0008
0007
fffd
fff8
fffe
0005
0002
0005
fffe
fffa
0001
fffa
ffff
0004
0001
fffb
0001
ffff
fffe
0000
fffb
fffe
0005
0004
0005
fffe
fffe
0004
0000
0001
0009
0008
0000
fffa
0005
fff5
0004
0001
ffff
0000
0003
0002
0002
0002
fffb
0004
ffff
0005
000a
fffe
fff9
0005
000b
0005
0002
fffb
0004
0007
fffe
fffc
0005
0003
fffc
0000
0004
0000
fffe
0006
0008
fffd
fffa
ffff
0003
ffff
0000
0000
fffe
0000
fff4
fffc
0003
fffb
fffb
0001
0005
fffd
0005
ffff
0003
0005
0005
0001
ffff
fffc
0004
0004
0003
0002
0008
0001
0000
fffe
ffff
fffa
fffc
0008
0007
0001
0006
fffd
fffa
ffff
fffb
0002
0003
0002
0002
fff8
fffc
0001
fffc
0001
0000
0000
fff9
0002
fff3
0004
ffff
0000
fffb
fffe
fff9
0005
0009
ffff
fffb
fffc
ffff
000c
0009
0001
0003
fff8
0001
fffe
000e
0006
ffff
0003
0005
fffa
0003
0003
0003
0005
0001
0001
0006
fffd
fffb
ffff
0006
fffa
0000
0007
fff7
0000
fffd
0001
0006
0001
0004
fffe
0006
0002
0003
fffd
fffe
fffc
fff6
fffc
0002
fffd
fffa
0007
0000
0001
0002
fff9
fffc
0005
0009
0004
0004
0000
0005
ffff
ffff
fff9
fff5
0000
fffc
fffd
fffc
0007
0003
fffd
0007
fffd
fffe
0009
ffff
fffb
fffb
0006
fffd
ffff
0002
0004
0003
0005
fffb
ffff
0001
0004
fffd
fff9
0004
0000
0000
0007
0001
0005
0005
0003
fff9
0005
0001
0002
ffff
0001
fffa
fff7
0001
0007
ffff
fffc
0001
0009
0003
ffff
fffa
0000
fffe
0001
0001
0004
ffff
0000
fffc
0009
000a
0008
fffa
fffd
0001
0006
0005
fffd
0003
0002
fffc
fffd
0002
fffc
0004
fffe
fffe
fffe
fffc
fffe
ffff
0002
0009
0001
fffe
0007
ffff
0003
fff7
fffa
000b
000b
0003
fffb
fff9
fffb
0005
fff9
0004
fff8
fffb
0003
0000
0007
fff8
0000
fff9
0000
fffb
fff7
ffff
0003
0008
0000
0001
fffd
0005
fff5
0000
0006
fffb
0005
0002
fff9
fffe
fffa
fffa
0009
0005
0009
fffd
0000
0007
fffb
0004
fffd
0002
0003
0001
0000
0000
0009
0001
fffe
0005
fffd
ffff
000a
0000
0004
fffb
fffd
0001
ffff
fffb
0001
0002
0004
ffff
0003
0001
0002
fff6
0005
0000
0002
ffff
fffd
0001
0008
0000
fff6
0006
0004
0002
0001
0004
ffff
0008
0006
0000
0005
0009
fffe
0001
ffff
0003
0004
fffe
0006
0005
0006
0000
ffff
0000
fffe
fffd
fffd
0006
0002
0008
ffff
fffc
fffc
0007
0002
fffd
0002
0003
0003
fffe
fff9
0001
0007
0001
0002
0002
fffe
0000
fffa
fff8
0001
0000
fffe
fffd
fffb
ffff
0002
0000
0004
0005
ffff
0002
0006
0007
0002
fffd
fff8
fff8
ffff
0003
0004
0003
0002
fffd
0001
ffff
fffd
0000
fffb
fffc
000a
0001
0000
0002
0003
ffff
0002
0008
ffff
0001
fffe
0003
0003
0004
fff8
0001
0003
0005
fffb
0001
fffd
0003
fff5
0002
fffe
0004
0000
0002
fffe
0001
0003
fffe
ffff
0003
0002
0008
fffd
fffc
0002
0003
fffd
0003
fffd
0004
ffff
0000
0006
0002
fffd
000c
0000
ffff
0000
ffff
0000
0002
0003
fffb
0001
fffc
0005
fffd
0002
0000
ffff
0000
fffb
0005
0001
0002
0004
0000
0004
0001
0004
fffe
fffd
fffe
0005
fffd
fffb
0005
ffff
0002
0000
0002
0002
0001
0004
fff8
fffe
ffff
0005
0000
0004
ffff
0003
0001
0008
0000
0000
0002
0000
0006
fff9
fffe
0002
fffb
0002
0000
ffff
0005
0006
0003
0005
0003
0004
0006
0001
fff9
0004
fffe
fff9
0000
fffe
0003
0000
ffff
fffe
fffe
fffd
ffff
0006
0004
fffd
fffd
0003
0003
0000
0003
0003
fffe
fffe
fff9
fffa
0001
0000
fffd
0004
0002
0001
0000
fff8
0003
fffe
0000
0000
fffe
0002
fffc
fff5
ffff
0004
ffff
0005
fffd
0000
0000
0004
fffe
0003
0000
fffc
0000
fffd
fffa
fffa
fff7
0000
0000
0001
fffd
fffe
0005
0003
0001
0000
0000
ffff
0005
fffe
fff7
0006
fffe
ffff
0002
fffd
0001
fffc
0003
fffe
fff9
0008
fffd
ffff
ffff
fffa
0003
fffc
0002
fffe
0000
fffe
fffd
0002
fffc
fffc
0000
0000
ffff
ffff
0002
0003
fff9
0005
fffc
fffe
0002
0006
0000
ffff
fffb
ffff
fffc
0005
0003
0005
ffff
0003
fffe
0005
0002
fffe
fffe
ffff
0004
ffff
0002
0000
0002
000a
0008
0002
0006
fff7
fffe
fffd
fff9
0008
0001
0008
fffe
fff9
fff9
0004
0003
0000
0000
fffa
fffe
0003
0004
ffff
0003
fffa
0001
fffe
fffa
0001
0000
0004
0003
fffd
fffb
fffc
fffc
fffd
0008
0002
0004
fffd
fffd
0001
fffd
0005
ffff
fffd
0001
0000
0000
fff7
fffd
0001
fffc
0003
fffe
0003
ffff
0001
0004
0000
fffa
fffe
0001
fffa
0002
0002
fffb
fffc
0007
0003
0007
fffd
fffc
fffe
fffe
fffe
fffb
fffe
000a
0002
fffb
fffb
0002
0005
0002
0001
0006
fffb
fffd
0000
0006
0001
ffff
0000
fffa
0001
0004
0008
0003
fffa
0001
ffff
fffc
0004
0008
0009
fffe
fffa
fffb
ffff
fff7
0003
fffd
0000
0003
0001
0001
fffe
fffe
0001
fffd
ffff
ffff
0003
0001
fffe
fffd
fff7
0002
0001
ffff
0005
fffa
0007
fffb
0003
0000
fffe
fffd
0002
0005
fffd
0001
0000
0003
0001
0005
0006
ffff
0004
0002
fffd
fffc
0000
fffc
0001
0004
0000
fffc
fff7
0001
0001
0005
0002
fff9
fffd
fff9
fffe
0001
fffc
0002
fffc
fff8
0005
0001
0001
0000
0006
0004
fffb
0002
0002
0000
0000
0007
fff9
0003
0005
0004
fff8
fffd
ffff
fff7
0000
0009
0004
0009
fffe
fffe
ffff
fffd
0001
ffff
0001
fffb
fff8
0002
0000
0000
ffff
ffff
fffe
0003
fffa
0000
fffb
000b
fffe
fffd
0007
0001
fff8
ffff
0008
0005
0003
0000
fffe
0003
0004
0004
0004
0004
fffe
0000
fffc
fffe
0003
fffd
0004
fffc
0007
ffff
ffff
ffff
0003
fffd
fff9
0005
fffd
0002
0005
0006
000b
fff7
fff8
fffb
0001
fff5
fffe
0001
0003
0001
fffd
fff7
fffe
fff8
0002
0005
fffb
ffff
ffff
0000
fffd
0004
0001
fffe
ffff
0003
fff5
0006
fff7
0001
ffff
ffff
fff7
fffb
0003
fffb
0001
fffd
0005
0000
0003
fff9
fffd
0005
0003
0008
fffa
0006
fffb
0004
0002
0006
0002
0004
ffff
0003
fffb
0000
fffc
fffc
0007
fffb
fffb
0003
ffff
fffe
fffe
0004
ffff
fffd
fffe
0001
ffff
0002
fffc
0005
0001
fff8
fff9
0001
ffff
0004
ffff
0007
fffe
fffe
fff8
fffe
0003
fffe
fffc
0001
ffff
0004
fffd
0000
0006
0002
0004
0004
0002
0002
fffc
fff7
0004
fffc
0003
0000
fffc
fffd
fffc
fffe
ffff
ffff
fffd
0001
0003
0006
0007
0000
0004
fffe
fffb
ffff
ffff
0001
0003
fffd
0001
fffe
fffd
fffa
0001
0004
0005
ffff
fffe
0003
0000
0002
0002
fff7
fffb
fffd
fffe
0003
fffc
fffe
fffb
0003
fffd
0001
0004
0009
ffff
0009
fffe
fffe
fff3
0005
fffd
fffc
fffc
0002
ffff
0000
0008
0001
0002
0005
0009
fffd
000a
fffb
0003
0008
fffd
0008
fff8
0004
0001
fffc
fff7
0002
ffff
fffb
fffa
fffb
0005
fffc
ffff
0008
0004
0004
fffb
0002
0000
0002
fffd
fffb
0004
0002
0001
0001
fffd
fffe
0001
fff1
0003
ffff
000a
fffc
0000
0003
fff9
0004
ffff
0005
0006
0000
fffb
fffa
0001
0005
0006
000d
0003
fffa
0001
0002
ffff
0006
0004
000b
0000
fffe
0001
fff9
0003
0001
0000
ffff
0004
0004
0009
0001
0005
fffa
fffc
fffe
0003
fffd
0001
fffe
0000
fffb
000a
0004
ffff
ffff
0002
0007
0000
fff9
0001
0000
0000
fffa
0003
0003
0001
0002
fffd
0001
0003
fffb
fffe
ffff
fff2
0002
0003
0002
ffff
0008
0007
0000
0000
fffb
fff9
0001
0004
0002
ffff
0006
0007
fff9
fffc
000b
000c
0005
fff8
fffc
fffc
fffe
ffff
0000
0001
fff8
0002
fffc
0003
fffd
0001
ffff
0000
fffc
0006
0004
0000
ffff
0000
0003
ffff
0001
000b
fffc
fffa
0005
fffa
0008
0005
0005
0004
ffff
fff9
fffe
fffb
000a
0001
fffd
0002
fffd
0000
0006
0002
fffe
000d
0006
0002
fffa
0003
0004
0005
0001
fffe
fffb
ffff
0002
fffd
fffd
fffa
fffc
0006
fff3
000f
fffe
0001
0005
000b
fffc
0007
0000
ffef
0001
fffe
0004
ffff
fffc
0008
0001
fffe
ffff
0006
0000
fffb
0004
fffe
ffff
fffa
ffff
0002
0000
0000
fffb
0005
ffff
fffd
fffd
0002
ffff
fffb
fff9
0007
ffff
0002
fff5
0003
fff6
0001
fffb
0001
0001
0001
0002
0000
fff8
fffd
ffff
fffc
0000
0001
0001
0003
0000
0006
0005
0003
fffe
0003
fff7
0009
fffb
fffb
ffff
0000
fffb
fff9
0005
fff7
0004
0001
ffff
ffff
fff7
fffc
0003
fffa
0001
0008
fff9
fffc
0004
0002
0000
fffc
fffd
0008
0000
0000
0003
fff8
0003
fff6
0001
0003
fff8
000a
0000
fffd
fff8
0004
fffc
fffd
ffff
0002
0000
0004
fffd
fff6
0009
fffc
0001
fff7
fffa
fffa
0005
fffe
0004
0000
fffc
fffe
ffff
fffc
0001
ffff
0001
0005
000c
fffa
fff9
0000
fffc
fff5
0005
fffd
0001
0001
ffff
0002
fffe
0002
0007
0002
0000
0001
ffff
fffe
0005
fffe
0007
fff9
ffff
fff7
0002
0001
0004
fff8
0000
fffe
fffc
fffb
fffe
ffff
0001
000a
fffb
fffe
fff8
fffe
0008
0003
fffd
0003
0004
fffb
fffb
0001
0000
0008
fffe
0003
ffff
0007
fff9
0000
fffc
fffc
0001
000a
fff9
0005
0002
0000
0000
0001
0000
fffd
fffa
fffd
fffa
0001
fffb
0000
fff7
ffff
ffff
fffc
0005
ffff
0005
fffa
ffff
fffd
fff6
0003
0003
ffff
ffff
0001
fff9
fffb
0005
0005
ffff
fffe
fff7
0002
0000
0006
fffd
0005
fffc
0000
ffff
ffff
fffd
0000
fffe
fffe
fffb
0004
0004
0003
fffb
fffe
fffe
0004
0004
fffd
0002
fffa
0003
fffa
000b
0009
0002
ffff
fffe
fffd
0003
fffe
000a
fff5
0000
fffd
fffe
0003
fffe
fffa
0009
0001
0006
0002
fffa
fffe
fff3
0000
0002
0000
fffa
0006
ffff
fffe
0004
0004
0004
fffb
0007
fffe
0001
0003
0002
0002
0001
0001
fffb
0004
fffd
fffb
0008
fffc
fff8
0003
0001
0007
0001
fffd
fff7
fffd
0009
0004
0006
0003
fffe
0003
fffe
0002
0006
fffe
fffc
0005
0001
fffd
fff7
0000
0002
0000
0004
fffd
0000
0001
0004
0001
0001
ffff
0003
ffff
0001
fff8
0002
0001
0006
fffc
0008
fffa
0002
0002
ffff
fffd
0005
0003
0002
0000
0002
fffd
fffb
fffc
fffa
ffff
fffb
fffd
0003
0001
0004
0001
fffe
000b
0002
fffb
0001
0001
0005
fffb
0006
fffe
fffb
0000
0004
ffff
0005
0001
0002
0002
0001
ffff
fffd
fffe
fffb
fffc
0003
fffe
0002
fff5
0003
fff8
fffd
fffa
fff6
fffb
0008
0005
0001
fffa
0000
0000
0004
0006
0005
0000
fffe
0001
0004
0001
0006
fffe
fffd
0008
0003
fffe
fffa
0004
fff7
0000
0003
0000
fffc
000a
0002
0004
ffff
fff8
fffe
0007
fffe
fffb
0003
0008
ffff
fff8
0002
0006
fff7
fffe
fffb
fffc
fffd
0000
fffb
0003
0001
0008
fffc
0006
fffa
0007
0000
ffff
ffff
fffb
fffb
0008
fffa
ffff
0002
fff9
0006
0000
fffc
0007
fffe
0001
fff6
fffc
0007
ffff
000e
000e
0003
fffd
fff5
0008
0001
fff7
0008
0002
fff9
0002
0003
fffb
fffa
000a
0003
0000
0001
0001
ffff
fff6
0002
0005
0001
0002
0003
0006
000a
fffa
0007
0006
fffe
0002
0002
fff5
fffd
0001
fffe
fffd
fffb
fffc
0009
fffd
0001
0000
fff7
0003
0007
fffd
0001
fffa
0006
fffb
0004
fffa
0002
fffe
ffff
0008
0000
0007
0000
0001
fffa
fff7
0001
fffe
0003
fff9
0006
fffc
fff9
0005
fffd
0007
0000
0003
fffe
0003
000f
0000
0000
fffe
0000
0004
ffff
fffd
0003
0002
fffa
0001
0008
fff8
0005
ffff
0000
ffff
fffd
0002
0004
fffb
0005
fff9
0000
0000
0007
fff8
0002
0002
0007
0006
0001
0002
fffa
fffe
0006
0005
0000
0005
fffc
0001
fffa
0005
0004
fffe
0002
ffff
fffe
fffc
0001
0007
0002
0003
0000
ffff
000b
0005
0005
0006
0003
0003
fffc
0002
0001
0000
ffff
fffe
fffb
fffe
0000
0002
0002
0000
0003
fff7
0003
0000
fffd
fffe
fffe
fffd
fff6
fffb
000c
ffff
0005
fffb
0004
0005
0003
0008
0001
fffd
fffe
0006
0002
0000
0006
0007
0002
0006
fffa
ffff
fffe
0000
0001
0001
0000
0001
0002
fffb
fffc
0004
0007
ffff
0007
fff6
0003
fff6
0006
0000
0008
0000
fffc
0004
0003
fff4
fff7
fffd
ffff
0005
ffff
0005
0004
ffff
0001
fffa
fffd
fffd
0007
0006
fffa
0001
fffa
0002
0000
fffd
0001
0004
fffd
fff9
fffd
0001
0001
fffa
ffff
fffe
fffe
000d
fffb
fff8
fffc
0004
fffa
fffe
fffe
fffb
0003
0004
0004
fffe
0001
0001
0002
0003
0001
fff7
fffc
fffc
0004
ffff
0002
fffc
fffa
0000
fffe
fff8
fffb
fff8
0000
ffff
0003
0001
fffe
0007
0000
fffc
0002
0000
0000
fffa
0003
0003
0002
0006
0002
fffe
fffe
0001
0002
fff5
0001
fffd
fffc
fffe
fffc
fffc
fffd
ffff
0005
fffd
0001
0000
0001
0003
0002
fffe
fffe
0002
0004
fffd
fffe
0003
fffb
0001
ffff
0001
fffe
0000
0003
000b
0005
0001
fffb
0009
0003
000a
0001
0005
fff8
fffd
0001
0000
0000
0004
fffa
0001
fffb
0005
0002
0006
fffc
0002
fffd
0005
0007
fff7
0005
0004
0006
fffd
000c
0002
0005
0001
fffa
0002
0000
fffb
0005
fffc
fffd
ffff
fffa
fffc
fffe
fffe
fffb
0000
fff9
0001
000c
fffc
0003
0007
fff9
0001
000c
0008
fffe
fff8
0001
fffb
0000
fffe
0000
fffe
fffe
0001
fffe
0004
ffff
fffa
fffb
0004
fff5
fff8
fff7
fffb
fffc
0000
fffc
0006
0000
fff8
ffff
ffff
fffd
0005
ffff
0002
0003
0003
0006
ffff
0006
fff8
0002
0008
fff6
ffff
0000
fffc
fffa
fff8
0001
fffc
0002
0004
000d
fffb
fffe
fffc
fff2
0000
fffa
fffe
0008
0004
fff6
0006
fffa
0001
0002
0006
0000
ffff
0000
fffe
fffa
ffff
fffd
fffb
ffff
0002
0001
0002
fff7
0005
fffc
0004
fffa
0006
fffa
0003
fff9
0005
0002
0002
fffd
fffc
0006
0004
000a
fff9
0008
0008
0001
0007
0004
0000
0000
fffd
fff7
0002
ffff
0003
0001
ffff
fffa
000a
fffc
0009
0004
0001
0004
0001
0000
fffb
0006
fffd
ffff
fff4
0006
0005
fffb
fffe
fffe
0002
fffe
0004
0001
0000
fffc
0003
0001
0002
0003
0003
0003
000d
0002
0003
fffe
fffc
0007
fffd
0004
0001
fffe
fffc
0005
fffb
fffc
fffd
0006
000d
fffc
fff9
0003
ffff
0000
0002
fffd
0007
fff9
fffd
fffe
0007
0005
fffe
0002
0002
fffd
fff9
ffff
0007
0003
fff7
fff7
ffff
fffe
0001
ffff
fffd
ffff
0002
fff7
0000
0001
0009
0008
0007
fffb
ffff
fffb
0002
0000
0000
0002
fffb
0002
0001
0004
fffc
0004
0001
fffa
0000
fffb
ffff
fffc
0002
0003
0001
0003
000b
0001
0005
fffc
fffd
0005
0004
fffb
0002
fffc
0003
fff5
0000
0002
fffc
fff8
0000
0007
fffe
fffd
fffc
0003
fffc
fffa
fffd
0000
0004
fffd
fffe
0007
000a
0005
fffb
0006
000c
fffe
fffc
fffb
ffff
0008
fffd
ffff
fffd
fffc
0000
0003
fffc
0000
fffa
fffe
0004
0003
0002
ffff
fffa
0009
fffe
0006
ffff
0007
0007
fffb
fffb
000b
fffd
ffff
0001
0003
fffc
ffff
fffc
fff5
ffff
fff9
fffc
ffff
0009
0001
fffe
ffff
fff5
0000
0008
0005
fffc
0001
0000
000b
0005
0002
0006
fffd
ffff
fffa
fff4
0004
0003
0004
fff6
0005
ffff
000c
0000
fffc
0001
0007
0000
fffe
fffa
0004
0006
fff9
0000
fffa
0003
fff9
fff9
0007
fffb
0000
000a
0000
0006
fffc
0004
fffc
0005
0001
0000
fff4
0008
0001
0000
0000
fff8
fffe
0000
0006
0000
fffd
0005
0002
fffd
fffe
fffd
0000
0006
fffb
0007
fffb
0002
ffff
0003
0000
0001
0001
0001
fffe
fffe
0002
0002
fffe
fff9
fffe
0008
fffd
fffc
ffff
ffff
0002
fffe
0003
0000
fffd
fffc
0001
fffc
0000
0008
fffe
fffe
0002
0008
ffff
0006
fffd
fffe
0000
0007
ffff
fffe
ffff
0000
0001
0000
fffe
0001
0004
fffe
0003
fff9
0003
0006
fffe
0001
0007
fff8
0002
fffc
fff7
fff9
0000
fffe
fff7
0002
ffff
0006
fffc
fffe
0003
fff7
0004
000a
0002
fffb
fffd
fffd
0000
0006
0003
0002
fffa
fffe
0002
fff5
fffe
0001
fff9
0002
0007
000a
fff2
fffd
fffc
fffa
0003
0001
fffc
0003
0008
fffe
ffff
0001
000a
0006
0007
fffb
0002
fffb
ffff
0000
0002
0002
0008
fffc
fff9
fffe
fff9
fffc
fffc
0004
0003
0005
0003
0002
ffff
fffa
0001
0001
0005
fffe
0002
fffd
fffd
0007
fffa
fffe
fff7
0001
ffff
fffc
0000
0002
000c
fffe
000c
0004
fffe
fff8
0007
0004
0006
0003
0001
0000
0006
0006
fffd
0006
fffb
0003
fff8
fffe
fffd
fffe
0000
fffc
0002
fff9
0005
ffff
0003
0001
0006
ffff
ffff
fff9
0002
fff8
fffe
0003
0000
fffa
0003
fffd
fff9
0004
0004
fffe
0006
0002
fffb
fffa
fffd
ffff
fffb
fffe
0005
fffa
0000
0003
0002
0000
fffe
fffa
fffc
0000
fffd
0000
fffd
0007
fffe
fffd
ffff
ffff
ffff
fffd
fffb
0000
ffff
0003
ffff
0001
fff9
0004
ffff
0007
0001
0003
fffc
0006
fffc
0002
0001
fffb
0001
fffe
0003
0002
0009
fffc
fffe
fffe
0006
0003
0001
fffe
0000
fffc
fffc
fff4
0004
fff3
fffd
fffd
fffb
fffd
0000
fffb
0002
0006
fffd
fffa
0006
0002
ffff
0000
0004
fffb
0007
0007
0007
0001
0005
0002
0001
0002
fffe
0001
fffe
0000
fff6
fffa
ffff
fff8
000a
fff5
ffff
fffe
ffff
ffff
0003
0003
0004
fffb
0004
0005
0004
0002
fffd
0007
0000
0001
0001
0002
0005
0004
0001
fffc
0003
fffc
fff9
0004
fffe
fffb
0005
0005
0001
0007
0006
0008
0004
fffa
000a
fffe
fffe
0001
fffc
0000
0001
0001
0004
0004
0002
fff8
fff6
fff8
0001
0000
0005
fffa
0000
0000
fffd
ffff
ffff
0000
0004
0005
0004
fffd
fff9
0001
0007
0003
fffe
000c
ffff
0006
fff6
fffc
fffc
0000
0000
0006
0000
fffb
fff6
000b
fff6
0005
0001
0004
fff5
0002
0007
0009
fffd
fffe
0001
0001
fff6
fff9
0001
fffe
0007
fffe
ffff
fff7
0009
fffe
0006
0004
0004
ffff
ffff
ffff
ffff
ffff
fffc
fffd
000b
fffa
0006
0004
0001
0002
0005
0001
fff8
fffb
0001
fff3
fffa
0000
fffb
fffe
000a
fffe
fffd
0002
0007
fffd
0000
fffc
0001
0003
fffd
0003
fffa
ffff
fffd
0002
fffc
fffc
0000
0000
ffff
0009
0000
fffb
fffb
fffb
ffff
fffa
0002
ffff
fffc
fffa
0000
0004
0008
0000
fff4
0003
fff7
fff6
fffc
000b
ffff
000d
0008
0000
fff2
fffe
0000
fffc
fffe
0003
0005
fffb
fff8
0005
fffb
ffff
0005
0001
ffff
0003
0002
fffe
0002
0009
fffa
0002
0008
0001
fffd
ffff
0000
ffff
0000
0000
fffe
fff3
0002
0003
ffff
fffc
0004
fff7
0004
fffd
0002
0002
0003
0008
ffff
0009
0002
ffff
0007
0007
0001
0002
fffc
0008
fffe
fff9
ffff
fffc
0007
0007
0001
0001
ffff
0003
fffb
0002
0003
fff8
0009
0006
0003
fffb
0005
0004
fffc
0001
fffe
fffe
0000
0005
0005
0004
fff8
0005
fffa
fffd
0004
0005
fffb
0000
fff9
ffff
fffe
fffe
fffa
fffd
fffd
0003
0004
fffc
0007
fff6
0008
0004
ffff
0007
fffe
0004
0005
fffb
fffe
fffb
0001
fffd
0000
0001
ffff
fffd
fff9
0000
0002
0002
0008
0000
fffb
fffe
fffe
0009
fff9
0005
0003
ffff
0004
ffff
0002
fffb
fff3
0000
0000
ffff
0000
fffc
0000
0007
0006
0006
0007
0003
fffe
0003
0008
fffb
0002
0008
0005
fffe
0006
ffff
0004
0001
0000
0005
fffd
0005
0004
fffb
0000
fff9
0002
fffb
0006
fffe
0001
fff8
0000
0005
fffe
fffc
0004
0007
0002
0003
0001
0002
0003
0002
0002
0007
fff9
0001
0005
fffa
ffff
ffff
fffb
fffd
ffff
0000
0001
fffd
fffd
0003
fffc
0007
000a
0002
ffff
fffe
0003
fffe
fffe
0003
ffff
fffe
0006
0005
0002
0005
0005
0007
000a
0002
fffe
0002
fffd
0002
fffe
fff9
0001
ffff
ffff
0005
fffc
0005
ffff
0001
fffd
ffff
fffe
0001
0005
0008
fffe
0001
0001
0003
0009
0000
ffff
0000
fff7
fffd
0004
0000
0001
0001
fffb
ffff
fffb
0003
0004
ffff
fffd
0002
0003
0002
fffe
fff9
0001
0004
0001
0002
fffb
0004
ffff
0000
0002
0001
0001
0002
0000
0004
0007
fffa
ffff
ffff
0000
0006
fffd
fffe
0000
0002
fffd
fffd
0001
0001
0004
fffa
0002
fff7
0001
fffc
000a
0004
fff7
ffff
0002
0006
fff9
fffc
0002
0002
fffd
fffe
fffd
0002
fff8
fffe
0001
0000
fff7
0005
fff5
fffb
fffc
0005
0003
fffb
fffb
fffe
0001
0002
0003
0002
000b
0002
0002
ffff
0001
0001
0002
0002
0004
0003
fffc
0000
fffc
0000
0000
fffb
0004
0004
fffb
fffd
ffff
0001
fffd
ffff
fff8
ffff
0000
0000
fffe
ffff
0002
0002
0003
ffff
0007
fffc
0001
fffe
0007
0006
fff8
0003
fffd
fffc
0003
0003
fffa
0001
0001
0001
0003
0001
ffff
0000
0003
0006
0007
fffd
fff7
0003
0006
fffc
0002
0002
ffff
fffd
0003
fffe
fffe
0005
fffb
fffb
ffff
0000
fff6
fffe
fffb
fffc
fffb
ffff
0003
ffff
fffd
ffff
0003
0000
0004
0002
0003
0003
0001
fffd
0002
fffc
fffe
fff8
0001
fff9
0000
ffff
0002
fffc
fffe
0005
fff9
0005
fffa
0003
0002
0002
0003
0004
0001
0009
0006
0009
fffc
fffd
fffb
0005
ffff
0001
fffe
fffb
ffff
0001
ffff
ffff
0003
fffd
fffa
fffe
fffd
fffc
fffd
0001
fffe
fffe
fffb
fffe
0004
0001
fffd
fff8
fffd
fffb
ffff
fffb
0002
fffb
0004
fff9
0002
0002
0003
0000
0009
fffc
fffd
fffe
fffd
0002
0003
fffc
0003
fff7
fffe
0002
fffd
0000
fffc
fffd
0000
ffff
0002
0003
ffff
0007
fff7
0006
fffe
0005
0004
0003
0005
0002
fffc
fffb
ffff
fffe
ffff
0001
ffff
fffa
fff9
0005
0009
fffc
fffd
0000
fffe
0000
fffc
0004
0006
fffe
0000
fff7
0002
0005
fff7
fffe
0002
0003
0003
0001
0002
0004
ffff
0001
fffc
ffff
fffd
0000
0002
0001
0003
0000
0001
0002
0005
fffe
0001
0007
0001
fffa
fffc
0006
0002
0002
fffc
0007
0000
fffc
fff4
0002
0002
fff8
0002
fffd
0002
0009
fffa
0005
fffd
ffff
0005
fffb
0000
0002
0006
fffd
ffff
fffb
0001
ffff
fffe
0002
fff8
fffd
fffb
0002
0003
0003
0007
fffa
0005
0004
0000
0005
0000
fffc
fffe
fff5
fffd
0000
fff9
fffe
fffe
fffc
0007
0000
0000
0008
0003
0000
0004
fffe
fffd
0004
0000
ffff
0002
0000
0004
0003
fffc
ffff
0005
0000
0009
0006
0005
fff9
fffb
fffc
0002
0000
0006
fffe
0002
0001
ffff
fffc
fffd
0007
fff8
fffb
0000
0004
0001
0000
fffd
0005
0006
fffe
0000
000a
0001
0002
ffff
fff6
fffa
fffd
fffe
0006
fffe
0004
fff8
0003
fffe
0001
ffff
0012
fffb
0001
ffff
fffd
0003
0005
fffc
0007
fffa
fffa
0000
0001
0005
0001
0003
ffff
fffd
fff9
fffd
fffc
fffe
fffe
fffa
0004
fffd
0001
fffe
0004
0002
0001
ffff
fffb
0003
ffff
fffe
fffd
fffb
0005
fff9
0002
fffc
0006
fffe
fffb
0003
0001
fffd
ffff
fffe
000a
0002
fff9
fffb
ffef
0008
ffff
ffff
0002
ffff
0005
ffff
fffe
fffc
fffe
fff8
ffff
0003
0004
0006
0000
fffd
fffe
fffe
0002
0001
0000
0003
fffd
fffc
0000
0003
fffa
0001
fffe
fffe
0003
ffff
0006
0002
ffff
0002
0004
0003
fffb
0005
0009
0006
ffff
fffc
0001
fffe
fffc
0003
0006
fff6
fff8
ffff
0002
fffb
fffb
0000
0003
fff0
fffb
fffc
0007
fffc
0002
0009
0002
fffd
0002
0001
fffd
fffd
0000
fffc
ffff
fff9
0001
fffe
fffb
0000
0005
0007
0000
fff9
0002
ffff
0000
0007
fffb
fffe
0004
fff9
0000
fffd
0004
0000
0000
fff4
fffc
0005
fffe
fff5
0006
0005
fff9
fffd
0002
0001
ffff
0002
0003
0003
0003
ffff
fffe
fffc
0002
0004
ffff
0002
0004
0000
0000
0000
0005
fff4
fffd
fffc
0003
fffd
fffa
fffb
0000
0000
fff6
0001
fffb
0000
fffe
0006
0001
0000
0000
fffe
0000
0000
fffb
0006
ffff
fffb
fff9
0000
0005
0002
000a
fffb
fffb
ffff
fffd
0005
fffb
fff7
0001
0003
fffd
0005
ffff
0004
0000
0000
0008
000b
0005
fffd
0003
fffe
fffe
fffb
0005
000b
fffd
0008
fffe
0003
0009
fffe
fff7
fffb
000c
fff8
ffff
fff6
0006
fffe
fffd
0000
0003
0001
fffe
0006
fffd
fffb
0001
fffe
fffa
0000
0005
fff9
0009
fffb
0003
ffff
fff9
fff3
0006
0000
fff7
fff8
0002
0007
0005
0003
0008
fff9
fff4
0009
0001
0004
0003
ffff
0006
0005
fffe
0001
fffe
fffe
0000
0002
fffc
ffff
0000
0003
fffe
fffd
0007
ffff
0000
fffe
0005
0001
fff9
0001
fffb
0004
0008
fffd
0002
fffc
0006
ffff
fffe
0004
fffc
0000
0001
0002
fffb
0004
ffff
0002
0008
fff7
0005
0005
0001
fffa
0003
0001
0005
0003
fffd
fffd
000e
000d
0003
0002
fff8
ffff
0000
0002
0004
fffb
fffa
fff9
0000
0004
0002
0001
0005
0005
0003
0001
fffc
fff8
0000
fff8
ffff
0003
0001
0000
ffff
0006
ffff
0002
fffa
0005
0003
fffe
0001
0000
fffb
0002
0006
fffc
fffb
ffff
0005
0001
0009
ffff
fffc
fffa
fffa
0003
0008
fffa
fffc
fffd
fff8
0009
0001
fff7
0001
0006
0000
0004
fff7
ffff
0008
fffb
fffb
0000
fffe
fffc
0004
fff2
fff7
000a
fffe
fffa
0006
0002
ffff
0001
0002
fffe
fff9
ffff
0002
fffb
fffe
0001
fff6
0000
0000
fffc
0002
fffd
fffb
0002
0002
0000
0001
ffff
ffff
0009
fffe
fffc
ffff
fffa
fffe
0001
000d
0002
0001
fffe
0000
0004
ffff
0005
fff8
0008
fffa
0000
0006
0008
0007
0006
0002
0003
fffb
ffff
fffc
0002
fffe
0005
0001
000c
fffe
fff9
fffb
0001
ffff
fffe
fffe
0002
fffa
0000
0000
fff8
fffa
fffc
ffff
fff9
fffc
0000
0003
0002
ffff
fff5
0000
0002
0008
fffd
fff8
0001
0009
fffd
0001
0007
0001
0003
0009
0005
ffff
0001
0002
ffff
0000
0006
0000
0001
0004
ffee
0003
0003
ffff
fff8
fffb
0005
0006
0002
fff3
fff7
0001
0005
fffa
ffed
0004
0006
0006
0003
fffa
000e
0008
0003
fffb
fffa
0001
0007
0004
0001
ffff
fff9
fffb
fffd
0001
0007
0005
ffff
0001
fff8
0001
fffd
fffe
fffd
0001
fff6
0009
0004
fffb
0001
000f
0005
ffff
0006
0005
fff8
fffc
ffff
fffb
0000
0001
0003
ffff
000d
0001
0000
0003
ffff
fff0
fffe
0003
0004
000a
fffd
0004
ffff
0000
0001
0000
0002
fffb
0006
fffe
0004
fffe
0000
fffe
0008
fffe
fffe
fffa
0006
0001
fffd
fffc
0001
fffc
fff9
fffb
fffc
0001
0002
0006
0000
0009
0001
0006
0003
fffc
fffc
fffc
000b
fffb
0001
0000
ffff
fffe
fffa
0002
0001
fffa
ffff
fffa
fff8
fffc
0002
0008
0000
0000
fffe
fff2
fffe
0002
0001
0000
0000
fffe
fffd
0002
fffa
fffd
0003
ffff
0007
fffe
0000
0003
fffb
0004
0000
0002
fffd
0006
fffc
0003
0005
fffb
0004
0000
fffd
0000
0003
fffa
0002
000f
0004
fffb
fffe
fffb
fffd
0003
fffc
0003
ffff
0005
0007
ffff
fffd
0000
ffff
fffe
0004
0004
fffe
ffff
0001
0008
0008
0000
fff4
0003
0009
ffff
0003
fffb
fff9
0006
ffef
fff6
0009
fffd
0009
0001
0003
fff4
fffe
fff8
0003
0004
fffa
0003
fffe
0001
0000
ffff
fff9
0003
0002
0004
fffe
fffa
0001
fffd
fffa
0006
0004
ffff
0003
fffe
0000
fffc
fffb
0002
0004
ffff
0003
0000
0005
0006
0009
0003
0002
0002
0005
ffff
fffc
0007
0004
fffe
0000
0006
0001
0007
0007
0005
0006
0000
0006
fffb
0005
0003
fffc
fffc
fffd
0000
0002
fff9
fffa
ffff
ffff
fffa
fffa
0004
0007
0003
0002
0007
fffb
000b
ffff
fff7
0001
fff6
0003
0002
0002
ffff
fff3
fffe
0002
ffff
0002
0002
0000
0001
0001
0001
fffa
0002
0004
0001
0000
0003
fff9
0006
fffe
0004
0002
fff9
ffff
0005
ffff
0001
0004
0002
0003
0004
fffc
000c
fff8
fff5
fffd
fffb
fffe
0002
0004
0005
fffb
ffff
0000
0000
ffff
0009
fff9
0000
fff5
fffc
fff8
fff4
0002
fffd
0004
0001
ffff
0003
0005
0008
0001
fff6
fffb
0006
fffb
fffe
0005
fffe
0000
fffd
ffff
0001
0005
fff8
0003
000c
fffc
fff9
fff4
fffd
0000
fffe
fffe
fffa
0002
fffd
ffff
ffff
0004
0000
0004
ffff
fffd
0002
000a
fffd
0007
0003
fff9
0003
fffd
ffff
0003
fffc
0001
fff9
fffd
0006
0000
fffd
ffff
0009
fff6
0002
0007
0002
fffc
fffb
0001
fffc
fff8
fffd
0010
fff6
0007
000c
ffff
fff8
fffd
ffff
fffb
0003
0006
fff8
0005
fffa
0007
ffff
fffd
0005
fffe
0005
0002
fffb
0005
0003
0000
fffd
fffb
0007
fffc
0001
fffd
fffb
0002
0002
ffff
0003
0007
0003
0002
ffff
0009
0001
ffff
0004
fffa
fffd
fffa
0001
0005
0002
0003
fffe
fffd
fffd
fffc
fff9
fff9
fff6
0001
fffd
0008
0000
fff7
0004
fff9
0004
fff8
ffff
0006
fffc
0007
ffff
fffe
0004
0002
fffc
fffa
fffc
0009
0000
ffff
ffff
fffa
fffc
000b
fffe
0005
0000
0000
ffff
0005
ffff
0004
fff9
0005
0003
fff9
0002
fffe
0000
0002
0003
ffff
0001
0008
0002
ffff
fffc
fff3
0004
fffe
0002
000a
fffa
ffff
0002
0003
0002
0000
0006
ffff
0001
fff7
0007
000b
0002
0004
fffd
fff9
0005
0007
fff5
fffe
fffe
0005
0002
0001
0002
0002
fffd
0003
0008
ffff
0004
fffe
fff8
0013
0003
fff8
fffe
0001
0003
fffd
fffb
000c
0002
0008
0006
ffff
0001
0000
0001
0004
fffe
fffe
fff9
ffff
fffc
0003
fffb
fffe
fffa
fffe
fffc
000f
fffc
0002
fffb
fff6
fffd
0003
0005
fff9
fffa
ffff
0001
fffb
0000
ffff
0000
0001
0005
fffc
ffff
ffff
fff8
0000
ffff
0002
fff9
0000
fffe
0003
0000
0001
0000
fffe
0004
0001
0000
ffff
fffd
0001
fffb
fffb
ffff
0001
fffe
0004
ffff
0002
fffc
fffb
fff7
fffb
0002
fffd
0006
0004
fff6
ffff
0002
0003
fff9
fffa
0003
fff6
0002
fffb
fffb
fffd
0004
0000
0006
fffc
fffd
fffd
0000
ffff
fffe
fffe
fffe
fff9
fffd
fffd
fffd
0004
0002
0002
0001
fffd
0004
0000
0005
0005
fffc
0000
0003
0000
fffa
000b
0000
0006
0003
fffb
0006
fffa
0004
0004
0000
0002
fffa
0007
0001
0000
0008
0004
fffa
0001
fff2
0010
0002
0006
0003
fffc
fffe
0005
0001
ffff
fffe
000e
fff9
0001
0003
ffff
ffff
0006
0005
fffe
fffb
0000
fffd
fffd
0003
000c
0000
ffff
fffd
0002
fffb
0002
fffe
fffb
fff5
0000
0004
fffa
0001
fffb
0000
ffff
0007
0000
fff4
0004
fffb
0000
ffff
0001
ffff
fffc
0001
fffd
fffd
0003
fffb
0005
fffd
ffff
0007
fffc
fffe
ffff
0007
0000
0005
fffa
0003
0001
ffff
fff8
0001
fffd
fffc
fffd
fffc
fffa
0003
fffb
fffe
fff7
fffe
fffd
000c
0003
0003
fffd
fffe
fff6
fffe
0007
0009
fffb
fffc
0008
fffa
fffe
fffd
0004
fffd
0001
0002
0007
0001
0001
0004
000b
fffc
0001
fffc
fffe
0009
0002
0000
fffc
ffff
0007
0001
0000
0001
0004
fffe
0004
0006
0003
0000
0000
0001
0004
0002
fff6
0001
fffa
fffe
0005
0001
0001
fffc
fffe
fffb
0003
0001
0000
fffc
fff7
fffe
fffe
fffe
0002
ffff
0000
0001
0001
0000
0001
fffd
fffa
fffe
fff7
0004
ffff
0003
0003
ffff
fffe
fffd
ffff
0002
0005
fffe
fffd
fffb
fff8
0004
0001
0000
fffa
0006
ffff
0006
0000
0002
fffd
0001
fffe
fffb
0006
fffe
fffd
0005
fffc
0002
0003
0001
0002
ffff
0004
fffa
fffe
0000
fffe
0002
0004
fffd
0005
fffd
fffb
fffa
ffff
0002
0000
0001
0009
0005
0002
0000
fff9
0001
0004
fffc
fffe
fffe
0009
fffe
fffc
0000
fffe
0001
0003
0007
fffc
fff9
fffd
0001
0001
fffa
000c
0000
fffc
0002
0009
0002
fffc
0004
fffc
0001
fffb
0001
fffd
0006
0000
0003
0000
0000
0006
ffff
0002
0003
fffb
0000
0001
fffa
0006
fffe
0005
0004
0006
fff8
fffe
fffe
fffd
0000
0000
fffc
fffe
0003
ffff
0002
0003
0004
ffff
fffa
0007
0003
fffb
fffc
0002
0002
fff9
ffff
0000
0008
0005
fffc
fffd
fffd
fff9
0000
0004
ffff