0001
fff9
0003
fffe
0000
ffff
0000
0000
fffd
fffe
fffe
0001
0005
0004
fffe
0000
fffe
fffb
0001
0004
fffd
fffe
0002
ffff
0001
0000
ffff
fff9
fffe
0000
0001
0000
fffe
0000
0003
0002
0002
0000
0001
0003
ffff
0001
0000
0000
0005
0004
0004
fffe
0002
0003
0002
0001
ffff
fffd
fffc
0003
ffff
fffe
fffe
ffff
0000
0002
fffe
0002