fff5
0001
0001
0003
fffd
fffb
0000
0003
0009
fff5
fffd
0002
fff8
0003
0002
0002
fff6
0000
0001
fffa
000a
0006
fffd
0003
0001
ffff
fffd
0001
0005
ffff
fff4
0007
fffc
ffff
0003
000c
0006
0000
fff9
fff8
fffb
0004
fffc
0001
0003
fff9
fffa
0005
0001
0010
fffc
0004
fffa
0004
fffe
0004
0007
0000
0006
fff9
0000
ffff
000c
0008
0006
fffd
fffc
fff7
0000
0004
000b
0002
0001
0007
0004
ffff
0003
000a
fffe
fffd
0004
0000
fffb
000d
fffd
fffc
0001
fff3
fffc
0004
fff5
fffa
000a
000b
ffff
fff9
0002
fffd
0004
0003
0002
fff4
fffe
fff6
0007
0005
0005
fffe
fff6
000b
0006
ffff
fffe
fff6
fffd
0007
fffb
fff8
0009
fff9
fffe
fff9
0003
0003
fffc
fffb
000c
fffc
0002
fff7
fffd
fffc
fff9
000b
0001
000e
0004
0007
fffa
0004
0001
0009
0008
0011
0001
0001
0006
0004
fff1
0001
0003
0004
fff6
fffd
0003
fff9
0002
0008
fffb
fffe
0006
0007
0007
fff6
0005
fff4
0006
0001
fffb
fff5
0006
fffb
fff3
fffd
fff9
0003
0003
fffe
0004
fff6
fffd
fffa
0000
0008
fff6
0002
0001
fff9
000b
0006
0002
0004
0004
0005
fffe
0003
ffed
0007
0007
fff7
0003
0002
fffa
0010
ffff
0009
fffd
000d
0002
fffb
0000
0009
0005
fff8
0003
fffe
fff6
0001
fff6
fffc
fffb
000b
0005
fffd
fffd
000b
0009
0000
ffff
0002
fff9
0005
0002
000e
fff9
fffd
0002
fff5
0003
fffe
fffb
0000
ffff
0002
fffe
fffd
0005
000c
0001
fffc
ffff
fffe
0003
000b
fff8
fff7
000e
fff7
0004
fff9
fffd
000a
000a
0001
0001
fffa
fffb
0007
0006
0002
ffff
0006
0003
000a
fff9
fffc
0002
0000
0003
0009
fffa
fffc
fffb
fff9
0009
ffff
0003
0006
0002
0011
000a
0005
ffff
fff4
fffc
0007
0002
0002
ffff
fffb
fffd
fffb
fffe
0002
fff5
fffa
0003
0004
0006
fffc
0004
fffa
ffff
0001
0000
0005
0004
ffff
ffff
000d
0011
0000
fff5
ffff
fff8
0002
fffc
0003
fff5
0002
fff8
0006
0003
fff7
0007
0008
0001
fffc
0004
fffd
0001
fffd
0004
000f
0002
ffff
fffa
0003
ffff
fffa
fffe
0000
ffef
000f
fffd
0001
ffee
0000
0008
0003
fff7
0008
ffff
fffb
0000
0001
fffd
fff9
fffc
fff9
0011
fffc
fffe
fff6
0002
0009
fffc
0006
fffd
000d
fffe
fffa
0008
0005
fff8
0003
fffb
000c
fffc
000c
fffb
0008
000a
0003
ffe6
0004
0003
fff1
000e
0008
fff6
0007
fffd
fffd
fffb
fff4
000a
fff9
fff3
0003
fff8
0006
fffd
0007
0000
ffff
fffa
000d
0009
0002
0000
fff9
0006
0008
fff0
0000
fffa
fffd
fff9
0003
fff6
0005
000b
fffc
000b
0000
ffff
0004
0004
ffef
ffea
ffff
0004
0008
fff5
0001
0001
0000
fff6
fffb
0007
0000
0001
0005
0001
fffc
0004
000e
fffe
000a
0009
fffd
0008
fff5
ffff
0001
0009
0004
000d
fffa
0006
0005
0006
0005
0001
0001
0008
fffa
0007
000d
fff5
fffb
fffd
fffc
fff8
fffc
fffd
0000
fffd
fffc
ffff
fff5
ffff
fff8
000d
fffb
0001
000d
ffff
0005
0001
0005
fffd
fffb
ffee
fffc
0005
0001
fffc
0015
fff6
0001
fffc
ffff
fffe
0007
0007
fffc
fff9
fffb
fff9
fffd
ffee
fffd
0002
0008
0007
fff4
fffc
0005
fffa
fffa
fff3
000b
0007
000b
fff6
0009
fff8
0004
0005
fff8
0001
0000
fff6
fffc
0003
0009
000e
ffff
ffff
000a
fffd
0002
0001
fff9
0003
fffd
ffff
fff9
fffc
0006
000a
0008
0007
fffb
0000
ffe6
fffb
000a
fffa
000e
0004
0005
fffb
0004
ffff
0000
000a
fffb
fff8
fffd
0005
0000
0008
0002
fffe
0004
0000
0005
0001
0007
ffff
ffff
fffa
0001
0006
fffb
000e
fffd
fffc
ffff
fffd
fffb
fffb
fffa
ffff
0002
0002
0007
0005
fff9
fffd
fff7
0008
fff8
000b
ffff
0004
fffb
ffff
0009
fffa
fff8
ffff
ffff
fffb
fffc
fff9
fffb
000b
ffff
fff9
fffa
fffb
0001
fffe
0005
ffff
0004
0005
fffe
0007
0006
fffb
0002
0000
ffff
fffb
000a
fff6
0003
0002
fffa
0004
000d
fffa
fffc
fffe
fffa
0001
ffff
fffc
0009
ffff
0005
0000
fffd
0001
ffff
fff6
0003
ffff
0003
fff9
0000
0004
0002
0002
fff7
fffc
000c
0008
fffc
0000
0002
fff5
fff8
0005
fff9
fffe
0009
0006
0008
0001
0000
0000
0002
fffa
fffd
0004
0006
0005
0005
0003
fff5
fff7
0006
fffa
0001
0001
fffe
0000
0002
0002
0001
fffc
0005
0005
0005
fffd
fff5
fff4
fff9
0004
0002
fffe
fff9
ffed
0009
0002
0005
0003
fff6
ffff
0001
0003
fffd
000c
0003
0004
ffff
fff7
0000
000a
fffe
0005
fffd
fff8
fffb
fffb
ffff
0008
fffd
0008
0007
fffe
ffff
0003
0000
fff5
0007
0003
0001
fffc
0000
0007
fffa
fffe
fffd
ffff
ffff
fffb
fffd
fff6
fff8
000e
0005
0003
0000
000c
ffff
0001
0006
fffa
fff9
0003
fff3
0003
fff8
000d
0004
0001
0001
000f
0007
0001
0004
fffd
fffc
fff8
0004
0004
000b
fffe
fffa
0003
fff6
fffd
0000
ffff
0000
0009
ffea
0003
fff5
ffff
0001
0005
0010
fffc
0007
0008
fff0
0002
0002
fffb
fff9
0003
fffe
ffff
0005
0008
0007
fffe
ffff
fff0
fffc
0001
0000
0001
fffa
fff8
0004
fffc
0003
0000
fffa
fffd
0001
0003
fffd
fffb
0004
fffe
ffff
0001
000e
ffff
0005
0001
0000
0001
fffa
0006
fffe
0007
fffa
fff8
ffef
fffe
0000
fffa
fffa
fffd
ffff
0000
0003
0001
0005
0000
fff8
0006
fffb
fffc
0006
0002
fff9
0003
ffff
0000
fff9
fffb
0008
000e
0016
0008
0007
fffe
fffd
fffa
fffd
0009
0001
0001
fffb
fffb
000b
fffe
0006
0006
0008
fff5
fffa
ffff
fff0
0008
fffc
0009
0001
0007
0005
0000
ffff
fffb
000c
fff9
ffff
0004
fffb
fffb
fffb
0005
0001
fffe
fffd
fffb
fff8
0000
fffa
fff2
0000
0001
000c
0002
fff9
fffc
0006
fffe
0001
fffd
fffb
fffa
fffd
0004
0001
0006
000e
fff7
fffd
0001
0006
0001
0008
ffff
0002
0011
fff5
0004
fffa
fff8
000a
fffa
fff4
0007
0003
fff9
fffc
0004
0001
0000
fffb
000a
ffff
fff5
fffa
0005
0005
0008
0008
0001
0005
0005
000e
0005
fffc
0003
0000
fff4
000e
ffff
fff8
ffff
0004
ffff
fffb
fffc
0004
0003
0001
fffc
0001
0000
0000
000a
0003
ffff
fffc
fffe
fffd
fff9
fff6
0006
fffb
0000
0004
fffb
fffe
fff8
fff9
000a
000b
0000
0002
0004
fffe
000b
0005
fff9
ffff
0004
0004
fffe
0003
fffc
0000
fffb
fff9
0004
0007
0005
0001
0007
000a
fffd
fffd
0003
fff8
0007
fffa
ffff
0003
000b
0005
0004
0002
0003
fffa
ffff
fffe
0003
0007
fff8
fff5
fffa
0007
fff6
fffe
0002
fff9
fffb
0000
0004
0009
0004
0007
0004
0002
fffb
000d
fffc
fffe
fff5
0001
fffd
0003
000c
fff5
fff4
0003
000a
0008
0005
fff7
0001
0006
fffc
0006
fff8
fffe
0007
0004
fffc
0008
0006
ffff
fff7
000a
0000
0001
fffe
0005
0007
fff4
fffd
fffe
0008
0004
fffa
000a
0000
0001
0004
fffa
0007
0006
0001
0008
fff9
000a
fff9
fffa
fff7
fff8
fff4
0004
fffe
fff5
0001
fffe
fffc
fffe
fff5
fff7
fff2
0004
0007
fff9
fff8
fff7
0004
0004
fffe
fffd
0003
fffc
0006
0005
fffe
0011
0002
0015
fff8
fffe
000a
fffb
ffff
fffb
0004
0002
0002
0000
0006
0009
fff9
0000
0002
fff4
fffc
fffa
0002
0005
ffff
0002
0003
fffe
fff8
0005
0001
fffd
ffff
0009
000a
000a
0005
0001
0006
0007
0003
0004
fff9
0007
fffb
fffc
000a
ffff
0001
0001
fffb
fffd
0003
000f
0009
0001
fffa
000c
fff6
0006
fffa
ffff
fff2
0003
fff8
0009
ffff
fff9
fff5
0003
fffd
fffb
fff6
0005
fffd
0005
0009
fffe
fffd
fffb
fffd
0009
0000
0001
0009
0004
0003
0005
fff9
0000
0007
0000
fff6
0006
0009
0001
0004
fffc
fff7
000c
0005
fffc
fff4
000a
ffff
0003
0004
000a
fffe
fffe
0004
fffa
fffd
fffd
fffc
0004
ffff
0007
fff5
fffd
fffe
0008
fff9
fffc
fffe
0003
0013
0004
000d
0001
0001
000d
fffd
0000
0003
fffb
fff9
fffc
fffc
000b
fffe
0009
0002
0003
fffe
fffe
fffd
ffff
0001
fff3
fffd
000b
ffff
0005
0007
0001
0009
fffd
fff5
fffa
fff0
fffb
0009
ffee
0001
fff7
0004
fffd
0003
fff7
fffc
0000
fff8
fff2
ffff
0000
0000
000b
0009
0002
0008
0001
fffc
ffff
0004
fff3
fffa
0001
000c
fff7
fff6
ffff
0007
fffc
0001
fffe
fffc
0007
0002
000a
ffff
0009
fffd
0001
0001
fff9
fff2
ffff
ffff
fffc
0003
fffb
fffe
fffd
0004
0003
fffc
0000
fff7
0003
0000
fff2
fff9
ffff
fff9
fffe
0006
0006
0005
fffa
fffc
0002
fffe
0001
ffff
0007
fffe
0004
fffd
0001
000a
0008
000b
0001
0006
0002
0000
0002
fffe
0000
0003
0001
0001
0003
fff8
0005
0000
fff2
fffc
0005
fffd
000f
0003
fffd
0001
0009
0008
0000
fffe
fff6
000a
fffc
0006
fffc
0002
ffff
0001
0007
fffc
0000
fff2
fffd
0007
0002
fffa
fffd
fff5
fffb
0002
fffc
0003
fff9
fff9
000e
fff7
ffea
fffd
0003
0003
0003
0006
0002
fffa
fff8
fffb
0001
fffc
0007
000a
fffe
ffff
fffc
fffc
0009
fffe
fffc
0002
fff1
fff7
fff5
ffff
0001
0002
0005
0008
fffa
0004
fffe
ffff
0003
0002
0006
fff2
0006
0008
fffe
0001
0009
fff8
0007
fff6
fffe
0001
000c
000c
fff6
0004
fffc
0004
0005
0003
ffff
0002
fffd
0003
fffa
fffa
0008
0009
0001
0007
0000
fff3
0008
fff1
0009
0004
0001
0000
fffe
0001
ffff
0003
fffb
0003
0001
0000
0001
000c
fffd
fffb
0002
fffd
0006
0000
fffe
fff9
ffff
0002
fffd
fffe
000a
fffe
0004
fffa
0006
0000
0000
0005
0002
fffa
fff9
ffff
0001
fffa
0001
fffb
fff2
fffc
fffe
fffe
0002
0007
fff0
0000
ffff
fffd
ffff
fffb
0009
0004
fffe
fffa
0007
0008
0000
0009
0000
0007
0008
000d
fffc
fffb
fffb
ffff
fff7
0001
0007
fffb
0006
fffe
000c
000d
0001
0003
0000
fffb
fffb
fffd
0000
0007
fff6
0000
0000
0003
fffc
0006
0001
000a
0001
0004
0001
ffff
0003
0007
0005
fffe
fff6
fff7
0000
ffff
0000
fff0
0001
fffd
000b
0000
0000
0000
0004
0009
fffd
fffa
fffa
fff9
0002
fff9
fffd
fffb
0001
0006
0003
0000
fff7
fffc
0004
0003
fff7
fffb
0002
fffe
fffe
0009
0009
fffc
0005
0003
fff5
0006
0007
000c
0002
fffc
fffb
fff9
0001
fffa
0007
fffd
fffd
fffb
0007
0005
0000
fff7
0004
000a
0005
0001
fff7
0009
0005
000e
fffd
fff7
0006
fff7
fffb
0000
fff3
000b
0009
0001
0000
0004
fffe
fffe
fff9
fffe
0000
0007
fffe
0002
fff8
fffc
0009
0001
fffe
0003
fffb
fffa
fff9
fffe
0008
0006
0006
fffe
fffc
fffe
0002
0001
0009
fffd
0001
0007
0009
fffd
fff5
fff9
fffd
fffd
ffff
0000
0006
fff7
ffff
000b
0001
fff9
0009
fffe
fffe
0000
0000
0004
fffc
000b
0010
ffff
fff3
fffd
0001
fff2
0000
0004
fff6
fff5
ffff
0003
fff9
0002
fffd
0003
ffff
000a
0007
0002
0002
ffff
0005
fffc
fff8
fff4
0000
0007
0002
fffd
0000
fffd
0005
fffd
0006
fffa
000a
0003
0005
fff8
fffd
ffff
0012
0003
0004
0000
fffc
fffd
0000
fff5
0000
fffc
fffc
ffff
ffee
0009
fffb
fff9
000a
fff9
ffff
fff9
0001
0001
000c
fffd
0000
0002
0003
fff8
0005
000e
0003
fffb
fffa
000a
ffff
fff4
fff8
0003
0000
0004
000f
fffe
0003
000e
0001
0000
fff8
0001
fffc
fffe
fff3
0000
fff5
ffff
fffe
fffe
000a
fff8
fffe
fffe
0003
fffa
fff9
000b
fffc
0014
000f
fffe
fffe
0002
fff9
fffe
0000
fffd
ffff
0007
fffc
fffb
0009
fff8
0006
fffe
000e
fff9
0007
ffff
0003
0002
fff9
fffe
fffe
0000
0003
0001
fff3
fff4
0001
fffa
0008
fff9
fffa
0005
000a
0001
000c
0002
0006
0004
fff4
0008
0005
000e
0005
fffc
ffff
fffc
ffff
0003
fffc
fff4
0005
0003
0004
0004
fffe
000a
0010
fffc
fffb
fffd
0008
fffe
fffc
ffff
fff6
0008
000a
0005
fffa
ffff
0001
0003
0000
fffe
fffd
0001
ffff
fffa
0001
0007
fffb
0003
0008
fffa
fff8
fffd
0002
0002
fff4
ffff
0001
ffff
0006
fffb
fffd
0003
0002
0002
fffc
0001
0002
0004
0007
fffe
0000
fffb
fff7
fffd
0000
0000
fff5
0005
0007
fff6
fffa
0001
0008
0005
0000
fffb
0003
ffff
fffd
0005
fffa
fff3
0002
fff1
000d
0000
0002
fff8
fffb
fff9
0002
0004
0001
0004
0005
fffc
0000
0002
0005
ffff
0002
0003
fff8
fff1
fffe
0008
0006
0003
ffff
0000
000b
0001
fffa
0002
000f
ffff
0001
fffe
fffa
fff4
0008
0005
0003
fffc
fff8
0006
0001
0000
fffe
fff5
ffff
fffb
fffc
0009
0001
fff4
fffe
0002
fff7
fffe
0001
0001
fff3
000f
fffb
fff9
0000
fff7
0005
fffc
0007
0007
0000
000b
000c
0007
fffa
0005
fff9
fffb
0001
fff9
fff1
fffb
000a
0006
0005
0008
0003
fffb
0002
fffc
fffd
fff9
ffff
0000
000b
fffd
fffe
fffe
0000
0005
fffa
fffb
0008
fffb
000b
ffff
0005
0009
fffb
0000
000e
fffa
fffd
fffb
000f
0002
fffa
fffe
0000
fffa
0006
fffb
fffb
fffc
0002
fffc
0008
0006
0000
fffe
fff9
0000
fffb
0006
0001
0003
0002
0007
fffc
fffc
fffb
fffb
0006
fffa
0004
fff8
0000
0003
000f
0000
0001
ffff
fff9
0000
fffb
fffe
0004
fff7
0002
fff9
0001
fffc
0005
000b
000a
0006
fff7
0010
fff5
0004
fffc
000b
fffb
0005
fff9
0008
0003
fffc
000a
0000
0007
fffa
fff5
0000
0007
fffc
fff6
fffd
0007
0010
0004
0004
0009
fffd
0003
0005
fffb
fffe
fffc
fffb
fff6
ffff
fffe
0009
fff7
fffd
fffd
0001
fffb
0001
0009
0007
fff1
fff4
000a
fffa
0007
0000
0001
fffe
000b
0000
0003
000a
fffd
fff7
000c
000b
fffc
fffb
0000
0009
0004
fffe
0005
fffb
fffa
0000
0004
fffc
0002
fff8
0001
fffb
0006
0008
0004
0000
fffe
fffb
0003
0008
fffa
0001
fff8
fff9
fffa
0002
fffc
fffc
0000
0007
0001
fffb
ffff
fff9
0007
0000
fffe
0002
0002
0002
fffb
0005
0001
0000
fffd
0001
fff8
0004
0001
0001
0008
fffa
fffe
0005
0003
fff8
0006
fffd
0003
0005
0005
ffff
ffff
fff8
fff9
fffc
fff9
fffd
000b
0000
fffe
fff5
fffd
0005
fffb
0000
0001
0002
000a
fff6
fff8
0001
0002
0000
ffff
0002
0009
fffe
0005
fffa
fffb
0005
fff9
0006
fffd
0004
0007
0001
000b
fff4
0007
000a
000a
fffd
0006
000a
fffe
fff9
0008
fffe
ffff
fff3
fff7
ffff
0007
fffe
ffff
0005
fff7
0004
0010
fffe
0006
fffd
fffb
0006
000c
fff6
fffa
fffe
fffe
fffc
0002
0007
0000
fff7
ffff
0005
000b
0001
fff8
fff6
0004
0004
fffb
fffb
fffd
fffc
fff8
fffc
fffd
ffff
0002
0005
0000
0005
0006
0001
0000
000d
0008
0006
0003
fffb
fffe
fffe
0006
fffc
0000
fffe
0005
0000
fffb
fffd
fffb
0002
0001
0009
fffd
0005
fff8
0002
000a
fffd
0004
0005
fffb
0004
fffe
0009
fffd
0006
fffb
ffff
000a
fffb
fff4
0008
0004
0000
ffff
0004
fff9
fffe
ffff
fff7
0011
fffe
ffff
fffb
0002
000a
0003
0005
0005
fffc
fffc
fffc
0002
0003
fffa
ffff
0001
fffe
0005
fff3
0011
0005
0008
fffd
0004
000a
0004
000d
0003
fff1
0009
0001
0007
fff4
0002
fff6
0005
0003
0008
fffc
fff0
ffff
fffd
0003
fff7
0001
0002
fff8
0004
0004
fff9
fffe
fffd
fffa
fffa
fff7
fffb
0007
0000
0009
ffff
0006
fff7
fff9
0001
fff8
0013
0006
0005
0007
0009
0001
fff9
0008
0008
fffe
0002
fffd
000c
fffd
000b
fff5
0005
0002
0007
0002
fff7
0008
000c
0008
fff7
fffa
fffa
fff2
ffff
fffe
0001
0007
0001
fff7
0000
0001
0003
0004
fff6
0008
0003
fffa
ffff
fffe
0002
fff7
fffc
fffd
0002
fff6
0001
0005
fffe
fff8
fff8
fff8
fffb
fff5
fff5
0003
fffe
0002
ffff
fffe
0001
0002
0008
0004
fff9
0001
0000
0001
0005
0000
000c
0001
fff1
0003
0008
fffe
fffc
0000
fffe
ffff
0000
0001
fffe
0009
fff9
0002
fffe
ffff
0001
0002
0003
ffff
0001
fffc
000c
0000
0000
ffff
ffff
0004
000a
fff4
0012
0009
fff8
fff6
0001
fffc
0002
0002
fffd
0013
fffd
0004
fffc
fff5
fffc
fffb
0010
0001
0000
fffe
0006
0002
0009
fffe
0001
0009
0000
fffe
fffc
fff7
000b
fff4
000a
000a
0004
000d
fffe
fffe
0000
fffd
ffff
0002
fffb
fff6
0004
0005
fffa
fff4
fff6
0006
0001
0007
0001
0000
fff4
0002
fff8
0005
ffff
000d
fff8
0002
fffd
000b
fff8
fffe
fffd
fffa
0006
fffb
0006
0003
0000
fff8
fffc
0008
0005
fffd
fffe
0007
000b
0008
0004
fffd
0001
fffd
0006
0009
fff0
fffe
0003
fff5
ffff
0002
fff3
000a
0004
fffc
0001
0001
0003
fff3
fffa
0000
ffff
0004
0004
000f
fff5
0007
0001
fff4
fff8
fffe
fffc
0006
fff3
fff5
ffe9
0005
ffff
0003
ffff
0006
0000
0008
fff6
fffd
0003
0003
fff5
fffa
fff7
0009
fffd
0003
0007
0001
0004
fff8
0000
0000
0007
fffd
ffff
fffd
ffff
0003
0008
fff6
0007
fffb
000a
fff7
0001
fffd
fffe
fff2
0004
fffa
fff7
fffa
0001
0000
000a
fff6
fffa
0003
fffb
ffff
ffff
0000
000b
fffe
000a
0001
000a
0001
fffe
fff9
0000
0002
0004
000b
fff8
fff2
0001
fff8
0002
000c
fff9
0005
fff1
fff8
0007
0000
0002
fffe
fffd
fffd
fff7
0008
0003
0005
0009
fff6
fff5
fffb
0003
ffff
0003
fffa
fffb
0001
0002
000c
fffa
ffff
0001
0004
0007
fff8
ffff
0001
0001
ffff
ffff
fffe
ffff
0000
0007
ffff
fff7
0002
0001
fffd
fffd
fffa
0008
0006
fffd
0001
fffe
0004
0000
000b
fff3
fff7
ffff
0000
0003
0006
fff8
0007
ffff
fff6
fffc
0009
0007
fffa
0001
0000
fff3
0009
0004
0003
ffff
fffd
fff9
0003
0008
0000
0006
0004
fffc
fffc
0003
fff7
0009
0004
fff5
0001
ffff
0006
0005
0007
0005
fff6
0008
0004
fffa
0006
000f
0002
0005
000c
0001
0007
fff8
000c
0005
ffff
ffff
0007
fff3
fffd
fff8
0001
fff4
fff1
0005
ffff
fff8
fff8
000b
fffa
fff3
000c
fff9
ffff
0000
fff9
ffff
fffc
0002
0005
0003
fffc
0001
fffa
0005
fffb
000f
0001
fffa
fffa
0002
ffff
0003
0005
0008
ffed
0005
0001
0006
0004
0000
fff8
fffe
0008
ffff
0002
0004
000a
fff4
0005
000e
fffd
fffb
fffa
0000
fffc
fff8
0005
000b
0002
000b
0006
fffd
fffe
fff4
ffff
0000
0005
fff9
0008
0004
fffa
fff6
0006
0007
0008
0004
ffff
0004
0001
fff9
fffd
fff0
0005
0002
ffff
fff9
0002
0002
0008
0007
0000
0000
fffa
fffa
0004
fffd
000b
0005
fff9
0002
fffb
ffff
000b
fff6
fff2
fffa
0003
0005
fffb
000a
0004
0001
fff5
0000
0008
0002
fffb
ffff
0002
0008
fffe
0000
000a
fffc
0009
0002
fffc
0007
fff8
0001
0001
0003
000d
fffd
fff2
0001
fff5
fff9
0003
0002
0007
fffd
0007
ffff
fffc
0007
fff6
fff7
0003
fffa
0000
0009
0001
0000
0004
ffff
0005
0009
0003
fffa
0004
fffe
fffb
ffff
fffd
000c
fffb
0008
ffff
0013
fffb
fffe
ffff
0007
0008
fff6
fff1
0004
0008
fffa
0001
0003
0001
fffd
0006
fff5
fff2
0004
000f
0000
0001
fff8
fff7
0003
fffa
fffc
fffe
0007
0008
0009
fff7
fffd
fffb
0010
fffa
fffd
0000
0004
fff7
fffc
fffd
0006
0002
0008
0001
fff5
fffa
0006
0001
000a
0005
0002
0007
0002
0001
0002
fff7
ffff
fffc
0004
fffd
0006
fff9
fffc
0003
ffff
0008
fffb
0004
fffe
fff9
fffc
0009
fff9
fffe
0004
fff1
fffe
fffb
0000
0002
0004
ffef
000a
fffe
ffff
0008
fffe
0007
ffff
0003
0006
0006
fffe
0000
fffb
ffff
0003
fffb
000c
0007
ffff
ffff
fff5
0009
fffb
0004
0002
fff8
0000
ffff
ffef
fff5
0000
0001
0002
fffe
fffc
fffb
fff9
fffc
0001
0012
0009
0008
0007
fff1
0005
fffd
ffec
fffe
fffa
fff9
0003
000c
0007
fffe
000d
0003
0006
0000
000c
fffc
ffff
0000
0001
0008
0003
0006
fffd
fff3
0001
fff5
0002
0005
0004
0000
fffc
0002
0007
0005
0003
0000
fff6
fff8
fffd
ffff
0006
0003
fff7
0009
0004
ffff
000a
fffc
0009
fff4
fffe
0000
0005
fffe
0002
fffe
0006
0007
0007
0004
0001
0002
fffa
fffb
fff8
0008
fffa
fffd
fffc
0007
fffa
fff8
fffe
fffc
fffd
0003
fffe
fff4
fffa
ffff
fffe
fffd
fffe
0007
0004
fff8
0007
fffa
fffa
fffa
0002
fffb
000a
0000
fff7
0005
fff3
0001
0001
0000
0001
fffe
0005
fff7
000b
0001
0008
0001
0010
000c
0011
000c
0006
fff9
fffe
fff8
0003
000c
ffff
0005
0001
0002
fffe
0007
fff8
fff9
fffc
fff6
0005
fffd
0005
fff9
0009
0008
fffd
fffc
fffd
fff9
fffa
fff4
fff2
0005
fffd
fffd
000b
fffb
fff6
fff7
fffd
fff8
0001
fff6
fffc
0009
0001
000d
0011
0005
0004
fff9
fffb
0012
0000
fff6
fff8
0008
0002
fffb
fffc
ffff
0006
0000
0009
0002
000a
fff2
0008
fffb
0003
0000
0010
fffc
ffff
fff8
0000
0002
0003
0007
0010
0001
0001
ffff
0005
0002
ffff
000b
fff8
0004
fffc
ffff
0001
fff5
0000
0008
0000
000a
0002
0005
fffd
fffc
fff6
0000
0003
fff9
0007
fffd
0004
fffa
0001
fffa
000f
0002
fff2
fffe
fff5
fffd
0005
ffff
fff7
0001
fffc
fff6
fffa
0006
0004
000b
fffd
0002
0005
0002
0005
000d
0003
0004
0002
000d
fffe
fffb
0005
fff9
0000
0005
fffd
0000
0000
fffe
0006
0004
fff5
0006
fffd
0005
fffd
0003
ffff
fff5
0001
0012
ffff
fffb
fffb
fff7
fffe
fff9
ffff
fff8
0001
0008
0002
0006
000a
fffd
fffd
fffc
0003
fff4
0004
0007
0001
fffe
0001
fff1
fffc
0003
fff3
ffee
fffd
0011
0005
fff9
0005
0005
fffd
0000
0003
fffe
fffe
fffc
fffd
0000
0007
0004
0003
0003
0007
fffc
0000
0000
000d
0000
fffd
0005
0009
fffa
ffff
0001
fff9
0001
fffc
0002
0003
fffe
0005
0007
fffc
ffff
0009
fffc
fffb
fff6
fff5
0000
0003
0001
0003
fffc
0008
0001
fffb
000b
0004
fff8
0003
fffe
0002
fffd
fffc
0002
0006
ffec
fffe
fffc
fff9
fff4
0001
fffd
0003
fffc
0000
fff9
fffb
ffec
000f
fff4
0005
fffa
fffe
fffb
0004
0002
0002
0002
0000
0007
fffb
fffe
0004
0008
0006
fffa
0005
fffb
0008
fffe
fff9
0001
fffd
fff9
000c
fff3
fff5
0007
0008
0004
fffb
0001
0002
fffe
fffd
fff9
ffff
0004
0006
0003
0006
0001
fff3
fffb
0008
0000
ffff
0005
0001
0004
000b
0003
0009
fffe
fffb
0007
fff4
fffe
fffe
0001
0008
fffc
fff9
0002
fff6
fffe
0000
fffc
ffff
0000
fffc
fff3
0000
fffd
fffc
fffe
0007
0005
0009
0001
0001
0005
fffb
0007
ffff
fffc
fff7
fffe
0000
0003
ffff
0005
0003
0008
000b
fffe
0003
fff7
0001
0000
fff9
0002
0002
0009
0000
0003
fff9
0005
0005
0006
ffff
fffd
fffc
fffd
0006
0002
ffff
0000
0006
0011
fff9
ffee
fffe
fff7
0006
ffff
0002
0007
0007
0002
fffd
0002
0000
fffc
fff3
0007
0001
fff5
0004
0004
0007
0002
0006
0002
0006
fffa
0004
fffb
0007
fff6
0004
0007
0009
fffa
000a
fffd
fffc
ffff
ffff
fff7
fffb
0001
0009
fff4
fffb
ffff
0002
0002
0007
fffa
fff9
0007
0005
fffd
000b
0000
fff4
0004
fffd
0002
0000
fff9
fff3
fffd
fff9
0003
fff5
0001
0006
fffc
fffc
0005
fffa
fffe
0006
0003
0004
fff9
fffe
fff6
fffc
fff9
fffd
0001
fff9
0001
0010
fffd
0001
0008
0007
000e
0004
0005
0001
fff4
fff8
0004
fffa
0006
fffe
fff6
0004
fffa
fff7
000f
0000
fff5
fff8
0000
fff9
000a
0001
0001
0006
0001
fffd
000e
0000
ffff
fff7
fff3
000e
0006
fffd
fffd
0006
0004
fffc
0005
0001
fffd
fff6
0006
0001
fff4
0006
0002
ffff
0001
0003
0002
0007
0000
0008
fff8
0018
fffa
fffb
fffd
0002
0000
0002
fffa
0005
000c
fff5
0010
0004
fff4
000d
fff9
0007
0009
0006
000a
fffd
fff9
000c
fffc
fffa
fffa
fffb
0001
fff9
fff7
0008
fff7
0004
fff6
0008
fffe
000b
0003
0001
fff9
0003
fff4
fff4
0006
fffc
0002
fffd
0000
fffa
fffa
fffc
0002
000a
0001
0001
fff7
0003
0002
0001
0010
fffa
0008
000f
0005
fff6
fffd
0007
0008
0005
0004
0006
fffb
ffff
fffa
0001
fffd
fff2
fff9
0006
0005
0007
0004
0007
fffa
0006
000e
fffd
fff8
fffa
fff9
0005
0006
0004
fffb
0002
0001
ffef
0005
ffff
fff9
fff9
ffff
fffc
fff6
0005
0003
0000
0008
fffd
fff3
0004
fffd
fffa
0003
0007
fff9
0002
fffb
0003
fff8
0007
0004
0000
ffff
fffe
fff5
fff6
0007
fffb
0001
000d
0008
fffc
0007
fffb
fffd
0007
fff5
fff8
0006
0001
ffff
fffb
0004
0006
0001
0000
fffe
fffa
0003
000c
000d
fffb
0001
0002
fffd
fffe
fff3
0000
0004
0004
0003
fff1
fffa
fffc
0009
0001
fffd
fffd
fff9
0007
000c
0009
000b
0002
fffd
0002
fffa
0002
fff9
fffc
0005
fff9
0004
fffb
ffff
fffe
0011
0007
fffb
fffe
0001
fffd
ffff
ffff
ffff
0002
0001
0002
0004
ffff
000a
0000
fffc
0001
fffc
0000
0000
0007
0006
fff1
0007
fffa
fff7
fffa
0001
0000
fffb
fffa
0004
0000
0007
fff9
fff7
fff9
0000
0005
000a
0001
fff8
0001
fffb
0002
0000
fffe
fffa
0004
0000
000d
ffed
fffb
0002
0001
000a
0009
fff7
fff7
fff8
0007
fffd
0000
0007
0005
0002
0005
fffa
000b
000a
0006
0002
fffb
fff5
0009
fffb
fff8
0003
fffc
0005
0000
fffc
000a
0001
fffd
0005
fffc
0007
0002
fff7
0008
0007
0007
fff8
fffa
fffb
fffc
fff9
ffeb
0004
fff9
0002
0008
ffff
fffd
0000
fffb
0007
0000
000f
0006
fff7
0005
fffb
fff7
fffa
0001
fffd
fffe
fffc
0008
0003
fff9
fff9
fff8
0002
0000
0005
0009
0001
fff8
fffc
0012
fffe
fffd
fffe
fff7
0006
0002
fffe
fff8
0000
fffd
000b
0003
0003
fffe
fff9
fffa
0004
000b
0002
0007
fffc
fff5
0002
0005
fffb
000c
000b
0005
fffd
fffe
fff7
0005
0007
0003
ffec
0003
0004
0002
0002
0002
0004
0007
0009
0001
0005
0001
0001
0004
fffa
0004
fff8
0007
fffe
000c
fffa
0008
fff6
0003
fff5
fffb
000b
000a
0002
0000
0008
0001
fffa
fffc
0006
fffc
0001
fffd
000c
ffff
fffe
fff7
fff9
fffc
fffd
0006
0004
fffc
fff3
0005
fffd
fffe
0006
0003
0004
0007
ffff
0000
fffa
fffe
0008
0004
fff8
0000
fffc
fffb
ffff
fffb
fffe
0003
fffb
ffed
fffd
000b
0000
0009
fff7
ffff
fff8
0006
0008
000a
0006
0001
ffff
fffd
fff8
0005
fffd
0003
000b
fffd
fff5
fff7
0000
fffb
0000
0006
fffe
0007
000d
0001
fff8
0003
0001
0000
fffa
0002
0000
0003
0002
fff8
0006
0001
ffff
0005
0000
0007
ffff
0002
0007
fffb
fffa
fffd
0000
fffd
fffc
fff6
fff9
0001
fff9
000e
fffc
fff7
0000
0005
000a
0003
0001
0005
0003
fff9
ffee
fffb
0007
ffff
ffeb
000b
0002
000c
0007
0002
0003
000c
000b
0005
0007
fffa
fffc
0005
ffe9
ffff
0003
000e
fff8
0011
0001
fff7
0007
fff3
0003
0008
fffd
ffff
fff9
0000
fffd
fffd
fff5
000d
ffe8
fffd
0002
ffff
0004
fff5
0007
0000
fffe
fffe
000d
fffc
ffff
0005
0004
fff0
fffb
fff6
fffa
0008
fff5
0019
fffa
000b
fff6
fff2
0001
0001
0002
0005
0005
0007
0004
0000
fff8
0000
0001
fff8
0006
0000
fff4
000c
ffff
0002
0003
fffc
0001
0003
0005
0006
0005
000e
0004
ffff
fff6
0000
0005
ffff
0002
0001
0000
0007
0001
fff2
fffd
0001
fffb
0001
fffd
0001
fffd
0002
fffa
0002
fffa
000a
0001
fffd
fffb
fffb
ffff
0002
0004
fffb
fff6
0015
fffd
fffa
fffe
0004
fff7
0002
ffff
fffc
0003
fffd
000c
fffc
fff7
0008
0005
0009
0004
000e
0003
0002
fffd
fff9
0003
fff9
fffa
fffa
fffc
0004
0003
ffff
0005
0002
ffff
fff5
fffa
0002
fffe
0001
000b
fffd
000b
fff6
fffe
0003
0001
ffff
fffe
0001
0003
0004
0002
fff9
fffa
fffc
fff8
ffff
0009
fffa
0003
0002
fff7
fffe
0009
fffe
000d
000a
fff3
0001
fff8
0001
fffc
0000
0001
fff4
fff8
0005
0005
0001
fff6
ffff
000c
0006
0007
0005
0006
0001
fffe
0000
fff7
fff8
0000
0001
0006
fffe
fffa
0004
0001
0002
fffe
fffb
0001
ffff
ffff
0002
0004
0007
fffe
fff8
fffd
fffc
0002
fffc
fff6
0005
fff9
0008
fff9
0004
0002
0006
fffe
000a
fffc
0003
0007
ffff
fff7
fffe
0004
0009
fff1
0009
fffb
0002
fff4
fffe
0000
fff8
fff8
fffd
fffd
fffe
fff9
fffb
000d
fff7
0002
fffc
fffa
0001
0005
0011
000a
0003
fffc
0008
ffff
000a
0009
ffff
0008
fffc
0002
0001
0003
0006
ffed
0002
ffff
000a
fff7
ffef
0005
0003
fffd
0006
0002
0007
fffe
fffd
fffe
fffa
0001
fff6
0000
fffe
fff9
0001
fffe
0001
0006
fffe
000d
ffff
0008
0001
fffd
0003
fff5
0008
fffb
fffd
ffff
fffc
0004
fffc
fffe
0005
0002
0004
000a
0005
ffff
0005
0006
ffff
fffc
0005
0004
fff9
0008
0007
fff2
0002
fffc
fffe
fffe
000c
0005
fffe
fffd
0007
fffd
fff4
fff6
0004
fffc
fffb
fff3
0000
fffd
0001
fff6
0008
0002
fff5
0002
0003
0007
fff5
0003
0004
000b
fffd
0004
fff6
fffb
0000
0001
0009
fff6
ffff
fffe
000f
fff9
fff5
fff3
fffe
000b
0007
0000
0004
fffd
0000
0000
fff7
0008
fffa
0003
fffd
000b
0009
fffd
0004
0002
0001
ffff
0002
ffff
0004
fff8
0007
fffa
0008
000d
fff3
fffb
0004
fff4
fff6
0000
0005
fffd
fffa
000a
000c
fff3
fffa
0001
0001
fff1
fff7
0004
fffb
fffa
0008
fff4
0003
0009
0019
0002
fff9
0000
0004
fffa
fffa
fff6
0000
0003
0000
ffed
fffd
fff6
0019
0001
000d
fffc
0012
0000
fff5
0002
0004
fffc
ffff
0000
0008
fffb
000c
ffff
fff5
fff6
fffe
fff8
fff3
0003
0008
fff2
fff8
fff9
0006
fff6
0003
fff6
ffff
0000
0001
0004
fffa
0002
0004
fffb
0002
fffe
0005
000f
0006
000b
fffe
0002
fffe
0000
0004
0006
0003
fff5
0005
0005
ffff
fff8
fffb
0004
fff9
fffb
fffd
fffe
0003
0003
0003
fffd
0009
0002
0003
0002
fffa
ffff
fffc
fff5
0006
0004
fff6
0001
fff9
fffe
0011
ffff
0003
0005
0006
0004
fffd
0006
fffc
0008
fffb
0001
0001
fffa
0004
0002
0006
ffff
fff2
fff9
fff3
fff7
0002
0006
0004
fffa
fffe
0005
000c
fffc
fffe
0003
0007
fff4
0000
0001
0001
0005
0003
fff3
fffc
fff5
0003
000a
fffd
0003
fff6
0007
0001
0002
fffe
fffd
fff7
000b
0000
fffc
0007
0005
fff5
0002
0003
0003
0009
fff8
fff7
0005
0000
0008
fff9
000b
0005
fffc
fffb
0008
fff4
fffd
0003
0001
fffe
0001
fffe
fffb
fff7
0002
fff5
fff9
0003
0004
fffa
0001
fffb
fff7
0009
0001
fffc
0007
0003
fffb
fffc
0003
fff7
fffb
fffe
fff9
0001
0001
fffb
0013
0002
fff8
0005
000e
0005
0004
fffb
0006
fff6
fff2
0004
0004
0008
fff8
0007
fffd
fffb
fffc
000b
0008
fffb
fff9
000c
000b
0009
fff9
0003
0003
fff6
fff8
ffff
fffc
0002
0007
fff5
fff5
ffff
fff9
ffff
0005
0004
0000
fff9
fff8
ffff
ffff
fffd
0007
fff9
0000
fffc
fff7
0000
000b
000b
000b
fffe
fffd
0005
fffc
fffd
0004
0005
fff9
0009
0003
000c
0007
fffd
ffff
fff9
fffb
0006
ffff
0000
0000
0004
0007
0005
0006
fffb
0000
0007
ffff
ffff
000a
fffc
0003
0007
0003
fffc
0000
0007
fff9
fffc
fffd
fff6
0005
fff2
0006
fffb
fffc
0001
0001
0006
0002
fffa
fffa
0005
0001
0001
fff9
0000
fff8
0004
0004
fff8
fff9
fff5
0008
0000
0005
fff7
0002
fffa
0006
0006
0000
0007
0003
0006
fff8
0005
0002
0002
0001
0000
fffd
fffd
0003
fff8
0005
0000
fff6
0001
fffc
0005
fff9
fffb
0002
0006
fff5
ffff
0007
fff4
0005
fff9
fff8
ffff
0012
0003
000c
0007
fffc
0000
fff6
0001
fff5
fff4
0000
000b
0007
0001
0007
0004
ffff
0005
0003
0008
fffd
fff3
0007
fffa
fffb
0001
0003
000b
fffd
fffe
0008
0007
0007
0009
0007
0000
ffff
0003
fffb
fffd
ffff
0006
0000
fff8
fff9
0000
fffe
fffd
ffff
fffb
0006
0003
fff5
000d
0003
fffe
0000
0001
0002
0003
ffff
fffc
0002
0009
ffff
fff7
fff9
0004
000f
0004
fffc
000c
fff7
fff9
0006
0003
0003
fffe
fff4
000c
fffe
fffc
0000
0005
0004
fffc
fffe
fff5
fffc
0003
0001
fff9
0008
0001
fffa
000a
0004
0003
0005
0001
0001
0005
0004
ffff
0010
0006
fff8
fff9
fffc
0007
0004
fff9
ffff
ffff
ffff
fffb
fff6
0003
fffd
fffa
fff9
0003
0001
0009
0004
0004
fffa
0005
0001
0007
fffd
fffc
ffff
fffb
000b
000e
0000
fff7
0000
fffc
0003
fffd
fff9
0002
fffe
000e
fff9
fffb
fffe
0003
fff5
000b
fffc
0004
fffe
000c
0003
fffc
0001
fff7
0001
0000
ffff
0005
0003
0002
ffff
0002
0003
fffb
0003
fffe
0003
0005
fffb
fffd
fffe
0002
0007
0003
fffc
ffff
0008
fffa
0002
0002
fffd
0003
fffe
fffe
fffd
fff8
fffa
0001
ffff
0000
0000
0003
0007
fff9
fff8
0004
ffff
fffd
fff9
fffb
0000
fffd
0006
fffb
fffd
fff5
0001
fffd
0005
ffff
0004
0006
0009
ffee
0001
0003
0008
fffc
0006
fff9
fff7
fffe
0000
0002
0002
000b
ffff
fff9
000f
fffd
0002
0003
fffe
000e
fffd
fff4
0005
0003
0008
0007
0004
0006
fff6
fff9
0011
fff4
ffff
fffb
fffe
ffff
0003
0000
0006
0002
0007
0005
0009
fffc
fffc
0003
fffc
0005
0003
fff6
ffff
0007
0004
0007
ffff
0002
fffa
fffb
0001
0006
0003
fffd
fffb
ffff
0004
0005
0007
0005
0008
fffd
ffff
0003
fff5
0004
0000
000a
ffff
fffe
0005
fffb
0004
ffff
fffd
0004
ffff
0000
0002
0002
fffd
fff8
fffc
0002
000c
fff2
0000
fffc
fff5
0005
0002
fffe
0006
0002
0007
fffa
fffe
ffff
000e
0001
fffc
fff5
0000
fff6
0002
0003
0000
fffc
fff9
ffff
fffe
0007
0005
0002
0005
fffa
0004
0003
0005
0006
fffd
0003
000d
fffb
fff2
fff8
fffa
0004
fff7
0002
000f
000a
0001
fffe
ffff
0003
0004
fffb
fffd
fff5
fffd
0004
fff6
0001
0001
fffc
fffe
fffb
0004
0007
0002
fff9
0006
fffa
fff9
0002
0001
0005
fff9
0004
0000
ffff
fffd
fff9
fffe
000c
fffe
fff8
0000
0001
0000
fffc
fffe
000a
0000
fffb
0003
0009
fffe
0010
0000
fffe
fff9
fffa
fff8
0017
0000
0003
000a
0003
fff6
fffd
fff3
000b
fff8
fffe
0007
0007
0000
fffd
000d
fff4
fff9
000a
fff4
0006
fffe
0008
000f
fff9
0000
000b
fff5
0001
0005
000d
fff5
fffe
0001
0001
fff9
0006
fff8
fff6
000b
0005
0003
fff2
0004
fffa
fff9
0007
0000
fff9
0002
ffff
fffb
fff7
fffc
0009
fffe
0001
fff8
0008
0006
fff6
ffff
0002
0004
0000
0001
0005
0002
0007
0007
fffd
fff4
0007
fff8
0002
0001
fffc
fffb
000c
0004
fff9
0001
fff5
fffa
fff3
fff5
fffa
0000
fffb
0004
000f
0007
fffb
fff9
fffc
fff5
0001
000a
fff1
ffff
fff1
0004
0003
0007
0009
0009
0000
fffb
fff6
fffc
0009
ffff
0007
0000
000a
0007
0007
fffe
0002
fffa
fffa
0003
0000
fff3
000a
0004
fffb
fffa
0007
fffb
fff8
0003
fffb
fff8
fffd
ffff
0000
0007
0003
0002
fffb
fff9
fffb
0004
0000
0000
fffe
0001
fffe
fff9
0001
0004
000a
0008
fffb
000b
0002
0003
0000
0009
fffe
fff5
0003
fffc
fffc
fffd
0003
0000
fffa
0007
0000
ffff
0008
0001
0000
0005
000b
0002
fffc
0008
fff8
ffff
fffc
fffc
fffd
fffe
fff0
fffb
0000
fffa
0006
0003
ffff
0005
0002
0002
fff8
0002
fffd
0001
0005
fffb
ffff
fff9
0001
fffc
fff6
ffff
fff5
fffa
0008
0009
0002
fffe
000a
0005
0001
0000
0000
0008
fffe
0000
fffe
fffc
fffe
fffd
fffe
fff6
0002
fffa
0003
fffe
fff9
0007
fff9
fff8
0004
0003
ffff
0004
fff3
0007
000f
000a
fff6
0009
0002
0006
0008
fff6
0001
0005
fff8
0004
0002
fffc
0004
fffb
fffa
0005
fff9
0006
fffe
0009
000a
fff6
0004
000b
0005
0000
fffd
ffff
0007
0002
0006
ffff
0004
fffa
0001
0009
fffe
fff7
0003
000f
000d
0002
fffc
ffff
fff4
ffff
0003
0004
fffa
0004
fffd
fffe
0006
fffb
fff4
0002
0001
0003
fff7
fffc
fffb
fff4
000b
0000
fffe
fff3
0004
0001
fff3
fffd
000e
fffe
fff5
0004
0001
0008
0001
0004
ffff
0004
0000
fffd
0002
000a
fffa
fffe
fffa
0001
fff9
0007
0006
ffff
000b
fff0
0004
0003
ffff
fff8
0002
fff2
0002
ffff
fffa
0001
0004
fff5
0005
0004
0005
ffff
fffe
0000
ffff
0002
0000
fffa
fffd
0014
000d
000b
0000
fffc
fffd
fff9
fff7
ffff
fffe
0000
fff0
fffe
0004
0008
0006
fff4
fff7
fff6
000d
0002
fffb
0003
fff9
fff9
0001
ffff
fffa
0001
0006
0000
0006
0002
0000
0000
fffd
0004
fffa
fffb
fffe
0001
fffc
0002
ffff
0018
0006
0002
fff9
0003
fffa
fffc
0006
fffc
0004
fffe
fffd
0009
0008
0003
fffd
fffd
fff7
0001
fffa
ffff
fffd
0000
0000
fffd
0004
fffe
0003
0000
0000
fffc
0004
fffe
ffff
0007
fff5
0002
fffd
fff8
ffff
fffe
0001
fffb
000b
fffa
ffff
000a
0000
fffa
ffff
ffff
000f
ffff
fff0
0003
000a
fff6
fff8
0001
fffc
fff9
0003
fffd
0005
0000
000a
fffd
0004
fffe
000d
0001
0000
fff8
0011
fff9
fffc
fffe
fffd
fffe
0008
fff9
fff8
0009
0001
fffd
fffb
fffd
0006
fffb
fff5
0000
0000
ffff
fffc
0008
0004
fff8
0000
fffb
fff3
fffb
ffff
fffd
000e
0011
0008
fffd
fffa
0004
000d
0007
0007
fffc
0000
fffe
000b
000b
fffe
000d
000b
fffc
0001
0003
fffb
fffd
ffff
fff8
fffd
fffc
0003
0003
ffff
0007
ffff
ffff
ffff
fffe
fff9
0002
fffa
fffd
0004
0002
fffc
fff8
fff6
ffff
0001
fffd
0007
fff9
fff7
fff3
fffd
0006
0000
fff7
fffb
0008
fffe
ffff
0005
ffff
0001
000d
ffee
fff8
0000
fff6
0003
0001
0003
ffff
0000
0004
0007
0008
fffe
fff9
fffd
0000
000d
0003
fff7
0002
0000
0003
fffe
0001
fffb
0005
ffff
fffc
0007
fff7
0003
fffa
fffe
fff9
0002
0011
000b
0003
000d
0001
fff1
0009
fffd
fffc
fffb
fffc
0008
000e
fff5
0007
fff7
fffa
0005
ffff
fff9
fff4
fff6
fffb
0000
0001
fffa
fffd
0002
0004
fff9
ffff
0005
fff1
0003
0003
0009
fff6
000a
0001
fffc
0004
000b
ffef
0005
0015
0008
0002
000f
0003
fffd
fffb
0001
0000
fff7
0003
0003
fffe
0004
fffa
0003
fffa
0001
0009
0005
fffc
fffb
fff9
0002
0006
0004
0009
fff7
0000
fffd
fff8
fffe
fffb
fffc
fffa
fffd
fffb
fff5
0004
0006
fff5
fff5
0005
000b
fffd
0001
fffc
0000
0001
0002
0001
fff9
0003
fffd
0007
0000
fff7
0008
000b
fffa
fffa
0003
fff9
ffff
0003
fff7
0011
ffff
000b
0004
fff7
fffe
fff6
fff8
fffb
0005
fffc
fff7
fffa
fffd
0000
000d
0005
0005
fff6
0004
0008
0007
0003
0009
0004
fff2
fff3
0005
fff4
fffd
ffff
0001
0003
0005
fffe
fffd
fffb
0007
0005
000a
ffff
fff3
0001
0009
000f
fffc
0006
fff9
fff7
fffe
000e
0004
0007
0007
000f
0003
fff6
fffd
0004
0006
fffb
0000
0003
fff8
fff5
0002
fffa
0002
fff4
fff9
fff6
0014
fffa
fffe
0008
0003
fff6
fffd
fff8
0009
fff7
0002
0004
0002
fffc
0000
0000
fffe
fffe
0007
fff9
0005
0009
0003
0001
fffc
fff5
0008
fffe
fffa
0006
0007
0000
0001
0000
fff3
fff4
0009
ffff
fff0
fff0
000b
0001
0006
0004
ffff
fffb
0004
0005
0004
fffe
0003
0000
fffc
fff3
0006
fff7
fffd
000e
fff8
fffc
fff9
0002
000b
fffb
0005
0004
000b
fff5
fff2
0000
0006
0003
0006
fffe
000c
fffd
fffe
0003
ffef
0004
fff9
0001
0003
fff8
fffd
0004
0006
fffd
fff6
0000
0002
0002
0003
0003
0003
ffff
0001
fffe
0004
ffef
0001
fffc
fffd
0006
fffb
0016
fffe
000c
fffc
0000
0007
0007
fffb
fff9
0006
0005
fff7
0002
0006
fffd
0007
fffd
0004
fffc
fff6
ffff
0009
0005
0002
0002
0004
fff9
fffa
fff7
fffc
0001
0000
0003
0002
fff9
fffe
0001
fffc
fffd
000d
fff7
0003
0003
fffa
0003
0000
0000
0004
0002
fffc
fff2
0007
0006
ffff
fff5
0004
0008
0002
0000
0001
0009
0007
0002
ffed
0002
fffc
0003
0002
ffff
0002
fff7
0003
fffc
0000
0004
ffff
fffb
fffa
0006
0005
0005
0004
fff9
fffc
fffb
0000
0006
0001
0007
0000
fffd
fff9
fffd
fffc
0006
0004
0009
fffc
0005
000b
0003
fffa
0005
fffd
000b
0006
0008
fff9
fffc
fffc
0009
0009
000b
ffec
ffff
0000
0002
0008
fff8
0003
fff9
fffe
0006
fffa
000a
0002
0007
fff9
0003
fff5
0002
fff5
0002
0004
fffc
fff9
ffff
0007
fffc
fff1
0004
fffa
fff7
fffe
fffd
0005
fffe
fffd
fff9
0018
0000
0008
0009
0000
fffd
fff4
fffd
000b
fffb
fffb
0006
0009
fffe
0003
fffc
fff8
0004
fff7
0001
0006
fffb
fff8
0008
0000
fffe
0005
0000
fffa
fffb
000e
0009
0005
fff4
fff5
0003
0005
0003
fffc
fffd
0009
fffb
fffe
0006
0007
fff4
fff4
0005
fffc
0006
0007
0001
000d
0006
0003
0006
0009
ffff
0001
fffa
000b
0001
ffff
fff9
0000
fff9
0000
0009
0003
fff8
0002
0004
fffc
ffff
fffa
0005
0006
fff9
fffc
fffe
fffb
fffe
fffb
fffd
0006
0000
fffd
000d
0000
fffb
fffa
fffb
0001
0001
fffd
0002
ffff
0001
fffc
000b
fffb
fffe
0004
fff8
0002
0002
fffa
0004
0007
000a
fffe
0005
fffe
ffff
ffff
fffe
fffe
fff7
0000
fff4
0005
0002
fff4
fffe
0006
000f
fff4
000a
fffe
0004
0003
0000
0006
ffff
0008
0004
fffe
fff8
0000
0001
fffd
0001
fff7
fffd
0001
fffe
fff9
0005
fffb
fffd
fffe
0004
fffd
0001
fff9
0002
0000
fffb
000b
0017
fff3
0000
0007
000b
0002
0000
fff9
0008
0005
0002
0008
0000
0002
0000
fffd
0004
ffff
fffe
fffc
0000
0006
fff8
ffff
0003
0005
fffb
fff9
0009
fffc
fff6
fffc
fffe
0008
0005
0001
0007
0000
0003
fff5
000f
fffa
0005
fffb
fff5
0001
000b
0000
fff0
0007
fff8
fffb
fffd
000a
0004
fff3
fff9
fff4
0001
ffff
fff2
0002
0007
0003
000c
fff4
0005
0003
0008
0006
fff6
fffa
0008
fffd
fffa
0010
0009
000e
fffe
fff8
0002
000e
fffc
fffe
fffd
fffb
0003
0004
fff9
0008
0006
fffe
fff9
fff9
fff7
0006
0000
ffff
0003
ffff
fff4
0000
fffe
0008
0005
fff8
0006
0003
0002
ffff
0003
0002
0008
0001
fffc
0000
fffc
ffe9
000c
fffd
ffff
0000
0001
fffa
0007
ffff
0005
000b
0002
000b
ffff
0006
0013
ffff
fff7
0000
fff7
ffff
ffff
0000
0003
fffe
fff5
0002
0004
fff4
fffc
000a
fffc
0003
000c
0012
0001
0004
0000
ffff
0002
0005
fffe
000d
ffff
0007
fffd
0003
fffd
fffb
0005
0005
0008
0005
000a
fffe
fffe
0006
fffe
fffd
fff8
0003
fffd
fffb
fffd
0008
0006
fff7
fff3
0002
0002
fffe
fffa
fff9
0003
fff4
0001
fffd
0004
0000
fffe
fffe
ffff
fffd
0000
fff5
0008
0003
0001
0002
fffe
0000
fff6
0005
fffe
ffff
000e
0000
fffd
fffd
fffd
fff5
0003
0001
fff2
0011
0004
fffd
0003
0003
fffe
0006
0006
ffff
0003
0004
fffa
0000
000a
fffc
0002
fffd
0005
fff7
000d
0007
0002
0002
fffe
fff9
fffe
000c
ffff
0001
fffa
0005
fff7
fff0
fff9
fffc
0009
0001
ffff
fff9
0001
0008
fff8
fffd
0006
000d
ffff
0002
0007
0001
000e
0003
fffa
0003
fffe
0009
0001
ffff
fffc
fff5
fffe
0002
fff9
ffef
000a
000d
000a
000a
ffff
fffe
0004
fff6
fffc
fffd
fff9
fffc
fffc
fffe
fff5
fffc
fffa
0005
fff8
fffd
0003
fff7
fffd
fffa
0002
fff6
000a
0002
0000
0002
0005
0009
0002
fffe
0000
000b
000b
fffc
0000
fffc
0001
0010
fff1
0002
000c
fff9
fff6
0008
ffff
0006
fffe
fffc
fff9
0010
0003
0006
fffc
0001
fffe
fff9
fffa
0000
0005
000c
0005
fffc
fffc
fff0
fff8
fffc
0000
fffb
0003
0006
0004
000c
ffff
fffb
0003
0003
fffc
fff7
0003
fffa
0012
0009
fffd
0007
fffc
fff9
fffb
0002
0005
fff8
0006
ffff
0005
fffc
fff9
fffd
000a
0005
0004
fffc
fffa
0006
000a
0000
0004
fff8
fffa
fffb
0003
0008
0006
fffd
fffc
0004
000a
fffb
fffe
fffa
ffff
0003
fff9
fffe
fffd
0010
0006
0005
fffa
fffd
ffff
0000
fffa
fff8
fffc
000f
0000
ffff
0003
ffff
0009
0004
0005
fffc
fff9
fffe
0000
fffb
fffc
0001
0008
fff6
fff9
fffb
fffc
ffff
fffa
fffc
fffe
ffff
fffe
0008
ffed
0003
fff7
fffa
0012
000d
0003
0003
000c
000f
fff9
0008
000a
fffd
0008
0004
fff2
0002
fffd
ffff
0003
0007
fffc
ffff
fffe
fffb
fffa
fffa
fff8
fff5
0002
0001
0001
fffd
fffc
000a
0005
fffa
0000
fff6
0002
0008
000a
0004
fffd
000a
ffed
0004
0006
0002
0007
0002
0001
0000
fffc
0001
fffe
fffd
fffe
fffd
0000
fffe
000c
fffe
0005
000c
fffb
0005
0006
0000
fff4
0005
fffc
0003
0000
0002
0004
0001
fff9
0001
fff7
0003
0000
fff9
fff9
fffc
ffff
fffb
fff4
fff8
0004
fffe
fffe
fffb
000d
0003
fffd
ffff
fffa
000b
0003
0004
fffb
0001
fff8
fffd
fff4
0005
000e
0001
fffc
0006
fff5
0003
fffa
0004
0008
000e
ffe8
fffd
0005
0005
000a
0001
000a
0004
0000
fffa
ffff
000a
fff4
0001
0008
ffff
fff5
0002
0005
fffc
fff7
fffd
000b
0000
0009
0001
0006
0002
0005
000c
000b
fffd
fffc
fff1
fffd
000f
fffb
fff8
000a
ffff
fff8
fff7
fffe
fffa
fffe
fff8
fffd
0009
0001
0005
fff9
0001
fff8
000d
000a
fffe
0000
0001
fffe
0002
fffd
fff8
fffd
000f
ffff
fffe
0003
fffd
000e
fffa
0008
fffb
ffff
0001
0005
0005
fff9
fffc
0007
0004
fffc
fff4
0002
fff8
0002
fffb
fff9
0000
0007
0005
fff9
0002
000e
0003
0012
fffe
fffb
0005
0000
0006
0003
ffef
0006
000b
0004
0003
fff0
0001
fffe
fff9
0006
0002
0006
0006
0002
fff5
fffd
fffc
0004
0002
fff7
0009
fffe
fffb
0000
0002
fffa
0003
0005
0006
fffd
fffe
000b
fff6
fffc
0006
0000
fff8
fffd
0001
fffd
0000
0000
0002
fffc
fff9
0004
0003
0004
fffc
0002
0001
000b
0000
0000
fffe
0002
0002
0002
0006
0000
fffc
fff9
0001
000a
fff7
fff8
0002
fffb
fffa
fffd
ffff
fffc
fffe
0008
fffe
0004
000d
fff9
0009
0005
0003
fff7
fffd
0000
0006
0004
0002
0001
fff9
0002
0004
fff6
0006
0003
0005
0005
fffd
ffff
0003
fff7
ffff
0002
fffd
fff9
ffff
ffff
fff8
fffa
fff4
0001
fffe
0008
0000
000a
0003
0000
fff9
ffff
fffd
0005
fffe
000a
0005
0007
0007
000e
ffff
ffff
0001
000a
0006
fff9
000a
fffe
0002
fffe
ffff
0001
0000
ffef
0002
000d
fffa
fffe
fff5
fffd
000b
0001
0001
fffa
0004
fffc
0001
ffff
fff5
fffa
0005
0000
fff9
0003
0003
fffc
0002
fff7
fffc
0002
0001
ffff
fffd
ffff
fffd
fff2
000e
fffc
fffb
ffff
000d
ffff
0003
0001
0002
fffc
fff7
0001
0001
fffd
fffc
fffe
0008
fff7
0004
000c
fffc
ffff
0003
0001
fffa
fffb
0012
fffd
0000
fffd
0000
fffe
0000
ffff
0007
fff5
0004
0001
0000
0003
fffc
fffa
fff8
ffff
0003
000f
0006
fff9
fffa
0002
0004
000e
fffe
fffe
fffc
fffa
000e
000c
0003
0009
fffc
fff9
0004
fffd
fffe
fff6
fff7
0006
fffd
0008
0009
0000
fffe
0000
fff9
ffef
fff9
fffe
fffd
fffd
fff8
0006
0000
000f
0009
fffe
ffee
0008
fffe
fff7
0007
fff8
fffb
0006
000a
fffe
0009
0003
fffe
0006
fffb
000b
ffff
ffff
0006
0005
fffd
fffe
0005
fff9
fff8
fff8
0003
000e
fffb
fff4
fffb
0001
fffc
0000
0007
0009
0007
fffa
fffd
0005
fff2
0002
0001
0002
000f
0006
0005
fff8
fffb
0000
0000
0005
0002
fff5
fffb
fffd
fffe
fffe
fff5
fffc
fffe
0008
0009
ffff
fffa
0013
0002
0000
000f
fffa
0001
ffff
fffa
fffb
0006
0004
0007
fffb
0003
0000
fffe
ffff
fffd
0002
ffef
fffe
ffff
0000
fffc
0007
fffb
fffe
ffff
0009
ffff
fffb
fff5
0000
fffc
0000
fff2
ffff
fffe
fffc
0009
0006
fffe
0006
ffff
0005
fff8
000b
0000
0004
fffa
0006
000f
0008
0002
0009
ffff
0001
0002
000b
fffc
fffd
fffa
0000
fffa
0000
0001
0001
0004
fffb
0006
0006
ffef
0002
0007
0002
0000
fffb
fffc
0002
fffe
0001
0005
0004
fffb
fffb
ffff
0003
000b
0008
0004
0006
fffa
fff9
fffb
fffc
fffb
ffff
0004
fffc
0001
0001
0002
fff8
0000
fff8
fffb
0007
0002
fffa
0003
fff9
ffff
0005
0003
0001
0001
0004
0005
fff9
fffd
fff8
0007
fffe
0003
000b
fff8
000b
fffc
fffb
0007
000c
0001
0000
0002
fff8
fff7
fffc
fff6
0006
0008
fffa
0001
000d
0016
fffa
fffa
0003
0002
0001
fff9
fffb
fffd
0000
000b
ffff
fffc
fff5
fffb
0001
fffe
fffc
0004
fffe
0001
fffe
0007
0000
fff4
fffd
fffd
0000
000d
fffe
0000
0007
fffe
fffd
0007
fff9
fffa
0006
0003
0001
fffc
0004
fffa
0002
0013
0006
000e
000f
fff2
fff9
fffc
0000
000d
0003
fffc
0004
0002
fff7
0002
000b
fffa
fff8
0003
fffd
0010
0004
fffc
0003
fff7
fffa
fffe
fffd
0004
0000
fffb
fff6
fffc
fffa
fff3
0004
0001
0002
000a
fff9
fff2
ffff
0002
fffd
0003
fffc
ffff
0001
fff7
0004
ffff
fffe
0000
fffb
0004
fffe
0006
fff6
0005
fff3
0001
000c
0003
fff8
fffa
0002
0004
fff7
fffb
0001
fffc
0007
0003
ffff
0005
0005
0007
fffe
0001
fffd
fffe
fffe
fff6
0006
0007
fff6
0002
fffd
fffc
fff9
ffff
0008
fffe
0005
ffff
0003
0004
0007
fff9
fff8
fffa
fffb
0009
0002
fff6
0000
0005
0005
0002
fffa
fffd
0005
000f
fff6
fffb
ffff
fffc
ffff
fffe
0009
ffff
ffff
000a
0005
fffa
000b
fffa
0002
0005
0009
0001
000e
0003
fffb
000a
fffe
fffa
fffc
0000
ffff
0001
0001
0008
0005
0001
0001
0002
fff9
0009
fff9
ffff
fffe
0017
fffc
0002
fff9
0000
fff5
fffc
ffee
fffc
0000
0001
0002
0004
0005
000b
fff6
0003
fff5
0004
ffff
fff4
0009
0003
0000
0002
ffee
0002
fffc
fff7
0000
fffd
fff4
0004
0002
000c
0009
fff7
0001
fff9
fffe
fffc
0003
0005
0003
0000
0002
fffb
fffd
fffc
0001
0001
0005
fff2
fff5
ffff
000c
fff8
fffe
fff7
0001
0004
000b
fff6
0002
fff6
fffb
fff8
0005
0000
fff9
fffd
fff7
0007
000b
0003
0003
0005
0003
0003
0004
0008
0004
fffb
0004
0008
000b
fffb
0000
fffb
0002
0004
0006
0001
fffc
ffff
fffa
fff7
fff5
fff9
fffb
0004
fffa
0004
0006
0008
fffd
0002
fffb
0004
fff9
0005
fffd
0011
0000
ffff
fffd
ffff
fff9
000c
0001
0005
fffa
0001
fffb
fff9
fffd
0002
ffff
fffe
0001
0005
0003
fffe
0001
0000
0001
fffb
fff9
0000
000c
ffff
fffe
000e
0002
0002
0005
0006
fffe
0004
000a
fff8
fff9
fffc
0001
fffd
0007
0002
000c
fff8
0001
0005
0012
fffd
000d
ffff
fffd
fff9
ffff
0008
0000
fff5
fffa
0003
fff6
ffff
fffc
fff5
0005
0005
0005
fff7
ffff
0001
0006
0005
fffa
fffb
fffd
fffb
fffd
000d
ffff
fffa
fffb
fffe
fffc
fff3
ffff
000c
0000
0008
fffc
ffff
0002
0004
fffe
0002
000d
ffff
fffb
fff1
0009
0001
0000
fffb
fffa
0005
0001
fffe
0006
0002
0000
fffa
fff0
0006
0004
fffd
fff6
fff5
0003
fffc
fffc
0002
fff9
0004
0004
fffa
0001
0006
fffd
0006
fffb
0003
fff9
fffb
0008
0009
0003
fffb
fffa
fffc
0005
0006
fffb
ffff
000c
0005
0001
0000
fff9
fffc
000c
0002
fffd
0001
0000
fff7
fffe
0002
0002
0007
ffff
fffe
0005
0012
0001
fffe
0003
0006
0009
fff6
ffff
fff9
fffa
fffe
fffe
ffff
0000
fff4
fff6
0001
fff2
0003
0006
ffff
ffef
0008
0006
0001
0000
0000
0005
ffff
fffe
0006
0006
fff9
ffff
fffd
fff8
0002
0002
0009
ffff
000b
0003
fff4
fffb
0001
fff8
0005
ffff
fffe
0004
0004
fffd
0008
0003
0004
000f
0000
0002
fff9
0000
0001
0000
fffc
fffd
fff9
0001
fffd
0006
fffb
fff8
fffd
fffc
000f
0006
0001
000f
0005
fffb
fff9
000b
0008
ffff
0002
fffa
0000
0000
0006
fff7
fff1
0007
fff9
fffc
0008
fffa
0000
0006
000b
fffd
0002
fffc
fff3
0009
0009
0001
ffff
0005
0002
0007
0002
0003
fffc
fffe
0006
0006
fff9
fff9
0000
ffff
0000
0006
0001
fffd
0009
0000
fffd
000c
fffb
0008
000a
fffd
0003
fffb
0005
fff9
fffe
fffb
0003
fff8
0000
000c
fffc
fffe
fffe
fffc
ffff
0002
0008
fffc
0007
0002
0000
fffe
0009
0006
000b
fffd
0007
fff9
fff9
ffff
fffe
000d
0006
0000
0001
fffe
fff0
0000
0003
fffb
fffb
000b
0004
0002
0004
fffb
fffb
fffb
0001
fff8
0003
fffc
0005
0001
0003
0004
0009
fffa
fffb
0008
0000
0001
ffff
fffc
0005
fffc
fff9
0003
ffff
0005
000f
0001
0002
0005
0003
fffa
0001
fff0
000d
0001
0005
0007
0010
fff7
0001
fffc
0007
000e
000d
0000
fff5
fffd
000b
0008
0004
0009
fff3
ffff
ffff
0006
0009
fff3
0002
fff8
0006
ffff
000c
0000
fffb
0004
fff5
0002
0007
fffe
ffff
fffe
fffb
ffe9
0009
fff7
000d
0002
fff8
0004
0000
fffb
fffe
0007
fffe
fffa
fffd
0002
ffea
fff6
0007
0007
0002
0004
fffd
fffc
0003
fffb
fffe
fff6
0004
fff9
fff6
0008
0003
ffff
0001
fffe
0001
fff7
0002
0000
0008
0002
fffd
fff8
fffe
0000
fffd
000a
0000
fffb
0008
ffff
0001
fffa
0001
0007
0006
fffc
0006
fff7
fffc
fffb
fffd
0007
ffff
0008
fffe
0004
0005
fffd
fff9
fffa
0004
0000
0004
fffd
0003
0007
0009
0005
0004
0009
0001
fff8
fff7
fffd
0001
fffa
fffb
0008
0007
fff9
0001
fffe
0006
0004
0000
0003
fff1
fffa
0007
0002
fffc
0001
0001
ffef
0003
0004
0003
ffff
0005
ffff
0004
fff3
fff8
fffe
fffc
0007
0010
000e
fff7
fffa
fff8
fff8
fffd
0000
0009
0004
fffd
0001
fffa
ffff
fff9
0002
fffd
0005
fffb
fff6
0009
fffe
fff9
fffe
0001
0001
0006
0009
0002
0001
0004
0004
ffff
0003
fffb
0006
ffff
ffff
0001
000a
0008
fffc
0000
0003
0004
0003
ffff
fffe
fffa
0005
0001
0002
fff9
0009
fffb
0004
0003
0000
0007
fff4
fffc
fffc
000c
fffd
fffe
fffd
0002
fff8
0002
0014
ffff
fff3
ffff
0004
0002
fff6
fff9
fffa
fffc
ffff
fffa
fffa
0004
0000
0000
0004
0007
0005
0008
fffa
fff2
fffb
0004
0003
0001
fffe
ffff
000c
0004
fff4
fffa
fffc
0003
0001
fff6
0009
ffff
0005
ffff
fff6
0007
000a
0009
fff7
0005
ffff
fff9
fffd
fff9
fff5
ffff
fffb
0007
0007
ffff
0006
0000
fffb
0003
000f
fff3
0001
fff9
fffb
0002
fff9
ffff
ffff
000a
0001
ffff
fff4
fffc
0000
0002
000f
fffe
fffa
0000
fffd
0007
fff9
0005
0004
0003
fffd
0005
fffc
0005
fff2
fff3
0012
0002
fffe
0000
fffb
0007
0001
0000
0001
ffff
0002
fffe
fff6
fff2
0002
0000
0002
0009
0001
0001
fff9
0007
fff8
0004
0003
0001
0009
fff9
0000
0007
fffc
0003
fffd
fffc
000b
0005
0007
0005
0002
0004
fffe
fffe
0002
0000
fffc
0001
fffe
fff9
0000
fffe
fff7
fffc
fffe
fff8
0002
000d
0004
000b
000b
0007
ffff
fffb
0006
fff4
fffc
0004
0007
0009
fffd
ffff
fff1
ffff
0004
0004
fff9
fff9
0007
fffe
fffb
0001
0001
0001
fffc
0008
0004
0003
fffc
ffff
fffa
fff9
ffff
fff5
fffd
0006
fffc
000a
ffff
fff6
0005
ffff
0003
0011
fffb
0003
0000
0001
fff3
0008
fff5
fffe
fff8
fff5
0008
fff9
0000
0001
000b
0008
fffa
0006
fffc
0001
0000
0002
0005
ffff
000b
fff6
0002
0006
0005
fff7
0005
0002
0008
0007
fffb
0006
fff9
0003
ffff
0005
0000
fffe
fffd
fff6
fffa
0001
0005
0001
0008
0006
fffc
fffc
0004
0005
fffa
ffff
0006
0004
0001
fffd
fff0
fffe
ffff
fffc
ffff
0002
fffb
fffb
fffe
fff8
ffff
000c
ffff
0003
0007
0002
fff9
fffe
0001
0004
fffb
0003
fffb
000f
0000
0000
ffff
fffe
0001
000a
0000
0004
0005
000f
fffd
fff9
fffd
0004
0006
0004
000b
fffc
0002
fffa
000a
0000
0001
fff8
0004
fffc
000c
ffff
fff6
0004
fff8
fff9
fffd
fffb
fffb
ffef
0001
0001
fff2
fff5
fffe
0003
0000
0007
0001
0003
000c
0001
0003
fffa
fff6
0000
0005
0003
fffc
fff9
000a
ffff
0005
0001
fff3
fff5
fffe
0000
ffff
0003
0003
0002
fff8
0005
0001
0000
ffff
0005
0005
fffc
0001
fffc
fff8
000c
fffb
0001
0005
fff9
ffe9
ffff
fffe
fff6
0000
0000
fffb
0005
fffe
ffff
fff6
fffd
ffff
fffd
fff8
0006
fffa
fffc
fff9
000a
ffff
fff6
fff6
0009
fffe
0008
ffff
0001
0001
0006
fff8
0000
0005
ffff
000b
fffe
fffc
fffd
000d
0002
0003
0008
0001
0005
0001
fff6
fff9
0010
0003
0009
fff9
ffff
ffff
0000
fffd
0006
000a
000f
0000
fffe
0007
fffa
0007
0008
fff1
000c
fffa
0003
fff6
0004
0000
0004
fffd
fffe
0004
0008
fffe
fff5
ffff
000a
0001
0006
0000
ffff
0007
fffa
fff3
0000
fffb
0008
fff7
fffb
fffd
fffb
000c
fffc
0000
fffe
ffff
ffff
0006
fffe
fffa
000b
fff9
fff6
0002
fffc
0005
ffff
0000
fffd
0006
0005
fff5
0000
ffff
0000
fff7
fff9
0006
0000
0003
fffe
0002
fffd
0001
fff9
ffff
fff4
fffa
0006
ffed
000a
0003
0003
fffe
0011
0007
0009
fff7
0002
fff7
0001
0001
0007
fffd
fff9
fff9
ffff
000b
fffc
0002
000a
fffc
0005
0004
0003
fffd
0006
0005
0007
0007
fff0
fffe
0004
fff8
fff6
fffe
0010
0004
ffff
0005
fff3
ffff
0002
fffd
0003
fffb
0004
0000
fffd
fffc
fffd
0004
0002
fff9
0003
0004
0013
0002
fffe
fffb
0008
0006
000f
fff8
fffd
0006
0003
0001
fffd
0008
fff6
0004
fff8
000b
fffe
fffa
fffb
fff2
0005
fff6
fff8
ffff
0006
fffd
fff4
0005
fff0
0006
ffff
0003
0004
0000
fffd
0007
0001
0006
fff2
fffe
0004
0002
0006
0000
fffb
0004
000b
0001
000b
0003
0001
0004
fff1
fffd
fffe
0011
0000
fff5
0003
0002
0009
000a
0002
fffc
fffb
fff3
0006
0007
0001
0000
0002
fffe
fff8
fff4
0000
0008
0002
0000
0000
0000
fffe
0008
0002
fffa
fff9
fffc
0005
0003
000f
fffc
0002
0007
fff9
fffc
0004
ffff
0003
ffee
000a
fff9
fffd
fffe
000a
000a
0004
fffa
fff9
fffd
fffe
0000
fffe
0007
fffb
fffc
0001
fff0
0005
fff5
0002
0002
0009
0003
fffa
fffd
0001
fffe
ffff
0009
fffa
fffe
fffb
fff9
fffe
fffd
0000
0003
fffe
fff4
fffe
0002
0005
0005
0006
fffd
000d
fff4
0005
000a
fffe
fffb
fffd
0006
fff8
0005
0014
0004
000b
0009
fff9
fffb
0004
0007
fffa
ffff
fffe
fff6
fffe
0006
0004
fffc
0005
0000
fffc
0003
fffc
0001
ffff
0001
0000
0000
fff8
fffe
0007
fffb
0000
ffff
ffff
0000
fff7
0001
0003
0007
0002
ffff
0000
0001
0002
0003
fffe
0000
fffc
0000
ffff
fffe
0000
0001
0008
fffe
0002
fffe
0002
fffb
ffff
0007
0002
fffe
0000
fffc
ffff
fffd
fffd
fffe
fff9
0006
0001
0001
fffe
0000
0001
ffff
0003
0003
fffa
fffd
0006
0004
0007
fffc
fffa
fffe
fffc
fffd
fffe
fffa
0002
fffb
0003
fffa
fffd
0002
0002
0006
0007
fff7
fffe
0003
0002
fffe
0014
0000
fffa
0001
fffe
fffa
fff8
fffb
0002
ffff
fffc
000c
fffe
0002
fff8
fffe
fff9
fff7
fffc
0007
fff6
fffc
0007
0004
fffc
0000
0005
fffa
fffa
0005
0001
ffff
0009
fff6
000a
fff9
0009
0003
fff2
0001
0001
fffd
fffe
fffd
0004
0002
0005
fff8
fff4
0006
fffb
fffa
0003
0001
0008
fff8
0008
0003
0001
0004
0005
0000
fff5
000f
fffc
ffff
fffc
fff7
0007
fffe
fffa
ffff
0004
fffb
000c
fffe
fffe
fff2
0002
0006
0002
fff8
0002
0006
fffd
0000
0000
0004
0003
0005
fffc
fffd
fffc
0007
0005
fffe
fffb
fffc
fff9
0000
fff6
fffe
fff9
0002
ffff
0006
0003
0004
0002
000b
fffd
0001
ffff
0002
fff9
0006
ffff
ffff
fffd
fff4
0003
fffe
000b
fff7
ffff
0005
0005
0009
0006
0005
0005
ffff
0008
000a
fffa
fff8
0001
0003
0004
ffff
fffb
fffe
fffb
0003
fff9
fff9
0001
000c
0005
0003
fffb
fffb
fffe
fffb
fff7
0001
fff9
0005
0006
fff8
0003
fff7
0004
0004
fffe
000e
fffa
0003
0004
0003
ffff
fffd
fffd
0007
fff2
fffe
0000
0002
fffc
fff9
0003
fff0
0004
fffd
0006
ffff
0002
000d
fff8
fffd
fff6
fff7
0003
ffff
0000
0003
0001
0001
fffd
0007
0009
0000
0007
0012
fffa
0005
0006
ffff
fff8
000b
fff9
fffd
fffa
0001
0005
0009
fff6
fff3
0000
0000
fffc
fffb
fff9
0005
0000
000c
0001
0002
fff7
0001
ffff
000f
fffa
0002
ffff
fffd
0002
0003
0004
fffb
0005
fffb
ffff
0004
0005
0004
0002
fffe
0006
ffff
fff5
0004
fff9
0005
fffe
0005
0009
fffe
0005
0002
fffd
0001
000a
fffe
0005
0009
0002
0006
0008
0002
fffd
0006
0003
fffa
0006
fff8
fffc
fff5
0008
0000
000e
fff5
0001
0001
000a
0004
0002
fffe
0009
ffff
fffc
0002
0004
fffb
fff7
0000
0004
0005
fffc
ffed
fff9
0009
fffb
ffff
0000
000a
fffd
0003
fffa
0005
0007
0001
000b
0007
fffc
0007
0006
fffb
fffe
fff9
fffb
fffd
fff4
fffd
0004
fffe
0003
fffd
0004
fff8
fff6
ffeb
fffd
fffd
000c
fffe
0004
fff9
fff6
fffd
fffa
0003
fff7
fff8
0005
fffe
0005
fffd
0001
0004
fffa
fffd
000c
0000
0001
fffc
fffe
000d
0003
fff4
fffc
fffb
0003
fffb
0007
fffa
fffa
fffb
0003
0001
fff4
fffb
fffd
0003
0005
0001
0002
0004
fffc
fff5
fffa
fff9
fffe
0003
0000
fffb
0006
0002
0000
000c
0000
fff9
0006
fffd
0003
000a
0004
0003
fff8
0008
fffb
0005
0008
fffc
ffff
0004
0002
0003
0000
0008
ffff
0012
fffb
fff6
ffff
fffe
ffff
0007
0008
0006
fff8
fff8
0001
ffff
fffc
fffa
fffe
0003
ffff
0000
0004
0001
fffd
fff9
0004
fffe
0004
fff6
fff7
fff6
fffb
0005
ffff
fffe
0004
fffd
0005
fffb
0009
fff7
fffd
fff9
ffff
fffe
0009
fffa
000a
fffb
000a
0006
0005
000a
0004
0000
0003
0005
0002
0009
fff6
fff9
000c
fffd
0002
fffe
0009
fff6
0004
0005
0002
fff2
fffb
000a
000d
fff0
fffa
0009
fffa
ffff
fffe
0001
ffff
fff0
ffff
0010
0006
fff9
fffa
0007
fffd
0001
fff0
fffa
0003
0000
fffd
fff3
0003
000a
0000
fffd
0001
fff5
fffd
fffe
fffb
0000
fff7
000c
0006
0005
0017
0011
000e
fffa
000c
fff4
000d
000a
fffa
fff7
000b
fff3
0000
0001
0001
fffc
0007
ffff
fff8
fffa
0002
0004
0008
ffff
0010
fff5
fff7
fffc
0003
fffa
fff7
fff6
000e
fffd
0001
0003
0005
0009
0000
0001
fffe
0001
0006
0004
000a
0001
fffd
0005
fff7
0008
fffa
0009
0007
fff7
0002
ffff
0010
fffe
000c
0008
0000
fffd
0003
fff8
fff8
0005
000a
0000
0005
ffff
fff9
0002
0005
fffc
fff4
fffb
fffe
fffc
ffed
0003
ffff
fff8
000a
fff7
0007
0003
fffd
ffff
0008
0005
0003
fffe
0004
fffc
ffff
fff7
fffd
0003
0000
fff8
0001
fffd
fffc
0004
fff0
fffc
fffe
0004
fffd
0003
000c
0005
0004
fffa
0000
0014
0001
fffe
0002
0007
0000
fff8
0003
fff6
fff9
0002
0007
fffb
0003
0009
fffe
0010
0008
fffc
0003
0004
0002
fff3
0008
fffe
0005
0005
0001
fffd
0006
0004
ffef
0007
fff9
0006
fffd
fffc
0006
ffff
0000
000b
fff8
fff3
fffe
0003
0005
0007
fffb
fffd
fffa
fffa
0009
0004
0007
fffc
0000
fff0
0002
fffb
0002
fffc
0008
fff8
0007
000b
fff9
0001
0009
0000
ffff
0002
ffff
fffb
fffd
ffff
0001
fffd
000d
fffc
0007
fff4
fffa
0002
0005
fffb
0001
fffc
0004
ffef
fffe
fff8
0001
0001
0006
fffb
ffff
0007
ffff
0006
0013
0003
fffb
ffff
fffc
0000
fff9
000b
0001
fffe
0002
0002
fff7
0005
0003
fffb
0000
0000
fff0
fffb
0005
fffb
fffc
fffa
000a
0005
0001
000e
fffb
0003
0000
fffe
0003
fff8
0008
fff8
000a
0008
0008
fffe
fffd
0009
000d
0006
0007
000b
fffe
0006
0004
0005
fff4
fffe
fffc
fffb
fff5
0004
fff7
fffe
fffe
ffed
fff5
0002
fffe
fff7
fff9
fffc
fffa
fff6
fff7
0004
fffe
0008
fffe
0006
0003
0005
000a
fffd
fff4
fffd
0008
ffff
fffe
ffff
0003
0003
0003
0004
fffe
0002
0002
fff4
fffa
fff6
fff6
fffd
000a
0004
0001
fff7
0001
fffa
000a
fffe
ffff
0002
0001
fff9
0011
fffb
0004
0006
ffff
0010
fff8
0001
fffc
fffb
fffd
ffff
0002
0008
0007
ffff
fffb
0000
0000
fffe
fffe
000c
0004
fffc
0004
0000
0000
0005
0003
0002
0002
ffff
fffd
ffea
0001
000f
ffef
fffa
000c
0004
0001
fff8
0007
0008
0003
fff8
fffc
fff8
ffff
fff7
fffc
001c
fffd
0000
fffd
0009
0000
000a
0000
0006
fffe
0000
fffd
0006
0001
0000
fffe
fff4
fffe
0006
fffe
0009
fffa
fff7
fff8
fffd
fffd
fff8
0006
fff6
fffb
fffc
0000
ffed
0000
fff4
0001
0009
fff9
fffe
0009
fffd
0003
000b
fffe
0007
0002
0004
0008
fff8
fffb
fff9
0008
fff7
ffff
fffa
0000
fffa
fffc
fff6
fff9
fff4
0000
ffff
000f
fffb
fff9
0007
0003
fffc
fffc
0000
0004
0005
0006
fffe
fffa
ffff
0001
0000
000b
000a
0000
fffb
0004
000a
0000
000a
fffd
0002
fff7
0008
0001
fff9
0000
0004
fff9
fffc
fffa
fffd
fff5
0007
0004
0008
0002
000a
fffe
0000
0005
0000
fffc
0003
fffc
fff9
0003
000e
fff8
ffff
fff7
0002
ffff
fffa
0001
fffd
fffb
fffe
0005
0001
0007
0005
0001
0002
0007
0005
fffe
0003
fffc
0004
fffe
fffb
fffe
fffb
fffd
fffb
fffa
0000
0003
0004
0008
fffd
ffff
fff8
fffc
0001
fff4
0003
fffd
0000
0006
fffd
0001
fffd
0002
0004
fffe
fffa
fffa
0001
fff7
0001
0001
fff6
fffb
0004
fffd
0008
ffff
ffff
fffe
fffe
fffe
fffe
0001
0013
0000
0006
0009
ffff
0009
fffd
fff5
fffe
fff7
0001
fffa
0008
0003
fff0
fff8
0006
fffb
fffe
fffb
fff7
fff8
000c
fffc
0007
0002
0001
000f
0000
0005
fffb
000d
fff9
0003
000a
fff4
0006
fffb
fff7
fffe
0008
0004
0002
fffd
0007
000c
ffff
fffc
fffa
000a
0000
0004
fff6
0004
fffb
fff7
0002
ffff
0000
0003
0001
fffa
0000
0001
fff4
fffb
fffe
000b
fffa
0005
fffe
0000
0000
0006
0003
fffb
0004
fff1
0002
0003
0004
ffff
0008
0006
000f
0002
fff7
0000
0004
fffa
fff5
fffa
0006
fff9
fffd
fffd
ffff
fff8
0002
0006
0004
fff9
0009
fff8
fff7
fff9
fffc
fffc
fffb
0003
0006
ffff
0000
fffd
0009
0003
0006
000e
0004
fff6
0008
fffc
0009
fffa
fffd
fffb
fffc
fffc
0005
0003
0004
0002
0005
fffe
0007
fffb
0005
0002
0008
fffa
0000
0005
fffd
fffa
fff8
0003
0007
000b
000b
0007
ffff
fffa
fff9
0009
fff5
0005
0002
0006
ffff
0002
fffc
fff7
0004
fffd
fffa
ffff
fff2
fffb
0001
fffa
fff7
000b
0003
fffd
000c
fff7
ffff
0007
fff6
fff7
0009
ffff
0000
0004
ffff
0002
0004
0009
0002
fff9
0005
fffa
0007
0000
fff2
fffe
0004
0010
0003
fffa
0005
000e
0002
fffb
fffb
0008
0004
fffe
fffe
fff9
0002
0009
0003
fffe
0003
fffd
ffff
fff6
fff6
0006
0002
000a
0008
fff9
fffb
0000
0003
0004
0002
0002
fffe
fffa
fffb
fffd
fff8
fff6
fffe
fffc
0003
fffd
fff7
fff6
0003
fff9
ffff
0005
0006
fffc
000b
fffb
0006
fffc
fffc
fff4
0008
ffff
fff8
0004
0007
fffe
0001
fff9
fff7
000b
0000
0000
fffb
ffff
ffff
fffd
fffa
fff3
fff3
000b
fff6
0003
0005
0009
fffd
fffe
000c
0013
0005
ffff
fff9
0002
fffb
0005
fff5
0002
0002
0002
fffd
0007
fff8
fffb
000d
fffe
000a
0004
0001
0006
0001
0003
0003
0002
0007
fffd
000b
0000
0001
fffa
0006
fff6
000c
fffe
0003
0007
0005
0001
0005
fffd
fffd
0008
0003
0001
0000
0004
fffd
0002
fffb
fffb
fff5
0007
fffc
000a
fffa
0004
0004
fffe
ffff
fff9
000b
0001
0004
0002
0003
0007
0001
0009
fffc
fffa
0006
0000
fff5
000b
0002
fffb
0001
fffa
0000
0000
fffe
fffc
0003
fff6
0004
0004
fff6
fffd
ffff
000b
fff4
fff7
ffff
0009
0000
0004
fffe
fffc
fff7
fffb
fffd
0006
fff6
0005
fff9
fffc
fffe
0004
fffe
fffe
0003
0008
fffd
fff9
0000
0004
0001
fffb
fffd
fffb
0009
fffe
0002
fff9
fff8
fffe
fffe
0009
fffd
0003
fffa
0000
0005
0004
ffff
fffe
0001
0009
0005
ffff
fff8
fffc
fffa
0001
0011
fff6
fffd
fffd
fffd
000c
0007
fff7
0001
000e
0006
0005
0007
0004
0005
0003
ffef
0004
fffc
0009
fffa
fffa
fffb
0003
fff1
fff6
fff8
fff9
fffe
fffe
fff5
fff9
fffb
fffb
0006
0009
fffe
0006
fffe
fff8
0005
fffd
fffc
0004
0002
fffd
0007
0002
0007
0006
0004
fff8
0007
ffff
0001
0007
0002
0002
fff7
fffb
fffc
0002
000c
0005
0005
0000
fffe
000e
0002
000c
fffb
fffa
0002
fffd
0005
fff9
0001
fffc
fff7
0001
0010
0002
ffff
0008
0001
fff8
fffa
fff4
fffc
000a
fffa
fffd
fff5
fffb
000c
000c
0000
0001
000d
0008
fffd
fffe
fff9
fffa
fff8
fff5
fffe
0006
0009
fffc
fffc
0001
fff9
0000
000a
0001
fffb
0001
fffd
fffb
000a
ffff
fffe
fff6
fff8
fffa
ffff
000a
0003
0003
0006
0002
fff6
0004
fff9
000b
0001
fffc
000c
fffc
0004
0006
fffd
0001
0008
000c
fff9
0000
0005
000b
ffff
fff9
fffb
fff8
0002
000a
0003
fff9
0003
000c
fffe
fffa
0002
000f
0000
0007
fff2
0001
ffff
fffe
fff7
000a
0003
0001
0006
fff8
fff6
fffd
fffa
0004
fffe
ffff
ffff
0000
0006
fff6
0000
fffa
fffc
0005
fff7
fffc
fffa
0003
0007
fffe
0006
ffff
0000
fffe
fffd
fffa
0001
0004
0006
0000
000b
0009
0002
fffc
000b
0001
0007
0004
0002
0001
ffff
0004
0006
0002
ffff
fff5
fff8
0003
0009
0004
0009
0010
0005
fffa
fffc
0001
0002
fff9
fffd
fffa
0008
0005
ffff
000a
0003
fffc
ffff
fffd
fffb
fffb
0006
fff1
0006
fffd
0005
fff4
fffe
0008
fff7
0004
fff9
fff7
ffff
ffff
0002
ffff
fffb
fffe
000b
0006
fffd
fffd
0001
0013
ffe8
0006
ffff
fff6
0000
fff2
0001
fff8
fff8
fffe
ffff
0006
0006
fffa
0008
fffd
fffe
000b
ffff
fffc
000e
0005
fff7
0000
0003
fff8
fffd
fffa
0009
0009
fffc
0005
0001
0009
fff9
0008
0005
0004
fff8
0004
0007
fff3
0002
0004
0005
0006
0005
0003
0005
0002
0003
0003
fffb
0001
fffe
0003
ffff
0002
0005
0006
fffc
0002
0003
fffb
fff8
0004
fffc
fffc
000c
0004
fffb
fffd
fffc
0006
fffc
0005
fffd
fffe
0000
000d
fffe
fffb
0002
0004
fffc
fff3
0002
ffff
ffff
fffa
0001
0001
0004
0006
fffd
fffd
0003
fff8
fffe
0000
fffb
0004
0000
fff9
fffb
fffe
0001
0002
fffd
fffc
0004
0001
0000
0004
0002
fff1
ffff
fffa
000b
fff9
0006
0003
fffd
0003
0001
fff5
0002
fffc
fff9
fffd
fffa
0013
0006
fffa
0000
fff9
fffe
0000
0000
0003
0003
fffa
0003
0003
000b
fffb
fff8
0005
0005
fff9
fff9
0004
ffff
000b
0006
0004
0005
fffd
0001
fff9
ffff
fffb
0003
fffc
fff7
ffff
fffe
0001
ffff
0009
0008
fffa
fffd
fffc
0008
0001
fffa
0001
0009
0002
0001
0003
0002
0005
0002
fffd
0003
000d
0005
0003
fffe
fff0
fff6
0007
fffb
fffc
0000
fff0
fff7
000a
0001
0005
000c
0007
0003
0000
fff9
fffa
fff8
fffb
fff5
0003
0005
fffd
0002
0007
0004
0002
0006
fffd
fffc
fffe
000f
fff7
0000
0002
0000
fffc
ffff
0002
000c
0004
0004
fffe
fff9
fffd
0005
ffff
fffd
0002
0005
ffff
fffb
0002
000b
fff8
fff9
fffe
fffa
0004
0006
000e
000a
0003
fff8
000d
fffa
0000
0006
0003
000e
fffa
0006
000d
0005
fffd
fff2
0002
000b
fff9
000c
0000
0001
0001
fff9
fff9
fffb
fffb
0004
0009
0001
fffd
fffb
0004
0002
0009
fff7
0003
fffd
fffb
fff9
0005
fffc
0004
fffe
000c
0002
0004
0000
0002
fffb
fffa
fff9
0004
fff9
fffb
ffff
ffff
0000
fffd
000a
fff7
0004
0000
0008
fffb
ffff
0005
0007
0002
fffa
0001
0002
fff4
fffe
fff7
fffe
fffa
fffd
fffd
fff9
fffd
0009
0001
0006
ffff
0003
0002
000e
fffe
fffd
0000
fffc
000a
0003
0001
0001
fffe
fffc
0005
0003
fffe
000c
ffff
fff9
000e
0004
fff9
ffff
0001
fff9
fffd
0007
0008
fffc
fffa
0004
fff6
0001
ffff
fff1
0007
fff5
000c
fffb
fff7
fff9
0007
0004
000c
0007
0004
ffff
fff6
0007
fff7
0012
fffc
0001
fff6
0004
0003
fffd
fff9
fff7
0002
fffc
0000
fff9
0008
fffe
fff9
0008
0000
0001
fffa
0000
000a
0008
0009
ffff
fff6
0006
fff1
fff4
000a
fff8
0007
0000
fffe
fffa
0003
fffe
ffff
000d
0006
0007
fffb
0003
fff6
fffe
000c
fffe
0001
0003
ffff
fffd
fffb
0001
0004
0004
fffc
fffe
0009
0006
0002
fffc
0000
fff4
fffc
fff8
fff7
ffff
0004
ffee
0003
fffd
fff9
0000
0008
0002
fffd
fffb
fff3
fffc
fff5
0003
0000
ffff
0008
fffb
0008
fffd
0004
0005
0003
0001
0003
fffc
000c
000e
0000
ffff
ffff
ffff
ffff
0008
fff9
0004
0008
0004
000c
0001
0003
fffe
0004
0003
0006
fffd
fff3
fffe
fff9
fff6
ffff
0002
0007
fffb
fffd
0004
0006
0007
fffd
fffd
fffa
0005
fffe
0003
0002
fffd
fff4
0000
fffc
0000
0000
ffff
fff8
0001
0007
0008
0004
0002
ffff
0004
0002
0002
ffff
fffe
0002
fffc
0008
0000
000c
fff7
000f
fffe
0000
fffe
0004
0001
fff9
0001
fffe
fff9
0002
fffc
fffe
fff7
0009
0000
0008
000d
fffa
fffe
0002
0004
fffb
0007
fff0
0009
0005
0004
0000
0001
000b
fffe
fff4
0008
fffe
fff4
fff2
0004
ffe9
0005
fffa
0001
fffb
0010
0004
fffd
000c
0008
0007
fffc
0005
fffd
0008
fffe
fffc
fffd
0001
0006
fff8
fffa
0001
fffa
0001
fff9
fffb
fff5
0004
0004
0004
0006
0003
fffa
fff6
0008
fffd
fffd
fffa
0008
fffa
0002
ffff
fffc
ffff
fffc
fffe
0000
0002
fffa
000b
0007
fffb
0001
fffe
0003
000b
0000
fffc
ffff
0000
0003
fffe
ffef
0000
fff4
0002
0006
fffc
fffa
fffe
fff8
0010
0001
fffe
000e
0005
fffe
fffe
fffa
0000
0000
0000
ffff
0004
0007
fffb
0003
0007
ffff
0004
fffb
0000
fffe
fff5
0000
0002
fffe
0007
ffff
fffb
fff8
ffff
0004
000c
0003
0004
0006
0000
0004
fffd
0006
fff6
ffff
0002
0002
fff8
0000
0003
fff7
0000
0001
000f
fffd
0001
fffd
0004
0008
fffb
ffff
0006
fff9
ffff
000c
0000
fffa
0005
fff0
ffff
000b
fffb
fff3
0004
fff0
0005
0003
0004
fffa
0003
fffa
fffb
fff3
fffa
0001
fffc
0001
fff7
fffa
fffe
0002
0006
0004
0004
000b
fffd
fffc
fff7
0006
0008
0000
fffb
000c
fffe
fffb
fff7
0000
0007
0008
0003
0009
fffc
fffe
fffe
fff2
0003
000c
0006
0006
fff8
fff3
0001
000a
fffa
fffc
0001
0002
fff9
000c
0007
0003
fffc
fffc
fffb
0005
0010
fff8
ffff
0002
0002
0003
fffa
0002
ffff
ffff
0001
ffff
fffc
0001
0004
0004
0003
000e
0003
0004
0003
000b
fff7
0002
ffff
fff9
fffe
fff9
0000
0001
fff6
0011
fffa
fffb
0002
0004
0003
0001
000b
fff9
0002
000a
0004
fffc
ffff
0009
0006
fffc
fffa
fff1
fffe
fffb
fff6
ffef
0003
0010
fff9
0004
0007
fff8
fffd
fffb
0005
000c
fffb
0003
fff4
fff9
fffb
0003
000a
fff5
0000
0009
fff2
0000
0003
fff6
fffc
0000
0000
0000
000a
0001
0000
fff7
fff8
fffe
fffd
0000
0000
fffe
0002
0000
fffc
000d
fffd
fffa
fff6
fffd
fff7
0006
0000
fffe
ffef
0009
fff3
0000
0000
0001
0004
0000
ffff
000b
0004
0009
0007
fffc
fffc
0005
fffa
0002
0001
fff9
0003
fffd
0006
fffc
fffc
0002
fffa
000c
0002
fffa
0006
0006
ffff
0002
fffe
0001
0000
0001
0000
fff2
0005
0003
fff9
fff7
fffe
0001
fff8
0006
0006
0008
fff1
fffe
ffff
0001
fffa
fffe
0006
000b
0009
0001
0002
fffa
0004
fffa
000c
0011
0001
0001
fffd
fffb
fffe
fffd
ffff
0007
0012
0000
0003
0008
0003
fffe
fffb
fff3
0009
fff9
000a
fffc
fffb
0005
ffff
fffa
0008
0004
fffe
0004
0003
fffa
fffb
0001
fff9
0003
000c
fffb
0001
fff4
0003
ffff
0004
0004
0002
fffc
0004
000a
0004
0006
0009
fffc
0014
0000
fffe
fff5
0007
0007
fffa
0003
fffb
ffff
0000
fffc
fffb
0004
fffd
0005
fff2
0007
fff9
fffb
0004
0004
fffa
fffa
0001
0004
0006
0000
fff7
0006
0002
0001
fffe
0003
0008
ffff
0001
0006
0009
0008
0005
ffff
0003
0007
0003
fff9
0009
0004
000b
fffd
0001
fffb
000c
0003
fffc
ffff
0002
fff8
fff9
fff8
ffff
fffb
fffe
0005
fffe
0002
0000
fffa
ffff
0007
0003
fffa
fffd
0002
fff9
fff9
ffff
fffe
fffc
fffc
0004
fff4
fff4
fffe
0008
fffe
0001
000e
0003
0005
000e
fffe
0000
fff9
fff8
ffea
0000
fff7
ffff
0005
ffff
0006
fffe
fffc
0012
000b
fff8
fff9
0005
fffc
0009
fffd
0007
fff7
0005
fffc
0003
0004
0001
fff4
0000
0002
0003
0002
fffc
fff8
000a
ffe7
0002
fff9
0001
fff6
fffb
fffe
0000
0005
0003
fff8
fffc
0001
0007
0004
fff4
fff6
0003
0002
000b
0002
fffc
fffc
0005
fffe
0002
0008
fffb
fffb
000a
fff7
fffb
0000
0001
fffa
fffd
0004
0007
0006
fffa
0002
0002
fff9
0004
fff9
fffe
0007
0001
0001
fff7
fff6
0001
fffd
fffc
0003
0004
0004
fffb
0000
fffc
fff9
fffc
0000
0007
0001
0005
000c
fffd
fffa
0009
ffff
ffff
0001
fff5
fffb
0000
fffc
fffd
0005
0004
fffe
ffff
0002
0000
0001
fffb
fff8
0000
0001
fffd
0001
000b
fff7
0008
fffa
0006
ffff
fffb
0005
0001
fff4
ffee
fffd
fffd
0009
fffb
ffff
0004
0004
0007
0008
0005
0003
ffff
0001
0002
000a
0005
fffe
0003
0007
0006
0006
fffa
fff4
0003
0005
fff7
0002
0005
ffff
0001
fffe
fffd
fff8
0003
fffe
fffa
0007
fff3
fff2
000c
fffb
0001
fff7
000a
fffe
0007
0008
0000
fffd
fffd
0000
fffb
ffef
fffd
fff8
0008
fffb
0004
0001
ffff
fffc
000b
fff6
fffe
ffff
fff4
0002
fff8
0002
fffa
0008
fffc
fffa
fff9
fffc
0007
fff8
0010
0005
0005
0007
fff7
0001
0007
000b
fff8
0002
0004
fffc
0007
0008
0003
0002
fff9
ffff
0002
0007
0003
0006
0002
0007
0006
0006
0008
0004
fffc
fffa
0007
0004
fff4
fff8
ffff
fffd
fff7
0003
0000
0008
fff7
0000
0006
fff9
0005
fff9
fffa
fffd
0005
0007
fffb
fff7
fff4
fffd
fffc
fff8
fff2
fffc
0011
fffb
0003
0008
0005
000b
fff8
fffe
0006
fffd
ffff
0009
000b
fffe
fff5
fffe
fffe
ffff
0004
fffd
fffa
0000
0005
0004
0008
000d
0001
0002
0007
0005
ffff
0003
0003
fffe
0018
fffb
fff8
0002
0002
0002
0002
0009
fffb
fff5
fff3
0004
0005
0009
fffc
0006
0002
fffc
0005
0001
0004
fffb
fffd
0004
fff9
fff8
0003
fffe
0006
0006
0001
fffc
0005
0003
0006
0005
fffe
000b
000a
fffa
000f
0011
fff2
fffa
0005
0004
fffd
ffff
fffb
0002
0004
fff9
0002
fff4
0000
0000
0003
fffc
fffa
0003
fff9
fffd
0005
fff6
000e
0005
0002
0003
0003
0003
fffe
ffff
0001
fffb
0001
0006
000c
fff2
fff7
fffa
0005
0001
0001
fff8
0002
fff9
0004
fffc
fff9
0003
0004
fffe
0000
0005
0002
ffff
000b
0003
0005
fff5
0001
000a
fffc
fffd
fffc
0001
fff7
fffc
0007
0007
0003
fff9
fffd
0001
ffff
0006
0006
ffff
0002
0007
fffd
ffff
0001
fffd
0002
fffc
000b
000a
0000
fffb
0006
0005
0009
fffe
fffa
0006
0006
0002
0002
fffc
0004
fffe
fffc
0000
0004
fff9
000c
0004
fff3
0004
0002
000b
fffd
0001
000e
fff7
0005
0006
0006
0008
0000
fffc
0002
ffff
fffd
fffe
0001
0006
fffa
0004
0005
0004
0009
0009
0005
fff4
0001
fff1
fff6
ffff
fffa
fffb
000c
fffd
0003
fff9
fffe
fffe
000c
fff5
fff2
000d
fff6
fff6
0001
0003
fffc
0000
fff4
000c
0002
0008
fffc
fff7
fffe
0001
ffff
0000
fff5
fffa
0001
0002
0002
fff7
fffb
fff0
0009
0005
fffe
0002
fffc
0009
0006
0003
0003
0004
fffe
fff5
0000
0005
0005
0005
fff8
0003
0004
0005
ffff
0005
fffe
0007
0009
0000
fff6
0001
0000
0000
fffb
0006
fffd
000e
0004
fffb
fffc
fff7
0000
0000
fffa
ffff
0003
fffc
0006
0007
0000
fffd
fff9
0008
000c
fffc
0007
fffe
0000
0012
0001
0002
0001
fffb
ffff
fff9
ffee
0000
0007
0000
fff7
fff6
fffd
fffd
0002
0010
fff9
0007
0001
0004
0007
0004
0002
fff8
0011
fffe
0007
0002
fff5
fffb
0005
0002
ffff
fff8
0000
0004
0002
fff7
fffd
fffb
0000
fff6
0002
fffa
0008
fffb
0006
0003
ffff
fff7
ffff
fff4
fffd
fffe
0004
fffa
ffff
fffb
000e
fffe
000c
000d
0009
0008
0007
0006
ffff
fffb
0009
000e
fffc
0004
ffff
fffe
fffa
fffc
fff9
0004
ffff
fffb
fff6
000e
000d
fffd
0002
fffc
fffc
0005
000b
fffb
0000
fff9
fffb
0004
fffc
fff9
0007
ffff
fffc
000b
fffd
0001
0000
0004
fff7
fff4
fff6
0005
0004
fffe
fffc
fffb
fff5
fffb
fff8
0001
fffd
fff8
0002
0004
0004
0002
fff5
0003
0009
fff8
fffa
0005
0000
000f
0008
fffe
fffc
0010
0009
fff8
0001
0006
0007
fffb
0004
fff9
fff9
ffff
ffef
ffff
0004
0004
0004
0001
fff9
fff6
0001
fffd
0002
fffa
000b
0009
000b
0001
fffd
0004
fffd
fffb
fffb
0000
ffff
000a
fff5
fff8
0004
fffa
0005
0001
0000
fff5
fffe
0000
0012
0001
ffff
0005
ffff
fffc
0002
0008
fff7
0003
fffc
fffe
fff9
0006
0005
0002
0006
fffd
0005
fffd
ffff
fff4
0006
ffff
fff9
ffff
fff4
fff4
ffff
fffe
0002
fffa
000a
ffff
0000
ffff
ffff
0002
fff9
fff9
0004
0003
0001
fffc
0008
fff7
0002
0000
ffff
000b
fff2
0008
fff8
fff7
fff3
000f
fff9
0008
ffff
0003
ffff
0001
fff7
0004
0006
0009
0006
000a
fffe
fff1
0002
0002
fff6
0000
000b
fffe
000a
0006
fffc
0000
fffe
fffa
0002
ffff
0000
0001
0011
0004
fffb
0000
0003
0000
000c
0003
0013
0001
fffa
fff9
0002
0007
0005
fffb
ffff
ffff
0009
0000
0000
fffd
fffe
0005
0002
fffa
fffc
0008
0001
fffb
ffef
fffd
0001
fff4
ffff
ffff
fffc
fffa
0003
fff5
fffb
ffff
0006
0008
fffd
fffc
0000
0003
fff6
000e
fff8
0009
0001
fff9
fffb
0001
fff9
fffa
0004
0003
0004
000b
ffff
fffb
0006
fff7
000c
000b
0005
fff1
fffc
fffe
ffff
0002
fffe
0008
0000
0000
0006
000e
0007
0000
0002
fffd
fff8
000c
fff4
0003
0000
fff6
fffa
fffc
fffd
0005
fff9
0006
0000
fff1
fffe
0004
0009
0003
000b
0002
fffe
0002
fffc
0002
0004
fffe
0001
0002
fffe
0000
fffd
fff4
0005
fffe
fffc
0006
fffe
ffef
0007
0001
0000
fffb
fff6
000a
fffd
0002
fff7
fff7
0002
fffd
0002
000a
ffff
fffe
0006
fffe
000d
fffe
ffff
0006
fffe
fffe
0006
0004
fff4
0008
0006
ffff
fffd
0002
0004
000c
0002
0003
0004
fffd
0009
0002
fffc
0002
fffe
fff6
fffd
000d
0006
ffee
fffc
fff5
fffd
fff5
0012
0001
fffb
fff9
0005
fff1
fff9
0002
fffc
fff7
0001
fff9
0000
0008
0006
000c
000b
fffd
fff1
fff8
0002
000a
ffff
0005
fffa
0002
0004
fffb
fffe
0002
fff9
0004
0003
ffff
fff5
0004
000b
fff8
0002
fffe
0001
fff0
0001
0002
0002
fff9
ffff
0009
fff5
0000
0007
0005
0003
0001
0006
fff8
fff8
0001
ffff
0002
ffff
0000
0008
0009
fffb
000a
fff9
fffe
fffe
0002
0002
fff3
0003
fff1
0003
000a
0000
0003
ffff
fff9
0005
0003
fffc
000f
fffd
0001
000f
fffb
0005
fffd
fff7
ffff
0005
fffe
0005
ffff
fffc
0001
fffe
fffd
0002
fffa
fff5
fffc
0007
000d
0001
fff7
0004
fff8
0003
fffc
0008
fffe
fff2
0006
fff9
0003
fffb
fffa
fffb
ffff
000c
fff2
fffb
ffff
0000
0003
0003
0009
000b
0002
fffb
0006
0008
000b
0002
fffe
0000
0001
fffa
0009
0001
fffa
fffa
fff7
fff7
0004
0009
fffd
0008
fffc
0001
0003
0000
fff6
fffc
fffd
fffc
0000
0009
0007
0005
0001
0001
fffd
fffa
ffff
fffd
fffb
000a
0007
0000
0001
fffa
0014
ffff
0001
000b
fffb
0005
0004
fff3
000c
0004
fffa
fffe
fffa
0004
0000
fffa
fff6
fffe
000b
0009
fff9
0004
0005
0001
fffa
0007
0000
000b
fffe
0001
fff9
fffa
fffa
0001
fff8
fff7
fffc
000e
0007
0000
000a
fffd
0000
0001
fffc
fffa
0007
0001
ffff
000a
fff7
0000
fff3
0001
fffe
0015
ffff
fffe
0006
fff2
fffb
fffc
ffff
0001
0004
fffd
fffd
fffc
ffff
ffff
fffc
0003
fffb
ffff
0004
0004
0008
0006
000b
fffb
fffd
fffc
fffa
000f
fffa
0008
fff5
000a
fffb
fff5
fffe
0000
0000
0002
fffe
fff7
fffb
fffc
0004
fff9
fff6
000b
0002
0007
0001
fffe
fffb
fffe
fff6
fffd
fff2
ffff
fff9
0005
0008
0009
0002
fffb
0003
0004
000a
0003
fffe
0009
0001
0001
fffc
fff6
0009
0006
0004
0000
fff9
0007
fffd
0007
0001
ffff
fff8
fff9
fffe
0008
0005
0007
0001
0003
0004
ffff
0001
ffff
0000
0000
ffff
0004
000a
0003
fff7
0007
0007
fffd
fff3
0003
0001
000b
000b
fff6
fffd
fff6
0003
fff9
ffff
ffff
ffff
0008
0000
fffc
ffff
fffe
fffe
0003
0000
fffa
0004
0003
fffd
fffb
0001
fffb
0000
fffe
fffc
0003
fffc
fffc
fffb
0002
0000
fff9
fffd
0005
0001
0006
fffd
fff9
000a
0008
0002
fff5
0005
0005
fffc
0003
000e
0007
0004
0006
0000
fffe
000b
0002
fffa
0005
fffa
0005
fffe
0009
0001
0002
0000
fffc
fff3
0000
0005
0002
0003
ffff
0000
fffd
fff7
0000
fff5
fff5
fffc
fffd
0005
0001
fff4
0001
0002
0003
0004
fffc
fffe
fff9
0007
fffe
000c
0003
fffb
0003
0006
ffff
0006
ffff
fffe
fff9
fffc
0007
fff2
000c
ffff
0003
0003
fffe
0001
0006
fffd
fff6
fffe
0008
0001
000f
fffd
0006
fffc
0002
fff4
0005
0005
fffd
fffe
0004
fffb
fffe
0001
fffa
fffe
fffd
fffb
0018
fff9
0003
0002
0000
000b
0003
fff7
0004
fff9
0006
0008
0005
000c
0003
0004
ffef
0005
0002
fffd
fffe
0004
fff4
0000
fff3
000b
0009
0005
fffe
000b
0000
fff8
0004
ffff
0003
0002
0008
fff2
fffd
fff7
fffc
fff9
fff9
fffd
fffa
fff9
0005
fffe
fffc
fffd
0008
fffe
000b
fffd
0002
0002
fff9
fff9
fffd
000a
0001
fffd
0001
fffc
0000
0000
0002
0001
fffe
fffd
fffd
0006
fff8
0008
fff5
fff6
0001
000e
0002
fffc
fffa
fff6
0000
000d
fffc
fffe
0002
0004
fffa
0002
fff9
0009
fff8
fffb
0003
000b
0006
0005
0002
fffe
0005
fffe
0006
0000
fff9
0001
fffc
0002
0006
fffa
ffff
fffc
fffb
ffff
0001
0001
fff7
0002
0001
0003
000b
fff8
fffd
0002
fff4
fffe
0000
0004
0004
fffa
ffff
fff9
0007
0006
fffd
fffd
0004
0000
0006
0002
0001
0006
0000
0001
0004
fffe
fffe
0008
0005
fffd
0009
0001
fffa
fff9
0009
fffc
0007
0000
ffff
0002
fffd
fff7
0008
0003
0000
fff8
ffff
0004
0004
0001
0005
ffff
0003
fffe
0004
fffd
fffb
fffe
0003
0001
0001
0001
0003
0005
ffff
0001
0000
0004
0004
0005
0001
fffb
0007
fff8
0000
0008
fff9
fffe
0002
0005
fffb
fffd
0009
0002
fffc
fffa
0009
fffe
fffb
fff8
fffc
0002
0007
fffd
fffa
fffc
fffa
fffe
0003
0008
fff6
fffa
0003
0003
0008
0003
fffc
fff5
fffd
0001
0001
fffe
0002
0001
0002
fffd
0000
0003
0005
fffa
0002
0001
fffe
0008
fff9
ffff
0003
fff0
0005
0002
0008
fffa
000c
fff6
0007
000d
fffe
ffff
fffe
fffb
000d
0000
0000
0001
000a
000c
0003
0001
fff6
fffd
fffa
0007
0002
0001
0006
0004
fff6
fff9
fffe
0000
0005
0006
fffe
fff2
ffff
0002
fffc
0002
fffa
fff5
0007
0006
0004
fff3
0002
fffb
fff7
fffb
fff5
000a
0008
0001
fff6
0003
0002
fffa
fff8
fffa
0007
0003
fffd
fffe
fff9
fff7
0002
0003
0006
0002
0003
fffe
fffe
ffff
0007
fffc
fffe
0001
000e
fffc
fffb
0011
0003
fffd
ffff
0006
fffd
fff0
0004
fff8
fffe
0003
0005
fff5
fffe
0004
0000
fffb
0008
fff9
000b
0000
fff3
fffe
fffb
fff9
fff7
0005
0000
0004
fffd
0011
0002
fff8
fff2
0003
fffb
0003
0008
0004
000d
0005
ffff
0000
ffff
0002
0002
fff8
ffff
fff8
0003
fff9
fffd
fffb
0005
0009
fffe
fff6
fffd
ffff
fff9
0007
0000
0006
fffe
fffa
fffd
000b
000d
0004
0000
000b
fffd
fffb
0000
fffe
0008
0009
0002
000a
0000
ffff
ffff
fff9
0007
fff6
fff2
0001
0005
fffd
0008
0002
fffb
0005
fff8
0003
fffc
fffd
0007
fffa
fffd
fffd
fffc
0001
0011
fff4
0003
fffb
fff4
fffa
0010
fffa
0007
0002
000c
0003
fff2
0000
0001
0004
0000
fffe
fffd
fffa
0004
fff7
ffff
0001
fffd
fff4
fffd
fff7
fffe
0006
fffc
0005
fff3
fffd
ffff
0004
0006
0003
0000
fffe
fffa
0004
0007
fffe
fffa
0000
0007
fffb
fffc
000e
fffe
000a
0007
fff9
0009
ffff
fffe
0003
fff8
0006
fff4
0004
000a
fff8
0001
0005
ffff
0008
0004
fff7
fffe
0001
fff7
0008
0003
fff8
fffd
fffc
0006
0003
fffc
ffff
0006
0001
0000
0006
fffe
0009
0005
fff8
fff9
0002
0003
0002
fffa
0007
fffb
ffff
ffff
fffd
0002
000c
0007
000e
ffff
fffe
fffc
000a
fffd
fff6
0009
0002
fff6
0000
fffd
0004
0004
ffef
0005
0005
0002
ffff
fffa
fff9
fffc
fff2
fffd
fffc
fffb
0002
0001
0002
0008
fffd
0001
0000
0004
000e
0003
fffb
0007
0003
fff9
fffd
fffb
fffe
0006
0004
0004
fff3
fffd
fffd
0005
fff5
fff8
fffc
fff7
0006
0000
0005
0007
000c
ffff
0001
0006
fff6
0000
0002
fffd
ffff
fffc
fffc
fff9
fffd
000b
000b
0000
000c
0005
0001
fffe
fffd
0006
fff6
000d
0001
000c
fff4
fffb
0009
fffc
fff2
fff8
0006
fffd
fffd
fffd
0003
0002
0006
0001
0004
fff9
fffa
fff5
0007
fff5
000b
0006
fffc
ffff
000a
ffff
0003
fffe
0002
0004
000f
fff9
fff9
fffc
ffff
fff3
0005
000c
0008
ffff
0005
fff7
ffff
fff5
fff8
fffe
0008
0001
fffe
fffb
fffb
0008
0006
fffb
0003
0003
ffff
fff7
0004
0007
0006
0007
0003
0000
ffef
fffb
0006
0002
0009
0005
ffea
fff8
fff9
fffc
fffd
0005
0004
fffa
0000
0005
fff7
fffc
fffc
0001
0001
0006
fff9
fffb
0001
ffff
0000
0006
fff4
0003
000e
fffc
fffc
0000
fffb
0002
ffff
fff8
0005
000d
0000
fffe
fffc
000c
0000
ffff
0000
0000
0007
0014
0001
fff9
0007
fffc
0002
000b
0002
fffb
0000
0000
000a
0000
fff8
0008
fff8
0000
fff8
0006
0004
0006
000a
0005
fffa
000a
fff9
0005
0006
0004
fffb
fffb
fffc
fffb
0005
fffe
0004
fff4
fffb
0002
fff7
fffa
fff3
000f
0005
fffa
0009
0006
fffc
0002
0006
fffa
0001
0000
0006
ffff
ffff
000a
fff4
ffff
fff9
0006
0009
ffff
0005
fff5
fff6
0008
fffa
0002
fff8
fffe
fffe
0006
fffc
0005
fffc
fff7
fff8
fff8
fffe
fff5
fffb
fffd
ffff
ffff
0001
000c
0003
ffff
fffb
0002
fffa
0002
0007
fffa
0001
fffe
0008
fffd
0000
fffa
fffa
0004
0002
0004
ffff
0009
ffff
0000
0004
0008
0004
fffb
000a
fff9
0002
fff7
fffd
0002
0006
fffd
fffe
0001
fffd
0005
0005
fff4
0006
fff2
fffc
000d
ffff
0001
0003
fff7
fffe
0006
fffe
0004
0007
fff9
fff7
fffd
0003
0007
000a
0003
0003
0007
ffff
0006
fffc
fff9
fffc
0000
0001
fff8
0000
0003
fffd
fff7
0007
fffc
fff9
0002
fffd
fffe
0005
0003
fff8
0001
0003
fffb
fff1
0004
0008
fff7
0012
fffc
0004
0008
0000
ffff
0000
fffe
fffe
0005
ffff
fffd
fffa
0006
0001
0000
0003
fffe
0006
fff9
0000
0009
ffff
fffd
0002
fff4
0004
0002
ffff
fffe
fffd
0007
fffe
0007
0000
0008
fffe
fffe
0004
0002
fffa
fff9
000c
fff9
fff7
fffc
ffff
000b
0004
ffff
0000
fffd
0000
fffd
fffb
0006
ffff
fffe
fff2
0002
fffc
0007
000a
fffa
0002
0001
fffd
fffc
fffe
fffb
fffc
fffa
000c
0009
fffe
0000
0003
0009
0000
fffa
fffc
0003
0008
fff9
fffe
fff9
fff9
fff7
fffa
0005
0009
0009
fffa
fff7
0006
0001
0006
0001
fffb
0003
0001
000b
fff5
0000
fffd
0000
0001
fffd
0002
fffd
fffa
fffd
0005
0009
fffe
fffc
fffd
ffff
fff4
fffc
fffd
fff5
0002
0001
0010
0001
0004
fff7
fffc
0001
fff9
0003
fff9
000a
0000
fffe
fff9
fff9
ffed
0000
fffe
0008
0002
0003
fffd
0006
fff7
fff6
0009
fffe
fffe
000f
fff6
fffa
fffd
0007
000b
fffe
0005
0004
0003
0000
0009
0008
fff2
0003
ffff
0000
fffa
fff8
fff6
0001
0009
ffff
0002
ffff
0003
ffff
fffe
0006
fffb
fffd
fffd
ffef
0000
fffe
fffc
fffa
fffe
0005
fffc
000d
fffa
0002
fff2
fffb
0005
0000
000a
fffd
fffd
fffc
0001
fff9
0001
0000
0002
0002
0003
fffe
0001
ffff
fffc
0006
000d
0004
fffa
fff5
fffd
fffc
fffc
fff7
fffb
0002
0005
0001
fff3
0005
0008
0000
fffa
0008
fffb
0003
0000
0006
0008
0003
0006
0001
fff9
0003
fff8
fff6
0000
000e
fff9
fffc
0003
0006
fff7
ffff
fffe
000c
fffb
000b
0000
fffa
fffd
fffb
000b
000f
fff3
0007
000d
fffa
0006
fffc
fffc
0004
0000
000b
0004
ffff
fffd
fffa
ffff
fffc
fffa
fffd
fff2
0008
0000
0004
0000
fffb
fffe
0002
ffff
fffd
fffc
fff6
0005
0003
fff6
0001
0001
fffe
0011
fffc
0008
0004
0001
0003
0006
0002
000b
0006
0009
0002
0002
fff7
fff7
0007
ffff
fffc
fffe
fffd
fff3
0007
fffd
fffc
fffd
fffd
0008
fffc
0001
0000
0009
fff9
fff8
fff6
0000
0006
000b
fffe
ffff
fff9
000a
fff3
000f
0006
fff8
ffff
0000
fff8
fffc
0000
0004
0009
0000
fff2
0002
0002
0007
0009
fffb
0004
fffa
ffff
fffc
ffff
0005
fffa
fff8
fff1
fff2
0006
fffd
0003
0001
0004
0002
0005
000b
fffc
0001
fffc
0009
0004
fff8
fffa
fffd
0006
fff9
fff8
000a
0003
0001
0003
0005
0000
fffe
0007
ffff
0000
fff7
ffff
0003
fff9
fff6
0003
0003
0003
0001
fff9
fffb
fffb
0005
0005
fffe
0006
fffc
0000
0009
0004
000e
0001
0000
ffff
ffec
0006
0006
0008
fff9
fffb
0003
0001
0006
fffb
fffe
0012
fffe
0009
fff7
0003
0000
000f
0001
0008
0003
0003
0005
fffd
fffc
0001
fffb
0004
0009
000f
fff3
fff6
0009
fffa
fff9
0000
fffb
0004
fffd
fffa
0000
fff4
0003
0001
0002
fff6
0005
0003
fff6
fffc
0003
0003
0001
fffc
fff8
fff8
fffd
fffa
0002
fff9
0007
fff9
fff8
0004
0007
0000
0008
fff9
fff9
0011
fffc
fffc
000d
0004
fffd
0008
0006
0005
fffe
0000
fff8
ffff
fffd
0002
fffe
fff7
0006
0008
0007
0003
fffc
0006
0007
fff1
fffb
fffe
ffff
0001
fff9
ffff
fff9
0003
0000
fffe
0000
fff8
0001
0000
ffff
0000
0002
0007
0003
000d
fff8
ffff
fff8
000c
0005
fffc
000a
ffff
0007
fffe
0004
fff9
0003
0006
ffef
0009
fff7
000a
fff9
0005
0006
0004
fffe
fffc
0002
fffd
fff5
fffb
0002
000c
fffd
0015
ffff
000a
fffb
0002
ffff
0008
fff1
0005
fffa
fffd
ffff
000a
0001
fffb
fff8
0005
fffe
0002
fff8
ffef
fff1
0009
fffc
fffc
fffa
fffe
0011
0008
fffb
ffff
fffc
fffb
0007
fffc
0004
fff5
0005
0000
000b
0008
fffc
0006
0000
0006
fffa
fff8
0004
fff9
fffd
0006
0003
0008
fffe
fffa
0006
fffc
0002
fffe
fffc
fffa
0003
fff7
fffa
0004
fffe
0001
fffd
0001
fff8
0009
0002
fffb
0002
0003
0001
0006
0001
0001
fffe
fffa
0002
0007
fffb
0001
0001
0004
fffa
0004
fff6
fffc
fffc
fffe
fff8
fff8
fffb
000c
0004
0003
0005
0005
fffa
0001
0008
000f
0000
0004
0003
fffd
ffff
0000
fff7
fffb
0008
0003
fffb
fffe
fffc
fff9
ffff
0001
0007
0008
fff8
0005
fffc
0006
fff6
fffa
ffff
fff3
0003
fff8
fffa
0002
fff8
fffa
fffb
000b
fff8
fff7
0007
0001
0001
fffd
fffa
ffff
fff9
fffb
0004
0003
0005
0008
0004
ffee
0008
0000
0002
0008
0009
0009
0003
0004
0001
000a
000c
000d
0005
fffd
fff6
fffc
fffa
fffd
000a
0002
ffff
0003
0005
0002
0001
0001
fffc
000a
0002
ffff
ffff
0000
0003
fffb
0001
fffd
fffc
ffff
0007
fffe
0007
fffb
fffe
fffd
0000
0003
fffd
fffc
0000
fffb
ffff
0004
ffff
ffff
0004
0002
fff7
000a
0000
0004
0003
0008
fff7
0002
0001
0009
fffc
0002
fff6
000d
fffc
0002
0002
0002
fffa
fffd
fff9
0002
fffc
fffb
0000
0002
fffa
fffc
fffe
0004
ffff
fffa
0001
000d
fff6
0003
fffb
000a
0001
fffc
fffb
000a
ffff
0006
0008
0007
0007
ffff
0004
fffd
0005
000f
fffc
0005
fffc
0009
0000
fffc
ffeb
ffff
0001
fffb
0004
fff6
0003
fffc
0000
fff4
0004
fffc
fff9
0009
0001
fff7
0005
fff6
000a
fff9
000a
0004
fffd
fff4
fff9
fffa
fff9
0001
fffc
0004
fff8
0004
0009
0004
0001
0003
fff4
0003
000a
fffb
fffe
000b
fffc
fffb
fffd
0006
fffb
0007
0009
ffff
000b
0005
fffd
0003
0003
0001
ffff
fff8
fffa
0000
fff4
fffd
0000
0001
fffa
0005
000a
fff5
0004
0001
ffff
0002
fff8
fffb
0003
fffc
fff9
0003
0001
fffd
0008
ffef
000e
fffe
0002
0009
fff8
fffb
000d
fff0
fff8
0003
fffc
fffd
fff6
0003
fffa
0000
0003
000a
0004
0001
0007
0012
0003
fff9
fff7
0002
0007
0002
0000
fffa
0002
0008
0003
0006
000b
0000
0007
0004
fffe
fff6
fffb
ffff
fff7
fff9
000a
0000
fffe
fffc
0004
fffd
fff9
fff9
fffe
fffd
0005
fff1
0000
fff1
000d
0007
0002
0000
fff6
fffa
0001
fffe
fffb
fffc
0008
0001
0002
fff3
fff9
fffc
fffb
0000
0004
0006
fff7
0003
0005
0004
fffa
000d
000f
fffa
0009
0005
fff9
0000
0000
fffb
0007
0001
0007
fffd
0001
000c
fff5
fff5
ffff
fff9
0001
000a
0008
0012
0002
0003
fff5
ffef
fff3
000d
0001
0000
0003
0005
0004
0001
fffc
fffb
0000
fff8
0005
fff8
ffff
fffa
0002
fffe
0001
fffd
0000
0003
0008
fffd
fff5
0006
0007
0008
fff9
fffd
fffc
0001
ffff
fff9
0004
ffff
fffe
fffd
fffe
0007
fffd
0003
0001
fffe
0001
0001
fff7
0005
0005
0006
0000
0003
fffb
fffa
fffc
0004
ffff
0009
fffb
0003
0001
fff8
fffb
0009
fff8
0001
0000
0008
0002
fffa
0004
fffc
fffc
fffe
0003
0007
ffff
0001
fffc
0003
0001
0001
fffb
fffa
0001
fff9
fffc
fffe
fff9
0006
0002
fff9
fffb
0000
0000
0000
fff8
fffd
ffff
fff5
fffd
0003
0001
0001
0000
0007
fffe
0003
fffc
0004
0001
0004
0003
0008
000a
0003
0004
000b
fffc
0001
fffb
fff3
000a
fff8
0007
fff7
fffc
0000
0005
0004
fff9
0004
fffc
fffa
fffd
fff8
fff8
0000
0002
fffb
0004
000e
fffa
fff4
0000
fff8
0008
0005
fffc
000d
0007
fffe
0003
0001
0006
0002
0004
0000
0009
fffd
fff9
0005
ffff
0003
fffa
fffa
fff4
0001
fffb
0002
000e
fffc
fff9
0012
0002
0009
fff9
ffff
fff5
fffd
0008
0005
0003
fff9
fffe
0002
fffd
fffb
0009
fffc
0004
0006
0004
0002
0007
fff7
fff9
0003
0005
fffa
0001
fffc
0003
0000
fff5
000d
fffb
0001
0008
fff7
fff5
fffd
0009
0003
ffff
fffe
0003
0000
fff5
fff7
0004
fff5
ffff
fffb
0001
fffa
fffc
0002
fffc
000a
0003
0004
ffff
0008
0004
0007
0001
0009
0002
0000
0007
0004
0001
0006
0003
0004
ffff
fff5
000c
0000
0005
0004
0003
fffd
ffec
0010
0001
0005
fffc
fffa
0000
fffa
0012
fff7
0003
0001
0000
0003
fff8
ffff
fff8
0009
ffff
fffe
fff4
fff9
fff8
ffff
ffff
0006
fff5
fffb
ffff
fff6
0002
000a
fff6
0000
0003
0004
fffc
fffb
fffd
fffb
0005
0004
fff4
fff6
fffc
0002
fff6
0002
fffe
0002
ffff
0000
000b
ffff
fff6
0008
fffb
0006
fffb
0002
fff9
0004
000f
ffff
fffd
0002
0001
0003
0000
0008
0001
fff7
fff9
0002
0009
fffe
fffb
0001
0004
fffc
fff6
fffc
fffa
fffc
fffe
0001
0000
0005
0006
fffe
0007
fffc
fff2
fff7
0004
ffff
0007
fff2
0006
0004
0005
0009
fffe
0001
fffe
0002
0008
000c
fff4
000d
fffc
fffe
0004
0002
fffe
0001
0001
fffd
0002
0002
0011
0003
fff3
0006
fffd
fffe
0005
fffb
fffc
fff9
0001
fffb
fffd
0006
0004
fff6
0002
fff8
fffa
000c
ffff
0006
fff6
000a
fffc
0002
0002
0006
fffa
0005
0001
0003
fffd
0008
ffff
fffc
0006
fffe
fff6
0005
fffe
0001
0003
0001
0002
0000
0002
fffa
0004
fff5
0001
0002
0009
0008
fff8
0008
fff9
0003
fffe
0007
0001
000c
0002
fff6
ffff
0004
fffd
0000
fffe
0003
0000
fff7
0007
0007
fffe
0005
fffe
000a
0000
fffb
0003
fffd
fff5
fff5
ffff
ffff
fff9
0009
0006
fffe
fff9
0008
0007
fffe
fffc
0005
fff8
fff3
0006
0003