ffff
fffd
fffc
0000
0003
0004
ffff
0006
fffc
0002
ffff
0000
0005
0002
fffe
0004
0003
ffff
0004
fffe
0001
0005
0001
0003
0000
000a
0005
fffd
0005
0008
fffc
0002
0001
0002
fffe
0002
fffc
fffb
fffc
0002
0002
fff9
fffb
fffc
0001
fffb
ffff
fffa
0001
0004
fffe
0002
ffff
fffe
fffc
0001
0002
0006
0002
fff7
0006
0001
0005
0001