0144
0133
0136
0159
0154
0165
013c
012c
0139
0143
014f
01b6
0157
013c
0159
013b
0165
0143
0133
0148
0145
0146
0155
016f
0141
0138
014d
012b
015f
0133
013d
0140
0137
0146
0136
0144
0143
014b
0144
0140
0132
013c
012a
0143
0152
0176
0140
0135
0150
014d
0152
0147
012c
012a
0145
013d
013a
0149
012c
0158
0151
014b
012d
0143