ffff
0006
fffd
fffa
fffd
0000
0001
fff8
fffb
fff9
0005
0002
0006
0001
0000
0000
fffb
fffe
fffd
fffc
0001
0004
fffa
fffd
0001
fffe
0004
0001
fffe
0005
ffff
0002
0007
0004
ffff
fffe
0004
fff5
0006
0000
fffb
0001
0009
0001
fff8
fffd
0001
ffff
0004
0001
fffa
fffc
0002
fffb
0001
fffe
fffc
fff9
fffa
fff9
0006
0003
fffd
ffff
0007
0000
0000
0006
fff8
ffff
0006
0002
0006
0001
0002
fff6
000a
0002
fffe
0003
ffff
0004
fffd
0006
0001
fff9
ffff
fff8
0003
0000
0000
0000
ffff
0004
ffff
ffff
fff8
0007
fffa
0005
0003
fffd
fff5
fffb
0006
0007
fffc
fffd
0000
fffe
0002
0000
0001
0003
fffe
0001
fffc
0002
fffa
fffe
0003
fff4
ffff
0003
fffb
fffb
0004
0003
0002
0002
fffd
fffe
0007
0002
0007
0003
0004
0006
0000
fffc
fff5
fffd
0000
fff2
0005
0001
fffe
0003
fffe
0005
0005
0002
0007
0006
fff9
fffb
fffe
0002
fffa
0003
ffff
0003
0009
fffe
0005
ffff
ffff
0002
fff9
0002
0007
fffe
0004
0002
fffc
0003
0005
fffb
000a
fff8
fffd
0000
0004
fffe
fff4
fffd
0005
0008
0000
fffe
0006
fffe
fffd
fff7
ffff
fffa
0006
fffe
fffc
0001
ffff
ffff
0004
0002
fff9
0004
0000
ffff
0003
fffc
fffe
0005
fffc
0007
fffa
fffe
0002
fffe
fff8
0000
0007
fffc
0005
fffe
fffe
fffb
0003
fff8
fffe
0003
0003
fff7
fffa
fffb
0006
ffff
fffe
0000
0004
0003
fffc
fffa
fff8
0003
0003
0001
0002
0000
fffb
0005
0002
0002
fffc
fffd
000c
0004
fffc
fffd
0005
0000
fffc
0000
fffc
fffa
0003
0002
0002
0002
fffd
0002
0003
0005
fffb
0000
fff5
fffb
fffb
0004
fffe
fffe
0004
fffe
fffc
000a
fffd
0003
fffc
0000
fffa
fffb
fffd
0004
fffb
000a
fffd
0009
fffc
fffb
fffc
000a
fffb
fffe
fffd
0003
0008
0000
0006
0008
fffd
0004
0000
ffff
0003
0003
0002
ffff
0005
fffe
0001
0005
0004
0004
fffd
fffd
fffd
ffff
fffd
0001
0000
0002
fffd
0008
0001
0003
fff9
fffe
0003
0002
0002
fffa
fffc
0006
0005
0000
0002
0003
fffd
0009
fffb
0002
fffd
fffb
fffd
fffa
0005
0003
0000
0008
fffb
0001
fffd
ffff
fffc
0000
0004
0002
fffd
0007
0003
0000
ffff
0002
0007
0002
0008
0005
0005
0006
fffd
fffe
fffc
0000
0008
0008
0002
0003
0001
0000
0000
0000
0005
0007
fff5
000a
fffd
ffff
fff4
fffa
fffe
0005
fffe
0001
0001
0002
fffd
fffe
fffd
ffff
0004
0008
fffe
fffa
fffe
ffff
ffff
0002
fff8
0001
fffe
0007
fff7
000a
fffe
ffff
ffff
0000
0006
ffff
0000
fffe
fffd
0002
fffe
0002
0002
fffc
0003
0002
fff8
fffb
0002
fffc
fffe
fff9
ffff
0002
0003
fffb
0003
ffff
ffff
fffe
0006
fffc
fffb
fff7
ffff
fffb
0000
0003
fffd
fff9
ffff
0000
ffff
0003
fff0
0008
fffa
0005
0004
fffc
ffff
0000
0004
fffa
0000
0001
0006
fffe
fff9
ffff
0004
0005
ffff
0002
0008
0002
fff9
0005
0004
fffe
ffff
fffa
0003
0000
0001
fff9
fffd
fffd
0001
ffff
0004
0007
fffe
0003
fffa
0003
0003
fffd
0000
0000
0002
0003
ffff
0004
fffe
0003
0001
fffe
fffc
000a
0000
0000
0002
fffc
0001
0000
0001
0006
fffc
fffe
ffff
0003
0002
fffc
0005
0001
fffd
ffff
0003
0001
fffe
fffe
0004
fff8
fffd
0002
fff3
fff9
fffc
fff8
ffff
fffd
fffc
0003
0004
0001
fffb
0002
fffa
fffe
fffd
0005
0004
ffff
fffb
0002
000a
000a
ffff
0006
0005
0004
0003
0004
ffff
0006
fffb
0002
0005
fffc
0004
fffe
0000
fffc
ffff
0003
0001
0002
0002
ffff
ffff
0007
fffd
ffff
0002
fffe
fffc
0004
fffe
0002
0005
0000
0001
fffe
0005
fffa
ffff
0003
fffe
fff9
0008
0004
0006
fffc
fffa
0000
fffd
fffb
0006
0000
0002
0006
0003
fff9
ffff
0007
0000
0000
0003
fffc
ffff
0004
ffff
fff9
0004
0004
0003
0004
fffe
fff8
0001
0000
ffff
0004
0003
fffe
fffb
0003
fffb
0003
0002
0000
0002
fff7
fffe
0004
0000
fffc
0002
fffe
0007
0002
0001
0002
0004
0002
fffc
ffff
fff6
0001
0002
fffd
0002
0003
fffa
fffd
fff9
ffff
0005
ffff
000a
fffe
fffe
ffff
fffd
0003
0003
fffd
fff8
0002
fffd
fffc
ffff
0006
fffe
0004
fffb
0003
0002
fffe
fffa
0004
fffd
fffe
0001
fffc
ffff
0000
0006
fffc
0005
ffff
0002
fffb
0001
fffc
fffd
fffd
fffb
0000
fffa
0007
fffc
fffe
fffc
0001
0002
fffb
fffb
0000
ffff
fffe
fffa
0002
fffb
fffa
0001
0003
0005
0003
fffe
fffe
fffc
0003
0001
fffb
fffb
0004
0001
0001
0009
0004
0005
fffe
0002
0007
fffe
0003
fffb
0001
fffe
ffff
fffc
fffd
0002
0001
fffe
0002
ffff
0001
0000
0001
0001
0001
0004
0000
0008
fffb
fffe
0002
ffff
fffa
fffe
fffd
0007
0002
0004
ffff
0001
fffd
fffc
0008
0006
0001
0001
0002
fffa
0002
fffd
ffff
fffc
fffe
fffb
0002
0000
0004
0000
0000
0000
0007
0004
fffc
ffff
0006
fffe
0004
0002
fffc
fffb
0001
0000
0007
fffe
fffb
0002
0002
0007
fffc
fffe
0000
0004
fffd
fff7
fff9
fff9
ffff
fffe
fffa
fffb
0000
fff9
0002
0006
0002
fffe
ffff
0005
0000
fffd
fffb
0000
fffd
fffc
0000
fffe
fffd
fffe
ffff
0002
fffb
0001
fffe
fffc
0000
0000
0000
fffd
ffff
0001
fffc
0000
ffff
0007
fffe
0007
ffff
0003
0002
0000
fffb
ffff
ffff
fffb
0005
0005
0005
fffc
fffd
fffc
0005
fffe
ffff
0002
fffe
0001
fffe
0001
fffa
ffff
fffd
fffc
0001
0002
fffd
0005
fffc
0001
fffd
fffc
0002
0006
0003
0006
0004
0004
fffe
0003
fffe
0001
0004
0001
0001
0000
0002
0006
fff8
0003
fff8
0005
0007
fffe
0003
fffa
fffc
0000
0007
0003
0004
0000
fff9
0002
fffe
ffff
fffc
fffc
ffff
0002
fffe
0000
fffe
0002
fffc
0005
ffff
fffe
0005
0000
ffff
fff3
0005
fffe
0003
fffe
fffd
0003
0000
0009
0002
0002
fffb
fffc
0002
0009
0005
0006
0002
fffc
ffff
0001
0002
0008
0002
0002
fffb
ffff
fffe
fffb
0000
fffb
fffc
0006
0002
0005
0004
0000
0003
0007
fffc
fffd
0000
0000
fffe
000b
fffc
fffd
fffe
0004
0002
fffd
ffff
0002
0000
0004
0003
0007
fff8
0000
fffb
0002
0003
fffb
0002
fffa
fffe
0005
fffd
fffb
fff9
fffb
0004
fff7
fffc
fffc
fffc
ffff
0003
0005
0007
0000
0003
fffd
fff9
0001
0001
fff8
fffb
0004
0001
ffff
fffb
0003
0001
fff7
0001
0005
0001
0002
ffff
000a
0004
0001
0005
0005
0003
0005
fffc
0003
0006
0003
fffd
ffff
fffe
0000
fffd
0002
0000
fffe
fffa
fffd
0004
fffe
ffff
0002
fffe
0003
fffb
0001
0003
0003
0000
ffff
ffff
0002
fffd
0000
fffd
fffd
fffe
0001
ffff
0004
ffff
0008
0001
0001
0002
0003
fffc
0006
fffb
fffc
0004
fffb
fff7
0001
0002
ffff
fffd
fff9
0004
ffff
fffc
ffff
ffff
0000
0003
ffff
0009
fffb
ffff
fff9
0005
fffb
0006
0003
ffff
0004
fffd
0005
fff8
0004
fffc
fffa
0003
fff9
0007
fffa
fffe
fffd
fffa
0003
0005
0004
ffff
fffb
0008
ffff
0006
fffe
0002
0003
ffff
0004
ffff
0000
0001
0003
fffe
0002
0003
0002
fffd
ffff
fffb
ffff
0003
fffd
fffe
0001
0000
0000
0003
0000
0006
0000
ffff
0009
0002
0006
fffd
0000
0003
0001
fffc
fffb
0000
fffb
0005
0009
fffe
fffb
0000
0003
0005
0009
0003
0007
fffe
fff9
0003
0000
0002
ffff
fffe
0008
0005
fffd
0004
fffe
0000
0001
0007
fffc
0000
fffe
fffc
fffc
0001
0004
0000
ffff
fffd
0004
0000
0003
0002
0002
0001
0003
fffe
0000
fff6
fffe
0005
0006
fffc
fffe
0001
0006
fff6
fffa
fffe
0003
0006
0002
0006
fffc
0001
0000
0002
0005
0007
ffff
0000
0002
0000
0002
fffa
0007
fffb
fffb
fff6
fffb
fff9
ffff
fffc
0005
ffff
0005
ffff
0003
0001
fff7
ffff
0001
0002
fff7
0002
0000
fff8
0006
0001
0000
0004
0002
0000
fff7
fff9
fff9
0003
0002
0000
fff6
0004
0002
ffff
fffa
fffb
0002
0005
fffd
0000
0002
0004
fffe
0001
fffd
0000
fffe
fffd
0000
0008
0000
0000
0004
fffa
0004
fffd
0000
0004
0004
fffe
0000
fffc
fffe
0008
0000
fffe
fffd
fffa
0005
0000
0000
fffc
0002
0004
0002
fffe
fffc
0007
0004
0000
fffe
0001
fffd
ffff
0007
0000
fffb
0000
0003
0002
0003
fffe
0003
0001
0005
ffff
0002
0001
0008
0003
fff6
0002
fffe
0006
fffc
0000
ffff
0000
fff7
0000
0003
fffd
0000
0003
000a
ffff
0000
fffb
0001
0007
0003
fffb
fffd
fffb
ffff
0008
fff9
fffa
0000
0001
0004
fff6
0000
ffff
0000
ffff
0005
ffff
0005
fffd
fff9
fffc
fffe
ffff
0008
0003
0005
0000
0001
ffff
fffc
fffe
ffff
0003
fffb
0001
0001
fffa
0000
fffe
0002
ffff
0000
fffa
0001
0007
0006
ffff
0000
fffc
fffe
fffd
0001
0000
fffd
0002
0008
fffc
0002
fffb
0003
fffe
0006
fff9
0001
0004
0002
ffff
0004
0004
fffe
0005
0003
0000
0001
0000
0003
0007
0005
ffff
0002
0001
fffe
fffb
0000
0007
0001
fffe
fffa
fffe
0003
0001
0002
0003
0001
fffe
0000
fffd
0001
fffe
fffc
ffff
fffb
0002
0003
fffc
0002
0002
0000
0007
fffd
0000
0001
fffb
0001
0003
0004
ffff
0002
0003
fffe
fffa
0003
0001
fffe
0004
0003
0002
0002
fffd
0006
0004
ffff
0007
0002
fffc
0001
fffd
fffc
0009
0003
fffe
fffd
0004
fffd
0001
ffff
000b
0002
fff6
0001
fffc
0000
fffe
0004
000a
0004
0000
0002
fffc
ffff
0000
0009
0001
0007
0000
0000
0001
0000
fff5
fffd
ffff
fffd
fffb
0004
fffb
ffff
0001
0001
fffe
fffe
0003
fff8
0005
0002
fffd
0003
0005
fffa
0000
0003
fffc
0000
0003
fffc
0001
0005
0000
0002
0002
fffc
fffb
0003
fffe
fffa
0001
0004
0002
0001
fffa
0008
fffa
0005
0007
fffb
0001
fffe
fffe
ffff
0002
0001
0005
ffff
fffd
0002
fffe
0002
0005
fffd
0003
fffd
fffd
0004
0004
0002
0000
0002
fffa
0002
0000
fff5
0007
fffc
0000
0008
fffe
0009
0001
fffe
0001
0004
fffd
0006
0001
0003
0000
0000
fff5
ffff
fffe
0000
fffd
fffd
fffe
fff9
fffe
fffc
0006
0000
0004
0004
0000
0001
fffe
fff8
fff8
0006
fffc
fffd
0001
0001
fffe
0006
0005
0000
fffb
fff5
fffa
fffe
0001
fffe
0001
fffd
fffb
0005
0007
fffe
0000
0003
fffe
ffff
0006
0003
ffff
0006
0003
0002
fffb
0002
0007
0000
0002
0002
0001
fffd
0009
0005
0003
fffd
ffff
fff9
fffb
ffff
fff8
0004
0000
0000
fffe
fffe
0002
0006
fffb
0006
0000
fffd
0000
0000
0000
0002
0009
0006
0002
fffc
0001
0002
0004
ffff
fff6
0004
0004
fffb
0001
fffa
0000
fff9
fff8
fff9
fff9
0001
ffff
fffd
0004
fffe
0005
0007
0007
fffe
0002
0007
fffe
fffc
fffd
0001
ffff
fffe
0001
0000
0001
000b
0000
fffa
fffa
0002
fffd
0002
0000
0000
0002
0001
0003
fffd
0005
fffe
0001
0000
fffe
0000
0001
ffff
fff9
0004
fffc
fff9
0000
000a
0003
0003
fff9
fffa
0002
0005
0000
0006
fff5
0000
0002
0004
0004
0000
0000
0002
fffb
0003
0007
0007
fffe
0001
fffc
ffff
fff8
0002
0001
0002
0009
0000
0002
0004
0001
0000
ffff
fffa
0002
fffd
fffb
0005
fff3
ffff
0006
0002
fffe
ffff
fff8
0002
0005
000b
fffa
fffe
fffb
0005
0000
0000
fffe
fffe
0000
0005
0005
0002
0002
fffe
0004
0004
0001
0004
0001
fffd
0000
0000
fffe
0004
0005
fffc
0002
0007
0005
fffd
0000
fffa
0008
fffe
0000
0008
fff9
fffa
fffe
0000
fffa
fff8
fffd
0000
0001
0000
0002
ffff
0005
fffe
0004
0005
fffc
fff7
0000
0003
ffff
0006
000d
0003
0004
fff9
fffb
0002
0003
fffd
0000
0006
fffd
0002
fffe
fffe
fffc
ffff
0003
ffff
0000
fffb
fff5
fffa
0001
0004
0003
fffe
fffd
fffb
0002
fffe
ffff
0004
ffff
fffd
0001
fffc
0000
0004
ffff
0000
0000
fffc
0003
fff9
fffd
0008
0006
0006
0000
0004
0004
fffb
ffff
ffff
fff4
fffc
fffd
fffa
0003
fffa
fffe
0004
fffe
0008
0000
0004
fffd
0000
0009
fffd
0005
0005
fffa
0000
0008
fffc
0004
0000
fffe
0001
0003
0001
fffe
fffc
0000
0005
0000
fffb
fffd
fffc
0002
fffe
ffff
ffff
fffa
0000
ffff
0004
fffe
fff6
fffd
ffff
ffff
ffff
0006
0003
fffc
fffd
fffe
0003
fffc
fff5
0003
0009
fffe
0002
0006
0004
fffb
0003
fffc
fffb
0004
0001
fffc
0008
0007
0000
fffb
0003
fffd
ffff
0004
0001
0002
0002
fffa
fffa
fffc
fffb
fffe
0005
fff7
ffff
fffe
ffff
0000
0001
fffc
fffb
fffb
fff7
fffb
fffe
fff9
fffd
fffd
0001
0001
0004
fff9
0002
0002
0004
0000
0006
0004
ffff
fffc
0003
fffa
fffe
fffd
fffc
0003
ffff
fffe
fffd
0002
fffc
0000
000c
0004
0009
fffd
0005
fff9
0001
fff9
0006
0006
fffb
0009
fffb
0008
ffff
0006
0002
fffd
0008
0001
0004
fffc
0002
ffff
fffe
0002
0001
0006
0004
0007
0008
0002
ffff
0005
0001
ffff
0003
fff9
ffff
0000
0001
0000
0000
0003
0008
0004
fffd
0006
fffb
0005
fff4
0000
0000
0001
fffa
fffe
0002
0000
fffc
0003
fffd
fffa
0003
fffb
0001
0004
fffe
fff9
0001
fffd
ffff
ffff
0007
0001
fffb
0005
fffe
fffd
fffc
0003
0000
fffb
0008
000a
0001
ffff
fffe
0009
fffe
0006
0006
0002
fff7
0001
0000
0002
0000
ffff
0001
fffd
0001
0004
fffb
fffd
fff8
fffe
fffa
0005
0003
0004
0003
fffc
fffd
fffd
fffc
0000
fff7
fffc
fffd
fffe
fff7
ffff
0000
0000
fffc
0000
fffd
fffd
fffd
0002
fffb
0002
0004
0002
0006
0004
fffe
0001
0006
fffe
fffb
fffc
0004
ffff
ffff
0008
0000
fffd
0004
fff9
ffff
0000
0006
0006
ffff
fffc
fffe
fffc
0005
000a
0002
0004
ffff
0006
ffff
0001
0007
0002
ffff
0005
fffe
000a
0005
0003
fff9
0001
fffd
ffff
fff8
0003
0002
0000
0002
0005
fffa
fffc
fffe
0003
0002
0003
fffc
0005
fffa
000a
fffc
0008
0003
0002
fffc
0003
ffff
fffd
0004
0007
fffd
0001
fff5
fffb
0003
0000
0005
000b
0000
fffe
0002
ffff
0002
0004
0002
0000
0000
fff6
fffc
fffd
fffd
0009
0001
fffa
ffff
0003
0000
0009
fffd
0002
0002
fff9
0006
0003
fffe
0007
fffa
0000
0005
ffff
fffd
ffff
fffd
0002
ffff
fff8
0003
0001
0001
0003
ffff
0001
fffd
ffff
0000
0005
0006
0005
fffe
0004
0005
ffff
ffff
ffff
fffe
0003
0006
000a
fffe
fffe
fffa
fffb
fffc
0003
0001
fffa
ffff
fffd
0003
0004
fffb
0000
ffff
0000
fffd
fffd
fffe
000b
fffa
0002
0000
0005
fffc
fffe
0000
fffc
fffc
0000
0000
fff9
0004
0000
0004
0007
fffb
0001
fffe
0000
ffff
fffd
0004
fffd
0004
0004
fffa
fffc
fffa
ffff
0002
0008
0005
0000
0003
fff8
0001
0004
0003
0000
0002
ffff
fffd
0006
0003
0000
0001
ffff
0000
fffb
0003
fffd
fffa
0001
0000
0005
0005
fffd
0001
fffe
0002
0000
0003
0002
fffa
0002
fffe
ffff
0000
fffc
0004
0006
ffff
0003
0003
0003
ffff
0001
0004
0003
0004
0000
0001
0006
0001
fffe
fffb
fffb
fffb
0007
0000
fffe
fffc
0002
0003
0004
0000
fffc
fff8
0008
fffe
0000
0005
fff9
0002
0008
0006
fff9
0000
ffff
fffc
fffc
fffc
fffd
fffc
0007
ffff
0002
0008
ffff
0005
0006
0002
fffa
0005
0000
0002
0000
ffff
fffc
0000
0005
ffff
0001
0001
fffe
0001
fff8
0001
fffb
0002
0006
0002
0003
0000
0004
0003
fffd
fffb
fffb
fffb
0004
fffc
fffe
0008
0001
fff7
0001
0001
0004
0007
0002
0004
0002
fffc
0004
fffd
000a
fff8
0001
0005
0003
0001
fffb
0005
ffff
0004
0001
fffc
fffe
0003
0004
0009
fffc
0001
0008
fffd
fffd
0000
ffff
0008
fffb
0004
fffe
0003
0006
fffa
fffe
0000
fffb
ffff
0000
fffb
0009
0002
fffa
ffff
0006
fffd
fffd
0000
0003
fff9
0007
fffd
0008
fffd
fff8
0003
fffd
fffc
0008
0001
0005
fffe
fffc
0001
fffe
0006
fffd
fffc
0003
ffff
fffc
0003
fffc
fffe
0007
0002
fffc
0002
fffd
fffc
ffff
0000
fff5
fff5
ffff
fffc
fffe
0002
0001
0001
ffff
fffa
ffff
fffb
0005
0000
0002
0001
fffa
fffc
fffe
fffe
fffe
fff8
0002
fffd
0001
ffff
0000
0000
fffe
0004
0001
ffff
fff4
0007
fffd
fff9
0001
fffe
0002
fffa
0003
ffff
0002
ffff
0002
0007
ffff
fff5
fff9
0000
fffe
0000
0002
fffd
ffff
fffb
fffa
fffb
fffa
0005
0007
fffc
0007
fffc
0008
0003
0001
fffd
0001
fffe
fffb
0008
fff8
0002
fffa
fffe
ffff
0007
fffa
fffb
0001
0005
ffff
0001
0002
fffa
0003
0000
0007
fffb
0007
fffe
ffff
0001
0001
ffff
fffa
0000
0005
ffff
fffd
fffe
0002
0001
0002
0004
fffd
fff7
ffff
ffff
fffc
fffa
fffe
0000
0006
0009
fffc
0006
fffc
fff9
fffb
0006
fffb
0003
fff5
0000
0001
fffe
ffff
0002
fffe
0004
fffe
0003
ffff
0001
0003
fffe
0006
0004
fffe
0002
0004
0002
fffe
0005
0007
0002
0002
0009
0002
0001
0003
0004
fffd
0006
0006
0001
0000
0000
fffe
0000
0002
fffd
0008
0005
0002
fffc
fffe
0003
0001
fffd
0000
0005
fffa
0002
0003
0000
000d
0005
0005
fffa
0000
0007
0006
0006
fffc
0004
fffd
fffc
0000
fffb
fffc
0004
0002
000b
0000
0001
0000
0001
0001
fff7
fffe
0006
0000
0003
0000
fffd
0007
fffd
0003
fff8
0000
fffc
0005
0001
0003
fff7
0002
fffc
0000
fffe
0000
fffd
0004
0000
0001
fffe
0003
0002
fffd
fffc
0000
0006
0003
ffff
0001
0000
0004
0004
fffe
fff7
fffe
0005
fffd
fff8
0001
0001
0001
fff9
fffc
fffe
0003
0004
0005
0000
fffe
fffd
0000
fffd
fffb
fffb
fffe
fffd
fffa
0001
0001
0000
fffc
fffc
0009
fffc
0002
0000
0004
fffe
0003
0003
ffff
0000
0000
0001
0002
0002
0000
0004
0002
0001
0002
fffd
fffb
0002
0004
0002
0001
0002
fff6
fff9
0002
fffc
0005
ffff
0000
0005
0005
0001
0000
fffd
0001
0002
0003
0002
0000
fffc
ffff
fffc
0000
fffc
fffe
0005
fffd
0005
0001
0000
0001
fffe
0001
fffb
ffff
fffb
ffff
0001
0000
0003
ffff
fffc
fffe
fffd
ffff
0000
ffff
fffd
fffd
0001
0001
0002
fffc
0003
fffd
0005
fffb
0002
0000
fffb
0005
0001
0003
fffa
fffb
0000
0002
0000
fffc
0006
0001
fffd
fffb
0004
fffd
0004
0003
ffff
fffe
0005
0000
fffc
fffe
fffd
fffc
fffe
0004
0000
fffd
0002
ffff
fffe
fffe
0004
0003
ffff
0004
fffb
fffe
fffa
fffc
0000
0001
0002
0000
fffb
fffe
0007
0002
0001
ffff
fffc
0003
fffc
0007
fffb
0000
fffc
fffb
0000
fffb
0001
ffff
0008
ffff
0004
fffb
0004
0001
fffc
fff9
0001
0001
fffe
0000
ffff
fffb
ffff
0003
fffa
ffff
fffc
ffff
fffd
0006
0005
0000
0005
0003
fffe
0003
0000
fffe
0001
0005
0008
0004
0000
0002
0001
fffe
fff9
0004
fffa
0001
0008
0000
fffa
0005
0007
fffe
fffa
0009
0000
0000
0000
fffe
0003
fffa
fffa
0003
0001
ffff
0001
0001
0005
0004
0001
fffa
0001
0000
0002
fff8
0003
0003
0000
fffd
fffe
0004
0002
0002
0000
fffe
0001
0002
0003
0002
fffe
fff8
0004
fffb
ffff
0001
0002
fffc
fffb
fffb
0007
0002
fffc
ffff
fffe
0003
fffd
0001
0005
ffff
0005
0003
0000
0003
0006
0000
fffd
fff5
0000
0004
fffb
0007
0000
0000
fffc
0002
fffe
fffc
0001
fffc
0002
0004
0001
0005
fffa
0005
0006
0001
fff5
0005
fffa
0002
0002
0003
0000
fffb
0001
ffff
0001
ffff
fffb
0003
0003
0006
0006
0000
ffff
fff8
0000
fffa
0002
fffc
fffd
0006
0003
fffb
fff9
0004
ffff
fffd
0000
0004
fffb
0008
0005
0003
0001
fffa
fff8
fffb
ffff
fffb
fffd
0000
0000
0008
0003
0000
fffc
0006
fffc
ffff
0004
0000
ffff
0003
ffff
0000
fffb
ffff
ffff
fff4
0006
fffc
0002
fffb
fffc
fffb
0005
ffff
0001
fff9
0004
0003
fffa
fffd
0002
ffff
0000
0001
0002
fff9
0003
0006
ffff
0002
fffd
fffd
fffb
ffff
0002
fffe
0002
fffa
fffb
0004
ffff
0004
0002
ffff
fffc
fffd
0003
0003
ffff
000a
fffd
ffff
0001
ffff
fffe
0002
fffa
fffb
0000
0003
fff8
fffa
0002
0004
0001
0002
fffd
0004
0002
fffe
ffff
0000
ffff
ffff
0007
fffc
0000
0007
fffa
0002
0004
0002
fffe
fff8
0004
fffa
0001
0002
fff7
fffd
0009
fffe
0000
ffff
0006
fffa
fffa
0003
0000
fffd
fff9
0008
fffd
0007
fffc
fff8
fffa
fffe
0002
0004
0001
0002
0006
0000
0003
0006
0003
fff5
0001
0005
fffd
fffc
fffb
0004
fffb
0000
0004
0001
0001
0002
0001
0001
fff8
0000
fffd
0005
0000
fffa
fffc
0003
0007
0001
0001
0001
fffa
ffff
fffa
fffb
fff8
0006
fffd
fffe
fffd
fffb
0001
fffd
0008
0000
0002
fffb
fffd
0001
fffb
0002
0003
0002
0000
fffd
0002
fff9
0004
0000
000a
fffc
0002
fffe
0004
0006
fffc
0001
ffff
fffe
fffe
0002
0001
fff9
fff9
0001
ffff
fffd
fffb
0001
0002
fffc
0002
fffe
0006
0005
0009
0004
fff9
fffd
fffa
0001
ffff
fffc
0000
ffff
0005
ffff
fffa
0005
0000
fffe
0000
0001
0002
0000
fff5
0001
0004
0003
0000
0003
0009
0001
fffa
0000
0008
0000
0004
fff8
000a
fffc
0003
fff9
0003
0002
0002
0005
0003
fffb
ffff
0001
fffe
0001
0000
ffff
fffe
ffff
fffd
0009
0001
fff8
fffe
fffc
fffc
0000
fffd
ffff
ffff
fff8
0000
0002
000c
fffc
0001
0000
ffff
0004
0001
fffa
fff9
0000
fffa
0002
0002
fffd
fff5
0004
ffff
fffd
ffff
0007
fffd
0006
0000
fffe
fffd
fffd
fffd
0000
fffb
0000
0004
fff6
fffb
0001
fffc
0004
ffff
fffe
fff6
0002
fffe
0001
fffc
fff9
0001
0003
0002
0000
000c
fffe
0005
fffe
fffa
0006
fffd
fffe
fffe
0002
fff8
fffb
fffc
ffff
fffc
0000
0007
0003
fffe
0005
0003
0006
fffd
0003
0003
0000
0001
0000
fff9
0004
0001
fffe
0004
ffff
0005
0000
0002
fffd
fffd
000d
0001
ffff
fffe
ffff
fff8
0002
fffd
fffa
fffc
ffff
0004
0002
0003
0001
fffd
000a
0002
ffff
fffe
0006
fff9
0003
0000
0002
0000
0001
0005
0005
0004
fffd
0001
fff8
0005
0002
0003
fffa
0000
0003
fff8
0005
ffff
0001
fffc
0005
0004
0006
0006
0004
0002
ffff
fffc
fffe
fffb
fffc
fffe
0005
fffc
fffe
0003
0003
0001
fffa
0004
fffe
fffd
fffe
0001
fffd
0005
0005
fffc
fffa
0001
0001
fffa
0001
ffff
fffe
fff6
fffa
fffc
0000
fffd
0001
fffd
0003
fffc
fffe
fffc
0000
0000
0000
fffc
fffb
0001
0000
0000
fffe
ffff
fffe
0003
0002
0001
ffff
0001
0002
0002
0003
fff9
0000
0002
0000
0007
0003
ffff
fffd
0003
fffa
0003
0007
ffff
fffa
fffc
0001
0000
fffb
0003
fffb
0009
0002
0007
fffb
fffe
fffe
0006
0000
fffc
fffb
0003
0003
0001
fff9
0006
0002
0005
0002
0002
0001
0001
0003
0001
ffff
fffc
fffc
0000
0007
0003
0005
0000
fffc
fffb
0004
0000
0004
0003
fffe
fffe
0000
0001
ffff
ffff
0001
0008
0009
0005
fff7
0000
0001
0001
0000
0003
0003
0008
0003
0002
0001
0002
fffc
0006
0003
0002
fffc
0001
fff9
0003
0000
0001
fffc
fffb
fffd
0001
fffa
fffc
000a
fffa
fffa
fff9
0003
fffd
fffd
0004
0006
0002
0001
fffe
fffc
fffc
fffe
fffe
0000
0003
0003
0003
0000
0002
0001
0001
ffff
0001
0003
0002
0003
0003
fffa
ffff
0000
fff9
0003
0001
0004
ffff
0001
0002
fffe
0002
fffc
ffff
ffff
0003
fffd
0002
0000
fff8
0001
fffa
0004
fffe
0003
0004
0009
fff9
fffe
0003
fffc
ffff
0004
fff8
0004
fffd
0000
fffe
0000
fffa
ffff
0004
0001
0003
fffb
0004
fffd
ffff
0002
ffff
0007
fffe
0001
ffff
0001
0006
0002
0002
0004
ffff
fffb
0004
0001
0003
ffff
0000
fffb
ffff
ffff
fffd
fffe
0003
fffd
fffc
fffa
0003
0002
0004
fffd
0002
0006
fff7
0000
0001
0002
fffc
ffff
0001
0000
ffff
0004
fffc
fff8
0001
0004
fffe
fffd
fffd
0001
fffe
0001
fff6
ffff
fffb
0004
0000
0004
fffb
fffe
0005
fffe
0004
0001
0002
fffe
fffc
fffa
0008
0004
fffd
fff8
0000
fffe
0006
0004
0001
ffff
fffa
0001
0002
0002
0002
fffc
0000
fffc
0003
ffff
ffff
0005
ffff
0007
fffb
fffc
ffff
0003
0000
fffe
0002
0004
0003
fff8
0002
0002
0000
0002
0002
0000
0004
0000
0008
0002
fffc
0000
0000
0003
0006
0002
fff8
0006
0000
0001
fffe
0003
0003
ffff
fff4
0003
0002
0000
0000
0000
ffff
fffd
0003
fffa
0004
0004
fffd
0004
fff7
0002
fffe
0001
fffe
0008
fff9
fffb
fffa
0004
fffb
fffd
0005
0000
0005
0000
0001
ffff
fffe
fffb
fffc
0002
fffe
0001
0002
0005
ffff
0004
fff8
fffc
0004
0000
0006
0000
fff7
0002
fffd
fffc
fff6
fffe
fffb
ffff
fffe
0001
0001
0004
fffb
0003
fffc
0001
0001
0008
0002
0000
fffc
fffa
fffd
0002
ffff
fffa
0004
0004
0003
fffd
0002
fffe
0002
fff9
0004
0000
0008
fffc
0000
fff7
0003
fffe
0006
fffe
0000
0002
0001
0001
fffe
0003
fffe
fff8
ffff
0002
fffb
fff9
0008
0001
fffb
0004
ffff
0001
ffff
0007
ffff
fffb
0003
fffd
fffe
fffe
0003
fffe
fffb
fffd
fff8
fffe
0003
0006
fffd
ffff
0007
0003
0000
ffff
fff7
0002
fff9
0003
0003
fffe
fff9
0005
fffe
fffe
0002
0004
0009
fff7
fff9
fffc
0005
0002
fffc
fff9
ffff
0000
0002
0003
0008
0000
0004
0005
fff9
0001
0002
0000
fffb
fffe
ffff
0002
fffc
0005
0000
0003
0006
ffff
fff6
0002
0000
0001
0000
fff8
0003
0001
0000
ffff
0006
fffc
0001
0004
0003
0002
0000
0003
0003
ffff
fffa
fffe
0006
fffc
fffe
0003
0001
0001
fff8
0006
fffa
fffc
0000
fffe
ffff
0000
ffff
0003
0000
000a
0001
fffa
0000
0001
fffd
0001
fffd
fffd
fffe
0002
fffe
0001
0001
0003
0003
fffe
0001
fffa
fffc
fff7
0003
fffc
0004
fff8
fff7
ffff
fffd
0003
ffff
fffa
fffd
0002
0004
0003
fffe
0000
0001
0000
fff3
fffc
0001
fffd
0005
fff8
fffb
0004
0007
0003
ffff
fffd
fffe
000a
0001
0001
ffff
0000
ffff
fffd
0000
ffff
0005
0004
fff6
ffff
0000
0006
fffd
0008
ffff
0006
0001
ffff
0002
ffff
0006
0003
0008
ffff
0006
fffe
0001
0000
0003
0004
0003
ffff
ffff
fffe
fffe
fff8
ffff
0003
0001
0003
0001
fffb
ffff
0003
0000
fff9
fffc
0007
0001
ffff
fffe
fffd
0003
fffe
0004
0008
ffff
0006
0006
000d
fffe
0009
0004
0000
ffff
fffa
fffa
0003
ffff
ffff
fffd
0006
0008
fffd
0003
0004
fffc
0005
ffff
fffd
0006
fffd
fffe
fffd
0004
fffe
ffff
0002
0004
0005
0001
0003
0002
ffff
000e
fffa
ffff
fffd
fffa
fffe
fffe
0000
0007
0001
fffc
0000
0007
0002
fffd
fffb
0002
0002
fffd
0000
0005
0009
0004
0004
fffc
0005
0005
fffd
0003
fffb
fffe
ffff
0005
0006
fffa
0000
ffff
ffff
0004
ffff
0000
fff6
fffb
fffb
fff7
0000
0003
fffc
fffe
fff9
0000
0003
0001
0000
fffb
0002
fffb
0000
fffc
0004
fffc
0003
ffff
0000
fffb
fffa
000b
0003
fffe
0002
0005
0002
0008
ffff
fffa
fffc
0009
ffff
0004
0005
0005
0003
ffff
0002
ffff
0006
ffff
fff7
fffc
0006
0000
0000
0000
0000
ffff
fffb
ffff
0001
0000
0001
ffff
0002
ffff
ffff
0002
fffd
fffe
fff9
ffff
ffff
fff8
fffa
0001
0009
ffff
0008
ffff
0004
ffff
0003
fffb
ffff
0001
0003
fffa
0003
fffe
0000
fff9
0001
0004
0008
fffa
fffe
0001
fff4
fffd
0005
fff5
ffff
0006
0001
0003
fffe
fffb
0002
ffff
0001
0000
fff6
0004
fff9
0001
fffa
0004
0000
0009
0000
0002
fffe
0007
0008
0007
0002
fffe
0005
fffa
fffc
ffff
fffe
ffff
0001
fffe
ffff
fffa
0004
0004
0006
0003
0005
000b
fffc
0004
0001
0001
fffa
0000
ffff
0000
fff8
0005
fffc
0005
000a
0005
0003
fff2
0002
0005
fffb
fffd
0001
0004
fffe
0000
ffff
fffe
0000
ffff
fffb
0007
fffe
fffe
000b
fffb
0000
0005
0006
0004
ffff
0002
fffd
fffe
fffc
0005
fff9
fffb
fff7
0008
0002
0004
0002
0003
0006
0007
fff7
fffa
0001
fff5
0001
0006
0006
0000
fff7
fff7
0003
0002
fff8
0003
fffb
fffe
0001
fffe
0007
0000
fffd
fffc
0000
fffd
0008
0008
fff9
fffe
0001
fffd
0002
0008
fffb
0002
ffff
fffa
0004
0000
0001
fffd
0000
0006
0007
fffd
fff9
0008
0006
fffd
fffe
fffe
0000
fffb
fff7
0002
0005
fff5
ffff
ffff
0001
fffb
0004
0007
0003
0003
fffe
fffb
0000
0001
0000
0001
0006
0000
fffe
000c
0005
0001
ffff
0000
0005
ffff
000b
ffff
0000
0007
fffc
0002
0002
fffd
0002
fffe
0004
fffe
ffff
0002
0002
0003
0008
0002
fffc
0000
0006
0000
fffc
fffd
0000
fffd
fffa
0006
fffd
fffd
0007
0004
0005
0000
0000
0002
0008
fffb
0008
0008
fffd
0002
fffc
fffe
0001
0003
0004
0007
fffd
0003
ffff
fff8
fffe
fffa
0004
0000
0004
fffe
0005
fff6
fffd
fffd
fff9
fffe
0001
fffe
fff8
fffe
0004
0006
0003
0000
fffa
fffc
0001
ffff
0001
0006
ffff
0002
0001
0000
ffff
0004
fff9
ffff
fffc
0008
000c
fffc
fffe
0002
fff9
000b
fffc
ffff
0001
fffb
0001
fffe
0000
0001
0002
0001
0001
fffe
fffe
0006
0003
fffb
fffd
fffd
0003
0007
fffd
0004
0000
fffd
0003
fffb
0000
fffa
fffd
0002
0005
0003
0006
0002
fffe
fff6
000a
0004
0001
0005
fffd
fffe
fffe
ffff
0003
0007
fffc
fff7
ffff
fffa
0005
0005
0001
0005
fff7
fffd
fffe
fffa
0005
fff7
ffff
0006
0001
fff7
fffe
0001
fffe
0000
fffd
0001
fffc
0005
0001
ffff
fffc
fffa
fffd
fff8
0002
0001
fffd
0000
0002
0003
fffe
0002
fffe
fffe
0004
fff8
0003
0003
ffff
0003
ffff
0001
0001
0004
fff6
0000
0004
0004
fffd
fff7
0001
fffc
fffb
ffff
fff7
ffff
fff6
fffe
fffe
0006
0001
0001
0001
fffd
0001
fffc
0004
0000
fffa
ffff
fffa
fffb
0000
fff7
fffb
fff7
0002
fffe
0001
fffc
fffd
fffd
0003
0003
fffb
fff9
ffff
0003
0003
fff7
0002
ffff
ffff
0000
0002
0004
fffe
fffc
0002
0003
0002
0003
fffc
0001
0004
0005
fffa
ffff
fffe
0002
0001
fffd
fffd
0001
0000
fffb
0001
fffd
0003
ffff
0001
0003
fffb
0005
fffb
0001
0000
0000
0004
fffb
0003
0001
0006
fffd
ffff
0004
ffff
fffc
ffff
fff6
fff9
fff6
0002
0001
fffd
0007
ffff
fffb
0000
0000
0006
0002
0009
fffb
0008
0005
0004
0005
0002
fff9
0006
0002
0001
ffff
0007
fffc
0003
0004
0003
fff8
0000
0000
fffc
fff6
0007
0001
fffd
0002
fffe
fffd
ffff
0006
0004
fffc
0000
fffb
0001
ffff
0006
fffc
fffb
0003
0006
fffe
0002
ffff
0003
0004
0004
ffff
0004
0000
0007
fffc
0000
fffe
0003
0004
0006
0003
fff5
0004
0005
fffd
0003
0001
0005
0004
fffd
0000
0002
fffc
0001
ffff
0005
fffc
fffe
0003
0001
fff2
fff8
0002
fffd
000d
fffd
0002
0002
fffe
fffa
ffff
0005
0000
0005
fff9
ffff
fff8
0004
0005
0000
0004
0001
0007
0007
0000
0002
0006
0001
0006
fffe
0006
0008
ffff
0000
0001
fffd
fffe
ffff
0001
fffe
0003
0001
0003
0000
fffd
fffd
fff5
fff7
fffd
fffb
000a
0003
fffe
fff6
fffe
0001
fffe
0001
fffe
ffff
fffe
0004
fff7
0000
fffe
0000
fffe
0000
0003
0001
fffd
0000
fffe
0000
0000
fffc
fff9
0003
fffe
ffff
0005
0007
fffe
ffff
0002
fffe
0000
ffff
fff5
0002
0001
fff6
0003
0007
0001
0004
fffd
fffc
0001
0003
0000
0000
fffa
0002
fffa
fffe
fffb
fffa
fffd
0003
0005
0008
ffff
fffc
0004
0009
0001
0005
fffc
0000
fffc
0002
0003
0000
fffa
0004
0004
fffb
0005
0006
0007
fffc
0001
0001
0003
ffff
fffc
0003
fffd
fffe
fffe
0001
0003
fffc
fff8
000a
ffff
fffc
0004
ffff
ffff
0002
ffff
0002
fffe
fff8
0002
0003
0007
0005
0002
ffff
ffff
0005
ffff
fffd
fffe
0004
fffb
0000
0000
0002
fffd
ffff
0001
fffa
0006
0003
fffc
0004
fffc
fffd
0001
0002
fff5
0002
fffe
fffa
000a
fffd
0003
ffff
0003
0002
0007
fffe
0000
0007
0002
fffb
0005
fff5
0009
fffc
0002
fffc
0000
0003
0001
0002
fffe
fffe
0000
0003
0005
ffff
0003
0003
fffd
0002
0001
fffd
fff9
0002
0004
ffff
ffff
0001
0002
fffe
0005
0002
0001
ffff
0003
0004
fffe
000a
fffe
fffe
fffc
0001
0000
0008
ffff
0000
0006
0005
0006
0001
fffe
0003
0006
fff8
0006
0003
ffff
fffd
0000
0004
fffd
fffd
fff6
0001
fffd
ffff
fffb
fffb
fffe
0008
0008
0004
0000
0002
0002
0004
0003
fffe
fff9
ffff
ffff
0001
fffd
fffa
0000
ffff
0002
fffe
0000
fffe
ffff
0006
fffc
0005
0008
0001
0003
fffd
0005
ffff
0003
0004
fffd
fffe
fffb
fff9
fff8
fffd
0002
fffe
ffff
0002
fffa
0000
0001
0003
0005
fffb
fffd
fff5
fffa
0001
ffff
0003
0004
fffd
0000
fffd
fffe
fffb
0003
0001
fffa
0000
0001
fffe
fffc
0005
ffff
fff8
0002
0003
0003
0004
ffff
fffd
0001
ffff
fffe
fffb
fffc
ffff
0000
0001
ffff
fffa
0001
fffd
0008
0002
ffff
0004
ffff
fffd
0002
0002
0004
0005
fffd
0004
0001
0000
fffd
0005
0000
0007
fffe
0004
0001
0002
0004
0001
fffd
0003
0007
0008
0004
0003
0002
0002
0001
0003
fff8
0006
0002
0001
fffe
fffc
0000
ffff
fffc
0001
0005
fff9
fffc
0007
0001
0002
0006
ffff
0005
fffe
fff6
fffd
fffa
fffb
0007
0007
fffc
ffff
0006
0002
0001
0001
0000
fffe
0009
fffd
0005
0003
fff7
0000
0001
0000
fffd
fffe
0002
0003
0001
fffb
0001
fffa
0006
fff7
0002
fffa
0005
ffff
0001
0001
fffc
0005
fffc
fffc
fffe
0005
fffe
ffff
0002
0005
0002
ffff
fff9
fffd
0001
fffe
0006
fffd
0008
ffff
0001
fffb
ffff
ffff
ffff
0000
fffa
0001
0001
0005
fffc
fffb
0003
0005
fffe
0000
ffff
ffff
fffb
fff7
0003
fffb
0003
0003
fffa
fffd
fffa
fff9
fffb
0005
0009
fffd
fff7
fffc
0001
ffff
0006
fffc
0004
fffc
fffd
0003
fffe
fffe
0003
fffb
0001
0002
0008
fffb
0005
fffd
0000
0000
ffff
ffff
0000
fffa
ffff
0001
ffff
0002
0005
0003
ffff
fff0
ffff
0001
0000
ffff
0004
0009
0007
ffff
0003
0003
fffa
fffd
fffb
0001
0006
0000
0005
0004
0002
0005
fff9
0004
0000
ffff
fff7
0001
0000
0006
fff9
0000
0004
0004
0004
0003
0005
fffd
0000
fffc
fffb
0003
0000
fff7
0001
0003
0005
0009
0001
0000
0004
fffe
0000
0006
fffc
0002
fffe
0007
fff7
0000
fffe
0000
0003
0003
ffff
0009
0001
fffd
0005
0006
fffc
0002
ffff
0000
fffc
0004
fffe
0001
0004
fffc
fffc
fffe
0000
fffe
fffd
0002
ffff
0007
fffb
fffe
0000
0002
fffe
fff9
0000
0004
0004
0004
fff5
0002
fffe
ffff
0006
0000
0000
0003
fffa
0005
fffe
fffe
fffe
fffb
0001
fffe
0003
fffe
0000
0009
fffb
0009
fffd
0003
fffe
0005
ffff
fff9
fffe
0007
fffd
0000
0002
0000
0007
fffd
0002
0001
0004
0002
fffd
ffff
0000
0004
fffe
fffd
0006
fff8
ffff
fffb
0003
ffff
0005
0002
fff9
fffa
fffe
fff9
fffd
fffc
0004
ffff
0004
0004
0007
fffa
fffd
0001
0003
0003
ffff
0002
fff9
fffd
0003
ffff
fffc
0002
0001
fffa
0005
0006
ffff
fffb
0003
0005
fff8
0004
0000
0003
0005
fffa
0003
fff9
0000
0001
fffa
fffe
fffd
fffa
fffd
fffe
fffe
0001
fffb
0002
0002
fffc
0000
ffff
0003
fffc
ffff
fffb
0006
ffff
0006
0000
fffb
0000
ffff
fffe
0002
0002
fffa
fffe
0007
0006
0005
0005
0001
0004
0005
0000
ffff
fffe
0004
fffa
fffd
ffff
0002
fff9
ffff
0005
fffc
0003
fffd
fffe
0006
0004
0004
fffd
0001
0002
0008
0000
0001
0003
0002
ffff
fff8
fffa
0006
0004
fffa
0000
fffe
fffc
fffc
fffd
0001
fff9
0009
0004
fffd
fffa
fff9
0002
0007
fffd
0006
fffa
0001
fffd
0000
0008
fffb
0001
0005
fffe
0001
0007
0002
fffd
0002
0006
fffe
0005
fffd
fffc
0001
0001
0003
0002
0005
fffc
fffe
fffb
0002
fffc
0006
fffd
ffff
0004
0007
0002
0002
ffff
fffa
ffff
ffff
0003
0000
0001
fffd
0001
ffff
fffa
0002
fffa
fffe
fffc
0001
ffff
0000
fffd
0003
0000
fffe
fffe
0003
0001
fffd
0006
0001
fffd
0005
0003
0003
0000
fffe
fffa
fffc
0001
fffb
fff8
fffb
fff8
fffd
0001
0003
0005
fffd
fffd
fffd
ffff
0004
0004
fff5
0008
fffd
fffb
0001
0000
0006
0002
0003
ffff
ffff
0002
0005
0001
0002
0003
0006
fffd
0001
fffa
0000
0006
fffd
0002
0006
fffa
0002
0004
ffff
0001
0000
0006
ffff
0002
fffd
ffff
fffd
0003
fff9
0000
fffb
fffe
fffe
0003
0004
0004
0002
fffe
0002
0002
0000
ffff
0007
fff9
0009
ffff
0003
fffc
fffa
fff8
ffff
fffd
0002
0005
0004
0005
fffd
0001
0001
0002
0008
ffff
fffb
0003
0006
0005
0003
0001
fffd
fffb
ffff
0000
ffff
fffe
fffd
ffff
0001
0003
0004
fffc
0004
ffff
0000
ffff
fffe
fffa
0001
ffff
0002
0000
0006
0000
0001
0001
0001
fffb
0003
0008
0003
fffd
0001
0001
fffe
0002
fffd
0000
fffb
ffff
0004
fffc
0003
0005
fffe
0002
0002
0000
fffd
0002
0000
fffd
ffff
0006
0005
fffd
0000
0004
ffff
0002
fffc
0003
fffe
ffff
fffe
0003
0002
fffd
0000
fffc
fffc
fff9
0001
fff9
0001
fffd
fffe
0001
0001
fffc
0000
fff9
0004
fffe
fffe
ffff
ffff
0007
fffc
0001
fffd
ffff
0006
0007
fffc
0004
0002
0002
fff7
fffd
fffd
0002
0002
fffb
fffe
0002
0005
fffe
0003
0004
0001
0000
fffb
fffe
ffff
ffff
fff8
ffff
0001
0005
0004
fffa
0000
fffc
0001
0003
0005
000b
000e
ffff
fff9
0007
fffa
fff6
0006
0005
0001
0006
0006
0005
0002
0003
fff7
fffd
fffe
fffd
fff8
fffa
0001
fffb
0002
fffe
0001
0002
0002
fffd
fffb
0001
ffff
fffa
0004
0000
0001
0000
fffc
fffb
0005
0000
fff6
fff7
0004
0000
0001
fffa
fffc
fffe
fff9
ffff
0008
0000
ffff
0003
ffff
0003
0002
fffa
0005
fffe
0004
fffc
fffe
fff5
0001
0006
ffff
fffe
0001
0006
0002
ffff
fffe
0000
0009
0000
0002
fffb
0009
fffd
0000
fffb
fffc
ffff
0001
0005
0005
fff6
0006
0005
0006
fffb
fff9
0002
0001
fffe
0001
0002
fff9
0001
fffe
fffb
ffff
0000
0004
ffff
fffb
fffb
fffa
0002
0005
fffc
0004
0004
fffe
0003
fffe
0002
0003
fff8
0000
0000
fffc
fff9
fffd
0008
0002
fffc
0004
0004
fff9
fffe
0000
0002
0002
fffd
0005
0005
fffe
fffb
0007
0002
0001
0006
0004
0001
0000
0001
0005
0002
ffff
0004
0006
0000
0000
fffe
fffd
0006
0005
fffc
fffc
fff6
fff8
fffe
0001
ffff
0004
fff3
0006
ffff
fff9
0000
fffe
0008
0000
0008
0007
fffe
ffff
ffff
fffd
fffd
0008
fffe
0002
fffc
0000
fff6
fffc
ffff
fff9
ffff
ffff
fffe
000d
0001
ffff
fffe
0002
0003
ffff
ffff
0002
0009
0003
fffd
fffe
0003
fffa
fffe
0005
fffb
0002
0001
fffa
fffd
0006
0001
0002
0000
ffff
0007
0001
fffd
ffff
0002
0002
0005
fffb
fffe
0004
0006
0001
0003
0004
ffff
0005
fffb
0001
0004
0009
fffc
ffff
fffc
fffe
0003
fffe
fffc
0004
0001
fffd
0002
0002
0000
0001
0004
0009
fffd
ffff
0001
0001
0002
0001
0003
fffe
ffff
fffd
fffc
0000
fff9
fff3
0003
0009
fffe
ffff
0001
0002
fff8
fffd
0008
fffd
0003
fff9
0005
fffc
fff7
fffd
0002
0007
fffb
ffff
fffe
0003
0005
fffe
0004
0002
fffc
fffc
ffff
0002
ffff
fffb
0007
fffb
ffff
0003
0004
0005
fff7
0005
fffe
0003
ffff
ffff
fffb
0002
0006
0005
fffb
0003
0008
fffb
fffa
0008
0001
0002
0005
ffff
0006
fff6
0000
fffc
0009
fff7
ffff
0004
0000
fffe
ffff
fffa
fff9
000a
fffe
fffd
fff9
fffb
0007
0005
0005
0006
ffff
0003
ffff
fffa
fff8
fff2
0002
fff8
fffd
0002
0003
fff8
0005
0005
0001
0002
0005
fffc
fffe
fffd
fffc
0000
fffe
0004
0008
0002
0001
fffd
ffff
fffe
0004
fffd
fff9
000b
0007
0003
fffb
fff6
fff6
0001
0006
0002
0000
0005
0006
0005
fffc
fffc
ffff
0006
0001
0001
0006
fff9
0003
ffff
fffe
fffd
fffe
ffff
0002
fff8
0001
0000
0005
0003
fffa
0001
0000
0003
fffc
0000
0001
fffe
fffc
fffa
fff9
fffc
fffe
fffc
ffff
ffff
0000
0000
fffd
fffd
fffc
0000
0002
fffe
fffe
0009
fffe
fffd
ffff
0004
0004
fffd
fffd
fffe
fffe
0006
0000
0002
fffa
0005
0009
fffe
0004
0000
0003
fffb
0003
fffb
0000
0009
0002
fffe
0002
0005
0002
0002
0003
fffe
fff9
0008
0009
0002
fffc
0000
fffd
0004
fffd
fffd
0001
fffd
0000
0007
fffc
0001
fffd
fffc
fffc
0002
fffc
0005
ffff
0004
fffd
000c
fff8
fffc
0001
0009
fff9
fffd
fffd
fffb
fffd
fffb
000b
ffff
fffe
fffc
0005
0001
0002
0000
0002
0008
fffc
ffff
0004
fffc
fffc
0002
fffd
0008
fff8
0001
fffa
ffff
fffb
0005
0002
0002
0001
0003
0004
fffb
0000
0005
fffa
fffe
0002
ffff
fff9
fffd
fffe
fffe
0005
fff9
fffe
0002
fffd
fffd
0002
ffff
fffe
0003
0002
0004
0002
0006
fffd
fffc
0004
fffe
0000
fffb
0000
0003
0004
0001
0007
0002
fffa
000b
0005
0001
0007
fffc
0001
0005
0002
fffc
0009
0001
fffc
0001
fffe
0001
0007
0004
0000
0007
0008
0004
fffc
fffb
fffd
0000
fffd
0003
0001
0007
0000
0000
fffe
ffff
fffd
ffff
0001
fffe
0007
0002
0008
0002
ffff
000c
0007
fffd
fffe
0005
0002
0001
fffc
fffe
0001
fffb
fffe
fff7
fffd
fff6
0006
0000
fffc
fffd
0002
fffb
0005
0006
fffb
ffff
fffe
0003
ffff
ffff
0002
fffa
fffe
0000
0001
0007
0002
0004
0003
fff6
ffff
0006
0004
fffa
ffff
fff7
fff9
ffff
fffe
0003
ffff
0002
0004
0006
fff7
ffff
0002
0001
0001
0000
fff9
0003
0000
fffb
0001
fff7
ffff
fffa
0006
0003
0001
0004
0002
0003
0006
fff8
0002
0003
0002
0004
0007
ffff
0003
ffff
0003
0000
0007
fffc
0002
fffd
ffff
fffd
ffff
0000
fffd
0000
fffe
ffff
fff9
fff6
0005
fffb
ffff
0005
ffff
0002
ffff
fffe
fffe
0002
0002
fffd
0003
fffa
fff8
fff9
fffe
fffb
0005
fffc
fffa
0003
0003
ffff
0001
ffff
fffb
0007
fffb
ffff
0001
0001
fffd
fffe
fffd
0000
0004
0000
0003
0004
fffc
0001
0005
fff6
0003
fffe
fffa
0002
fffc
fffa
0005
fffe
fffe
0006
0000
0005
fffa
0002
0007
fffd
fffe
ffff
0006
0009
fffd
0004
fff7
0001
ffff
0003
fffd
0003
fffc
0005
0004
fffc
ffff
fff9
0003
ffff
0000
fffa
fff9
fffc
0007
ffff
0000
0005
fffc
0000
fffd
0003
0000
fffd
fffc
0000
0001
0004
ffff
0000
ffff
fffb
ffff
0004
0003
0001
0002
0003
0002
fffd
0008
0000
0002
fffb
0002
0002
0001
fff5
fffb
fffb
fffd
ffff
fffd
0002
0006
0001
0009
fffa
fffe
0002
fffe
0007
ffff
0002
0004
0001
0000
0005
0001
0001
0002
0006
0002
0000
ffff
fff9
fffc
fffa
fffe
ffff
0000
ffff
0002
0000
0002
0000
ffff
0005
fff8
0006
fffa
fffe
fffd
0005
fffd
0003
fffd
0001
fffe
fffb
fffc
0006
fff9
0001
ffff
fffe
ffff
fffd
fffa
ffff
fffd
0001
fffa
fffc
0002
fffc
fff7
000b
fffe
fffa
0004
0001
fffc
fffe
ffff
0004
0007
0000
fffa
fffc
0001
0006
0001
fffb
fffd
0002
0005
0003
0002
0001
fffc
000a
0001
ffff
0009
0002
fffa
0005
fff8
0007
fff5
0003
0005
0000
0002
fffa
0006
0008
000a
0000
0001
fffe
fffc
0000
0001
0000
fffe
0007
fffe
0008
fffe
0001
0001
0000
fffc
fffe
0000
0001
fffc
fffd
0003
ffff
fffd
0002
0002
0001
0005
0000
000a
fffa
0000
0007
0001
0002
0007
0003
0003
fffb
000d
fffc
0001
fffc
0000
0003
fffc
0000
0007
0002
0008
0005
0006
fff9
fffc
0003
0003
ffff
fff8
0002
0008
fffb
0002
fffc
ffff
fffb
fffe
fffb
0006
0001
fffd
fffa
fffd
fffd
ffff
fffa
0001
0002
fffd
0001
0005
fffe
0003
fffc
fffd
0000
fffe
ffff
0003
fffe
fffe
fffe
ffff
ffff
0000
0005
fff7
fffe
0003
0000
fffc
0006
fffc
0001
fffa
000b
0000
0001
fffc
0008
0002
0002
0003
fffd
fff8
0001
0005
fffb
fff6
fff8
0005
fffb
fff9
fffd
0000
fffd
0003
0003
0002
0001
0001
fffd
fffc
fffe
0004
0004
0003
0001
0003
fff9
0002
fffe
fff9
0006
0007
fffd
0005
fffd
0000
0008
0007
fffb
fffe
0002
0006
0000
0004
000b
0008
ffff
ffff
fffc
fffc
fffb
ffff
0000
fff6
fffd
0004
0000
0006
fffb
0005
0006
fffd
fffd
0003
fffa
0001
fffd
fffc
0002
000a
0000
0000
fffe
fffe
0001
fffc
0002
fffc
000a
0004
fff6
fffd
fffc
fffb
0003
0007
fffd
0001
fffd
fff8
0004
0007
0004
0003
fffe
0007
fffe
0000
0002
0005
fffd
ffff
0004
fffa
0000
fffa
ffff
0001
0007
0000
0002
0003
0009
fffb
fffc
0002
fffc
0000
0000
0005
fffc
fffe
fffd
ffff
0000
0000
fff5
0000
0004
0000
0000
fffa
0003
fff8
0006
fffe
0007
ffff
fffc
0000
fffc
0002
0003
0002
0004
fffc
0002
fffe
0009
fffb
0002
fff9
fffc
0002
0007
fff9
fffe
0001
ffff
0003
0000
fffd
0001
fff9
fffd
fff7
000b
0002
0001
0009
0002
fffa
fffe
0007
0002
fffe
fffc
0001
ffff
0008
fffc
fffe
0005
fffe
ffff
0004
0002
fffd
0002
0000
0000
fffe
0005
0007
0001
0004
0003
0008
fffd
fffa
fffd
fffc
fffc
fffc
0002
0003
fffa
0005
fffa
fffc
0007
0003
fffe
0003
0003
0000
0001
fffd
0003
fffe
fffb
0005
0007
fffc
0000
fffd
0003
0001
0005
0005
0007
fffa
0004
ffff
0007
fffd
fffd
ffff
0001
fffa
fff5
ffff
fffd
ffff
ffff
0000
fffd
fff6
0003
fffc
0000
0000
0003
0005
0007
fffd
fffb
0001
fffb
ffff
0005
ffff
fff8
fffd
ffff
0008
0005
0000
0004
fffe
0001
fffc
ffff
0000
fffc
0008
0003
fff8
fffb
fffe
0000
0003
0002
0001
0002
fff9
fffc
0001
fffa
0008
0003
0002
fffe
0004
0004
0002
ffff
fff7
fff9
0005
0003
0001
fff9
0000
0001
fffe
fffe
0002
ffff
0001
0006
0008
fffd
0000
fffc
ffff
fffe
000a
0001
ffff
0002
fffe
0005
0003
fffe
fffe
0000
0006
0007
0004
0006
fffe
fffe
fffd
0000
fffd
fff8
0001
fff9
fffd
fffc
0002
0003
0004
fffe
fffd
0001
0004
0001
fffe
0002
fffe
0000
0002
0000
0002
0000
ffff
fffc
0000
fffd
0004
fffc
0004
0007
fffa
fffe
fffa
0002
fff8
fffe
0000
fffe
fffc
0000
0001
0008
fffe
0001
fffc
0002
fffc
fffb
fffd
0000
0000
ffff
0004
fffe
ffff
0005
fffe
fff9
fffe
fffb
ffff
0004
fff8
0001
ffff
0004
fffd
ffff
0003
fffb
000a
0000
ffff
0004
fffc
fffd
fffd
0004
0005
fffe
0006
fffb
fffe
fffe
ffff
0002
0001
0002
0003
fffd
0000
0004
fff9
fffe
fffa
0001
0000
fffb
0000
0002
0000
fffb
0006
0005
0002
0001
fffb
fffc
0003
0000
0004
0002
0007
0005
fffe
0001
0003
fffb
fffe
fff6
0004
fffe
0001
0000
fff8
fffb
0002
0000
0004
0004
0001
0000
fffe
0005
0002
ffff
fffb
0000
fffe
0003
0000
fffe
0005
0002
fff7
0005
0001
0003
fffd
fff8
fffc
fffe
0002
0002
0002
0000
0003
fffa
fff7
fffc
ffff
0001
0002
0003
0002
0004
0001
ffff
fffb
0000
fffc
fffb
0002
0000
fffd
0003
ffff
ffff
ffff
0003
0005
0000
0004
0002
fff8
0000
fffe
fffa
fff7
0003
0006
fffd
ffff
0004
0001
0000
fffb
0001
0005
0006
fffc
0006
0002
fffd
0000
0003
fffc
0003
fffe
fffc
fff9
fffd
0003
fffe
fff9
0003
fffd
0007
0001
0001
0008
ffff
fff9
0000
0000
0003
0000
fffa
0001
0000
0005
fff6
0001
0001
ffff
fffb
fff9
fffb
0006
0009
fffe
0004
0003
0007
0001
fff7
0002
0001
fff7
0001
0003
fffe
0001
fffb
0008
0003
fffa
fffe
0001
0001
fffd
ffff
0000
fff6
fffe
fffa
ffff
0004
0001
0001
0007
fffe
0008
0009
0004
0004
0007
fffe
0007
0001
0001
fffd
0000
0002
0000
ffff
fffb
0000
0002
ffff
0002
0003
0003
0000
0000
0003
0007
0005
0004
0000
fffe
fffc
0001
fffc
0006
fffb
fffd
0000
0001
fffd
fffc
fffe
0000
fffd
fffe
fffd
0001
fffc
0005
fffd
0001
fffe
fff7
fffe
fffc
0000
0001
fffb
0000
fffe
fff8
0004
0001
fff8
fffd
ffff
0005
0005
0009
0000
fffd
fffe
0000
ffff
fffe
0000
0006
0003
ffff
0009
0002
0000
fffc
0001
0000
0007
fff9
fff8
0002
fff9
fffe
fffd
0007
0005
fffc
0005
fffb
0001
fffd
0002
0003
ffff
fffc
0001
ffff
fffb
fffd
ffff
0003
0004
fffc
fffd
fffb
ffff
0006
fffd
0003
fffd
0005
fff8
0002
fffd
fffe
0002
0000
0000
0007
0007
0001
0001
0000
0003
0005
0002
ffff
fffc
0004
fffb
ffff
fffd
0005
fffb
0004
0004
0002
fffc
fffd
0004
fff4
fff8
0004
0002
0007
0001
fffa
0000
0003
0000
0001
ffff
fffd
0001
0001
0006
000a
0006
fffc
fff8
fffb
0001
0006
fffb
0004
0002
fffa
0002
0000
0002
0003
fffe
0004
0001
0007
fffd
0006
fffd
fffd
fffd
fffd
0000
0000
fffc
0000
0005
fffe
0001
fffa
0005
0004
fffb
0005
0003
0009
fffd
ffff
ffff
0007
fffc
0000
0005
0002
ffff
fffe
0004
fffd
fffd
fffb
0000
fffd
fffd
fff7
0003
0005
000a
fffd
ffff
fffa
0001
fffc
fffc
fffa
0005
0004
fffe
ffff
0001
0000
fffd
ffff
fffe
0000
0006
0002
0001
000a
0000
0002
0002
0008
fffc
fffe
ffff
0001
fffc
fffd
0000
0003
0009
fff9
ffff
0000
fff9
fffd
fffc
0000
0002
0002
fffa
0004
0000
0003
0002
fffe
ffff
0002
ffff
fffe
fff9
0002
0005
0000
fffe
fffb
0003
fffe
0006
0004
fffe
0003
ffff
fffb
fffe
0006
0006
0001
fffc
0001
0000
0005
fffb
0001
0004
0000
fffe
0000
fff8
fff7
0001
0006
fffe
fff9
fffc
0005
fffe
fff8
ffff
fffe
fffc
0003
0004
fffe
0003
fffe
0005
0003
fffe
fffa
fffc
0008
0005
ffff
0002
fffe
0005
0001
fffd
0003
0000
0004
ffff
0006
0003
fffd
0003
0002
fffa
0000
0004
0004
0006
fff2
fffc
fffc
fff8
0003
fffc
0000
0001
fffa
0006
ffff
0001
0008
0002
0000
0001
0005
0002
fffe
fffb
0001
fffc
0002
fffe
0000
0006
fffe
0007
0001
fffe
fffa
fffb
0000
0002
0003
0007
ffff
0000
fff6
fffa
0001
0004
0004
fffe
0002
fffd
0000
fffd
0001
0007
000b
0006
0006
0004
0002
0004
0000
000a
ffff
0000
0005
fffc
0002
fffe
fff9
0008
0002
0000
fffb
fffb
0000
fff8
fffb
ffff
ffff
0006
fffe
fffb
fff9
ffff
0006
000b
fff9
fffe
0000
fffc
fff8
0009
fffb
0007
fff5
fffe
0003
0002
fff7
fffd
0000
fff4
0001
0000
fffa
0001
0000
fff9
fffe
ffff
fffe
0004
0004
0003
ffff
0003
0004
0008
0008
0004
0005
fffd
fffd
ffff
ffff
fffb
0001
0005
0006
ffff
0000
ffff
0004
fffe
0004
ffff
fffa
0001
0001
fff7
ffff
ffff
fffc
fff4
0001
0000
fffd
0000
0002
0003
fffe
0005
0009
000e
0002
fff5
0003
0002
fffd
0003
0008
ffff
0000
fff9
fffd
0009
0000
0007
0005
ffff
0001
fffe
fffa
0000
fffa
0001
0001
0002
fff7
0005
0005
0001
0002
0004
fffd
0000
0002
fffe
0007
fff7
0005
ffff
fffb
0000
0007
0005
ffff
ffff
0004
000c
fffd
ffff
0003
0000
fffb
fffb
ffff
ffff
fffa
0006
fffd
0003
000b
ffff
fffb
0005
fffb
0005
0001
fffc
0006
fff9
0003
0007
0002
0000
0006
0008
fffc
0001
fffa
0004
0002
0001
0008
0001
0001
0006
fffe
0000
fff9
0003
fffa
fffd
fffa
0004
0002
0000
0004
0002
ffff
0000
0003
0006
0008
ffff
0007
fffd
0008
ffff
fff6
fffe
0000
0006
fffa
ffff
0001
0005
0001
0002
0003
0004
0003
fffd
fffd
0008
fffe
0002
fff8
fffa
fffa
fffd
0001
0001
0001
0003
0000
0003
fffd
0000
0004
0005
0005
fffe
0002
ffff
fff8
fffc
ffff
fffd
0003
fff7
0007
ffff
0005
0008
fffd
ffff
0003
fffb
fffe
fff6
0001
fffd
0006
fffb
0008
0004
0004
fffd
fffc
fffb
0003
0003
0002
0001
fffc
0002
fffd
0000
fffb
0003
fffd
0005
fffc
0000
0003
0003
0003
0002
0001
ffff
fffc
0002
0001
fffa
0005
0001
fffc
fffe
0005
0002
ffff
0000
fffe
0005
0004
fffe
fff8
fffb
fffc
fffb
fffe
0007
fffa
0008
0003
0002
0000
fffc
0002
0000
0004
fffe
0004
fff9
fff8
0009
0004
0000
0000
0001
ffff
0005
fffd
fffc
fffa
0000
0001
0004
fffe
0003
ffff
fffc
0004
0004
0000
0003
0002
0000
ffff
fffb
0000
fffe
fffe
0004
fffc
fffe
0000
fff7
fffa
0001
fffd
fffd
0001
0002
0003
fffe
0003
0000
fff8
fffc
fffc
fffc
0002
0008
fff7
0003
fff9
0002
fffe
0009
0001
0002
ffff
0002
ffff
ffff
fff9
0005
0005
0003
0001
ffff
fff9
0001
fff8
0003
0002
fffd
0002
0003
fffe
0003
fffa
0000
0001
0000
0002
fffe
fffe
fff8
0002
0008
0009
0004
fffe
0007
0004
0002
fff8
0004
fffd
0003
0003
0001
fffd
0004
fffe
0003
fffe
0006
0003
fffe
fffb
0000
0001
fffb
fff9
ffff
0004
fffc
0002
0000
0000
0001
0000
fffe
fffe
fffe
ffff
0004
fff9
0002
0001
fff5
0003
0000
fff9
0002
0002
0003
0002
ffff
fffb
ffff
0005
0003
0001
ffff
0004
fffc
0004
000b
0005
0001
0008
0001
0004
fffd
0005
0002
fffc
0003
ffff
0002
0001
0008
0003
fffe
0000
0009
fffd
ffff
0004
fffd
0004
fffe
0005
fffe
fffd
0001
0000
fffc
fffd
fff8
0004
0006
0007
ffff
000a
fffc
0002
0002
ffff
ffff
0002
0008
fffe
fffd
fffe
0006
0005
0005
0004
0001
0008
fffa
0006
fff7
0003
fffb
fff7
0006
0000
0007
fff7
0000
0000
fffe
fffe
fffc
0004
0006
000b
fff9
fffc
0002
fffa
0000
fffe
0007
0004
fffe
0005
fffc
fff8
0004
0001
0004
0001
fffd
fffe
fffb
0002
fffe
0004
0007
0004
0009
ffff
fffd
0000
fffe
ffff
fffd
0000
fffd
fffd
fffd
fffb
ffff
fffa
0003
0001
0001
0003
0002
ffff
fffb
0004
ffff
fffd
0006
0001
fffd
fffe
0005
0005
0004
0002
0003
fffc
0003
0002
0007
fffc
0003
0007
fff6
fffc
fffa
fffd
fffb
0001
fffb
ffff
0002
0005
0005
0001
0000
fffc
0004
0002
ffff
0001
0001
0007
ffff
fffb
0002
0001
0000
ffff
0005
ffff
fffb
fffd
0002
0004
0002
fffb
fff9
ffff
0009
0001
ffff
0001
0001
fffd
fff7
0003
fffc
ffff
0005
0000
0003
0003
fffd
fffe
ffff
fffc
0009
fffb
0000
0003
0005
0001
fffe
0001
fff9
0002
fffc
0004
fffc
0000
fffd
0002
ffff
0001
0002
0003
fff9
0003
0006
ffff
fff9
0000
0005
0003
fffb
fff7
0003
fffa
0000
fffe
fff8
0005
fffb
0008
fffe
fffd
fffc
0003
0001
0001
0006
ffff
fffe
0000
ffff
0001
fffb
0002
fffd
0008
0000
0007
0000
0003
fffc
ffff
0004
0001
0001
fff7
fffd
fffe
0004
0005
fffd
000a
0005
0001
fffa
fff9
0003
ffff
fffc
fffd
0002
0000
0000
0002
fff7
0002
0005
fff7
fffd
fffd
ffff
0001
0000
ffff
fffd
0007
0002
ffff
fffc
0000
fffc
0001
0002
fff8
ffff
fffe
0009
fffc
ffff
0000
fffe
0001
0003
0003
fffe
fffb
ffff
0002
fffd
0007
fffa
fff5
0004
0001
0003
fffb
fffd
0003
0008
0000
fffa
0001
ffff
0002
fffa
0003
0009
0003
fffe
fffb
fffc
fffa
fffe
fffe
0002
0005
0002
fffd
fff8
0009
0000
fffa
0006
fffd
0006
ffff
fffd
0002
0002
0003
ffff
0006
0004
fffb
0001
0007
0004
0001
0006
fffe
0001
fff7
fffe
0004
0002
0004
0001
0007
0003
0004
0002
0005
0005
0009
0003
fff9
fffd
0003
ffff
0002
ffff
0007
ffff
fffd
fffe
fff8
fffc
0000
0007
0000
0001
0002
fffd
0002
0006
0001
ffff
fffe
0003
ffff
0001
0001
0004
0002
fffb
ffff
fffe
0005
fffb
fffc
fffc
0001
0004
fffd
fffc
fffc
fffd
fffe
fffe
ffff
0000
fffd
0003
0002
fffc
0002
0000
0001
fffd
ffff
0002
fffb
fffb
fffa
ffff
0008
fffd
ffff
fffa
fffa
0008
0003
0009
0003
fffc
0001
fffb
0001
ffff
fffd
fffa
0000
fffb
0003
ffff
fffe
0007
000c
fff7
fffb
fffd
ffff
fffa
0000
fff9
fffe
fffb
0000
0003
0000
ffff
0003
ffff
fffe
ffff
0006
ffff
fffa
fffc
0002
0004
0007
fffd
fffc
fffd
fffb
fffa
0001
0004
0001
0003
0000
0001
ffff
0001
ffff
0004
0000
0000
000c
000c
fffe
0001
0007
fff9
0000
fffd
0001
fffb
0003
0007
fffb
0003
ffff
fffe
0001
fffe
fffe
ffff
0002
0000
fffe
0000
fffe
fffa
0002
fffd
0002
0004
0009
0008
fff5
fffc
0001
fffe
fffd
0006
fffa
0004
0005
0005
fffe
fffa
0001
ffff
0000
fff9
fffb
fffb
0006
fffe
0003
fffe
fffa
fffd
fffe
0002
0003
0006
0007
fffb
0006
0002
fffe
fffd
ffff
0004
fffb
fffd
0003
ffff
0000
0004
ffff
fffe
fffc
0002
0000
ffff
fffd
fffe
0004
0000
fffe
0000
0002
fffa
0007
ffff
0002
0000
ffff
0007
ffff
0003
0001
0004
0001
0004
0003
fffe
0005
0000
fffe
0005
fffd
fffe
0001
fffd
0004
fffb
0004
fffb
fffd
0005
0006
fffd
0005
0003
fffb
fffd
0004
fffb
ffff
fffe
ffff
0001
fffb
ffff
fffe
fffc
0000
0005
0005
fffe
0008
0000
0002
fffb
fffd
0002
fffe
ffff
0001
0002
0000
0002
0006
0002
fff5
0001
fffb
0003
fffa
fffb
0002
0001
fffc
fffc
ffff
0001
0000
0000
ffff
0003
ffff
fffe
0000
0003
0001
fffa
0005
fffe
fffa
0001
0000
fffe
fffd
0004
fffd
0006
ffff
fff9
0003
0000
ffff
fffa
0001
0000
0005
fffe
fffd
0002
fffc
0000
0007
fffd
fffe
fffd
0001
fffc
fffc
fffc
fffd
0006
0000
0004
0003
fffa
0004
0002
0000
fffe
fffe
0000
fffe
ffff
0003
fffd
0004
fff5
0002
fffc
fffc
fffe
0003
0002
fffe
fffd
0004
fffc
0000
0005
fffc
0004
0000
0000
0001
0006
fffd
0001
ffff
fffa
0002
0000
0001
ffff
0001
0000
0004
0003
0003
0003
fffb
ffff
0002
fffe
fffa
fffc
ffff
0005
ffff
fffc
0004
0004
0003
fffd
0002
ffff
fffc
fff9
0002
0007
fffa
fffe
0001
0002
0008
0001
fffd
ffff
0000
0002
0001
0002
fffb
0002
0000
0000
fffe
fffd
0005
ffff
0006
0000
0003
0008
fffd
0004
fffd
0005
0003
ffff
fff5
fffe
ffff
0002
0000
0002
0005
fffe
fffa
fffe
fffd
0001
0002
0006
0006
0007
fffe
0001
fffb
fff9
fffd
0004
0001
fff7
0005
0007
fffc
fffe
fffe
fffe
0004
ffff
0001
fffb
0006
0001
0000
0001
0004
0000
fffe
0002
0000
0001
0001
fffe
fffe
0007
0001
0003
0004
0000
ffff
fffc
0003
0001
0001
fffe
0001
fffd
fffd
0004
fff8
0004
0003
0006
fffe
ffff
fffc
fff9
fffe
0008
fffe
ffff
fff6
0000
fffc
0002
0006
fffe
ffff
fff9
fffe
fffb
0000
0002
0004
0001
0007
fffe
fffd
fffd
ffff
ffff
0003
000d
0008
0006
fffa
fffb
0001
0002
ffff
0002
fffc
ffff
0000
fffa
fffd
0003
0001
ffff
0001
0003
ffff
ffff
fffb
000b
0005
fffd
0000
fffd
fffd
fffb
fffd
0000
fffe
0001
0002
fffa
fffd
fffd
0003
0004
fff5
fff8
0002
fffe
0005
fffd
0004
0001
fff5
0000
0001
0001
fffd
0007
0003
ffff
ffff
0000
fffa
fffd
ffff
fffd
0007
fffa
fffd
fffc
ffff
0001
fffa
fffa
0008
0005
fff9
fffe
0000
fffe
0000
0000
0002
0002
ffff
0004
fffe
fffc
fffc
000c
0000
fffd
ffff
0000
fff9
0001
0006
0006
0003
fff7
0002
fffe
fffd
0003
0006
fffe
fffe
fffd
0007
0004
ffff
0007
ffff
fffc
fffc
fff8
ffff
0009
ffff
ffff
fffd
ffff
0006
0004
0003
fffd
0002
0002
fffd
fffe
0005
fff7
0004
ffff
fffb
0008
0002
fffb
0001
0001
0002
0001
0003
0000
0000
0003
0005
fffc
0000
fffc
fffb
fffa
fffd
0002
0002
ffff
0000
ffff
fffe
fffe
fffa
0006
0000
fffb
fffe
0009
ffff
0001
fffa
ffff
0005
0001
0004
0004
fff9
0001
fffd
0005
0008
0005
fff9
fffb
0005
0004
fffa
0007
0000
fff8
fffc
fffc
fffd
0003
0001
0002
0001
0005
0003
fffb
0004
ffff
ffff
0004
0003
000d
0004
fffe
0002
0001
fffb
fffe
0005
ffff
0007
fffd
000a
fffb
fffe
fffd
0006
ffff
0005
0006
fffe
0006
fffe
fff8
fffe
fffb
fffd
ffff
0000
fffe
ffff
ffff
0001
0006
fffe
0005
fffe
0001
fffd
fffc
0004
fffe
0002
fff8
0003
fffd
0003
fffd
fffb
fffd
fffa
fffb
fff8
fff7
0000
fffd
fffc
ffff
0002
0001
0001
fffb
fffd
0001
fffa
fffa
0004
0000
ffff
fff9
0004
fffc
ffff
fffe
ffff
0000
0002
fffb
fffd
fffc
0000
fffe
0001
fffc
0002
fff5
0004
0001
fffc
0003
0009
fff9
ffff
fff8
fffd
ffff
0001
0008
fffc
0000
fff8
0002
0001
fffd
0007
0007
ffff
fffa
0002
fffa
fffc
0008
fffe
0006
fffe
fffb
0007
0006
0003
0006
0001
0002
fffd
0002
fffa
fffe
000a
0007
0002
0001
0005
fffd
ffff
0003
0002
0007
0007
fff2
fff9
fffb
0002
fffa
fffc
fff7
0009
0003
ffff
0000
0003
0004
0008
fffd
0002
fff5
0000
0001
0002
0007
0004
ffee
0001
0006
0006
fffe
0003
0004
0006
fffa
fffc
0003
0004
0000
0008
fffd
fffa
0005
0003
fffd
fffc
ffff
0001
0000
ffff
ffff
0006
0001
fffd
fff7
0002
0005
fffd
0003
0000
0007
fff8
0005
0005
fffa
fffc
000c
0001
0002
fff9
0007
fffc
0000
fffc
000a
fffe
0000
0005
0000
fffa
fffe
0003
fff9
0003
0000
ffff
fffd
0001
0003
fffc
fffe
0000
ffff
0005
0004
fffa
fffb
0006
0000
0000
0003
ffff
0003
0002
fffe
0004
fffd
0000
0001
fffe
0006
0005
0000
000c
fffd
fffd
0003
fffe
0003
0006
0002
0006
0002
fffb
0007
0005
0001
fff9
fffc
0001
000c
0001
fffc
0003
0000
ffff
fffb
0001
0000
fffe
fffe
0000
fffe
0007
0004
0002
ffff
0003
fff9
0004
fffb
0001
0000
0004
fff8
fffb
fffc
fffc
ffff
0002
0004
0001
fffd
0005
0005
0004
fffa
0005
0001
0000
0003
fffc
000a
fffd
fffc
0000
fffe
0000
0005
0003
0003
0001
0004
0000
0002
fffe
fffa
fffd
fffd
0002
0005
fffd
0000
fffd
fffb
0002
fffb
fffe
fffb
fffd
0004
0002
0001
0000
0001
0001
0003
0000
fffa
fffd
fffa
fffd
fffd
0000
fffc
0000
fffe
fffc
0005
0008
fffb
0003
fffd
0002
fffd
0005
fffb
0003
0005
fffa
0000
0006
ffff
fffa
fffe
0004
0000
0003
0001
0002
0003
0000
0007
fffe
fff6
fffb
0000
0002
ffff
0001
0000
0005
0001
0008
fffc
0005
0004
0005
0000
0001
0002
0002
fffc
fffd
0004
fffd
0001
0000
fffe
fffd
0008
fffc
0003
0000
0004
ffff
0002
0004
0004
fffb
fffd
0006
fff9
0005
0001
fff9
0000
0000
0003
ffff
0002
0003
fffd
ffff
0005
fffe
fffa
fff5
0000
0000
0002
0004
fffc
ffff
fffb
fffa
fffb
0003
ffff
0003
0003
0003
fff9
ffff
0001
0000
fffe
ffff
0002
ffff
0000
fffd
fffe
fffc
0002
0000
0006
fffc
fffc
0007
fffb
0004
0004
0000
0005
fffd
fffc
0008
fffe
fffe
fff9
fffa
0001
fffd
ffff
fffd
fffe
fffe
fff8
0003
0004
fffa
fffc
fffe
0003
0000
fffe
fffb
0004
0003
0004
fffe
0007
0005
0000
fffe
0000
fffe
0003
0000
fffd
0006
0002
0003
0008
0005
fff8
0004
fffc
fffc
0005
0006
fffe
0001
fffc
fffb
000a
0003
0005
0003
0006
fffe
0004
0001
fffd
fffb
0006
fffb
0008
fff9
0000
fff7
ffff
0006
0009
0005
fffc
0002
0001
0005
0001
fffd
0004
fffe
fffc
0002
0006
fffe
fff9
0000
0001
0006
0001
000d
0004
fffb
0004
ffff
fffc
fffd
000a
0005
0006
0000
0005
0006
0001
fffd
fffe
fffb
fffc
0002
0006
fffd
ffff
0003
0000
0003
fffd
fffe
0001
fffd
fffa
0001
0003
0001
fffc
fffd
0003
0001
0001
0007
fffe
0000
0005
fff4
0002
0005
0001
0002
0000
0007
0000
0004
0003
0002
0006
0004
ffff
0009
0001
0003
ffff
fffc
fffa
fffa
fffe
0002
0002
0001
ffff
fffd
0006
0003
fffc
fffe
fffe
fffe
0005
0003
fffb
fffe
0007
0006
0004
0000
ffff
0001
0001
fff9
0005
0006
fffd
fff8
0001
0001
0008
fffe
fff8
0003
0003
fffc
0006
0006
fffe
0005
0001
fffe
fffc
fffd
fff8
ffff
fffb
ffff
fffb
0004
fffd
0004
fffc
fff9
0000
0007
fffd
0005
fffe
fffb
fffc
0004
0001
fffd
0000
0004
fffe
fffb
ffff
fffc
0002
fffc
fff5
fff9
0004
0002
0003
fffd
fffb
fffc
0000
0006
fffd
ffff
fffd
fffb
0007
0006
fff9
0001
fffe
0004
ffff
0002
fffe
fffd
0003
0000
fffd
0000
fffb
fff7
0002
fff8
0006
0002
0006
fffa
fffe
fffd
fff9
0002
fff9
0001
fffa
0001
0003
0002
0000
fffd
fff8
fffb
fffb
fffd
0003
fffb
0008
fffd
ffff
0004
0000
0002
0008
0004
0000
0001
0000
0008
fff5
0004
fffd
ffff
fffd
0007
fff5
fff5
ffff
0002
fffb
0004
fffd
0000
0004
0003
0001
fffe
fff4
fff7
fffb
fffb
0006
ffff
0008
fffe
0003
0000
fffd
ffff
0000
fffd
0007
0003
fffe
0001
0000
0001
fffd
0001
0006
0007
0006
fff2
0005
fffe
0005
fffb
fffd
fff6
0004
fff6
0003
0004
0001
fffb
0001
0008
ffff
0001
0000
fff8
fffd
0003
ffff
fffa
fffe
0004
0000
fff9
0005
fffc
0005
fffa
0000
0004
0001
fffe
0008
fffd
0001
0003
0000
0000
0005
0002
ffff
fffa
fffe
0000
fff9
ffff
0005
fffa
0006
0001
0000
fffc
0006
0001
0000
0009
fffb
0004
0006
ffff
ffff
fffe
fffe
fffc
fffd
0006
0001
0001
0001
0000
0003
0007
0001
fffc
fffd
fffd
ffff
fffc
0004
0003
fffe
0000
fffc
0005
ffff
0005
fff9
fff8
fffb
0000
0002
0003
0003
0005
fffb
0002
0000
fffe
fffd
0003
ffff
0004
fffd
0005
0004
0003
fffe
fff7
0006
0000
fffb
0004
0000
0001
0005
0002
0000
0001
0001
0001
fffd
fffb
fff9
fff9
0006
ffff
fffe
0003
0001
ffff
0006
0000
0000
fffc
fffa
0000
fff8
0001
0003
0003
0003
0006
0003
0002
0002
fffb
0004
0004
ffff
fffb
0000
0003
0004
0006
fffe
ffff
fffc
fffd
0000
fffb
fffc
0000
0006
0006
fffe
fffe
fffd
fffc
0001
fffd
0002
0001
0000
0002
fffe
0000
ffff
0003
fffa
0008
fff8
0006
ffff
fff9
0000
0002
fffb
fffb
fffd
fffe
0007
fffb
fffe
0000
fffe
0003
0007
000b
0006
fffe
000a
0003
fff8
ffff
0005
fffa
fffd
0004
0001
0000
0000
fffe
0004
0006
fffe
0003
fffc
0004
0004
0002
0008
0002
ffff
0001
fffe
0002
0001
fffe
fff5
fffe
ffff
0005
0003
0004
0001
fffd
0008
0004
0000
fffa
0004
fffe
fffe
0003
0008
0002
fffd
0007
fff8
0000
0000
fff9
0003
ffff
fffe
0007
fffc
0005
fffd
0000
fff8
0006
0003
fffd
ffff
fffd
fffd
0004
0000
fffd
0003
0003
0005
0001
0005
0000
0000
0001
0001
0007
0000
0004
fffb
ffff
0004
fffe
fff8
fffd
ffff
fffe
fffd
fffd
0009
fffc
fffe
fff9
ffff
fff8
fffd
0000
0000
0006
fffe
0001
0001
fffa
fffe
fffc
fffc
0002
ffff
0007
0006
fff9
fffe
fff8
fff7
0000
0002
fffc
0000
0003
fffb
fff8
0000
ffff
0002
0006
0001
0001
0007
0001
ffff
fffb
fffc
fffa
0001
0003
fffe
0005
0003
fff9
ffff
0001
fffc
0003
ffff
fffb
0001
0003
ffff
0003
fffd
fffd
fffb
fffc
fffc
fff7
0004
fffb
0005
fff9
0007
fffd
000a
fffb
fffc
0006
fffa
fff7
0005
ffff
fffb
0000
0000
0000
0005
000b
fffd
ffff
0001
0003
0004
fff6
ffff
0001
fffa
0003
fffc
0000
fffa
0008
0000
0001
0002
0003
0004
0000
fffa
fffc
ffff
0004
0007
0004
fffe
ffff
fffe
fffe
0008
0007
0001
fffb
fffe
0000
fff8
fff9
fffc
fffe
0007
0005
0008
0008
0001
fffc
0003
0002
0000
fffe
fff7
fffb
0005
0008
fffd
fffd
0001
0004
0001
0001
fffc
ffff
0000
0006
fffe
ffff
0005
fffb
fffe
0002
fffd
0006
0003
fffc
fffc
fffa
ffff
fffe
0005
fff6
0005
0004
fff7
0001
fffd
fffb
fffe
fffd
0002
0003
fffb
0005
000b
0003
0001
fffb
fff8
0002
0001
0004
fff8
ffff
0001
0004
0002
0004
000a
fff9
fff7
0008
fffe
0002
0001
0000
fffd
fff3
fffe
0009
fffd
0002
0001
0006
ffff
fffb
fff8
ffff
0001
0004
ffff
0005
fffd
0000
0002
fffc
fff9
0006
0001
fffa
fffe
0001
fffe
fffb
0004
fffe
fffd
fffe
0007
fff6
0000
0004
0001
0005
0001
fffc
fffc
0004
fffd
0007
fffd
fffb
ffff
fffb
000e
fff8
ffff
0000
0000
0008
0001
fff8
0003
fffb
0001
0007
0003
ffff
0000
fffd
0005
0001
fffe
0004
fffb
0002
0007
fff9
0003
000a
fff9
fffe
000a
0003
0004
fffd
0007
0003
fffe
fffa
fffe
fffc
0007
0002
fffb
0001
0000
ffff
ffff
0001
ffff
0002
0002
ffff
0001
0004
0001
fffc
ffff
0002
0004
fffe
fffd
fffc
fffe
0009
0001
fffe
ffff
0003
fffc
0004
fffe
0004
0002
0002
fffb
fffd
fffc
ffff
fffb
ffff
0003
fffc
0002
fff8
fffd
fffa
0000
0004
0000
fffc
fffe
0002
fffc
fffa
0007
fffc
0006
0001
0008
fffc
000a
0002
0003
000e
0001
fffb
fff8
0001
fffb
fffa
0005
0004
0000
fffc
ffff
fffc
ffff
0004
ffff
0005
0003
fff2
0006
0006
0000
fff3
0005
ffff
0001
ffff
0008
fff7
fffd
0000
fffe
ffff
fffd
0004
fff7
0001
0004
fffc
000b
0006
fffb
0007
0004
0005
0005
0001
0004
fffc
0003
0008
fffd
0000
fff8
0003
fffc
0001
fffe
0001
fffd
fffb
fff8
fffe
0001
fff8
fffe
fffd
fffd
fffd
0000
0003
0002
fffa
ffff
0001
ffff
fffd
fffe
fffb
fffa
0002
fffe
fffb
fffd
0000
0003
0000
0003
0001
0005
fffe
0001
0003
0008
0000
0006
0001
ffff
0001
0007
fffd
0000
fffd
fffd
0004
fff9
fffd
0004
fffd
fffe
fffc
0001
0000
0001
0004
fffc
ffff
fffb
fffb
0001
0004
0001
0008
ffff
ffff
0003
fff9
fffd
0004
0006
fffe
0002
0003
0001
fffa
0006
0002
fffe
fffe
0005
fff9
ffff
fffe
fffb
fffe
0006
0004
0004
fffb
0006
0001
0005
0009
0000
0002
fff9
0007
fffe
0000
0000
0005
0005
0000
0002
fff8
0000
0004
0004
fffe
fffd
0000
0001
fffb
0003
0004
fffe
fff5
fffe
0001
fffd
0002
0003
0000
0005
ffff
0005
0001
fffb
0007
0001
000a
fffe
0009
fffb
0000
fffb
0004
fffc
ffff
fffc
fffe
fffb
fffa
0006
ffff
0001
ffff
ffff
000a
0006
fffe
ffff
fffa
0001
0002
ffff
0002
fff4
fffa
fffc
0001
0000
ffff
fffc
0003
0003
fffe
0000
fff9
0004
fffc
0001
0007
0001
0000
fffd
fffe
0001
fff9
fffb
0007
0000
fff6
0000
fffd
0003
fffc
fffc
0004
fffe
ffff
0002
0006
fffa
0002
0000
fff8
fffd
fffb
0004
fff8
0000
0004
0004
fffd
0003
0000
0001
ffff
0003
0002
0000
0004
fffe
0004
0007
fff8
fffd
fffd
0004
0000
0000
fff9
0001
0000
fffb
0002
fffb
0005
0002
0003
0002
0003
fffc
ffff
fff8
fffc
fffc
0006
fffd
0001
0006
fffc
0004
fffd
0000
0001
fffe
0000
0000
fffd
0000
fffc
0000
fffc
0007
fffb
0003
fffb
0009
0002
fffa
fffb
fffe
fffe
0003
fffc
0006
0006
ffff
0000
fffc
fffb
0000
0002
0000
0000
0001
0002
0001
0002
0004
fffe
fffd
0001
fffe
ffff
0003
0000
0002
0002
0000
0001
0005
ffff
fffe
fffd
fffe
0006
0000
fffc
fffd
0004
fff9
ffff
0000
ffff
0001
0008
fffd
fffd
0000
fffe
0004
0004
0006
0009
0004
0003
fffb
fff8
fffd
0002
fffa
000a
fff9
0004
0006
ffff
fffd
ffff
ffff
fff9
ffff
ffff
0003
0003
fffd
ffff
fffe
0001
0006
fffb
ffff
000b
0002
fffa
fffb
0006
fffd
fffd
0002
0001
0002
fff9
0003
0005
0004
0003
0004
fffe
0000
0002
0007
fffc
0004
0006
fffd
0003
ffff
0000
0004
fffc
fffc
fffe
0002
0002
ffff
fffc
0003
fffc
ffff
0006
fffb
fffc
fffc
fffc
000e
fff7
0001
0002
0001
0009
fffa
ffff
0002
ffff
fffe
fffc
fffe
fffb
fffe
0000
fffe
0005
0005
0008
0002
0005
ffff
0004
0006
fffb
fffc
fffc
0003
fffb
fffa
0001
fffb
0007
0004
0000
0000
0002
0001
0002
0004
0004
ffff
0008
fffb
fffd
fff9
0001
0001
ffff
fffe
fffd
0000
0004
0002
0002
ffff
ffff
0002
fffc
0000
0000
0000
fffa
0000
fffc
0000
0004
ffff
0007
0000
0001
fff9
0003
0000
0001
fffc
ffff
0003
0001
fffe
0004
0006
0002
fffc
0003
0000
0000
0006
fffe
0001
0001
0001
ffff
fff8
0002
0007
fffd
0003
fffe
fffd
ffff
fffc
0001
0001
ffff
0004
0007
0001
fffd
0002
fffd
0002
0000
fffe
fffd
fffd
fffc
0000
0003
fffc
fffd
0000
0003
0001
0002
0001
0001
0001
0000
0002
0003
fffd
fffa
fffc
0003
0003
ffff
0007
0004
fffe
fffe
0004
fff8
0002
fffe
fffe
0000
0009
fffc
0000
0000
0003
fffd
0003
0002
0000
0003
0009
fffd
0006
fff9
0004
0002
fffe
0005
0005
ffff
ffff
0002
ffff
0004
fffe
fffe
0003
ffff
fffc
ffff
0000
fffd
0000
0003
0003
ffff
fffe
0001
fffc
fffb
ffff
fffc
ffff
ffff
0004
ffff
fffe
0000
0002
0000
0001
fffc
0001
0001
0001
0009
0002
0002
0003
0002
0006
fff6
0000
ffff
0007
0006
fffd
ffff
0002
0002
fffd
0005
0001
0001
ffff
0000
0004
fffc
ffff
fffa
fffc
fffa
fffe
0005
fffb
ffff
0004
0005
fffe
0005
0004
0000
fff9
0001
ffff
ffff
0000
fffc
0004
0001
0005
ffff
0001
0002
0002
0006
ffff
0001
0003
fffe
fffd
ffff
0002
000a
ffff
0001
0005
0004
fff8
fffc
fffc
0007
0001
0003
fffe
fffa
fffe
fffd
fffc
0001
0000
ffff
0009
fffb
0008
fffd
fffb
fffc
fff7
fffa
0002
fffd
0002
ffff
0003
fffe
0001
ffff
fffb
0000
0001
fffc
0004
0003
fffc
0000
0004
fffd
0002
fffe
0001
0000
000c
ffff
0004
0008
000f
ffff
fffd
fff9
0001
0002
fffe
0004
0001
fffc
fffd
0002
fff9
0008
fffb
fffe
0003
0001
fffc
fffe
fffd
fffc
0005
0007
fffc
ffff
0001
0003
0005
0003
0005
fffb
fff7
0003
ffff
fffa
fffb
0006
fffe
fffb
0002
fffe
0001
0000
0003
0006
fffc
0000
fff6
ffff
fff9
fff8
fffd
fffd
fffc
0004
0004
0004
0003
0003
ffff
fffd
0006
fffc
0003
0005
0001
0001
0001
0002
fffe
0008
0009
fffc
0002
fffc
0005
0001
fffc
0001
fffa
0004
fffc
0001
fffc
0001
0006
0000
ffff
0002
0003
fffd
ffff
0000
ffff
0001
fffd
fffd
0002
ffff
0003
fff7
0000
0000
fffe
0000
0002
0000
0000
0000
0005
0000
fffd
0003
fffb
0005
0001
0004
fffd
0007
fffe
fffb
0006
0006
fffd
0000
ffff
fffa
fffb
0000
fffd
0004
0000
ffff
fffc
0002
fff9
0002
ffff
fffa
0005
000b
0005
0001
fffd
0004
fffb
0002
ffff
fff8
0000
0002
0000
fffa
fffe
fff9
0002
fffd
fffd
0003
0000
0000
0004
fffd
0001
fffe
fffe
0001
fffe
0001
fffb
0006
ffff
0001
fffb
0000
fff9
0001
fff7
fffe
fffe
0003
0005
0004
fff9
0002
fffa
fffe
ffff
0004
fff7
fffd
0002
0002
0003
0002
0002
0005
fffe
fffa
0005
fffd
fffb
fffe
0004
0001
fffe
0005
0000
0000
fff5
ffff
0002
0003
0003
0002
0003
0003
0001
fffc
0000
fffe
0001
0000
0006
fffd
fffd
0006
fffa
0000
0006
0005
0000
0005
fffe
0003
fffe
0002
0003
0002
0008
000b
fffd
0002
ffff
fffe
ffff
fffe
0002
0004
0006
0003
0001
0006
0000
0005
fffa
ffff
0000
fffb
0009
ffff
0003
0004
fff9
000e
fffc
0000
0004
0000
0001
0001
0002
fffe
0007
fffc
0003
0003
fffd
0000
0002
fffd
0005
ffff
0006
0002
0002
0001
0007
fffc
fff8
fffb
fffe
0003
0003
0003
0006
fffb
fffa
fffc
000c
fffc
0004
fffc
0005
0000
fffc
0006
0002
0008
0006
fffa
0005
0001
ffff
0003
0004
fffd
fff8
0002
fffc
0008
0000
0003
fffe
fff9
0000
0000
fffa
fffd
fffe
0001
0005
0001
0008
0006
0001
fffc
fffe
0006
0005
0001
0000
0000
0001
0001
0003
0008
0009
fffb
0003
0000
fff8
0001
0006
0002
0000
0004
fff8
0003
ffff
0000
0002
ffff
ffff
fffa
fffc
fffb
0005
0000
0002
0000
fffe
fffb
0005
0001
fffe
fffa
fffa
fffe
fffd
fff9
fffa
0003
0003
fffc
0003
fffb
0004
0001
0004
0004
fff9
0002
fffe
0004
fffb
0005
0002
0009
0005
0004
0005
0003
0003
0005
fffb
0003
fffc
ffff
0002
0006
0002
0000
0002
0001
000a
0002
fffc
0000
fff9
ffff
fffa
ffff
fffe
0003
0004
fffe
0001
fffb
0003
000b
ffff
0002
fffa
0004
ffff
fffb
0001
0000
fffd
fffb
0005
fffe
ffff
fff9
0004
fffc
fffb
fffb
0001
ffff
fffc
0006
fffe
0003
0003
0000
0004
fffb
0003
0005
0002
fffe
0004
fffb
0005
0002
fffd
fffd
0000
fffc
fffa
0001
fffe
fff9
fffe
fffd
fffb
fff4
0000
0000
0007
0001
fffb
0004
0004
fffe
fff8
fffa
000b
fffd
0003
000a
ffff
fffe
ffff
fffb
0000
fffa
0001
0004
fffc
ffff
fffa
0000
0003
fff7
0001
0002
0001
0000
0000
ffff
0006
0000
fffe
ffff
fffd
0007
fffc
ffff
fff5
0008
fffa
fff4
fffa
0003
fffc
0006
0000
0007
0003
fffd
fffd
fff9
ffff
0004
fffb
fffa
0001
0004
fffc
fffb
0001
0000
0005
0003
fffa
fffc
0004
0009
fffe
fff9
fffd
0006
0001
fffb
0004
0004
fff6
fffa
ffff
fffd
ffff
fff6
fffa
ffff
0004
fffe
0002
0000
fffa
0003
0005
0000
ffff
fffb
0002
fffa
0002
0002
0001
0006
0005
0004
0005
fffd
0002
fff5
fffb
0005
fffd
0005
fffa
fffd
fffb
fffd
fffe
ffff
fffe
000d
0003
0003
0003
fffb
0001
0003
0002
ffff
0002
000d
fffd
fffe
0000
ffff
fffc
0004
0008
0003
0000
fffd
0001
fffb
fffd
fffc
fffd
0000
fffb
0003
0003
0000
fff8
000b
0004
fffb
fffc
0001
0001
0004
0001
0008
0002
fffe
0001
0002
ffff
0001
fffa
fffb
0006
fffe
0000
0002
ffff
fffa
fffd
0000
0001
0000
fffe
0003
0007
0001
0009
fffc
fff8
fffc
fffc
fff9
fffa
0003
fff9
ffff
fffe
fffe
000a
0000
0001
0000
0002
fffa
0008
0002
fffa
fffc
fffd
fff9
fffc
0004
0004
ffff
0002
fff4
0004
fffc
ffff
0004
ffff
0005
fffd
fffe
0000
0001
000d
0000
fffd
fff8
fffa
fff6
fffa
0001
0000
0004
fffa
fffc
0001
0009
0005
fffb
0004
0009
fffa
fff9
0003
0003
fffe
0006
0000
0002
fffe
0004
0008
000a
fffc
0003
0003
fffc
0000
0002
0005
fffc
0005
0006
0006
0007
fffe
000d
ffff
0008
fffa
fffd
0007
fffd
fff8
0003
fff8
fffd
fffb
fffc
fff6
0006
fffe
0001
ffff
fffe
0001
0007
0000
0008
0007
ffff
fffe
0007
0005
0003
ffff
0002
ffff
fffd
fffc
0003
ffff
0001
000a
0003
fffd
0006
0002
000e
fffe
0003
ffff
0006
0005
0005
ffff
0004
0001
ffff
fff8
0009
fffd
fffd
0004
fffd
0001
0000
0000
0002
fffc
fffe
0007
0003
fffe
0005
0004
fff7
fffd
0001
0000
0002
0007
ffff
0002
0005
fffe
0006
fff7
0000
fffe
0007
0003
0000
ffff
fff9
fffb
0001
fff8
0000
ffff
fffd
0002
0002
0002
0002
0004
ffff
0009
0009
0005
0003
0000
fff5
fffa
fffe
0003
0001
0003
fffe
0005
ffff
fffe
0004
ffff
0003
0006
0005
0000
fffe
ffff
fffe
fff6
fffc
fffd
0009
0005
ffff
0000
fffb
fffc
0005
0009
fffc
0001
0002
0000
ffff
fffe
0003
0003
0000
0001
ffff
0002
0001
0002
fffd
0002
fffb
ffff
fffa
ffff
ffff
0003
fffb
0000
0003
fffe
fffe
0001
ffff
0002
fffe
0001
0000
0006
0000
ffff
0003
fffc
fffb
0003
0001
0000
ffff
fffc
fff8
0002
0006
0001
0001
fff9
fffb
0003
0002
0000
0001
0001
fff9
fffd
0000
fffe
0002
0001
fffd
0002
fffc
ffff
fff9
0005
fffc
0004
0002
0006
0009
fffe
0001
fffe
0002
0007
ffff
0001
ffff
ffff
0004
fffe
0005
fffc
ffff
0004
0001
fffd
fffc
fffd
fffe
0001
0004
0000
0003
0004
fff9
fff6
0000
0007
fffb
fffc
fffe
fffd
fffb
0004
0000
ffff
0005
fff9
0007
0006
0002
fffd
fff9
fffc
0005
fffe
fffc
fffe
0002
fff7
fffc
ffff
ffff
0003
fffa
ffff
ffff
ffff
0003
0006
0004
fffd
fff9
0002
0005
fff7
ffff
ffff
fffe
0004
0000
0004
0004
0000
fffd
0007
0000
ffff
ffff
0006
0000
0000
0002
ffff
0001
0002
fff9
fffc
0003
fffc
0006
0004
fffd
0000
fffe
fffb
0004
fff9
fff5
fffd
0003
fffd
fffe
0000
0005
0002
0004
0000
000a
fffd
0006
0000
0008
0000
0001
fffd
fffb
fff6
0004
0001
fffe
0004
ffff
fffe
fffb
0000
0008
fffa
0000
fff8
fffe
0005
fffe
0002
0003
ffff
0001
0004
fffc
0003
0002
fffc
0001
fffc
0006
ffff
0002
fffa
0001
0003
ffff
0006
fffc
0001
ffff
0002
0004
0001
0002
fffd
fffb
0000
0007
0001
fff5
fffd
0000
0000
fffd
0002
ffff
fffc
0006
0001
0003
fffe
fffe
fffd
0003
0000
0003
0001
0005
0006
0000
0003
0000
0006
0001
0001
0001
ffff
fffe
fffe
0003
fff8
0008
0005
fffe
fff4
fffb
0005
0001
0003
ffff
fff9
0001
fff9
0000
0002
fffe
fffb
fffe
0002
fffb
fffd
0001
0000
0000
0006
0002
0004
ffff
fff9
fffa
ffff
fffd
fffa
ffff
0001
fffa
fffc
fffe
0003
0002
0003
0002
0001
fffd
fffd
fffd
0001
0006
0003
0009
0002
0003
0004
0008
0004
fff9
0000
fffa
0000
0002
ffff
ffff
0001
0007
0005
0002
0006
0009
fffd
fff8
0005
fffe
fffc
fffa
fffd
0004
ffff
0001
0007
0008
ffff
fffd
000b
ffff
0001
ffff
fffc
0001
0002
fff5
0000
0002
0004
fffe
fffd
ffff
0004
0002
fffd
0004
0003
0002
fffd
fffe
0006
fffe
fffa
0001
0002
fff8
fffe
0003
ffff
fffb
fffb
0005
0002
0002
fffd
0001
0005
0005
0004
0000
0001
0001
0001
0000
0003
0007
fffe
fffb
fffa
0006
fffb
0008
0001
0005
fffd
fffb
fff7
fffc
0003
fffe
fffe
fffb
0003
0002
0003
0000
0004
fffa
0006
0005
fff8
0005
fffa
0002
0004
0003
fff5
0004
fffc
fffd
fffd
0007
0004
fffc
fffa
ffff
0000
fffd
0006
0001
ffff
fffe
0000
fffd
fff8
fffe
fffe
0004
fffe
0003
ffff
0003
fffc
0007
000a
0000
0008
0005
0002
0003
0003
000a
0000
0005
0000
0002
fffe
ffff
fffa
0002
ffff
fffc
fffd
0004
0002
ffff
ffff
fffe
0003
fffc
0007
0009
ffff
0004
0000
0002
fff5
0003
0002
fffd
0000
0001
fffe
fffe
0004
ffff
fffb
0007
0001
fffd
0005
0003
fffe
0004
0002
0006
0003
fff7
fffa
fffe
0005
0001
0002
fffc
fff9
0002
0000
000b
fff8
0000
0004
fffe
0009
0001
0001
0006
0001
fffb
0000
ffff
ffff
0008
0005
fffb
0003
fff9
fff5
fffc
0003
0004
0001
ffff
fffb
fffd
0003
fffe
fffd
0000
fff9
0001
0001
ffff
fff9
ffff
000c
0001
ffff
0003
0004
ffff
fffa
fffc
fff7
ffff
0003
0004
0007
0008
fff6
0000
ffff
0000
fffe
fffc
ffff
fff9
ffff
0000
0001
0003
0005
0006
fffe
fffb
0006
fffb
fff9
0001
fffe
fffb
0003
0000
0000
0002
ffff
fffe
fffd
fff7
0000
0008
0004
0006
0001
0006
0003
ffff
fffe
0000
0007
0002
0004
fffd
fff8
fffc
fffb
0002
fffc
0005
fffe
0008
0008
0001
0000
0005
fffc
0000
0005
0003
fffd
0002
0001
0005
0001
0002
0000
fffd
fffb
fffd
0009
fffb
0003
0008
fffd
000b
0002
0001
fffe
0001
fffd
fffe
0001
fffc
0002
fffd
0004
0001
0001
fffc
fffc
0001
fff6
0004
fffd
0006
fff9
fff5
0009
0006
0002
fffd
fff3
fffe
0007
fff9
fffb
0004
0002
0000
0004
fffa
fffe
0006
ffff
fff5
fffe
0001
0008
fffa
0005
0000
fff9
ffff
0008
0000
fff8
fffd
0005
fffe
fffd
0001
0005
fff8
ffff
0000
fffc
0002
fffe
0000
ffff
0008
0004
fff9
0001
fffd
fffd
fffc
0000
fff7
0001
0007
fffe
0009
fffa
0000
ffff
fffb
0001
0003
fffa
0002
ffff
0005
fffb
fffe
fff9
0004
0003
0005
0000
ffff
0001
ffff
fff8
fffc
0002
ffff
0004
fffd
0002
0002
fff6
fffc
0002
0005
0000
fff6
ffff
0001
0007
fffe
0001
0004
ffff
0003
fffe
0008
0002
0007
0002
0000
fffe
0001
ffff
ffff
ffff
0003
fffb
fffd
ffff
ffff
0000
0002
0005
0007
fffd
0000
ffff
0000
0001
fffe
fffc
0005
0002
ffff
fff9
0003
fffb
fffa
fff9
0007
0000
fffb
ffff
0004
fff8
ffff
ffff
0005
fffd
ffff
0001
fff8
fffd
0005
000b
0002
0000
000b
0003
0003
0007
000b
0002
fff5
fffb
0000
ffff
fff9
fff7
fffc
0000
0000
0008
0004
0004
0001
fffe
0001
0003
0006
fffb
0002
fffa
ffff
fffc
fff8
0006
0004
0000
0004
fffc
0002
fffa
fffd
0005
000b
0000
0001
ffff
0008
ffff
0002
0004
fffd
0003
fffb
0003
ffff
ffff
fff8
fffe
ffff
0001
0004
0003
fffb
fffe
fff8
0001
0003
0003
0000
fffa
0002
ffff
0005
fffc
0001
fffa
0004
0005
ffff
fff6
0003
0001
0003
000a
fffe
fffb
0004
fffc
0007
0006
ffff
0001
0003
0002
0000
fffe
0000
0004
0002
ffff
fffd
0006
0004
fffd
0007
0001
fffc
fffc
0003
0008
fff9
0001
fffc
0005
0003
0002
fffc
fffb
0003
0002
ffff
0002
0006
fffd
0003
fffb
0007
0000
0001
fffc
fffc
0006
fff4
fffe
0001
fffc
0001
0004
0001
000a
fff5
ffff
ffff
0008
0005
fff9
0002
fffd
0002
fffa
0002
fffd
0003
0001
0000
fff7
0005
fff9
0001
0001
0003
0003
fff8
0000
0003
fffa
0000
0004
0002
fffe
ffff
ffff
0009
fffc
fffb
ffff
0003
ffff
fffc
0005
0000
fffc
0005
0003
0005
0001
0002
fff9
0006
0000
0002
0001
fffe
0004
0000
fffd
0002
0007
0005
0002
fffa
0004
fffe
fffd
fffb
ffff
0005
0000
0001
fffd
fffe
0003
ffff
fffd
0002
ffff
fffe
0002
fffe
0001
fffe
0005
fff8
ffff
0002
fffb
ffff
fffe
fffa
000d
0002
0002
0000
fff9
fffd
0003
0004
0004
fffe
0000
fff8
fffe
fffd
0005
fff9
fffb
0003
0002
fffe
0004
0001
fffd
0005
0000
fffa
0002
0000
0004
0001
0002
0001
0005
0003
fffe
0006
ffff
fffd
0003
0003
fffd
fff8
fffd
ffff
fffb
0001
ffff
fffa
fffa
fffe
0001
fff8
0003
0003
0001
0007
0002
ffff
fffd
0009
0003
ffff
000b
0002
0004
0008
fffd
000a
0000
0008
fff8
fffc
fffc
0001
0003
0000
0002
fffe
fffb
000a
fffd
0000
0000
fffa
0000
fff9
0001
0003
fffe
0001
fffd
fffe
0003
0006
ffff
0002
fffd
fffd
ffff
ffff
fffc
fff7
fffb
fffd
fffc
0002
0000
fffc
fffb
fffe
0000
0004
0002
0004
0000
0003
ffff
0001
0004
fffe
0005
0002
fffc
0000
0002
fffd
fffd
fffd
fff9
0002
0000
0002
ffff
fff9
fffd
0002
fffe
fffe
0002
ffff
0006
fffe
fffe
0003
0008
0005
fffa
0001
0003
fff7
fffe
0002
ffff
ffff
ffff
fff7
fffc
0002
fff8
fffa
fffe
0004
0001
fffe
0001
0004
0003
0002
000a
ffff
0000
0000
0000
0009
fffb
0003
0004
0007
0007
fffe
fffe
0001
0001
0001
0006
0002
0003
0001
0001
0002
fffb
0005
0002
0002
0000
0000
0003
fffd
0002
fffa
fff4
fffe
fffe
ffff
0003
0003
0006
0004
ffff
ffff
fffb
0001
0006
fffe
fff9
0000
0001
0003
0004
0003
fffe
0003
0001
0000
0000
0009
0001
0002
fff6
0001
0000
fffe
fffd
fffe
ffff
fff8
fffd
0003
fffa
0005
fff7
ffff
fffd
fffe
0002
fff7
0005
0003
0002
0007
fffe
fffa
0001
fffe
fffe
000a
0001
0006
fffb
0005
fff8
0002
ffff
ffff
fffe
fffe
0002
0003
ffff
0007
0000
0005
ffff
0003
0000
0002
0009
fff7
0003
fffe
0001
fffb
fff9
fffd
0005
fffa
0000
ffff
ffff
fffe
ffff
0007
0005
000c
0005
0000
0006
fffe
0002
fff7
0009
0007
0002
0006
0007
ffff
ffff
0004
fff9
fffd
0005
fff5
0004
000d
fffb
0000
fff8
0002
fff9
fff4
0008
fffc
0002
ffff
fff8
fffe
0002
0004
ffff
fffe
0000
0003
fffd
fffb
ffff
0002
0007
0009
0004
0001
ffff
fffe
0008
0004
fffd
fffe
fffa
fffd
fffa
ffff
0001
0001
fffc
0001
0002
0004
fffe
0002
fff9
fffa
ffff
0006
ffff
0006
0005
fffe
fffa
fffc
0002
fff8
0005
fffe
fff9
0000
ffff
0002
0004
0000
ffff
0008
0003
0000
0004
0002
0004
0005
ffff
0002
fffd
fffd
0002
0004
0001
0001
fffb
0003
fffe
0005
fffd
fffe
0000
fff9
fffc
fffe
0002
0003
ffff
fffc
0001
fffd
fffb
ffff
0007
0004
fffa
0003
ffff
fffe
fff4
0004
0001
fffe
fffb
0002
fffc
0005
0003
0001
0003
fffb
0003
0003
0004
fffc
fffd
fff6
0007
ffff
0001
fffe
fffe
0000
0006
0002
ffff
0000
000a
fffd
0005
fffe
0000
ffff
0006
fffe
fff8
0003
fff8
0000
0007
0002
0008
0000
0003
0000
fffc
fffb
0003
fffd
fffd
0000
0002
fffa
0005
0004
0000
ffff
fffb
0001
0001
0004
0006
fff9
fffc
fffd
0003
0003
fffd
000a
0006
fffb
ffff
ffff
fffa
0004
0002
0005
0000
ffff
fffe
fffc
fffe
0001
0000
0005
fffe
fff9
0002
0005
0002
0000
0005
fff8
0002
ffff
0008
0002
0008
0004
0001
0008
fff8
0005
fff9
fffd
fffb
fffa
fffa
0001
0005
fffd
0005
0000
fffc
fffd
fff9
0003
0000
0006
0009
fffe
0001
0002
fffe
fffe
fffc
fffe
fffd
fffb
0009
0003
fffd
ffff
fffe
fffe
0005
0003
fffb
0005
0002
0002
fffb
0002
0002
fff9
0005
0002
fff6
0004
fffd
0006
0004
ffff
fffb
fffb
0003
fffa
0006
fffd
fffc
fffe
0005
0007
0003
0000
ffff
0006
fffc
0000
0002
fffe
fffe
0006
0002
0000
fff9
0004
fffa
0000
fffc
fffb
fffc
0001
0002
0004
ffff
0002
fff6
000a
0005
0004
ffff
fff8
0003
fff7
0006
0005
0005
ffff
0000
fffc
0002
000a
0001
0006
0001
0008
fffd
fffa
0004
0008
fffb
fffe
0001
0006
fffc
0000
ffff
0003
fffc
0002
ffff
0006
0004
fffb
0006
0001
fffe
fffb
0002
0003
0003
0003
0003
fffe
0009
fffe
fffd
0007
0000
fffa
0000
0003
ffff
0004
0002
fff9
0004
ffff
0004
0001
fffd
fffa
0001
0000
fffe
fffd
ffff
fff9
0001
0000
0003
0008
0009
fffe
fffe
0000
0000
0007
0004
0003
fffb
0002
0001
fffa
ffff
fffd
fffe
0001
0006
0001
0002
fffc
fffe
0001
0005
0001
fffb
fffe
0003
0003
0004
ffff
0001
fffa
fffd
ffff
0002
0001
0000
0006
0009
fffc
fffe
fff8
0005
0001
0000
0003
fffd
0000
0000
fff7
0006
fffd
0004
0002
ffff
fffd
fffd
ffff
fffd
fffb
0002
0004
0003
0002
fffc
ffff
fffe
fffb
ffff
fffe
fffb
0001
fffb
fffe
ffff
0001
fffc
0000
0003
0001
0004
fffd
0005
0006
fffc
0004
0001
0006
0007
0004
0002
fffd
fffc
fff9
fffd
0004
0003
fffc
fff8
0001
0003
ffff
0001
0007
fffa
fffd
0005
0003
0007
0002
0003
fffc
0004
fffd
0001
0002
0002
0002
0007
0002
0006
ffff
0003
0000
0001
0004
fffc
0005
0000
ffff
fffe
0005
fffe
fffd
0000
0001
fff5
fffe
0000
fffc
0005
fffc
0006
0001
0003
0001
fffe
fffd
fffc
fffd
fffc
ffff
0000
0002
fffe
0003
0002
fffe
fffe
0000
0003
fffd
0002
0002
fffd
ffff
ffff
fffd
fffd
0002
ffff
0000
fffd
ffff
ffff
0000
fffd
ffff
fffd
fffb
0002
0000
fffd
0000
fffc
0000
ffff
fffb
0000
0002
0003
0002
0000
0001
fffe
0003
fffc
0004
fffe
fffc
0004
0002
0001
fffe
0005
0004
0001
fffd
fffd
0000
fffd
0003
0001
0003
0004
ffff
0000
0001
fffe
0002
0004
0002
0003
0004
0000
fffe
fff9
fffc
0004
0000
0001
0000
fffb
0002
ffff
0002
fffe
0005
fff8
fff9
fffb
ffff
0002
0001
ffff
ffff
0002
0000
0000
fffe
0003
ffff
0001
0004
0004
0002
0000
fff9
0005
0003
fffa
fff8
fffa
fffb
0008
0002
0007
0006
0001
fffc
0001
ffff
fffa
fff9
000a
0003
fffe
fffc
0009
0000
ffff
0007
0002
0003
0003
fffb
0002
0006
0001
0002
0002
fffc
fffb
ffff
0004
fffe
0003
fffc
0007
fffd
0005
fffb
fffe
0004
0001
fffe
0001
fffe
0000
ffff
fffe
0000
fff8
fffe
0002
ffff
0004
fffd
0002
fffe
ffff
0007
fffd
0002
0008
ffff
0002
fffc
fffb
0006
fffd
fffe
fffe
0005
0000
ffff
fffc
fffd
0002
0002
0007
0005
0007
000b
fffe
fffc
0001
fffd
fffc
fffe
0007
0001
0004
0000
fffd
000a
0002
fff3
0003
0003
0002
ffff
0001
0001
fffc
0006
fffa
0000
fffd
fffb
fffc
0004
fffd
0003
0001
ffff
ffff
fffe
0007
ffff
fffc
0009
0006
fffb
000a
0004
fffe
fffb
fffc
0007
fffd
fffe
ffff
0006
fff7
fffa
fff9
fffc
0002
fffc
fffe
fffa
fffe
ffff
fffc
0000
0001
fffe
0003
fffc
fffe
ffff
0002
0000
0005
0002
fffe
fffa
0004
ffff
fffc
0000
ffff
0003
fffd
0005
0007
fffd
0001
0002
ffff
0002
ffff
0002
ffff
fffa
fffa
fff9
0003
0005
0008
0006
fff7
fffc
0002
fffc
fffc
0001
0002
0007
fff7
0006
fffe
0001
ffff
0002
0006
0007
fffe
0005
0000
0004
0002
fffd
0005
0003
0003
fffd
fffd
ffff
fffa
ffff
ffff
fffc
fffe
fffd
0001
0004
0003
fffd
fff8
fffe
0002
0003
fffd
0007
0000
fffc
0007
fffd
ffff
0003
0007
fffa
0003
fff9
0001
000a
fffb
fff9
0002
0004
0002
fffc
fffe
fffe
0000
fffd
0002
0001
0001
fffd
fffc
0003
0002
0003
fffe
0001
0001
0002
0007
fffe
0000
fff9
0002
0001
0009
0006
fffe
0000
fffe
0004
0002
fff9
0000
fffc
000a
fffd
0005
ffff
ffff
0004
0002
0003
fff8
0002
0003
0009
0002
0005
0002
fffd
0001
0002
fffb
0002
0002
0002
0001
0003
ffff
fffd
fff8
0007
fffc
0002
fff8
0005
0008
ffff
0005
0002
fffe
0003
0000
0001
fffd
fffe
ffff
0004
0004
fffe
fffc
ffff
fffe
0003
000a
fffa
0002
0002
fffa
fffa
0004
fffe
0000
0008
fffd
0003
fff9
fffe
ffff
0009
0002
0007
0005
fffd
0009
0000
fffd
0001
0001
0005
0001
0000
0007
ffff
ffff
0000
0002
0004
0000
fff7
0001
fffe
0004
fffe
fffb
fffe
fffe
fffd
fff9
0003
0002
0004
0000
fffa
0005
0003
fff9
ffff
fffe
0000
fff6
0005
0004
0004
fffe
ffff
000a
fffe
ffff
fff9
0001
0004
0000
0002
ffff
ffff
0002
fffd
ffff
fffe
0003
0004
ffff
ffff
0000
0000
ffff
fff2
ffff
fff4
0005
fffe
0007
0002
000b
ffff
fffe
0004
0006
0005
0005
fffe
0001
ffff
0004
0001
0002
fff8
ffff
0003
fffd
0000
0007
0006
0005
fffc
fffd
0005
0002
0006
fffd
fffe
0001
0005
0006
0002
0003
0005
0004
ffff
0002
fff3
0000
0001
fffe
fff9
ffff
ffff
fffd
0000
0001
0005
fffa
fffd
0003
0000
0002
0004
0003
fffa
fff4
fffb
0004
fffe
ffff
fffe
ffff
fffa
0002
0007
0000
0000
fff6
0003
fffe
fffa
0004
fffe
0001
ffff
fffe
0000
0001
0004
fffc
0001
0004
fff9
fffc
0003
fffc
fff5
fffe
0005
fffc
fffb
fff9
0003
fffd
0001
0004
0005
0001
0001
0004
0004
fffe
0003
fffe
0001
0001
fff9
000a
0001
0003
fffd
fffb
0008
0003
fffe
fffc
0004
fffc
0004
0007
fffe
ffff
fffc
0006
0000
0002
fffa
0006
fffe
0002
0001
0004
0001
0001
0003
fff9
fffd
fff8
fff3
fffd
0007
0002
0004
0001
fffc
0005
fffb
0006
0001
fffe
fffe
0000
fffb
0000
0002
0004
ffff
0000
0007
0000
0002
0006
0004
0000
0006
0004
0006
0002
0001
0000
fffe
ffff
0004
fff9
fffe
0004
ffff
0002
0006
0000
ffff
fff8
fffb
ffff
0002
fffe
0005
fff8
0004
0000
fff9
fffd
ffff
ffff
fffe
0002
fffb
0000
fffc
fff6
fffd
0006
0000
fffd
0009
0007
0002
0006
0000
0004
fffc
0003
fffe
fffa
0005
ffff
fffe
fff9
0006
fffe
ffff
0002
0003
0000
fff8
ffff
0001
fffc
0002
0001
0002
0006
0003
0003
0004
ffff
0000
fffb
ffff
fffb
0000
fffc
0004
0001
0004
ffff
0000
0006
0000
0001
0001
ffff
fffe
ffff
0004
0004
0005
fff8
fffc
fff8
0003
fffd
0008
0003
0004
0000
fffe
0000
0007
fffe
0003
fffe
fff9
0003
fffc
ffff
0000
fffc
0000
0005
0002
fffe
fffc
fffd
ffff
0006
0000
fffe
fffd
0004
fffd
0006
0005
fffa
0004
fffd
0002
0000
0004
0001
0002
fffc
0003
0009
000c
fff9
0007
0002
0002
0007
0001
fffb
0002
fffd
0003
fffc
0001
fffc
fffe
0004
fffd
0004
0002
0002
ffff
ffff
fffe
fffc
0003
0001
0001
0005
0002
0008
0001
0004
fff6
fffc
fff8
0004
fff6
0009
0002
fffc
fffa
0002
0000
fffe
fffe
fffe
0000
fffe
0003
ffff
0002
fffe
0007
0004
0004
0000
0000
fffc
ffff
fffc
fffd
fffe
fff7
0003
ffff
0001
0000
fffd
fffc
fffc
0003
ffff
fff7
0001
000a
000c
0002
0002
0002
fffc
0000
0000
fff9
fffb
fffa
fffd
0004
ffff
fffb
fff7
0006
ffff
fffc
fff7
0002
0001
fffd
fffa
fff9
0002
ffff
fffc
0004
0011
0003
0005
0005
fffe
0005
fffe
fffc
ffff
0002
0000
fffa
fffd
0002
0006
0003
fff9
ffff
fffe
0000
0003
0004
0001
0002
fffd
fffc
0000
fffd
0005
fffd
0001
fffe
ffff
0001
0004
fffd
0001
fffd
fff9
fff8
fffb
fffa
fffe
0004
0002
ffff
0008
0004
0003
fffc
fffb
ffff
0001
0006
ffff
fffa
fffa
0000
0008
0000
fff8
0001
fffc
0002
fffb
fffc
fffb
0007
0000
000c
fffe
0001
0006
0006
0006
ffff
fffc
0008
0001
fff4
ffff
fff8
fffe
fffb
0000
fffb
fffc
0003
0001
fffe
0009
0006
0005
0001
0007
0000
0008
0000
fffd
fffc
0001
0000
fffe
0002
0000
0004
fffe
0002
0004
0003
0000
ffff
0008
fffd
0005
fffb
0000
0006
0004
fffc
fffd
fffe
fffd
fffe
0004
0002
0000
0002
0002
fffd
fffb
fffe
0003
0003
0002
0000
0003
0000
0005
fffe
fffe
0002
fffc
0002
0002
ffff
0008
0004
0003
fffe
0000
0001
0008
0006
0002
0002
fffe
0004
0007
fffb
fffc
0002
0006
0004
fffd
fffd
ffff
fffc
fffd
0000
0002
fffc
0000
0003
fffb
0004
0001
fffd
fffe
0002
0008
0008
0000
fffb
0000
0003
0006
0006
fff9
fff9
0002
0001
0005
0002
fff9
fffd
0006
0002
0000
fffb
fffe
0002
fffd
fffe
0002
0006
fffa
0004
0005
fffa
0005
0009
fffa
ffff
fffe
0002
fff9
0006
ffff
0007
0000
ffff
fffb
0002
0003
0008
fffa
0002
fff9
0001
ffff
ffff
fffe
fff8
0004
0001
0006
0003
fffe
0004
fffb
fffc
ffff
ffff
fffd
0005
fffe
fffd
fff9
0004
fffc
fffc
fffc
fffa
0004
0001
0002
fffb
fffa
fffe
ffff
0000
fffd
fffa
0001
fffc
0005
0001
0003
fff6
fffb
0005
0007
0000
0001
fff9
ffff
0001
0004
fffc
fffb
0002
0005
0007
fffe
fffa
fffc
0006
0002
0000
0001
0001
0003
fffc
0000
0000
0003
0001
0001
fffd
fffe
fffb
fffd
fffb
fffe
0002
fffe
0000
fffc
fffc
0005
ffff
0009
fff7
fffc
0001
0002
0005
0005
0002
0004
fffa
0002
fffd
fffe
0003
fffd
0002
0000
0001
0004
fff9
fffe
0000
0002
0008
fff7
ffff
000b
0007
fffd
fffa
0001
0003
0001
0007
0000
fff8
0002
fffc
0004
0005
fffd
0003
0006
0004
0003
fffe
0003
fffd
0000
fffc
fff6
fffb
0000
fffd
0002
0007
0004
fffe
0003
fffe
0002
ffff
0003
000b
0004
0004
fffe
0006
0008
0001
fffd
fff9
fffd
fff7
0003
0001
fffe
0006
0007
fffe
0001
ffff
0007
fff9
0000
fffd
fffb
fffc
ffff
0003
fffb
0001
0000
fffc
0002
fff6
000b
fffb
fff9
000b
0001
0000
0000
fffb
fffd
0000
0001
0001
0006
fff9
0004
000d
0004
fffd
fffd
0002
0008
0004
0000
fff8
fffe
0002
0004
ffff
fffc
0003
0003
0004
0004
ffff
0006
0004
fffd
0000
0000
0002
0005
ffff
ffff
0002
fffd
fffc
fffa
fffa
0003
fffe
0003
fffe
0002
0000
fff9
ffff
0005
fffb
0002
fff8
fff8
fffc
fffe
0001
0005
ffff
fffe
0003
fffd
fffc
fffd
0000
fff9
0000
0002
0004
0001
0003
fffa
fffb
0009
0000
0000
000a
0001
ffff
fffd
fff9
0003
0002
fffb
fffe
0000
fffb
fffc
fffe
0002
ffff
fffb
fffa
ffff
0008
0001
0004
fffb
ffff
0000
0005
0000
0000
0000
0003
0007
fffd
0003
0003
fffa
fff9
fffc
fffb
0001
fffc
0005
0002
fffb
0004
0004
0003
0001
fffd
ffff
fffd
fffd
0005
fffa
0002
fffc
fffd
0000
ffff
fff8
0001
fffd
0002
0003
0001
fffe
0003
fffe
0003
0001
ffff
0006
0000
0000
0000
0000
0001
0007
0002
0002
0005
0005
0008
fff8
0001
0005
0000
ffff
ffff
0002
ffff
0003
fffc
0001
0003
fffd
0007
0001
ffff
0005
0000
0000
0002
fffe
0001
fffc
0001
fffa
0000
0005
0003
0008
fffe
0009
0001
fffd
0002
0000
0000
fffd
0005
fff7
0002
ffff
0000
fffc
ffff
fffb
0003
000a
ffff
0004
0000
0003
0003
fffd
0002
fff8
fffc
ffff
0001
0002
0001
0005
0006
fffe
0000
fffe
0004
0004
fffe
0003
0005
fffa
fffa
fff9
0002
0002
0005
0003
fffe
ffff
ffff
0002
0006
0001
0002
0007
0002
fffb
0003
0002
0004
0001
fff8
0007
ffff
0002
0003
0001
0001
ffff
0000
0001
ffff
0001
0003
0003
0000
0002
0004
fffc
fffe
0001
ffff
0001
ffff
0002
ffff
0003
fffb
fffb
ffff
ffff
fffe
0001
0003
0007
0001
ffff
fffe
0003
0001
fffa
0005
0001
fffd