ffff
fffb
fffa
0006
0001
ffff
0001
0003
fffd
fffd
0000
0002
0002
fffe
0003
0001
fffb
fffd
0005
0001
0005
0004
0009
fff9
0009
0000
0000
0005
0005
fffd
0002
0001
fffa
0000
fffc
fffd
fff9
0005
0000
0001
fffd
0003
ffff
fffe
fff9
0004
0003
0005
fffc
0004
0005
fff9
fffe
0002
fffc
fffd
ffff
0003
0001
0006
fffb
000f
0005
0001
0008
0006
fffd
0006
fffd
0003
0002
0003
fffd
fffc
fffa
0001
ffff
ffff
fffb
ffff
ffff
fffe
0006
0004
0006
0002
0004
0003
fffb
fffd
fff9
0001
0002
fffe
ffff
0000
fffd
0005
0005
0007
fffe
fffa
0001
fffb
0002
0001
fff8
0010
0003
fffe
fffe
fff5
fffc
ffff
0002
0004
0000
0000
0002
fff9
fffc
0009
fff7
ffff
ffee
000b
fff4
fffe
0000
0002
fffe
0009
0000
0002
0001
fffd
fffb
0001
0000
fffe
0006
0003
0002
ffff
0003
ffff
fffd
0005
0007
ffff
ffff
fffe
fffe
ffff
ffff
fffb
0000
0003
ffff
0001
ffff
0003
fffb
fffb
0004
fffe
0005
0004
fff9
fff4
0003
0007
0005
fffe
fffe
ffff
fff9
0007
fffd
fffb
0002
0001
fffd
fff9
fffc
0000
fff7
ffff
fffb
0001
fffe
000d
0000
ffff
0005
0000
0001
ffff
fffd
fffe
fff5
0001
0004
0000
0000
fffb
fffe
fffe
0000
ffff
0002
fffb
0008
0005
000c
0004
fffc
fffd
fffc
fff9
fffe
0003
0000
0002
0003
0003
0004
0000
fff9
0006
ffff
fffc
0000
fffa
fffd
fffb
0000
ffff
fffd
0000
fffe
0002
0002
ffff
0003
0002
fffc
fffc
000c
ffff
0001
0000
fffe
000f
0007
0007
fffd
fffe
0001
0001
fffc
fffe
0002
0002
fffe
0002
000a
fff6
0005
0001
0000
0003
0002
fffa
0001
0006
0001
ffff
ffff
fff8
fff9
0003
0008
ffff
0008
fffd
0003
0003
ffff
0006
fffc
fffc
0003
fffe
fffb
0003
0000
fffc
fff2
fffd
0000
0000
ffff
0005
0006
0004
ffed
fff4
0001
fffa
fffe
fffe
ffff
0003
ffff
fffa
0001
fff1
000e
0007
fffc
0001
0003
ffff
0005
0006
fffe
fffe
ffff
0001
0007
fffe
fffd
0002
0000
fffe
ffff
0003
fffe
0004
0004
fff9
fffc
0006
0005
fffe
0001
fffb
fff9
0002
0001
fffa
fffb
0005
0002
0001
ffff
0000
0006
fffc
0001
0004
fffd
0008
fffe
0003
0002
0002
0001
0000
fff8
0005
0000
0004
0006
fffd
fffc
fffa
fff1
0000
0005
fffa
fff3
0001
0005
fffe
0004
ffff
ffff
fffe
0002
fffc
fffd
0001
0001
fffd
fffe
0003
0000
fffd
0000
0005
fff8
fffa
0003
fffb
000e
fffa
0001
ffff
0003
0007
0000
0001
0000
ffff
0003
0007
0002
fffb
0007
fffc
fff8
fffa
fff7
fffd
0004
fffe
0003
0005
0000
0002
fffd
0002
0001
fff9
0004
ffff
fffc
fffb
0002
0002
0004
0003
0004
fffb
000c
fff7
fffb
ffff
fffd
fff9
fff8
0003
0000
0002
0003
ffff
0000
fffd
0001
0003
fffd
0000
0006
0001
fffe
0006
fffe
fff4
0009
0005
0002
0000
0005
fffe
fffd
0003
0003
fffc
0002
fffe
fffe
0001
0007
0003
fff9
ffff
0001
0006
fff8
ffff
0000
0003
ffff
fffd
0003
fffb
0003
fffe
0000
0002
ffff
fffd
fffb
0000
fff8
0003
0002
0003
0006
0006
fffd
0002
0002
ffff
0000
0003
0005
fffe
fffc
0002
fffe
fff7
0000
0001
0001
0003
000c
fffe
fffc
0000
0001
fffe
0002
0001
0001
0005
fffe
0000
fffb
fffa
0002
fffe
0001
0005
0005
0002
0002
fffd
ffff
fff9
0000
0002
fffd
0009
0003
fffe
0001
0002
0003
fffd
fffc
fff8
0003
0002
0000
ffff
fffc
0000
0006
0004
0002
fff6
fffc
0003
ffff
ffff
0006
fffe
fffc
0007
fffe
fffa
fffc
0000
0000
0001
0000
fff9
fffd
fffe
0002
ffff
ffff
0003
0003
0002
0008
fff6
0003
0002
0002
0002
fff8
fffd
0006
fff9
0000
0004
0006
0003
0000
0006
ffff
fffc
fffb
0005
0004
ffff
0002
0003
0001
fffe
0001
0006
fffb
0004
fffd
ffff
fffb
fffe
fffa
0003
0006
0002
000a
0000
fff3
0007
fffc
ffff
ffff
fffb
fffc
0001
fffd
0002
0006
fffc
ffff
ffff
0001
0005
fffd
0002
0002
0000
0003
0002
0003
ffff
0000
fffe
0003
fffe
fffe
0003
0001
fffc
ffff
ffff
0002
0001
0004
fffc
fffe
fffe
0003
fffd
0007
fffd
fffc
fff9
0002
0000
fffe
ffff
ffff
fffe
0004
ffff
0002
ffff
fffb
0001
0000
0000
0003
0004
0009
0003
0003
fff7
ffff
0001
0004
fffa
fffb
0004
0001
0009
0006
fff9
0004
fffe
0007
ffff
0002
0005
fffe
fff4
fffa
0007
0000
fffe
0006
fff5
fffa
fffd
fffa
0002
fff8
fffc
0006
ffff
0008
0009
0004
0002
0007
ffff
0006
fffc
ffff
0003
0003
fff0
fff9
fffe
fffd
fffb
0000
0009
000e
0002
fffb
0002
fff9
fffd
0007
0003
fff9
fffb
0010
fffc
0018
fffb
ffff
0008
fffb
0000
fffe
0007
ffff
ffff
0001
0000
0007
0002
fffe
0000
fffd
0008
0005
0001
0003
fffc
000a
fff9
0006
0003
fffe
0001
fff7
0001
fffd
0005
0002
0003
fffc
0000
0000
0002
ffff
fffc
ffff
fffa
0009
0003
000c
0002
0002
0009
0002
fffa
0002
0000
ffff
0007
fffc
0009
0000
fffe
ffff
0005
0003
fffe
fffe
0007
0006
fffc
0008
fffd
0003
fffd
0006
0000
0003
fffd
0004
ffff
0000
fffe
0001
0001
0000
fffc
fffb
0001
fffe
0005
fff7
0006
0003
fffe
0006
0001
0005
0003
fff8
fffb
0000
fffe
0004
fffb
ffff
0002
0003
0006
fffe
0005
fff7
ffff
0002
fffc
0001
0000
fffd
fffc
0005
0002
000a
fff9
0001
fffb
fffd
fffe
fffe
0000
ffff
ffff
fff7
fffc
fff5
fffd
fffe
0004
0002
0005
0002
0000
0009
fff9
0001
0002
fffc
0001
fffa
0004
0002
fffb
ffff
0002
0003
fff9
fff7
0001
000c
0005
0005
000a
0001
fffe
fffd
fffb
0001
0007
0003
fffa
ffff
fffd
fff6
ffff
fffe
0002
fffd
0002
0003
fffb
0006
fffd
0005
fffe
fff8
fffa
fffe
0000
0005
ffff
ffff
0003
fffc
fffb
fffb
fffc
fffc
000f
fffb
0002
0005
0004
ffff
0005
0005
0001
0002
0000
0000
ffff
0002
0001
0004
fffc
0005
0005
0000
ffff
0001
0003
fff9
fffe
fffa
0001
ffff
0002
ffff
0000
fffd
0005
fff2
0003
fffa
fff4
fff9
0009
0003
0002
0002
0002
fff8
fffa
0009
0003
ffff
fff9
0001
0002
fffc
0002
fffe
fff6
0000
fffc
ffff
0006
fffd
0000
0004
0002
0001
0009
fffc
fff4
fffe
0005
0002
0002
fffd
0005
fff8
fffa
0009
0003
fffb
0007
fffe
fffd
fff9
fffe
0005
0005
0004
fffb
0003
0005
ffff
fff2
fffc
fffe
ffff
fffc
fffc
0002
0003
0000
0002
0000
0005
0003
0003
0002
fffe
fffb
ffff
fffb
0008
0003
fffe
0003
0001
0004
0006
0008
fffe
fffc
0005
fffc
fffa
0000
0003
0000
0005
ffff
000c
fffc
0002
0000
0006
0001
0004
fffe
0000
fffa
ffff
fffe
fffb
fffe
fffb
fffe
fffd
0000
ffff
fffb
fffa
fffd
0008
fffc
0000
0008
ffff
ffff
0004
0001
0004
fffe
000c
0008
0001
0001
0001
fffb
fffb
0001
fff7
0000
0002
0003
ffff
fffe
ffff
ffff
0001
0000
0008
0006
fffc
fff6
fff8
fffb
fffd
fffe
0003
ffff
fffb
fffc
0007
0001
0008
fff9
fffb
000c
0009
0001
0004
0001
fffd
0002
0000
fffc
0004
fffe
ffff
fffc
ffff
fffb
0004
0006
0003
fff7
0001
0002
0002
fffc
0004
0004
0004
0000
fffe
0000
0007
fff7
fffb
000c
fff9
0003
ffff
fffc
fffa
fffe
0004
fffa
fff9
0009
0007
fffc
0001
0007
0002
fffc
0004
0005
0001
fffe
0005
fffd
fffe
fffd
ffff
0008
0000
0002
0006
fff5
fff6
000a
fffe
fffe
fffe
0001
0001
fffb
0001
0001
0001
0004
0000
ffff
0002
0005
0004
fff9
fffb
0008
0000
0000
fffa
fffa
fffd
fffe
fffc
0006
0005
0001
ffff
0000
fffc
0005
000a
0000
fff7
0003
ffff
fffe
fffe
0006
0000
0000
ffff
000a
0002
fffb
0007
fff9
0004
fffa
ffef
0003
ffff
fffe
0001
0001
fffc
fff9
ffff
fffb
0005
0002
0001
fffe
fffd
fff8
0005
ffff
0003
0000
0001
ffff
0003
fffd
ffff
0003
0004
0008
ffff
0004
fff8
0000
ffff
0005
0000
fffd
fff7
fffc
fffd
fff9
0005
0001
ffff
fffe
0008
ffff
0005
fff9
0006
ffff
0002
fff3
0004
0009
fff8
fff6
fffc
fffc
ffff
fffb
fffe
000b
0003
0001
0007
ffff
ffff
fffd
0002
fffc
0002
fff9
0003
0003
0002
ffff
fffc
0004
ffff
0000
0003
0004
fffd
fffe
0003
0005
0006
fff9
fff9
fffb
0002
fffc
ffff
fff9
fffd
ffff
0001
fffe
0005
0003
0003
0001
fff9
0002
0003
ffff
fffd
0002
0001
fffb
0000
ffff
0004
fffc
fffe
fffc
0001
fffc
fffd
ffff
000e
0001
fffa
0001
fffd
fff9
000c
fffa
fffc
0001
fffe
0005
0000
fffb
0009
ffff
fffb
fffc
0008
fffd
fffa
000d
fffd
fffe
0003
fffd
fffd
0003
fff9
fffe
000c
0007
fffa
0007
fff9
0000
0001
fffc
fff5
ffff
ffff
ffff
fff8
0003
ffff
0013
0002
fffb
0005
ffff
0007
0002
0006
fffd
0002
0009
0000
fffd
fff8
0003
fff7
fffe
fffd
0002
fffa
fffb
0001
fffe
0004
0000
0006
0003
0000
fffe
0005
fffd
0003
0005
0004
ffff
fffe
0004
0000
0004
0018
000b
fffd
0007
ffff
fffe
ffff
0003
0001
0000
fffe
0000
ffff
0000
fffa
0001
fffd
fffb
0000
fffb
0001
fffd
0002
000e
fffa
fff3
fffa
0008
0000
0000
ffff
0003
0002
0003
0003
0000
0007
fffd
fffb
fff7
0001
0001
000e
0007
fff9
fff6
fffe
0004
0007
0004
ffff
fffc
ffff
fffd
fffe
fff6
0001
0003
0000
ffff
fff9
ffff
ffff
ffff
0009
0000
0000
0004
fffd
0001
0000
fffe
fffd
0001
0004
0003
0007
fff8
fffc
ffff
0000
0001
0005
fffc
fffc
ffff
0003
0009
fffc
fff7
0000
0007
fffe
0001
0005
0005
fffb
ffff
0000
ffff
ffff
fffe
0003
fffb
fffd
0002
0009
0001
fffc
0007
0001
0008
ffff
fffd
fffa
0001
0002
ffff
fffe
ffff
ffff
0003
0000
fffd
fffc
000b
fffe
0000
0004
fffe
ffff
fff9
fffe
ffff
ffff
fffc
0001
0002
fffb
fffd
0005
fffc
fffb
ffff
0009
0002
fffc
0002
0000
ffff
fff9
0002
fffd
0007
0000
fff9
0002
fffc
0004
fffc
0000
0001
ffff
0006
0002
0009
0003
fffd
ffff
fffe
fffa
fffe
ffea
0004
0003
fffe
0000
ffff
fff5
fffc
fffe
0006
0001
0000
0001
0003
0009
0001
fffe
ffff
0001
0008
0009
fffe
0000
0000
0006
0003
0000
0005
fffc
0001
0000
fff8
000a
0006
ffff
fffa
0004
0006
fffc
0001
fffd
0000
fff9
0002
0001
fff2
0003
fff8
0002
fffe
0003
0001
fffe
fffa
fff9
000a
0000
fffc
fffe
0008
0005
fff9
fff4
0001
0007
0001
0001
fffc
0001
0002
fffb
fffc
fffc
0004
fffe
fffc
fffc
0004
ffff
0000
0003
fffe
000f
0010
fff2
fff6
0002
fffd
ffff
fffe
0008
0005
fffb
0002
fffc
ffff
ffff
fffe
0004
0001
fffe
0008
fffe
fff7
fffe
0002
ffff
fffd
fffe
0008
0007
0000
fffc
fffe
fff9
0005
0001
fffe
0003
ffff
ffff
fffc
0000
0002
0003
0003
ffff
ffff
0000
fffb
0004
fffe
0008
fffd
0008
fffe
0001
fffd
ffff
0006
0001
0007
fff9
0003
0004
0002
fff5
fff9
fffe
0007
0003
0002
fffe
0000
fffd
ffff
0001
0000
fffc
0005
fffb
fff9
0003
fffd
0002
ffff
fffe
0001
fffe
0008
fffd
000a
0001
fffe
fffc
ffff
0006
fffd
0000
fff8
0007
fff9
fffe
0003
0002
0007
0004
fff8
0005
ffff
fffe
0004
fffa
000b
0000
fffc
fffb
fff7
0001
0006
0000
0003
0001
fffc
fffd
ffff
ffff
0009
0007
fffd
ffec
000a
fffb
000b
fffb
fffd
0001
fffc
0002
0000
0004
0003
0002
0000
0007
fffb
ffff
0005
fffa
0005
0002
0002
0001
000a
fffd
fffc
fffe
0002
0000
ffff
0006
0005
0003
fffe
0002
fffd
ffff
fffb
fffe
0006
0005
0004
0000
0005
0000
fffe
fffd
0009
0001
ffff
fffd
ffff
fff6
fffe
0003
0006
fffe
0002
0000
0008
fffd
0003
000b
fffd
ffef
fffe
fffa
fff0
fffd
0004
0003
0007
fffa
0001
0002
0002
ffff
fffb
0008
ffff
0009
fffa
fffd
0002
0003
0000
fff8
0001
ffff
fff9
0009
0004
0002
0004
fffd
000a
fffc
fffb
ffff
fffe
0002
fffd
fffd
0000
000a
0001
0000
0007
fffc
0000
fffc
0000
ffff
0002
fffb
0005
fffe
0002
0009
fff9
0001
0004
0003
fff8
fff9
0002
fff9
0002
0008
ffff
0000
fff3
fff6
0002
0004
0000
0001
fffe
0005
0003
0000
0000
fffd
fffb
0006
fffd
fffb
fff8
0000
0001
0009
fffd
fffc
0003
fff6
fffd
ffff
0003
0004
0000
0005
0000
0004
0000
fffd
fff6
fffb
0001
ffff
ffff
0002
0007
0004
fffc
000a
0003
0005
fffa
0002
fffe
fffa
0008
fffd
0006
fffe
fffd
fffe
0005
0003
fff8
fff8
0000
fffa
fffd
ffff
0001
0003
fffe
ffff
fffa
0000
fffd
0006
fffb
0003
0000
fffa
fff9
0000
0000
0002
ffff
0001
fff7
fffd
0003
fff3
0009
0003
0009
0000
0004
0001
0001
0003
0001
0003
0000
fff5
0003
ffff
fffd
0000
0003
0000
fffc
0005
000b
fffd
0005
fffd
0003
0001
0001
ffff
0000
0000
0006
0003
ffff
0000
0004
0004
0000
0004
0000
fffc
fffa
0005
fffb
fffe
0000
fffd
ffff
0001
fffb
ffff
ffff
0000
0007
0008
0002
fffd
0003
0005
0008
0001
0009
0000
0006
0003
fff7
fffa
ffff
fffb
fffe
0001
fffd
fffd
0000
fff9
0003
0004
fffb
fffd
0002
0007
0000
0000
000b
0004
fff8
fff4
0006
0005
0003
ffff
0002
0003
0001
ffff
0003
0004
ffff
ffff
fffd
fffa
0000
0000
0004
fffc
fffc
0006
ffee
fffc
fffd
0000
ffff
0002
fffb
0000
0004
0007
0002
0000
ffff
fff8
0007
fffe
fffc
fffb
0005
0000
fffe
0002
ffff
0008
fff7
0004
0005
ffff
0003
0000
fff9
0004
fffd
0003
0003
fffd
0000
0001
fffa
fffc
0001
0000
0003
0000
0005
0000
0003
fffd
fffd
ffff
fff9
ffff
fffe
0006
fffb
fffa
ffff
0001
fffd
fffc
0007
0008
fff4
fff9
fffb
fffc
0004
0004
0004
0003
0000
0000
0009
0003
fffc
0003
ffff
fffa
ffff
ffff
0000
0005
0001
0003
fffe
0001
fff9
fffc
0002
0000
fffe
fffe
0003
fffb
0008
fffd
0007
0000
fffd
ffff
0002
0004
0004
ffff
0002
0006
fffe
000e
fffd
0003
0001
fffc
fffb
0000
0003
0008
0001
fffe
0005
0002
ffff
ffff
0001
0001
0003
0008
fff8
fff5
0000
fffe
0001
fffd
0005
fffe
0005
0003
0000
ffff
fffe
0005
fff9
0002
ffff
fffc
fff8
0009
fffb
ffff
fffb
0004
0004
fffb
fff5
fffd
0003
0004
0004
ffff
ffff
fffb
fffe
fffe
fffe
0002
fffb
0006
0003
0002
fffd
0004
fffd
fffc
fffe
0001
0000
fffd
fffe
fffe
0007
fffa
ffff
ffff
fffb
fffd
fffd
0001
0004
0002
0003
ffff
000a
fffd
0003
fffe
0005
0007
0001
0001
fffd
ffff
fffc
0001
0006
fff9
0007
fff4
0001
fffc
fffb
fffc
0004
0004
0000
fff7
0002
0003
000b
0002
0003
fffd
ffff
ffff
0002
000c
0001
fffe
0001
0003
0004
0000
fffe
fffa
fffc
0003
0008
fff9
0005
0000
fffc
fff9
0002
fffd
fff9
0006
fffc
0003
0000
0000
0005
0006
fffe
0008
0003
0002
0008
fffb
0000
fffd
ffff
0004
fffd
fffd
0000
fffe
0000
fff9
fffc
0003
fffb
0000
0003
0009
0008
0004
fffc
0001
0002
0002
fffe
fffc
fff8
0006
ffff
0003
fffe
0002
fffc
0000
fffa
0000
0001
0003
0004
0001
0003
0006
0000
0006
0002
0002
fffc
fffd
0004
0004
0000
0005
fff8
fff5
0008
fffa
0003
0001
0001
0000
0001
fffe
0000
0007
0006
fffe
0009
0001
0003
0001
0001
0000
fffd
fffe
0001
0001
0000
0000
0006
0005
0002
0006
ffff
fff9
0001
fffb
ffff
0003
0008
fffc
fff2
0002
fff9
0002
ffff
0007
0003
0001
ffff
0003
0004
fffd
0001
0001
fffd
0003
0000
0000
000a
fffd
fff7
ffff
fffe
0004
fffd
ffff
0004
0004
0006
fffc
fff8
ffff
0002
0004
0002
ffff
ffff
fff7
fffe
000b
fff9
fffe
0004
ffff
ffff
0001
ffff
fffd
0002
0000
fffd
fffd
0005
0003
0000
fffe
0000
fffb
fff7
000c
ffff
fffe
fffd
0004
000a
0003
000b
fff8
ffff
0003
fff8
fff8
0007
fffd
fff3
fffd
fff4
fff5
0000
0008
0009
000d
0002
000f
fff2
fffd
0002
0007
0002
0004
0004
fffa
fffc
0001
0002
0002
ffff
fffc
ffff
fffe
fffb
0006
0003
fffb
ffff
0000
0004
0001
0000
ffff
fffe
0001
fffd
0004
0006
0004
0001
0002
fffc
0006
fffe
ffff
0004
0005
0001
000c
0001
fffa
0005
fffa
0005
0000
0002
0002
0003
fffe
0002
0002
ffff
0001
fffc
fffd
fff9
fffe
0002
0000
fff6
000b
0003
0002
0002
0004
ffff
0006
0007
fffd
fffd
ffff
0003
0000
fffe
0000
fffc
fffd
0000
fffa
0002
0002
0006
fffd
fffc
ffff
fff8
fffa
fffe
ffff
0000
fffc
fffd
0000
0005
ffff
0005
fffd
0001
0001
0000
ffff
fffb
0005
0003
fff6
fff6
0007
fffe
0000
0005
fffc
0003
0007
fffc
fffc
0002
0001
0004
0003
fffc
0003
ffff
0005
0003
fffd
fffc
ffff
0000
0005
0000
fff7
fff9
0006
fff9
fffd
fffe
fffb
0000
0000
fffe
fffd
fffe
fff7
fffd
fff9
0000
ffff
fffb
fffb
fffe
0002
0001
fffe
ffff
fffd
fffd
ffff
0003
0003
fffa
fffd
0006
0002
0000
0001
0002
fffe
fff6
0000
000a
0004
ffff
fff8
0002
fffa
fffd
0000
0002
0003
0003
0004
ffff
0001
0004
0003
0000
0002
0007
0004
fff6
0003
0003
fffe
fffc
0003
0008
0000
000a
0000
0008
0003
0003
ffff
0004
0007
0005
0005
fff0
fffb
ffff
fffd
0000
0008
fffd
fffc
0000
fff9
0002
0006
0001
0001
0000
ffff
fff9
0002
0001
0003
fffd
0002
fffe
fffe
0004
fffa
ffff
0004
0002
0000
0006
0006
0001
fffd
0001
0002
0003
0008
0004
0002
ffff
0000
fffe
ffff
0005
fff7
fffa
ffff
0001
0002
0002
0008
0001
000b
fffc
fffe
fffd
0002
0000
fffe
0004
0003
0001
0006
0001
0004
fff6
0006
fffe
0001
0001
0000
0003
0000
fffe
fffc
0001
fffe
fff9
0001
fff7
fffd
fffd
0004
fff1
ffff
fffe
fff8
000c
fffd
0003
0000
0006
fffc
0006
0002
0002
fffe
fffd
fff8
fffa
0002
fffe
ffff
0004
0000
fffd
fffe
fffc
0008
fffd
0003
0003
ffff
0003
fffc
0000
0001
fff5
0003
fffa
0002
fffd
fffa
0009
0002
0006
000d
0004
0007
000b
0002
fffd
fff7
0003
0005
0005
0006
fffb
fff8
fffc
0000
0009
ffff
fffa
fffd
fffc
fffb
0003
ffff
fffd
ffff
fffe
fff8
0001
0006
fffd
fffa
fffc
fffe
0000
0001
fffb
0001
fffb
0003
ffff
0000
0002
fffd
0003
fffc
0003
0001
0002
ffff
ffff
ffff
0004
0007
fff6
ffff
0002
fffc
0003
0001
0006
0001
ffff
0000
0005
0003
0001
fffb
fffb
0003
0005
0000
0009
0002
0009
000a
fffe
0006
0000
fffb
0002
0002
fffc
fffe
0000
fffe
0005
0001
0001
ffff
0006
fffa
0005
0000
0003
0001
0005
0001
0000
fff8
0006
0004
fff5
0003
0001
fffa
0003
ffff
0004
0005
0001
0006
0005
0002
0003
fff9
fff9
000f
fff7
000c
fff8
0003
fffc
0004
0001
0004
0002
fff7
ffff
fff6
000a
0001
fff0
fffe
0005
0000
0002
0005
fffe
0001
0003
fffc
0001
fffc
0001
fffe
0000
ffff
0001
ffff
0002
0005
0000
0005
0001
fffe
fffe
fffa
fffd
0006
fffd
fff8
0005
0004
0000
fffc
ffff
0005
0000
fffc
0003
0003
0000
0003
fffb
0001
0001
fffb
fffb
fffe
0002
0004
fff7
ffff
0009
0000
fffe
fffc
0004
0002
fffe
fffe
fffc
fffa
0001
fff9
0003
0000
0007
0002
0000
0001
000d
fffb
0000
0002
0001
fffc
fffb
0001
fffe
fffe
fff5
fffc
000a
0001
0003
ffff
0003
fffb
0001
fffb
0001
0001
fff9
fff7
000c
fffd
fffe
0005
0002
0002
fff4
0001
0002
0001
0008
000b
fff7
0006
0003
ffff
fffe
fffd
fffd
0007
fffa
fff8
fffe
0000
ffff
fffe
fffc
fffe
fffe
ffff
000a
0000
0001
ffff
0004
ffff
0002
fffe
0002
0002
0000
0004
fffb
0000
0006
000b
fffd
fffa
fffb
0003
0005
0001
fffd
0002
fffd
0000
0004
0002
0000
fff9
0000
0002
ffff
0000
0002
0002
0005
fff9
0004
0000
0001
fff8
0003
0000
fff8
fffd
fffd
fffc
0003
0005
0002
0001
0004
fffa
0005
ffff
000d
fffe
0002
0000
0003
fffe
0001
0006
0001
0004
0006
0008
0002
0005
0005
0001
fffc
0003
0000
0000
0001
0001
0000
fffc
0007
fffb
ffff
0002
fffa
fffd
fffb
ffff
fff9
fffe
fffc
fff8
0009
0003
fffd
fffd
ffff
fffb
0005
0000
fffe
ffff
0003
0002
0002
fffb
000a
0005
fffb
0006
0006
fff7
0002
fffa
ffff
fffe
0003
0001
fff8
0004
ffff
0002
0001
0004
0003
0003
0004
0004
0004
0010
0003
ffff
0000
fffe
0001
0006
0005
0002
0001
fff8
ffff
fffd
0000
0005
ffff
fffa
0004
0000
ffff
fff9
fffc
ffff
fffd
fffd
0003
0003
000f
000a
0000
0000
0005
0000
0002
fffc
0006
fffc
fffc
fff8
0004
fff8
0006
fffd
fffc
0004
fffe
fffd
fffa
0001
0005
0002
0002
fff8
0000
0005
fff8
0008
fffd
0000
0000
0000
0000
fff6
ffff
0008
0001
fffb
fffd
ffff
0004
ffff
0000
ffff
0004
0005
fffc
fff9
0002
000b
0007
0001
fffa
fffd
0006
0005
0001
0000
ffff
0009
0002
fff6
ffff
ffff
ffff
0005
ffff
fffb
0001
0002
fffe
0003
fffd
ffff
000c
0005
0003
fffe
fffc
fffd
0004
fffe
fff9
fffd
0002
ffff
ffff
0006
fffb
0008
0004
fffb
0003
0000
0005
0006
fffb
fffc
0005
fffc
0005
0006
0009
fffd
ffff
0001
fffc
fffc
fffc
0000
fff8
fffb
0002
fffc
ffff
0005
0004
fff5
fff8
0003
0008
0007
0002
0002
fffe
0003
000b
0000
0001
0006
0003
0004
fff9
fffd
fffe
0005
fffe
0000
fffd
0003
0003
fff7
0000
fffb
fff3
fffd
fff9
0008
fffa
ffff
0009
fffa
000d
fffb
fff8
0005
0000
fffd
fffc
fff7
fffa
0004
0003
0001
fffe
000c
0000
0001
ffff
fffe
0001
0003
ffff
ffff
0003
0001
ffff
fffd
fffe
0003
0008
0003
0001
0003
0002
fffb
0007
0001
fffc
fffb
fffa
0000
0003
0002
fffc
fff6
0000
fffc
fffc
0002
fffb
ffff
0006
000d
0002
fffc
0005
0002
fffe
fffb
0006
fff7
0001
fffe
0002
fffd
fffb
0001
ffff
0001
ffff
fffe
fffc
0005
0001
fffe
fffd
0000
0000
fff8
fffa
ffff
ffff
fffb
fff7
fffe
fffe
0002
0001
fffc
ffff
0000
0007
0003
fffb
fffe
fffe
0001
ffff
0005
fffc
0004
ffff
fff6
0004
fff6
fffd
0002
0003
fffc
0002
fffd
fffc
ffff
fffe
000a
0000
0000
0007
0003
fffb
0001
fffc
000d
fffa
fff9
fffe
0004
000a
0002
fffe
0001
fffa
ffff
0000
ffff
0000
0003
ffff
000a
0000
fffd
0005
0003
0001
ffff
fff7
fffc
fffc
0004
fff6
fffa
fffd
ffff
000a
fffb
0004
0005
0004
000c
000c
fff9
0004
0001
0009
fffc
fffa
fff9
ffff
ffff
fffc
0007
0000
0003
ffff
fff9
0004
ffff
0001
fff5
0005
0000
0000
0008
000b
fff6
fffa
0006
0004
0005
fffb
000d
0004
fffe
0001
fff4
0003
0002
fffc
0000
0001
fffd
fffa
0005
0007
fffb
ffff
0003
0005
ffff
0001
0001
0000
ffff
fffe
0003
0001
0003
0006
0007
0003
fffd
0000
ffff
0005
0000
0004
0005
0004
fffe
fff4
0000
0006
fffb
0000
fffd
0001
0001
0003
0000
fffe
0000
0001
0005
0000
0001
0004
fffd
ffff
0008
fffb
fffd
0000
0003
0004
fff9
0004
ffff
0003
fffe
fffc
0006
0003
0001
ffff
0000
000b
0009
fff6
0008
0000
0001
fff3
0000
0003
ffff
0000
0001
fffe
0004
0001
fffe
fffe
ffff
0005
ffff
0001
0000
0001
0004
0001
0000
0006
0003
fff7
0006
fff9
0001
0002
0001
fff8
0004
0000
fffb
ffff
0003
0001
fffb
ffff
0003
0000
000a
0003
0005
0006
0003
0002
0003
ffff
0003
fff8
fffe
ffff
fffb
ffff
0004
0001
fffc
0001
0002
fffc
fffa
fffc
0005
fffd
fff9
ffff
fffe
0001
0000
0005
fffa
fffb
fffd
0008
fff6
fffe
0005
fffc
0004
0000
0002
fffd
0001
ffff
fffe
0007
0000
0000
0002
0004
fffd
0000
ffff
0002
fffe
0003
0003
0005
0000
fffd
fffe
0009
0005
fff8
fffc
0001
0008
0007
fff8
0000
fffb
fffa
0000
fff6
0004
fffc
0005
0000
0000
0001
0003
0003
0002
0002
0001
fffb
0001
fff8
fff6
fffd
0002
0000
fffc
fffe
fffe
fffd
fffb
0002
0006
fffc
fffa
fffe
0007
fffc
0004
ffff
fffc
fffb
fffb
fffa
0000
0000
0009
0006
0002
0003
0003
fffc
fffc
0000
fffe
fffd
fffe
0001
fffd
0004
0008
0006
fffe
fffa
fffc
0006
fffa
fff6
fff8
fffc
0000
0002
fffe
0006
fff8
0008
fffd
0002
fffe
0002
fffc
fffc
fffd
fffc
ffff
0001
000a
0006
0002
0004
0002
0000
0000
fffd
0004
0001
fffb
0002
0001
0003
0002
0003
fffe
0004
fffd
fff8
0001
0004
0004
0004
0006
fffb
fffc
0007
ffff
fffc
0001
0001
0003
0004
0000
fff9
fffa
0003
fff7
fffe
0003
0001
0001
0007
0000
fffd
0001
0000
0001
fffb
0006
0004
ffff
fffe
0002
fffb
fffd
0004
0001
0000
fffb
fff9
0001
fff3
0005
0007
0004
fffc
fffc
0004
0000
0001
0002
0000
000a
fffe
0000
0000
fffe
fffc
fffe
0000
ffff
fffc
0003
fffd
fffa
ffff
ffff
0001
0005
fffd
fffe
0002
0000
fffb
0006
000b
fff9
0001
0000
ffff
0003
fffa
0004
fffb
fffe
0008
0002
0008
fffe
0002
ffff
fffe
fffe
fffc
0006
0007
ffff
0001
0000
0003
0006
ffff
0006
0001
fffc
fffd
fff8
ffff