0000
0000
fffd
0003
0000
0002
0003
0002
0002
fffe
0003
fffd
0003
fffa
0003
0005
0001
0000
0002
ffff
0004
0004
0001
ffff
0004
ffff
0004
ffff
0004
0000
0004
0001
0002
0006
fffe
ffff
fffe
0004
0003
fffc
0002
0004
0000
0003
0003
0002
0005
0002
ffff
0001
0000
0001
0003
0004
ffff
0001
0003
0004
ffff
0001
0002
0004
0002
0000
0000
0002
0002
0005
0006
0001
0001
0000
ffff
0003
0000
0002
fffd
ffff
0002
fffe
0001
0002
0000
0004
0001
0006
0004
0003
0001
0001
fffb
0000
0003
0003
0008
0007
fffd
0002
0000
0002
0005
0001
0006
0002
0001
ffff
ffff
fff9
0000
0001
0002
0001
0003
0000
0006
0001
0002
0001
0003
0008
0005
0004
0005
fffc
0001
ffff
0007
0003
0005
ffff
0005
0003
fffd
0003
0003
0004
0004
0003
0003
ffff
0000
0000
0007
fffa
0002
0003
0003
ffff
0004
0000
0008
fffd
0007
0001
0001
0002
0000
0011
0003
0004
ffff
fffe
0000
0005
0000
0000
0007
0002
0003
0005
0004
0000
0004
0001
0004
fffc
0005
0000
0005
0002
0000
0004
fff9
fffd
fffd
0002
ffff
0000
0005
0000
0001
0002
0000
0005
0006
0002
0002
fffe
0000
0003
0003
0000
0005
fffe
0002
0000
0000
0004
0003
ffff
0003
0002
0004
0003
0003
0006
0000
fffe
0000
0002
0002
0000
0000
0001
ffff
0002
0003
ffff
0002
0002
0002
ffff
ffff
fffb
fffd
fffd
0005
0002
0003
0006
0002
0000
0003
fffd
0001
0000
fffd
fffe
0003
fffd
0005
0004
0001
ffff
fffe
fffc