fff7
fffc
0000
fffd
fff3
0002
fffd
fffc
fff9
0003
0003
0006
fffb
fffe
fff6
fffa
fffc
fffd
0008
0003
fff3
000b
0003
0006
ffff
0013
fff1
fffb
0007
fff3
fffa
0002
fffb
0000
fffb
ffff
0006
fffd
0003
fffc
000c
fffd
0007
0001
fff7
0004
fff5
0002
0002
0000
0000
ffff
fffa
0004
0004
0003
0004
000b
000c
0001
0000
fffd
fff6
0005
fffe
ffff
fffe
fffd
0003
0001
fffa
0001
ffff
fffa
0007
fffb
0006
fffe
fffb
0004
ffff
fffc
ffff
fffb
0001
0003
0002
0006
0001
0001
ffff
0004
0000
ffff
fffe
0000
fffc
0001
0000
0004
fffd
0004
0006
0005
ffff
fff6
0000
0001
0005
ffff
0002
000a
0004
0003
0001
0000
fffa
fff2
fffe
0000
0002
fffd
fff7
0005
0003
0000
0006
000c
0000
fffb
0004
0003
000c
fffa
0004
000a
fff9
fffc
fff8
fffe
0003
0000
fff8
0001
0002
0001
0000
0003
0013
fffc
0004
fff8
0000
0002
ffff
0007
0006
0005
fffa
fffe
0000
0005
fffe
0004
ffff
fffc
fffd
fffe
ffff
0006
0000
0002
ffff
0005
0001
fffc
0000
0008
fff2
0000
0004
0004
0000
fff7
fffa
000c
fffb
fffd
fffc
0003
fffd
0008
0002
fff8
fffb
fff8
fffb
0005
fffe
fff6
0001
000f
0002
0003
fff4
000a
fffc
000a
0001
0002
000b
0003
fff5
0002
fffd
fffc
fff8
000f
fff7
fff6
0005
fff8
0006
0004
fffd
ffff
0003
0007
fffc
000b
fffc
0007
0002
fffb
fff6
0003
fff7
0003
fff8
0005
0008
fffd
fff7
0006
0001
fffc
000f
fffa
0001
fffe
0001
fffa
fff7
fffe
0006
0002
ffff
fffc
0005
0007
0003
0008
ffff
fffc
fffc
fffc
0007
ffff
fffa
0002
000d
0004
0004
0002
fffd
0001
0010
0002
fffc
fff6
fffc
0005
0002
0005
0008
0007
fff5
0001
0002
0003
fffd
0001
fff7
0007
0001
fffb
0003
fff8
fffd
fff5
0002
0000
000a
fffa
fffa
0002
0007
fff0
0006
0004
0006
0002
fff7
fffc
0001
0003
fffe
fffe
0006
0000
0000
000b
fff7
0001
fffd
0009
fffd
fffe
fffd
0002
fffc
fffe
0002
fffe
0003
0011
fffc
fffb
0001
0000
0000
0000
fff5
ffef
0007
0000
fffc
fffd
0001
0008
fffa
fffa
0000
fffc
fffb
0011
fffc
000c
fff7
0001
fff1
0007
0003
0001
fff7
0001
0005
fffe
fffc
fffd
0007
0003
fffd
0003
000b
0002
fffa
ffff
fff9
fffe
fff5
0005
0005
0001
0007
ffff
0002
0000
fffb
0003
fff9
fffe
fff8
fffb
000f
fffe
fffb
ffff
fff6
fffd
fffc
fffd
ffff
fffb
fff6
0001
000f
0005
fffd
0010
0000
0005
0005
0005
fffa
fffe
0000
fff4
0000
0001
0007
0000
fffb
fffd
fffb
0009
0005
fffb
0000
0002
0008
0006
fff7
fffe
fff2
0000
fff4
fffe
0007
0009
fffd
0009
fffe
0013
0006
fffc
fff8
ffff
000a
0007
0005
0006
0005
fffe
0002
0004
fff5
fffd
0000
fffd
ffff
ffff
fffe
ffff
0002
0000
0005
0005
0004
fff9
000c
0008
0002
fff9
ffe8
0001
000e
fffc
fffc
fffd
fff2
ffff
fffc
0005
0003
fffc
fffa
fffe
fffb
ffff
fffe
0002
fff9
0000
0012
0000
0005
fffd
fffe
0007
000c
fffc
0000
fff0
fff9
ffff
0003
fff1
fffd
fffa
0005
0008
0000
0000
fff8
000f
0004
0005
fff2
0005
0007
fffa
0003
0008
ffff
fff9
fffa
0003
fff8
0006
fffb
0009
0008
fffe
0001
000c
fff7
fffe
0003
fffa
0002
fffa
0004
0006
0001
0004
fffb
0000
0005
000b
ffff
0004
fff8
ffff
fffe
0005
0002
fffc
fffc
0010
fffa
fff9
fff8
fff6
fffe
0006
fffa
0005
0004
fffd
fffb
0005
fffb
fffd
fff6
0003
0003
fffa
fffd
fffe
0002
000f
fff7
fffc
0009
ffff
0003
0001
fff7
0000
fffa
fff7
fffb
0006
ffff
0000
ffff
0002
000f
fff3
fff5
0001
0004
0006
0000
0006
0002
0000
000d
0000
ffff
000b
fff9
0004
0003
ffff
0001
fffe
0000
fffc
0006
fffe
0006
0004
ffee
fffe
fffb
0003
fff5
000a
0006
0002
fff9
fffa
0007
fffc
fff9
fffa
fffe
0008
0006
0002
0004
000a
0007
0003
0006
0007
0001
0003
fffb
ffff
0004
000a
0004
0000
0000
ffff
0001
fffa
fffd
0006
0006
fffe
0009
0002
0002
fff2
0005
0000
fffe
0006
fff6
fff8
ffff
0000
0001
fffb
fff3
fffa
fff8
fffd
ffff
0001
0008
0003
ffff
0006
ffff
0000
0004
ffff
fff0
0004
ffff
fffb
fffc
fffd
0001
fffe
0001
0000
0002
0001
0005
0006
0008
fff8
000e
0016
0004
fffa
fffe
0004
0000
000b
0000
fffa
fff4
0008
0012
fffe
fffb
0005
fff8
0008
fff9
fffe
fffe
fff5
fffe
0007
fffc
0002
000e
0006
0008
ffff
0001
fff1
ffee
fff7
fff6
ffff
fff8
0006
0003
0001
fff8
fffb
0005
0001
fff8
0002
fff7
fff7
0006
fffe
0007
0000
000a
0006
0011
fff5
fffc
fff6
fff6
0005
fffd
0005
ffec
0001
fffb
fffb
0004
0000
0004
0008
0001
0009
fff8
fff9
0009
fffc
fffd
ffff
fff8
0006
0006
0001
0008
fff9
fffa
fff7
0002
fffe
fff9
fff9
000b
0008
fffb
0004
ffff
0006
0000
fffa
000c
fff9
0002
0008
0006
0000
fff2
fffc
0001
fffb
0008
0009
fffe
fff9
ffef
0007
000b
0009
0007
0000
0002
0000
fffb
fffa
fff6
fffd
0005
fffc
fffe
fffb
0001
0004
fffd
0005
0002
0010
0005
fffd
fffb
0003
fffd
0005
0002
ffff
0004
0002
0004
0006
fff4
fff7
fffc
0000
fffd
fffe
fffe
0004
0000
fffc
0002
0000
fff0
0003
fffd
000b
0001
0005
ffff
0002
0001
fff8
0005
0006
0009
fffe
0007
fffb
fff9
0001
fffe
fffa
0005
0002
0004
fff8
fffc
0005
fffe
0003
0000
0004
000d
fffd
fff9
0001
0002
0002
fff8
000c
fff6
000d
0000
0001
0009
fffc
fff5
0005
000e
fff5
0002
0003
fff3
0012
fffc
fffe
fffa
fffe
fff0
0005
0005
0008
0004
0005
0000
0015
fffc
0005
fffc
fffb
0002
ffff
0003
0006
ffeb
fff7
fffa
0001
0002
fff3
fffe
0000
0005
0001
fffb
fff3
0002
0003
0008
fffd
0011
fffd
0002
0001
fff8
0001
fffd
0002
ffff
0004
0003
0002
fffc
0002
000a
0008
fffd
000d
0003
fffa
0006
0007
0004
fffd
fffb
ffff
fff7
fff6
0008
0006
ffff
0002
000a
0009
fffe
fffe
fffb
0003
0008
0003
000e
0005
0004
0003
ffff
fffd
0003
0005
0000
fffa
fffe
fff6
fff8
fff9
0005
0003
fffa
fffb
fffd
0000
ffff
fff9
0005
000b
fff7
0005
fff7
fffc
0003
fff2
0006
fffd
0003
0001
fff8
fffe
0003
0005
0007
ffff
0006
fffc
fffe
fff8
000b
0006
0000
fffe
0003
0001
fffe
0000
fff4
fffd
0005
0000
fffa
0002
0001
0004
0001
0004
fff9
fffd
0002
fffa
fffb
0001
0005
0002
fffe
fffb
0001
0006
0002
0000
ffff
0003
fffa
0001
000c
fffa
0005
0001
0000
0003
fff6
fff9
0009
fffb
0002
ffff
fffa
0003
fffd
0009
fff9
0008
0003
fffd
fff9
fffe
000c
fffc
0000
0002
000d
0004
fff6
fffa
fffb
fffd
fffc
fff3
ffff
fffa
0006
fff5
0005
fff9
0014
0004
0002
0002
0001
0005
0001
0007
fff8
fffd
0001
fffc
0005
0008
0000
0003
fffb
fff1
ffff
fff5
fffe
fffc
0006
fff3
fff5
000a
ffff
fff9
fffd
0000
000a
0003
fffd
0001
ffff
0001
0000
fffd
fff7
fff7
fffc
0004
fffe
0000
0004
0005
fff9
0007
0002
0008
0000
fff3
fffe
fffe
000a
0008
0003
0011
fffd
0008
fffc
0009
0007
0009
fff6
0007
fffc
fff9
0004
0008
fff9
0003
0001
ffed
0003
fffd
ffeb
0006
000b
fffd
fffa
000c
0002
0000
fff5
000a
0000
0003
0004
fff4
0008
000c
fffc
0007
fffe
fffa
0007
fff1
fffd
0000
0007
fff4
0000
fff5
ffff
0009
fff6
fff7
fff5
fff9
0008
0001
0006
0004
0010
0000
0004
fff9
0004
0003
fffe
0004
fffb
0000
fff1
0004
fffd
0001
0002
0005
0002
fffb
0000
fffd
fffa
fffd
0003
0004
fffe
0003
0003
fffa
000d
0006
0002
fffb
000e
0002
0001
fff1
0004
000a
000a
0001
fffb
fffe
0000
0003
000b
fff9
0001
0006
0004
fffb
0001
fffd
0004
fff5
ffff
0001
0008
0003
0003
fffc
0000
0007
fff9
fff9
0004
0006
0001
0004
fffc
0001
0000
fffc
000b
0000
0001
fff6
fffd
0006
fffd
fff8
0006
fffc
fffb
0003
0004
0000
ffff
0009
0003
ffff
0001
0006
fff9
fff7
fff8
0005
ffff
fffd
0000
0000
0003
fffb
0007
ffff
0003
0001
fffc
0001
ffff
fffc
0000
0004
0001
0002
ffff
0000
fffb
0004
fffd
0008
0007
0002
fff7
0003
fff9
fffb
fffc
ffff
fffd
0002
fff8
0008
0006
fffa
0003
0001
fff5
0000
000a
000c
fffe
000b
0004
0005
fffd
fffc
fffa
0001
fffc
fff9
0005
fff4
0005
0001
0001
0003
fffe
ffff
0003
ffff
fffb
fffc
0008
0003
0005
0002
0003
fffe
ffff
0002
0008
0006
ffff
0003
fff1
0002
0001
0000
ffff
fffb
0008
0000
fffe
0010
0006
0008
ffff
fffb
fffb
fffa
fffc
fffb
ffff
fff5
fff9
0000
0008
0003
0008
0001
fffc
ffff
fffb
000c
0004
0002
0001
fffb
fff7
0001
fff8
0001
fff4
0005
0007
0007
0004
fff8
fffe
0010
0007
fff8
fff6
0006
000b
ffff
0003
0008
fffd
0008
fffc
fffa
0008
fff9
0007
ffff
000a
0005
000c
fffc
fff6
fff3
fff3
0000
000a
0000
fffa
fffe
fffe
ffff
0007
ffff
fffe
0002
fff5
fff5
0004
fffb
0001
0005
fff9
fff8
0004
0000
fffc
0002
000b
fffa
0003
000a
fffb
fffc
0000
0007
fffc
0004
ffff
0004
fff8
0001
fffa
fffe
0003
0005
ffff
ffff
ffff
0006
0002
000a
ffff
fffe
fff9
fffc
fff4
000a
0000
fff7
fffe
0004
0002
fffd
fffa
fff5
fffa
fffc
0000
0006
fffb
0007
0000
0002
fff0
0000
0002
ffff
0001
0001
0004
fff8
0007
0002
0004
0009
fffd
fffd
fff0
0006
fff6
fffc
0002
0007
0008
0005
0003
0009
0002
0000
fff9
0004
fffb
0002
fff4
0000
0006
0000
0009
0000
ffff
fffc
0006
0002
0004
fff8
000a
fffe
0006
0003
fffa
0000
0006
ffff
ffff
fff9
fffa
0002
ffff
fffe
fffa
fffc
fffe
fffc
0004
0002
fffa
0001
0004
0000
fffd
0002
ffff
0000
ffff
0006
0001
0007
0002
0000
fffe
fffa
0000
fffb
0002
fffb
fffa
0008
0000
0003
fffd
ffff
fff9
fffe
0002
fffd
0000
0000
0002
0000
0000
0002
fffb
fff8
ffff
fffe
0000
fffe
fffd
fffc
0002
0004
0006
fffd
fffb
0001
0006
0004
0006
0006
fffe
0005
0005
0001
fffe
0001
fffe
0001
fffc
000b
fff8
000a
0003
fffe
fffd
0005
0000
fffc
0005
fffe
0005
fffa
fffa
0001
fffb
0003
0000
fffc
0003
0000
0006
0009
0004
fffd
ffff
ffff
0005
0009
fff5
0001
000d
0003
fff9
fffd
fff7
0002
fff4
ffff
fffe
fff3
0001
fffe
0008
fffb
ffff
fffc
0001
0008
0007
fff7
0003
0003
0001
000a
fffd
0001
fff7
0004
0008
fffa
fffb
0000
000a
fffc
0008
fff4
0003
0004
ffff
000d
fffc
fffb
000b
0007
fff9
fff6
0012
0011
ffff
0004
0002
0010
0005
0002
0000
fff9
fff7
fffb
fff9
fffe
0008
000d
0007
ffff
ffff
fffe
0002
fffb
ffff
0001
fff9
0005
fff0
0006
fffb
0010
000e
fffd
fffa
0003
fffa
fffd
fffb
0002
fffc
0003
0002
ffff
fff8
0001
0001
fff8
fffe
0000
fff9
fff7
ffff
0004
000d
fffc
fffc
0002
fffe
0008
0000
0002
000b
ffff
0007
0003
0003
fffb
fffd
fffb
0002
ffff
fffe
0001
fffc
fff9
fff4
fff8
0003
0001
fffc
0004
fffb
fffd
fffc
fffb
fffc
fffe
0005
0001
0002
fff5
fffa
fff7
fffc
0003
fffd
fffb
0007
fff4
fffc
0004
0005
fffe
0006
0000
0001
fffa
0002
000b
0008
0001
fffa
fffb
0007
0000
0002
0002
fffa
fff4
0001
fffe
0004
fff6
fffb
fffe
fff9
0002
0003
0000
0004
0007
0002
0002
0006
0001
fffb
0002
0004
fffa
fffe
0005
fffa
fffd
fff2
fffd
0005
0002
ffff
0003
ffff
fffd
fffa
0007
0001
0002
fffd
ffff
0002
ffff
fff8
0002
0003
fffd
0004
000b
0003
0000
fffe
0002
ffff
0005
fff9
fff8
fffa
fff0
0002
fffd
0007
0004
0002
0006
0009
0002
fff7
0005
ffff
fff8
fffe
fffd
fff9
ffff
0002
0008
0001
000c
fffb
0002
fffa
fffb
0003
fffc
0004
fff5
0002
0005
fffe
fffe
0003
fffe
fffc
0005
fffa
0005
0000
0000
fffd
fffc
fffe
0001
fff9
0000
0003
fffe
0004
fff3
ffff
fff8
fff9
ffff
fffd
0008
0009
fffa
0010
fffd
fffc
0006
0008
0005
0008
0006
000b
fffd
0004
0002
0002
fffe
0011
0005
0002
000d
0007
0000
0001
0003
fffb
fffb
fff0
fffa
ffed
fffd
fffa
0000
0002
0003
0005
000c
0001
fffb
fffb
0000
fff6
fff8
fff2
fffd
ffff
fffb
fffb
0018
0001
fffd
0004
0001
0004
fffe
0004
0009
fffc
fff9
ffff
000e
0004
fff6
0009
fffa
fff9
fff2
0004
fff7
0003
fffd
0003
0003
000d
0000
0002
0005
0001
0000
0013
fffa
fff9
fff9
ffff
0001
0008
0005
0004
ffff
0001
fffb
0005
fffd
0003
0003
fffd
fffe
fffe
fffe
fffa
0004
fffb
0002
0000
ffff
fffd
0004
000b
0009
000a
0006
0000
0009
0001
fffa
000a
fffb
fff2
fffc
fffe
0003
000d
fffe
0003
0009
fffb
0008
fff9
ffff
ffec
0003
0003
fffc
fff5
fffc
0002
0002
0003
0009
0003
ffff
0000
ffff
0008
0003
fff9
0001
ffff
0003
0000
fffd
0001
fff6
fffe
0004
0003
fffa
fffa
0001
000c
0001
0001
0005
0000
0006
0009
0004
0001
0002
fff7
fffc
fff7
fffa
fffe
fffa
fff4
000e
fffc
0000
0004
0006
ffff
fffd
fffa
0000
fffd
fffc
0007
0007
0008
0002
fffb
fff8
0004
0003
0003
0007
fff8
fffa
ffff
fffb
ffff
0000
fffa
0001
fffd
fffe
fffa
ffff
fffe
ffff
fffc
0009
0000
0002
000d
0003
fffe
0008
fffc
0004
0007
fffb
fffd
0006
ffff
0007
0003
fffe
fffb
fff9
fffb
0000
fffa
fff9
fffe
0001
0002
0001
0000
0009
0001
ffff
fffe
fff6
fffd
0003
0003
0003
0000
fffb
fffe
0004
fff9
fffe
fffd
fffc
0000
fffc
0004
fffd
fffd
fff8
0004
0002
ffff
0002
0000
0000
0005
fffd
0002
000a
0001
fff8
0001
fffa
0000
fffa
fff1
fffe
0002
000a
fffb
0010
0008
ffff
ffff
fff8
fffe
0003
0006
000c
fffe
0005
0002
0001
fffe
ffff
0010
0004
fff3
0004
0002
fffc
0005
0001
0007
0001
0001
0001
fffd
fff8
0001
0000
0000
0000
0001
fffc
fffc
fffb
fff5
fffb
fffe
0000
ffff
fff7
0004
0002
0001
0003
ffff
fffc
fffc
0008
0000
fffb
fff6
0006
0003
0009
fff8
0000
0004
0002
fffb
fffe
000b
ffff
0002
0002
0000
fffa
fffe
ffff
fffe
fffc
fffb
0001
fffc
fffe
0002
0004
fffe
fffd
fff6
0001
0005
0007
fffc
0009
fff9
fff5
0006
fff8
ffff
fffc
0000
fffd
fff8
fff0
0002
0003
fffe
fffe
000c
0004
0003
0006
fffe
fffd
0001
000d
0008
0003
0005
fffd
ffff
0002
fffd
ffff
0000
0004
0001
fffe
000a
0004
fff8
fffd
ffff
0006
0002
0010
fffb
0003
fffc
0006
ffff
0003
0004
ffff
0003
fffd
0000
fffd
0005
0002
fff8
0000
0008
0002
fffb
fffd
ffff
0000
0000
fff8
fff9
0008
0000
0002
0004
0001
fffa
fffc
ffff
0001
fffb
ffff
0005
0002
0004
fffe
0007
fffe
0008
fffd
0000
0005
0000
0006
0002
0002
fff6
000a
0002
0002
0002
0003
0006
0000
000b
0005
0000
0001
0006
fffe
0001
0005
0000
fff9
fff5
0000
0000
0006
fff6
0001
fff8
0004
0002
0004
0004
fffc
0002
fff9
0007
0007
0003
ffff
fffa
0007
fff6
fffc
0005
0000
0007
ffff
0004
fffb
0007
fffc
fffb
0005
fff8
0006
fff5
ffff
0007
fffa
0000
fffb
fff4
0002
ffff
0001
fffe
fff6
ffff
0005
fff7
fff8
fffd
0004
fff8
0005
fff9
0007
0004
0002
fffe
fff9
0001
fffa
0007
fff8
0002
0010
fffc
fff7
0000
0005
0006
fff9
0003
0000
fff0
0000
fff7
fffb
fff7
fffb
000b
0006
fff4
ffff
000f
fffb
fffd
fff9
0012
ffff
0000
fff6
0005
0004
0001
fff7
0001
0006
fff6
0009
fffc
fff6
0007
0001
fffe
0006
fff6
fffa
0005
fff9
fffb
0002
0004
0003
fff9
0000
ffff
0001
fff8
0006
0001
fffc
fffd
fffd
0003
fffe
0001
fff9
fffc
0002
fffd
0002
0002
0009
0002
fffe
0004
0005
0001
0000
0003
fffd
0006
fffd
ffff
fff5
0002
fffb
0002
0009
fffb
fffe
fffa
0005
fffd
0003
0000
0006
fffe
fff8
fffb
fffe
fff3
0002
0007
0001
0006
fffd
0008
0000
ffff
ffff
fffc
0002
0001
fffa
0001
0000
fff8
0000
fffc
0008
0002
0003
fffd
ffff
0003
fffd
0003
000b
0001
0001
fff9
0004
0001
0001
ffff
fff2
fffa
0001
0002
0000
0009
fff7
0001
fffb
fffc
0000
0000
0005
fff7
fffa
fffb
0007
0003
ffff
fff3
ffff
0003
0007
0000
fffb
0004
0001
000e
0002
ffff
fff9
0009
0000
0004
fffa
0001
0001
0002
0000
0010
0000
0001
0013
ffff
0006
0008
fff9
fffe
fff9
fffb
0001
0003
fff9
fffd
fffe
0005
fff3
000b
0000
000b
0008
0008
0001
fffd
fff5
000d
0008
fffe
0000
0007
fffe
fffc
000d
0006
fffa
fff8
fff5
000d
fff6
ffff
fff3
0002
fffe
ffff
fff5
0004
0003
fffe
fffc
fff8
fff9
0002
0003
0000
000c
0004
0004
0009
0004
fff8
fffa
fff9
fffc
fffe
fffd
0005
fffc
0005
fffa
000a
ffff
0005
fffc
ffff
fffd
ffff
0003
fffd
0000
0002
0001
0005
fffe
fff7
0003
fffe
fffb
fffe
0006
0000
fff8
0000
0002
fffe
ffff
0004
0002
0004
0005
fffd
fffe
0005
0004
fff8
fff8
0006
0006
0001
fff4
0001
0002
0002
0007
fffc
0007
000a
0002
0005
fffc
fff6
fff4
fffe
0009
fffb
fffc
ffff
0005
0000
fff9
fffe
000a
0016
0005
0000
fff9
0004
0008
0003
fffe
0000
fffe
fffd
000a
ffff
0000
fffc
fffd
0005
fff7
fffd
0005
ffec
fff7
ffff
0009
fffd
fffc
ffff
fff8
fffb
0003
fff4
fffe
0002
0006
0005
0005
0007
fffe
0002
0003
fff9
0002
fffb
0004
0000
0000
ffff
fffe
0000
fffe
fff9
fffe
0004
0009
0007
fff7
fffa
0007
0004
fffe
000f
0003
0000
0002
fff9
fff8
0000
fffd
000a
fffe
000f
0007
0009
fffb
fff8
fff7
0005
0000
fffa
fff2
0006
fffc
fffc
000c
fff3
000a
0001
0008
0000
0002
fff6
0004
000f
fff3
0006
0008
fff5
0002
ffff
ffef
0006
fffa
0000
fff5
fff8
0007
0007
fffa
fff4
000b
0008
0006
0002
fffe
ffff
0002
0007
0007
fff4
0009
0002
ffff
fff6
0008
0006
0001
fff9
0006
0000
0001
0003
fff8
0005
fffd
fff3
0001
0007
fffe
0003
fffb
fffe
fffe
fff7
fffc
0002
0000
0008
000a
0008
0002
fffd
000d
fffb
fffc
fffe
fffe
0009
0002
0001
0006
fffb
fffe
0002
fff7
fffe
0002
fffd
fffa
fff6
0004
0000
0006
000b
ffff
fffd
fffa
fff8
fff8
0002
fffe
0005
ffff
0003
fffc
fffb
0001
fff8
fff8
fffb
0008
ffff
0008
ffed
0004
fffb
fffc
fffd
0001
fffc
fffc
0008
0000
ffff
ffff
0000
0000
0002
0001
0004
ffff
fffc
fffe
0007
0002
fff7
0000
0003
0002
fff5
0001
ffff
0007
fffe
0007
fff4
fff8
001d
000a
0006
fffc
fffd
0000
0002
0006
0006
0009
fffc
0000
fffd
fffe
fffe
0001
0006
fffe
ffff
0011
0002
fffd
fff9
fffc
0004
fff9
0002
0002
fff9
fffd
ffff
0002
0005
0006
0003
0007
0002
fffb
fff9
fff9
fffc
0000
0001
ffff
0006
ffff
0000
0006
fff9
0005
fffb
0002
fff9
fff2
fff6
fffd
fffd
0004
fffd
0005
0006
0005
fffd
0004
0002
0000
000c
fffa
ffeb
000d
0001
0006
0002
0006
fffb
0006
fffa
0002
fffe
0002
0000
0006
fffe
0002
0002
ffff
fffa
ffff
0000
0001
fff3
000d
000d
fffe
0002
fffd
0004
0005
ffeb
0000
0004
0003
fffa
000d
fff5
ffff
ffff
0000
ffff
0002
0012
0002
0008
fff7
0004
000e
ffff
fff6
0001
fff9
fffc
fff8
fff8
fffa
0005
fff9
0004
fff2
fffb
0007
000e
fff6
fff5
fff8
0011
fffd
fff3
fff4
fffa
0003
fffd
fff8
fffe
fffc
0003
0005
0003
0001
0007
fff9
000c
000d
fffd
0002
0007
0009
0003
0004
fffc
000d
fffe
0009
0003
0002
0003
fffe
fffe
0002
fff4
fffa
0001
fffd
0003
0007
0003
fffa
0009
fffd
0002
fffc
0002
000d
fff3
fffb
fff7
000c
0010
000a
fff3
000a
fffb
0000
fff8
0009
fffb
fff9
fffe
0005
fff9
fff8
0011
0002
0000
0000
fffa
fffb
fffd
0003
000a
0000
fff4
0001
fffa
0002
fff9
0001
0009
fff9
fff9
0002
fffd
0003
0002
fffb
fffb
ffff
0003
0008
0008
0003
fff5
0003
0001
000c
0005
0005
0001
0003
fffa
fffe
0007
0003
fff9
fff3
ffff
fffb
0005
fffb
0000
0009
0002
0008
fff4
0003
fffd
fffe
fffc
fff6
0005
0003
fffd
fffd
0008
fffe
0005
0006
fffd
0002
0004
0002
fff9
0000
fffb
0006
fffa
fffd
0003
0000
fffa
0008
fffb
0008
0001
fff8
fff9
fffd
fffc
fffd
fffe
0004
fff6
0009
0000
fffc
fff2
0008
fffb
000a
0002
0005
fffc
0009
fffa
fffd
000b
0005
fff8
000e
0001
0008
fff9
0002
000e
0002
fffe
fff9
fffd
0002
0003
fffd
0003
fff7
fffc
0008
fff7
fffd
ffeb
fffd
0002
0004
fff8
0004
000d
fff1
0001
0005
0008
0000
0000
0000
0005
0000
fff9
fffc
fff5
0000
fffb
0002
0000
000a
fffe
0006
fffe
0009
0007
0002
fffe
0002
fffb
fff7
0000
000b
0003
0003
0002
fffc
fffb
0006
000b
fffe
0001
0006
fff5
0004
fff9
fff6
fff4
000c
fff5
fffc
0007
fff7
fffb
fff2
ffef
ffff
ffff
0000
fff5
000b
fffd
0002
0003
000b
0000
ffff
000b
ffee
0005
0000
fffd
000a
0001
000b
0005
0002
0006
0002
0001
fff7
0000
0001
fffe
0004
fffe
0002
fffe
fff9
fffa
0002
fffa
fff8
0001
000b
0002
ffff
0000
0003
0000
0000
0005
0001
0003
000b
fffe
0007
fff9
fffb
0000
0004
fffb
fffe
0007
0006
0009
0001
ffff
0000
fff6
0006
0000
fffe
0006
0001
0001
0008
fffb
fffa
ffff
0004
0003
0000
0005
fffe
0003
0009
0000
0001
fffc
0007
0001
fff8
0001
fff6
0000
0004
fff7
fffe
0000
0000
fffc
fffb
0001
ffff
fff6
0000
fff5
0004
0005
0005
0002
ffff
fffc
fffe
0001
0002
fffd
0000
ffff
fffd
0001
fffd
0003
0008
fff9
fffc
ffff
0003
0002
0000
ffff
fff5
0003
fffb
0004
0003
0002
ffff
fffc
000a
fffd
0006
0004
0000
ffff
fff7
fffe
0005
ffff
0007
0002
0000
fffe
0000
fffc
0003
0003
000b
fffc
0002
0004
0003
fff3
000a
0000
ffff
0007
0003
0001
ffef
fff6
0002
0000
fff6
fffc
0005
fffc
0000
0001
0003
fffe
000b
0007
fff9
0005
fff4
0000
fffd
ffef
fff6
fff5
0008
fffb
0002
0002
fffe
0000
fffc
fffd
fffb
0006
0002
0002
fff9
fffb
fffa
0004
fffc
fff9
0003
0010
fff3
000d
fff9
0007
000c
0004
fffd
0005
000e
ffff
0001
0004
fff9
0000
fffc
ffff
0003
fff8
0004
0008
ffff
fffe
0001
fffd
0002
ffff
fff9
0006
fffb
ffff
fff8
fffc
0001
0009
ffff
0002
0001
000c
0005
fff7
fffc
0006
fffc
0005
0003
0003
fffb
ffff
0003
fffb
fff5
0007
0003
0005
fffa
0008
fffa
0004
0000
fff5
0003
fffd
ffff
fffd
0004
0009
0003
fffd
000a
0002
fffd
0004
ffff
0003
fff8
0000
0000
ffff
0003
fffd
0002
0003
0003
fffc
0006
0000
fffa
0004
0000
fffd
fffe
0006
fffb
fffc
0007
000a
0004
ffff
fffa
fff9
0001
fff9
0006
0003
000a
0002
0004
0002
fffe
fffc
0000
0000
fffe
fff8
fff9
fffe
0002
0000
fffd
fff9
fff7
0007
fff8
fffe
fffe
fff8
fff6
fffb
fff8
0009
fffb
0003
000c
0005
fffb
0008
0003
0001
0001
fffe
0003
fffb
0006
fff9
0005
0003
0004
0001
0006
0006
fffe
fffd
ffff
0001
0006
fff8
0000
0003
fffe
fffa
0003
fffe
fff5
0001
fffd
ffff
0003
0003
fffe
fff9
0006
0001
0009
fff6
fff4
0000
0002
0006
fff8
fff7
0005
0005
0000
fffd
0006
0002
fffd
0000
fffc
fffd
ffff
0005
fffb
0005
fffa
fffd
fffc
0002
0003
0000
ffff
fffe
fffd
fffe
fff6
0006
0001
fffc
0008
fffe
0004
fffb
fffe
fff8
0003
fffe
0002
fffb
fffb
ffff
0000
0008
0006
0005
fffe
0006
0005
fff8
0005
fffe
fffe
fff9
0002
fffc
fff3
0002
fffe
0002
000a
0004
fffa
0003
fffe
0000
fffe
fffd
0004
fffd
0002
0002
000d
0000
ffff
fffe
fffd
0007
0005
0001
fffb
fffb
000a
0011
0003
fffb
fff6
0001
0002
0007
0000
000a
0002
fff3
0001
ffff
0004
0006
0006
fff8
0005
fffb
fff9
fff6
fffc
0000
0000
0003
0004
fffc
fffa
0004
fffd
0000
0003
0003
ffff
0003
0000
fff4
0003
fff8
0001
fffb
0005
fffc
0007
0005
fffd
ffff
0001
fff3
fffb
0002
fff7
fffd
fff3
0001
0009
0001
0007
fffb
0002
0005
ffff
fff8
0001
fffc
0005
fffe
0007
0008
0003
ffff
0007
fffd
0010
fff5
000e
fffe
0005
fff9
0003
fffc
0004
0001
0000
0003
fffc
ffff
0001
fffe
0004
fffc
0007
fff2
fffc
0001
0010
fff5
fffc
0000
0003
0003
fffa
fff8
fffe
fffc
fff2
0002
fff8
fff4
0008
fff9
0003
0002
0003
fff9
0002
0002
fffd
fff9
fff9
0013
fff6
000c
0003
fffe
0006
0000
0009
0000
fff1
0000
ffff
fffb
fffb
0008
0006
fff7
0014
0009
000a
0002
fffb
fff9
fffb
0001
0008
0009
000d
fffc
fff7
fffd
0001
fffd
ffff
fffe
0004
0005
fffe
fff9
0008
ffff
fffe
ffff
0000
fffc
ffff
0005
fffe
fffe
fffe
0002
0001
fff4
fff8
0001
fffa
fffb
fffe
fffe
0006
000a
0007
fff7
0001
fffd
0001
fff7
0003
0003
0000
fffd
fffd
fffa
fff9
0000
ffff
fff9
0002
000a
000a
0004
0000
0001
fffe
0009
ffff
0001
000d
ffff
0009
0000
0002
fffd
fff9
0002
0005
fff7
fffb
fffe
0000
ffff
0002
fff4
000c
fff4
0007
000e
fffc
fffd
0002
0004
fffa
ffff
fffd
0004
0007
fffd
fffa
0008
fff7
0006
ffff
0002
0001
0003
fffe
fff5
fffc
fffd
0001
0004
fffb
0002
0000
ffff
fffd
0003
fff7
0001
fff7
fffc
fffd
fff6
fffe
0008
0001
0002
0004
0001
fff6
000a
fffe
0000
0004
000c
0007
0006
0001
fffb
fffd
fff9
0006
0000
ffff
fff7
0001
fff8
fffb
0009
0004
fffa
0004
0006
0000
0003
0009
0005
0002
fffe
0002
0006
fffc
fffe
fffc
fffa
0002
0003
fffa
fffe
fffa
fffd
0003
0009
0001
0003
0007
0007
fff5
fff6
0001
0006
fffa
fffd
fffb
fffb
0009
fffc
000d
0003
000b
fffd
0005
0006
fffe
fff5
fff7
fff8
fffd
0001
ffff
fff4
0001
0002
0001
0006
0001
fffa
0002
0003
000b
0000
0009
0003
fff4
fffd
fffe
fff8
fffe
fff6
fff7
0000
ffff
0000
0003
ffff
0006
0000
fffe
0000
fffe
0003
0000
0000
fffc
0003
0004
fff9
0003
fffa
0003
0000
000d
fffa
0000
fffc
0004
000d
0005
fffc
0005
000f
0002
000b
0002
fff3
fff9
fffe
0000
0000
ffff
fffb
0003
0002
fffc
0002
0005
ffff
fffe
0001
0001
0003
fffa
0004
0007
0006
0004
0001
fffc
0004
ffff
fff9
0001
0003
0005
0001
fff5
fffa
0002
0007
0009
fff9
ffff
fffa
0001
0002
0000
0005
fffa
0001
0007
ffff
0000
ffff
0006
0005
fff8
0000
0008
fffe
0004
fffe
fffa
000f
fff9
ffff
0006
fff3
0006
fff7
0000
0004
0001
0010
0009
fffd
fff7
0009
fffb
fffd
fff4
fffd
0009
fff4
fffe
0004
0006
fff5
fff6
fffe
0009
fff7
0005
0005
0004
0003
0006
000c
0000
0010
000b
0004
fff7
0009
fff9
0003
fffe
fff6
fffb
fff1
fffb
fffc
fffa
0001
0007
fffe
fffd
0010
0004
fff9
000e
ffff
0003
0007
fff8
0002
fff9
fff1
ffff
0006
0001
ffff
fffe
ffff
0006
ffff
0000
fffd
0007
0000
0001
fffd
0001
0003
0004
fffa
0001
0002
fffe
fffa
fffd
ffff
fff9
fffa
0000
fff5
fffe
0000
0000
fff9
0005
0001
ffff
0005
0002
fffe
0007
0001
ffff
0002
0000
fffa
fffe
0004
fffe
fffe
0003
fffd
0002
0004
fffe
fffe
fffd
0002
0002
0002
0005
ffff
0004
0003
0003
ffff
0002
fff4
0002
fff7
fffc
0015
000e
0001
0008
ffee
ffff
0000
fff8
fff8
fffe
0005
0008
ffff
0004
0002
000c
fffe
fffe
fffa
ffff
0000
0002
0003
0009
0001
0005
fffd
0008
fffe
0007
fff7
0003
0002
0002
fffa
fff3
fffd
0001
fffb
0001
0000
fffe
0005
fffe
fff1
fffa
fff4
0007
0002
0001
000e
0003
0005
0003
000c
0006
0000
fff4
000f
fffb
0002
0009
0008
0009
fff4
fffd
fff8
fffa
fffc
0001
0004
0001
0005
0009
0007
0002
0003
0007
fff9
0008
0001
fffd
0004
fffe
0001
0001
fffe
0005
fffd
0001
fffd
0000
ffed
fffd
ffff
0005
fff9
000d
ffff
fffc
000b
0006
0002
fff2
fffa
0007
fff8
fffc
ffff
0003
fffe
0003
fff5
fffa
0004
0003
fffe
0007
fff5
fff8
0004
fffe
fffc
fffe
000f
fff3
0001
fffe
fff6
0006
0009
fffd
fffc
fffc
fffe
fff8
0005
fffb
0002
0005
0007
0009
0002
0009
0000
0000
000d
0005
fffd
fff7
0001
fff4
0001
fffd
fffa
0002
fffa
0000
0010
0002
0000
0000
fffc
fff8
000f
fff5
fff8
fff7
0005
0007
000c
fffc
ffe9
0004
ffed
0000
fff4
000b
fffe
0005
fff9
0007
000d
0004
000d
000d
fffa
ffe7
fffd
ffff
fffb
0001
fffc
0002
fffd
0004
0009
0006
fff8
fff6
fff9
0008
0005
fff9
0002
fffd
fffc
fffe
fffa
ffff
0003
0004
ffff
fffd
0001
fffa
0005
fffe
0004
0000
0004
fffe
0000
0002
0003
0000
fffa
fff6
ffff
fffc
0002
0001
0003
0004
0001
0001
0005
fffe
fffc
fff9
fffd
0003
0009
0007
000d
fffe
0006
fffc
fffb
fff9
ffff
fffb
fffa
fff9
0000
fffc
fffa
fff8
fffc
fffe
0007
fff6
0004
0005
0000
0006
0004
fff8
fffc
0000
ffff
fffe
fffc
ffff
0005
0007
0001
0003
ffff
fffc
0002
fffb
ffff
0002
000d
fffc
0002
fffd
ffff
0007
0004
fff9
0007
fffe
0004
fffa
0009
0009
fffb
fff7
0005
0001
fffd
0007
ffed
000a
fffa
ffff
fffa
fffb
fffd
0000
0009
0005
0006
fffd
ffff
0004
fffb
0001
0005
fff7
fffd
fffe
ffff
fffc
ffff
fffe
0002
ffff
0001
fff7
0000
0003
fffd
fffa
0007
fffd
0002
fffa
fffa
0008
0007
fffd
fffd
fffe
fffd
fffb
fffe
ffff
0004
fffb
0003
fffb
0000
fffa
000b
0001
0007
fffa
0004
0008
ffff
0004
ffff
0005
fffc
0004
fffb
0001
0004
ffff
ffff
000b
0008
0002
fffa
fff9
0006
fffa
0003
0007
fff4
0000
ffff
fff7
0010
0000
000b
fffd
fffa
fff3
000b
000c
fff3
0001
0003
fff6
0001
0006
0004
0000
0007
0008
0009
0005
0009
0001
0001
0000
fff5
fffb
0001
0006
0003
0008
fff7
0004
0002
0015
0007
fff7
fffe
fff4
0002
000a
0004
000b
0004
0007
fffb
0006
fff7
fff4
fffb
ffff
0001
fffe
fff9
fff9
0002
fffd
fff3
0000
000f
0003
fffd
fff3
000e
fffd
fffe
fff8
0001
0001
0005
fff7
0003
fffc
0004
0002
fffd
ffef
fff9
000a
000b
fff8
0010
0008
ffff
fffa
fff2
0004
fffe
0000
fff9
0006
0003
0001
0007
0008
0003
ffff
0005
0004
0001
fffc
0007
0001
fffb
0002
0006
0002
fffc
0000
fffc
fffe
fffc
fff0
0010
fff2
fff6
000a
fffe
fff5
fffe
0007
0002
fff8
0005
0000
0000
0002
fffb
000b
0002
0001
0000
fffc
0002
0005
0006
0000
000f
fffd
0007
fffe
0000
000b
fffe
0005
0002
ffef
fff8
fff5
0004
fffe
fffd
0002
fffc
fffb
fff3
fff6
fffb
000a
fffe
fff7
fff7
fffa
fffe
0001
000d
fff8
fffa
0007
0003
0005
fff8
0001
0004
0006
0000
0001
0001
0002
0006
0000
0008
0001
fff7
fffe
fffa
0002
0009
0007
000a
0001
ffff
000c
0000
000a
0002
ffff
0004
fffc
0002
0000
0003
0000
fffe
fffa
fffc
0003
ffff
0007
0004
fff7
0007
000a
fff9
0004
0005
fff5
0002
fff6
fffd
fffb
fffc
fffe
0001
0003
fff8
fffb
0000
0004
000b
0009
0002
ffff
0001
fffa
fffe
fffc
0006
0008
fff8
fffe
0007
0003
ffff
0003
fffb
0005
fff9
fff4
fffd
0002
0005
ffff
000e
0003
fffd
fff8
0000
0001
fffe
0002
0009
fffe
fff6
0001
0004
fff7
0005
0003
0001
0002
fffc
0004
fffa
fff0
fffe
0003
0004
0000
fffc
fffa
0002
fffa
0002
0007
fffa
0003
0007
fffa
0004
0004
ffff
fffe
0009
0004
fff9
fffe
0007
0001
fffe
fff6
fffd
fff9
000c
0002
0002
0005
0006
0002
fffe
fffb
0005
fffd
0001
0000
ffff
0005
ffff
0002
fffe
0003
0006
fffe
0001
0000
fffd
0002
fffe
0005
fffe
0002
0003
fff9
0002
fff4
fff8
fffe
fffd
0004
0000
0007
fff8
0001
fffb
fff5
0000
0001
0001
0006
fff4
0005
0002
0006
0002
fffc
0000
0001
0005
0001
fffe
fffb
fffd
0000
0002
0009
0007
0002
0003
0006
0004
0004
fffb
fffa
fffc
0003
fffd
fffc
0002
0003
0005
0004
fff9
0004
0006
fff6
0001
0001
0004
0002
fffe
ffff
fffa
0003
0002
fffd
0000
0002
fffd
fff7
0005
ffff
fffe
fffe
0003
fffe
0005
0004
0003
fff7
fffe
fffe
0005
0007
fffd
ffff
0008
fff9
fffe
0002
ffff
0005
fffd
0000
fffc
fff7
0003
0007
fff6
0005
0005
0002
ffff
fffe
0000
0002
0005
0004
ffff
fffd
0003
fff6
0007
fffe
fffd
fffe
fffc
0004
0009
ffff
ffff
0002
fff7
ffff
fffe
fff9
fffd
0004
0005
fffe
0007
0009
0001
0000
0000
fffd
0001
fff8
0008
0007
fffd
0003
0008
0008
fffd
0006
0003
fffb
fffa
0006
0004
fffb
fffa
ffff
000a
000f
ffff
fff6
0001
0002
ffff
fff8
fff3
0007
fffb
0003
0004
fffa
0005
000f
ffff
0003
0006
fffe
0005
fffd
fff8
fff9
0000
0000
0001
0005
0002
ffff
fffb
ffff
0002
fffc
0001
0001
0002
0001
0000
fffd
fffa
fffe
ffff
fffb
0003
fffd
fffb
0004
0003
fffb
0002
0002
fffc
fff8
ffff
fffb
0006
0000
fffc
fffe
0002
ffff
0004
0002
fffe
fffa
0004
0000
0001
0001
0004
0004
fffe
000b
0003
0003
0001
fff8
fffd
fffc
ffff
0007
0001
fffb
0003
fffd
0003
0002
000a
ffff
000a
0003
0005
0001
0003
fffd
0005
0002
0005
fff9
fff8
ffff
ffff
fffe
0003
0003
0001
ffff
0000
fffd
0002
fff0
0006
fff9
0008
0004
fffa
0001
fffc
0000
0004
0005
fffd
fffe
0000
fffd
0002
fffb
fffb
0000
fff8
0001
fffe
fffa
fffa
0007
fff6
0009
0002
0002
0004
fffd
fffc
fffe
fffe
ffff
fffe
000b
fffc
fff8
0003
fff6
fffd
0004
0005
fffa
fffd
0000
fffe
0006
fffd
ffff
0002
0006
fffb
ffff
0007
fffa
fffc
0005
fffb
0002
0003
fffd
fffc
0003
0004
0000
000d
0004
fffe
ffff
fffd
fffe
ffff
fffa
0001
ffff
0003
0001
fffb
fff2
fff6
fffe
0000
fffe
000b
fff1
0001
fffd
0000
fff8
fffe
fffb
0005
0002
0002
0009
0000
fffe
000e
fff7
fff8
0003
0003
0005
0003
fffa
fffd
0003
ffff
0000
fffd
0001
0000
fffe
0000
0004
fffd
0002
0002
fffa
0000
0002
0002
ffff
0003
0003
0003
0001
0001
0003
0000
0009
fff4
0002
0001
0004
fffb
0000
fffe
fff7
000a
ffff
fffe
fffc
0000
0005
0006
0000
0005
0001
fffd
fff9
0001
0004
0005
fffa
0003
0004
0002
0008
fffa
0006
fffd
0003
0007
fff4
0006
ffff
0003
ffff
fffa
0002
fffb
0006
fff8
fff7
fffe
0002
fffc
0003
000b
0004
0005
0007
fff8
0006
fffe
0000
ffff
0003
ffed
fff8
fffc
0002
0002
fffe
fff4
0001
fffe
fffd
fffb
fffd
0005
0007
ffff
0006
0000
0002
fff6
0002
ffff
fffa
fff8
0002
fffa
0008
0007
ffff
fff5
0009
fff5
fff9
000c
000b
0001
fff8
0005
fffe
fff9
0006
0008
0005
fff7
000b
ffff
0003
0013
0002
fff5
fffb
0005
ffff
0004
0005
000c
0004
fffe
0009
fffe
0001
0006
ffff
0005
0001
ffff
0005
0001
0002
fffd
fffd
0003
0000
0008
0004
fffd
fffa
fffe
fff3
fff7
0006
fff7
fffd
fffb
fff7
fffe
0000
fffa
000a
0008
0001
fffe
fffd
0008
0003
fff9
fff9
0007
fffc
0005
0008
fffe
fffd
fffd
0005
0005
fffc
fff7
0007
fffc
0001
000c
0006
fff7
fff7
fffa
0008
0003
000d
0005
fff3
0005
ffff
0007
fffb
0006
0000
fff9
0006
fff8
ffec
fffe
fff5
0002
ffff
fffc
0009
0002
000c
fff9
0003
0009
000a
fff9
0001
0004
fffd
0001
fffa
ffec
0002
0003
0000
ffff
fffa
0003
fff6
fffc
0002
ffec
fffd
0010
0000
fffb
000d
ffff
0003
ffff
fffc
fff7
fff1
fffa
0002
0002
0009
ffff
fffc
fff6
fffb
0007
0003
0002
fff9
0007
0006
fffe
fffc
fffb
0008
fffc
0003
0004
fff9
fffc
ffff
0000
fff8
fff1
0003
fffd
0007
0007
fffb
fffa
0004
0005
0009
ffff
fffd
000b
000a
0004
fffd
0000
0005
fff7
0005
0003
0001
fffe
fffc
0001
fffe
0005
fffa
0001
ffff
ffff
ffff
0002
fffd
ffff
0005
0006
0003
0004
0004
0005
0001
0006
0000
fffc
0001
fff9
0002
0002
0001
fffb
000a
fffb
fffe
0002
0001
ffff
fff8
fffe
fff9
fff9
ffff
0001
fffc
fff9
0000
0007
fffa
fffd
0001
0001
ffff
0000
fffa
0006
0007
fff5
0000
ffff
fff5
000a
0005
fffa
ffff
fffe
0001
fffd
fffb
0000
ffff
0004
0005
0000
000a
fff7
0002
0002
fffc
0001
0000
0000
0003
fffb
fffe
0000
0002
fff5
0009
fffc
fffd
0001
ffff
0001
fff7
0004
0008
0006
0009
0005
0005
fff2
0001
fffb
fffc
fffe
fffc
0004
fffd
000b
0005
ffff
ffff
fff9
0002
fffc
0002
fffd
ffff
0004
fffc
0009
ffff
fff9
fffc
0002
0001
0005
0001
0007
fffe
0004
fff7
0006
0001
0003
0005
000a
fffa
fffb
0002
fffd
fffa
000d
fff9
0002
fffd
0007
0006
fffc
0004
0003
0007
fffb
0001
fffb
fffd
fffb
fffb
0000
ffff
fffc
ffff
fff6
0002
0001
ffff
0005
ffff
0007
0000
000a
fffa
fffa
ffff
0000
fffe
fffc
0009
0006
0001
0000
0002
0002
fffe
fff6
fff7
fffe
0003
ffff
0005
fff8
0001
fff7
fffa
0008
fffa
0006
fffb
0012
0003
fffd
0006
fffd
0005
fffd
0002
0001
fffa
fffd
0001
0007
0006
fff5
0011
000a
0001
fffc
0003
0005
fff9
000a
fffe
fff8
000a
0004
0006
fffd
0001
0000
0004
fffd
0002
0004
ffec
0003
fffe
0001
fffa
ffeb
0005
0002
0001
fffe
0000
fffd
ffff
fff6
0003
0007
000d
fffe
0005
fffc
fff6
0000
fffa
000b
fff2
fff8
0005
0004
0000
fffe
000a
0002
0009
0002
fffb
fffb
fffa
fff2
fff3
0004
ffff
fff4
000c
fff9
fffc
fff3
0003
000b
fffa
0000
0009
fffb
fffe
fffe
0004
fff9
0007
0004
fffe
fff7
fffd
0003
0003
fff7
fffc
0002
0006
0001
fffd
0000
0009
000b
0001
fffe
0002
ffe3
fffe
0003
fff7
fff9
0007
0000
0005
0003
0005
0000
0005
fffe
ffff
ffff
fffb
fff7
0000
000b
fff4
ffff
0003
000f
0002
0006
0007
fff5
0001
fff4
ffff
0005
0002
0001
0005
fffb
0006
0003
0005
fff8
0005
fffc
0007
0003
0002
fff9
fffd
0005
0005
0000
0004
0001
fffa
0005
fff9
0005
0005
0009
000c
0009
fff3
fff6
0002
0000
0000
000f
fffc
0009
0007
fff6
0003
0001
fff7
fff8
fffa
fff0
fffb
0001
0006
ffff
fffe
fffb
fff8
0000
fffe
0006
fff9
fffc
0002
ffff
0002
0000
0006
0000
fff5
fffd
0001
0000
0000
000e
fff4
0004
0005
ffff
0004
fffa
fff9
0004
ffff
fffa
0004
0008
0000
fffa
000a
fffb
fffc
0009
ffff
0001
0008
0004
000d
0005
fffb
0002
fffa
0004
fffc
fff4
fffe
0008
fff5
0007
0002
0004
0002
000c
fffe
ffec
ffff
fffa
0004
0002
fffe
fff9
0000
fff3
fffc
0003
0005
fffc
0004
fffd
0003
ffff
fffc
fffa
fffd
0001
fffe
fffd
ffff
fff0
fff9
0008
0009
0007
fffb
0007
0009
0004
fffb
0009
fffa
fff9
fffd
0000
0005
000a
0005
ffef
fff5
0004
fffb
fff8
fffd
ffff
fffe
fff2
0008
0003
fffe
0007
fff9
fffc
fffd
0003
fffe
0002
0002
0007
0001
fff9
0000
fffa
fff8
fffb
0004
0008
ffff
0000
0002
0004
fffd
0002
ffff
fffe
fffe
fffe
0002
0006
0001
0004
0009
0003
0003
0005
0007
fffe
0002
fffd
0000
ffff
fffc
0006
fffa
fff5
0004
0000
0002
ffff
fffc
0001
fffa
fffb
fffc
fff5
0009
ffff
0007
0001
ffff
0007
0002
0001
0005
fffe
fff9
0005
ffff
0001
fffe
fffb
fffb
fffa
0008
fffd
0002
fffb
000c
fff9
fffa
0002
fffd
0008
fffa
fffb
fff9
fffc
0002
0002
0002
0002
0002
0000
000a
0000
000e
fff9
0005
0003
0008
0004
fff0
fff1
0005
000e
fff8
fffc
0002
0009
0004
0004
fffe
fff7
0008
fff9
fffd
0008
000c
000b
ffef
fff5
ffff
fffa
000d
fffd
0003
fff8
fffc
fffd
0001
fff7
fff8
fffd
0015
0001
ffff
0003
0001
0003
0004
000a
0003
fffe
ffff
0003
fffe
fff6
fffd
000a
000a
fffa
0000
0000
ffeb
0002
fff1
0002
fff4
fff9
0002
000b
0000
fffa
000f
0002
0004
0004
0000
fff8
0001
fffa
fffb
fffc
fff1
0003
fffc
fff7
fffa
0004
0000
0003
0007
0008
0000
fff6
fff5
000b
ffff
fffc
0003
fff7
fff7
0007
000a
fffa
0000
0006
fffc
0002
fff6
fff3
fff9
fffa
000b
0006
ffff
0004
fff5
0002
ffff
0000
fff9
fffb
0005
000a
0006
0006
ffff
0001
0001
fff9
fffc
0002
0003
fffc
fffe
0000
0001
fffd
0002
0005
0004
0005
0007
fffa
0004
0005
fffa
fffc
0002
fffd
0008
fff6
0002
0000
0001
fffd
0004
fff9
fffe
0005
fffd
fffd
0004
0006
fffd
fffd
0003
0007
0000
fffe
0000
0000
fff5
0004
0002
fffd
fff1
ffff
fffe
ffff
0005
fffa
0001
0003
0004
0000
0003
fffe
fff9
fffd
ffff
0003
ffff
fffb
0001
0009
0004
fff5
ffff
0003
fffe
0003
fff3
fff9
0002
0002
fffb
0005
0002
000d
fffe
0001
fff9
fffd
0001
fff4
fff9
fff9
000b
0003
0002
0002
fffd
ffff
fff7
fffe
0002
0007
0006
0000
000a
fff9
ffff
0014
0000
0000
fff8
fff8
fffc
fff7
fffd
0008
fffe
0004
0004
fffe
ffff
fffa
ffff
0005
0001
fffd
0002
0001
0003
0001
0011
0006
0001
fff9
fffe
fff7
0001
fff8
fffe
0008
fffe
0003
0000
fff7
0003
0002
0000
fffb
0009
0000
fffb
0005
0003
0005
ffff
fffb
0003
fff7
0001
0007
0002
ffff
ffff
0007
0000
fff3
0000
fffd
fffc
0003
0003
0009
fffd
0007
0002
0004
fff3
0005
0001
fffc
fffd
fffe
000a
fff9
0002
fff5
0001
0000
0006
fffa
fff9
0003
000b
000a
000a
0004
000b
0003
fffe
0000
fff8
0005
0007
ffff
fffb
0008
fffd
0000
0000
fff8
0004
ffff
fffa
fff9
0002
fffc
fffe
000b
0005
fffa
0005
ffff
0002
0000
fffd
fffd
0009
fff6
fffc
fff4
fffe
0008
0003
fffe
fffe
fff6
0010
fffa
fff7
fff9
0002
0004
fff9
fff9
0006
0009
fffe
0001
0002
000d
fffc
ffff
fffe
0003
fffb
0009
fffc
fffa
0004
0004
fff9
fffc
fff7
0005
fff9
0000
fffe
0004
000a
fffd
fff8
0007
0003
0009
0005
0000
fffe
0004
0000
fffd
0008
0000
0007
fffd
0007
fff1
0006
fffd
0007
0006
fffb
0006
0000
fff8
fffc
fffb
fffb
0004
0003
0000
ffff
0008
0001
fff5
fffe
ffff
ffff
ffff
fffe
0002
fffb
0006
0000
0000
fffc
0001
0003
0002
fff7
fffc
0001
000a
0000
fff9
fffc
ffff
000b
0009
0002
0003
000a
0004
0011
fff7
0002
0003
fffe
0000
0004
ffff
fffc
0005
fffc
fff4
000a
0003
0005
fff4
fff8
0001
0001
fff8
0004
0005
fffd
0004
ffff
fffc
fffe
fff3
fffa
0005
fff9
0004
fff4
fffb
0001
fff7
000a
000d
0006
0005
0002
fffd
fff8
0001
0003
fffe
0003
0000
fff9
0003
0001
ffff
fffc
fff4
fffb
0009
0003
0007
0002
ffff
fffe
0000
fffc
0002
0000
fff8
fff7
fffd
ffff
000e
0003
fff9
0003
fff8
fffe
000a
0007
fffb
0002
fffd
0006
0004
ffff
0006
fffc
0003
0000
fffa
0002
0003
fffc
0003
0005
0000
fffe
fff5
000c
fffe
ffff
0000
fffd
0003
fffc
0005
0000
fff9
0007
fffb
fffe
0002
fffe
0007
ffff
ffff
fffd
fffd
0005
0002
0006
ffff
0007
fffe
0009
ffff
fffa
fffb
0000
0000
fffb
fff9
0008
0002
0000
fffb
fffe
0002
0008
0005
0002
0002
fffb
ffff
0001
fffb
0005
fff2
0009
fffb
0002
fffa
0004
fffa
0004
fffa
ffff
fffe
0005
0002
fffd
0005
fff7
fff8
ffff
0003
0002
0008
fffb
0008
fff7
0002
0003
ffff
fff6
000c
0007
0002
0007
fffd
0003
0004
000a
0002
fff6
ffff
0002
fff2
0002
fffe
0013
fff7
fffa
0006
fffb
ffff
0000
0000
fffa
0009
000a
fffa
fffc
000a
fff7
fffd
fff1
0007
fffe
fff9
0000
fffb
fff8
0005
0009
fff8
fffb
fff8
ffff
0005
000c
0007
0007
0006
0001
fff7
0006
fffd
fffc
fff8
fffe
fff2
0000
fffa
0000
ffff
fffd
fffd
0007
0001
fffe
0003
fff7
0006
000e
ffff
ffff
0006
0000
fff8
0003
fffd
fff7
0005
fffe
fffe
0000
fffe
0007
fffe
ffff
000c
fff5
0004
000a
fffe
fffd
fff7
fffc
fff1
fff9
0000
000a
0007
0000
0006
0002
fff1
0003
000c
fffa
fffb
0001
0010
0004
fffb
fffd
fffe
0003
fff8
0007
fffa
fff7
0009
0005
0003
ffff
0000
fffe
0006
fffe
fffd
fffa
0003
0001
0005
fffb
0001
0002
fffd
0002
0002
fffe
fffc
0006
0002
fffb
fffa
0005
0006
0000
fffd
0001
0005
ffff
ffff
000a
000a
fffe
fffe
fffe
0006
fffb
ffff
ffff
fffc
0001
000a
0001
fff7
0004
fffe
0002
fffd
0001
0002
fffc
0002
0002
fff9
0008
fffd
0000
0000
fff4
0007
0002
0001
fff6
0008
0000
0003
fff9
ffff
ffff
fffa
0007
0006
fff9
000c
0001
000c
0004
fffb
fff7
0004
fffd
ffff
0000
fff9
0005
0001
0006
0006
fffd
ffff
0004
0006
fffb
0003
0005
fffd
fffa
0003
0007
0003
0000
fff8
fff6
0006
fffc
0007
fffb
fff6
0007
ffff
000a
000a
0002
fff7
0007
0001
0002
0008
fffd
fff5
fffc
fff9
0005
fff4
fffd
0007
0001
fff3
ffff
ffff
0008
0005
fffe
fffa
fffe
0002
0005
0002
fffd
0000
0005
fffb
0003
fffd
fffd
0003
000c
fffe
0006
0000
0001
fffd
0013
0004
fffa
0006
0009
0006
fff9
fff3
0006
0004
ffff
fffc
0003
fffa
0000
ffff
0006
000e
0000
0002
fff5
0000
0006
000b
fffe
0008
fffc
000c
fffc
fffc
0000
fffc
0001
0003
0002
fff7
0001
fffb
fff4
0000
fffd
000a
0003
0001
fffd
0000
0008
fffb
fffd
0000
fff7
0001
fffe
000c
000b
0004
fff6
ffff
fff4
fffd
fffa
0006
fffc
0000
0001
0003
0003
0001
fffe
fffd
fffe
fffe
fffc
ffff
0007
0003
fffe
fffa
0007
0002
0003
ffff
0000
0002
0002
fff8
fffb
ffff
fffe
fff9
0002
fffd
0004
fffc
0005
fffe
0000
0003
fffd
0001
0002
fff6
0000
0004
fff6
0000
fffe
ffff
0002
0009
fffc
0001
0004
ffff
0000
fffd
0001
fffe
fffb
0004
0002
fffe
0006
0003
0001
fff8
0008
fffc
fffd
0000
ffff
fff3
fffd
0006
ffff
fffa
0004
fffb
fff7
0008
0000
0004
0003
0004
fffa
fffb
0008
000b
0007
000c
000c
0000
0002
0006
ffff
fffa
fffe
0007
0001
fffb
fffc
fff2
fffc
0007
0009
fffb
fffa
fffc
fffe
fffb
fffe
000c
0000
0001
0003
fffb
0003
0001
fffe
fff6
000a
fffc
fff6
0003
0008
0002
fff8
fff7
fffa
000b
fff8
0003
0005
fff3
fff6
0009
0001
000a
fff5
fffb
0002
0001
0002
0003
0007
fffa
0008
0006
0005
fffb
0001
0003
000e
0009
0002
fff8
fffc
fff6
ffff
fff7
000b
fffa
fffc
ffff
0004
fff5
fffc
fff8
fffc
0009
0003
fff7
0003
0002
0006
0004
0005
0003
fffb
0014
fff4
000d
fff9
0005
0010
fff7
ffef
0004
fffe
0001
ffff
0001
fff5
0003
000a
fff9
000a
fffe
fffb
0004
0000
0001
0008
fffa
fffe
0012
0003
fff7
fffe
0006
0005
fffa
0007
0006
ffff
fff3
0008
0008
0004
0002
0001
0002
0001
fff5
fffa
fff3
ffff
0007
0000
fffb
0005
ffee
0000
0004
fffd
fff4
fff9
fffb
0006
fffc
fffe
ffff
ffff
fffb
000b
0001
0000
fffe
fffd
fffe
fffb
0006
fff9
fffc
0000
0000
0004
fffe
0002
000a
0001
0006
0001
ffff
0006
0002
ffff
0006
ffef
0006
0003
fffe
0004
0000
000a
0002
0004
fff8
0001
fff5
fffb
000d
0010
0010
0001
0007
fffb
fffb
fff8
ffff
fff9
0000
0000
000a
000b
0003
fff8
fff6
0006
0005
fff8
fffb
0003
fff4
0003
fffb
fffb
fffb
ffff
0001
fff8
0007
fff5
0007
ffef
fffe
0001
fffd
fff6
0012
fff9
fffb
0006
fff7
000b
0004
fffd
ffff
0001
fffe
0002
0005
fffe
0003
fff4
fff7
fff9
0000
fff8
000a
0002
0002
0004
000b
fffc
0006
ffff
fff3
0000
fffd
0000
0002
0000
fff6
0001
fff1
fffc
0001
0006
fffa
0003
fffc
fffa
0002
000a
0005
000b
0001
0003
0007
fffd
0000
fffa
0001
fffd
0006
0000
ffff
0003
fffc
0003
000d
0009
000d
0008
ffed
fff7
0007
000e
fff8
fffe
000a
fffa
0007
0002
ffff
0006
fff9
000a
fffa
ffff
fff0
0007
0005
fff9
0005
ffff
ffef
0006
0008
0007
0005
ffff
fffc
0001
fff8
0005
fffa
fffb
fffc
fffe
fffb
fffd
000f
000c
fffd
0002
fffe
ffff
0001
0000
fff8
fff7
0003
fffd
000b
0002
0008
0003
fffd
0008
0003
000c
0004
fff1
fffd
fffd
0002
0002
fff8
fffe
fffe
0003
000b
fffc
fffa
ffff
0009
0002
fffe
fff6
ffff
fff8
0002
fffd
0001
0000
0005
fffb
0001
0005
0000
0001
fffa
0006
0003
fffd
ffff
fff9
fffe
0005
0005
fffd
fffd
0001
000a
ffff
fffa
fffe
0008
0001
0000
0004
0005
0003
fffb
fff7
fff4
000c
fff6
fffc
0006
fffa
0004
0004
0005
0001
0006
fffe
0006
fffe
fffc
0004
ffef
fffd
0001
fffc
fffd
fffe
fffa
0005
0005
fffa
fffc
0002
fff4
ffff
fffd
0003
0003
0005
0006
0003
fffb
0009
0006
fff3
fffb
0003
fff9
0004
0009
fffd
0006
fffc
000c
000f
0000
fffd
0002
fffc
fff9
0007
fff9
fffd
0000
ffff
0010
fffb
0006
0002
0005
0006
0006
fffc
0004
fff3
0009
0000
0001
0000
0000
0001
fffb
0003
fff9
0001
fff1
0004
0005
fff7
0000
0008
fffa
0009
fffc
0007
fffa
0002
0000
0003
0006
0006
ffff
0011
0005
0009
0004
0007
fff4
fffd
0004
fffe
0005
0008
fffe
0003
fffc
000b
0000
0003
fffe
ffff
fffc
0006
0002
0009
0002
fffa
fffa
000a
0007
fffc
0002
fff6
fff8
fff9
fff3
fff5
fffa
0000
fffe
0009
0005
fff7
0003
0002
0005
0003
0004
ffff
000b
0006
fff7
0004
fffb
ffff
fffc
0005
fff8
fffa
0002
0005
0005
fff9
fffc
0003
fffd
fffb
fffb
0000
fffb
0002
fff8
fffe
fffa
0004
fffd
0002
fff4
fff6
0008
ffff
0004
fffe
0004
ffff
000b
fff5
0002
0007
0003
0001
ffff
0000
fff9
fffe
ffff
fffe
0002
0003
0002
0002
0003
0001
0005
0002
0006
fffe
fffa
0000
fffc
0009
fffb
fffa
fff4
0008
0001
ffff
ffff
fff6
0000
0002
000c
0001
0004
0005
0003
0007
fff5
000a
ffff
fffd
fff7
0008
0001
0006
fffa
0000
fff1
fffe
fff0
fffd
000a
fffe
fffd
fffa
fff2
0006
ffff
0000
fff8
0006
fffc
fffc
ffff
0005
fffa
0004
fffe
000f
0004
0006
0009
ffff
fff7
fffe
0004
0004
fffd
0005
0002
fffc
fff6
fffd
0001
0008
fffa
0002
fffc
fff9
fff9
0006
fffc
0002
fffa
0003
0000
000b
0006
fffc
0001
0002
fffb
000a
0007
fffa
000a
fff8
fffc
fffd
fff6
0007
000a
0005
0004
0005
fffc
0001
0002
fffb
0007
fffc
0005
0001
fffc
0009
fff8
0000
ffff
fffe
0005
fffc
fff6
0008
fff8
0001
0002
0001
0002
ffff
ffff
fffb
fff8
fffe
fff9
0003
0002
0007
0007
0008
0008
0010
fff9
0006
0008
0008
ffff
ffff
fffd
0005
fff6
fffc
ffff
fff6
0004
fff3
0004
0000
0004
fffa
fff5
0004
fff6
fff8
0007
fff9
000a
fff3
fffc
0004
fff3
0006
000b
0005
fffa
0002
ffff
fff9
0002
ffff
ffff
0003
0008
fffe
fff4
0000
0011
0003
fffb
fff8
fffe
fffd
ffff
fff3
000e
0008
0009
0002
0005
0002
ffee
000b
ffff
fffa
0008
0001
0004
0002
0001
0008
0000
ffff
fffe
fffa
ffff
fff7
fffd
fffc
0003
fffd
fffb
fffe
fffe
fffe
0000
0000
0007
fffc
0009
fffb
0001
0000
0000
0000
fffd
0009
fffd
0000
fff9
0003
fffe
0001
0005
ffff
fffc
fffd
fffc
ffff
ffff
fffa
0006
0009
fff8
fffd
0005
ffff
0000
0003
ffff
ffff
0002
0001
0002
ffff
ffff
0003
0000
0005
0003
fffc
fff6
0003
0003
ffff
fffd
ffff
0002
fff6
0005
0002
0002
0001
fffe
fff9
0000
ffff
0001
0009
0006
0001
fffd
fffd
0005
fffb
0003
0002
0000
fff8
fff9
0006
fffe
0005
000c
fffe
0001
fff4
0002
ffee
fffe
0008
0007
fff7
0002
fffc
0006
0000
0004
fffd
0006
0002
0001
0000
000b
0004
fffd
000a
0001
fff9
fff8
fff7
fffe
0008
0001
0007
fffc
fffc
fff8
0001
ffff
0005
000c
fffb
000c
0001
0003
0005
fffc
000a
fffb
ffff
fffe
fff8
000b
0003
0006
fff7
fffb
ffff
0006
0008
0001
fff4
fffc
fffe
fff8
0000
0008
0001
fffa
0001
0001
ffff
ffff
fffc
0009
fffa
0007
fffb
ffff
0005
0001
0002
fff9
0000
0002
fffc
fffb
0000
ffff
fffd
ffff
0006
0004
fffd
0004
0006
fffc
fffe
fff7
fffe
ffed
0003
0001
fff3
fffb
fffc
0005
ffff
0003
0007
fffc
0009
0002
0003
fffb
000c
ffff
fffa
fff6
fff7
0004
0009
000b
000f
fffa
0005
fffd
fff6
000d
fffe
000b
0005
fffe
fff9
000c
fff2
0007
0002
0009
fff3
0001
fff9
0000
fff5
fffc
0009
fff7
0003
fff7
fffe
fffc
0007
fffa
fff5
0005
0001
fffb
0004
fff8
0000
fff7
fffc
fffc
0004
fffb
fffe
ffff
0001
0007
0000
fffe
0006
0002
fffe
fffc
0006
fffb
fffd
ffff
fff9
0002
fff6
0005
0008
0000
0002
0006
fffd
0002
fffc
000a
0003
0005
0008
0000
fffc
0004
fffd
0005
0008
fffc
0004
000a
0009
fffa
0002
fff8
0002
0007
0007
fffa
ffff
ffeb
fffc
ffff
fffe
0007
0008
0009
fffb
0007
0004
fffa
fffe
0002
0001
0002
ffff
fffc
fffd
fffd
fffc
0004
fff9
0002
0003
fffc
fffc
0000
fffe
0002
ffff
fff8
fff5
0009
0000
0001
0000
fffa
0001
ffff
fffa
ffff
0000
0003
0000
0002
0000
fffd
fff9
0002
0004
fff8
0003
fff9
fffd
0000
fffd
0003
fffc
0003
fffd
0004
fff8
000b
0000
000d
0006
0004
0000
0005
0006
0008
0002
0009
0000
0000
fffa
0003
0008
0007
001a
fffd
000e
0005
0002
fffa
0011
fff9
fff5
0008
fff4
0000
0007
000d
0003
000b
fff7
0001
ffff
0000
fffe
0000
000a
0001
0002
fff9
0004
fff8
0000
0003
0005
fff6
0007
fffe
fff2
000f
0002
fff8
0004
fff8
fff9
fff4
fff9
0001
0005
ffec
000d
fff2
fff9
fffb
0003
0010
0003
0009
0004
0008
fffe
fff1
fff7
0001
ffff
0009
0002
fff7
000f
0008
0007
0003
0001
0002
fffe
fffe
fff9
fffc
0003
0008
0004
fffd
fffd
0001
fffc
0001
0005
0009
fffa
0002
0002
0000
0004
fffb
0008
0001
fffe
0003
0005
ffff
0000
0001
0002
ffff
fffd
ffe1
fffa
fffe
fffc
fff8
0001
0005
0005
fff7
fffd
fffc
fffc
fff7
ffff
0005
fffb
0003
fff8
fff9
fffd
ffff
0003
0005
fff7
0003
0001
0006
0001
fffc
0008
ffff
fff8
0006
0000
0007
fff7
0001
0004
fffd
fff7
0007
0002
0002
0004
0002
fff9
fffc
fff5
fffe
0002
0009
ffff
fffa
0005
0004
fffa
0000
fff2
0007
0010
fffd
fff4
ffff
fffe
0003
fff6
0005
fffa
ffff
0000
0001
fffe
fffb
0006
0008
ffff
fff8
fffa
fffd
fff6
0002
0000
0004
0001
ffff
0000
0004
0002
ffff
fffb
fff9
fffb
fffb
fffe
ffff
0002
0000
0005
fff5
0003
0000
fffe
0003
0009
ffff
0002
0007
fffa
000c
ffff
0004
fff5
0004
fff6
fff4
fffa
0001
0005
fffd
ffff
0001
0002
0005
fffe
0000
ffff
0007
0000
fffb
0003
fffa
0003
fffd
0006
fffa
fffb
ffff
ffff
0004
fffe
fff6
0003
0002
0005
0005
fffc
0002
0003
ffff
0005
0002
fffb
0003
0006
fffc
ffff
fff8
ffff
fffc
0001
fff6
0003
0000
0000
fffb
fffd
fff4
fff9
0001
0005
0002
0000
0003
0000
fffe
fffb
fff5
0005
ffff
000a
0007
0000
fffb
0000
000b
0001
0000
0005
fffa
000d
0007
0004
0002
0005
fffb
0002
0003
0003
0007
fffb
0005
0004
0003
0002
0002
0005
ffff
fffd
fffe
fffc
fff6
fffc
ffff
fff7
0000
0007
0005
0004
0005
0001
0007
0003
fffe
0002
0001
fffb
0002
ffff
0004
ffff
fff6
ffff
0002
fff6
fff3
0005
fff9
ffff
0000
000d
0003
0005
fff8
0008
fff8
fff8
0002
ffff
0006
fffb
fffc
0008
ffff
fffd
fffe
0007
0003
fffa
0002
0008
0002
ffff
fffd
000b
000a
fff6
0008
fff3
fffb
fffd
0004
fff6
fff5
0002
fffc
0002
fffe
000f
0003
000f
fffd
0001
0006
fff7
fff9
0007
0004
fffe
fffd
0008
0005
fffe
fffd
fffb
0000
0004
000a
fff5
fffc
fffb
fff4
0006
0009
0005
0007
0005
0000
fffc
ffff
0006
fffe
fffb
0003
fff7
0007
000a
ffff
0005
fffe
fffd
0001
fffc
fffc
fffa
fffe
fff8
0003
fffb
0009
000b
fffc
0000
fffe
0002
fffd
ffff
fffa
fff8
0003
0009
fff9
fff8
fff5
ffff
fff7
0001
fffd
0004
ffff
fffe
ffff
0009
fffa
fff8
000a
fffa
0002
0000
0002
fff9
0002
fffa
fffb
000a
0006
000c
fffa
fff8
0002
0005
fff6
0004
fffe
fffa
fff5
ffff
fff0
0007
0000
fffb
fffd
fffb
0004
fff9
0008
0000
000d
fffd
0009
0006
0002
0003
0007
fffe
0007
0002
0007
0000
fffe
0004
fffe
0000
ffff
0001
0007
0005
fffe
0001
0004
ffff
fff8
0003
0004
0002
0003
0009
fffb
0003
fffc
fffc
0000
0009
0005
000a
fffb
ffff
0007
fffe
0004
fffd
fffc
fff6
fffc
fffe
fffa
0000
fffb
fffd
0009
0004
fffd
0002
0002
fffc
0002
0005
fffe
0005
fffd
0001
fffc
0005
ffff
fffd
0003
fff8
fffc
0000
0006
0000
0009
fffd
0002
ffff
fff8
fffc
fffd
0002
fffd
0000
0008
fffe
0006
fff6
0004
fffb
0002
0001
0001
0004
0005
0000
0005
0003
0009
0004
0002
0003
fffc
fff8
0003
0009
fff9
fffe
fffa
ffee
0000
fffa
0003
0002
0001
0003
fff8
000e
0002
ffff
0008
fff6
0002
fffc
fffa
0001
000b
0003
fff6
0003
fffd
0004
0003
fff6
fff9
ffff
fffe
fffe
0003
0001
0005
0004
000a
0000
fffe
fff5
0002
fffe
0000
fff4
0002
fff7
000c
0007
000b
fff8
0008
0002
fffe
fffd
fffc
0005
fffe
0001
0002
000b
0000
fffe
0007
0003
fffa
fffa
0004
fff9
0002
000b
fff7
fffe
0005
ffff
fff9
fff9
0005
0006
fffd
fffc
ffff
0002
0001
ffff
fff5
fffe
fffd
fffe
0006
fffe
0002
fff7
0003
0001
fffa
0002
fffc
0002
fff7
fffd
fffe
ffff
0001
0000
fffb
fffc
000a
0007
fffe
fff8
0005
0004
0005
000b
000b
0007
fff7
fff7
fff7
fff9
0005
ffff
0000
0000
0002
fff9
0000
0004
fffc
0004
fffb
0006
fffa
0003
0007
0001
0006
000d
0007
fffc
fffc
0009
fff6
0000
0003
fffb
0006
0003
fff8
0007
0002
0004
fffd
fffe
0004
fff8
0001
0002
ffff
0004
0004
fff6
0011
fffd
000c
000e
000d
fffb
0001
fff6
fff4
ffec
0003
fffc
fffb
0007
fff5
0004
0001
fff9
fffe
0007
fffa
0000
fff7
0006
0001
0007
fffa
fffe
0001
ffff
000b
0002
0005
fff9
0008
ffff
fffe
0008
fffb
0000
ffff
0004
000b
0007
0009
fffc
fffc
0008
fff9
ffff
fffe
fffd
000a
0000
0007
fffd
0003
fffd
fffc
fffc
fffb
0003
fffe
fffb
fffd
fffa
fff5
000a
0006
fffd
0009
fffc
fffe
fffa
0001
fff6
fff7
fffe
0004
fffe
ffff
0003
fff3
0000
0004
0007
0000
fffa
000b
0005
0007
0002
fff6
fffe
fffd
0009
fff1
0017
0007
0000
0007
0005
fff3
fff7
0007
0009
0008
0000
0007
fffb
0004
ffff
0002
fffb
0001
0001
0004
0001
0001
fff4
0004
0000
fffb
0002
fffc
fff6
fffa
fffd
0005
0002
fff8
0003
fffe
0003
0004
fff8
0009
fff9
0009
fffa
fff8
0005
fff9
fffb
0003
0002
ffff
0004
fff5
fffd
fff8
0000
fffb
0008
0005
0001
0000
0002
fffe
0003
ffff
ffee
fffa
0013
0004
fff9
fffa
fff5
0000
0004
0001
0003
0007
fff7
0000
0002
fffa
fffe
0003
fff7
fffc
0000
0003
0003
000c
0001
0003
0007
0005
0000
0003
0004
0005
ffff
fffe
0002
0003
0002
fffd
fff1
0003
fff7
fff4
fff5
0002
fff4
0003
fffd
000b
0006
0008
0000
0007
ffff
fff8
fff8
fffb
fffa
000e
ffeb
0004
000a
0004
0004
fff0
fffb
fffa
fff8
fff8
0002
0000
0009
fff9
0002
fffc
0006
000a
fffc
fffc
0000
0000
fff4
0002
ffff
0001
0004
0000
fffe
fff2
fffa
0006
fffa
fffa
fffd
fffb
0002
0003
fff2
fffa
fffd
000e
0012
0008
0009
ffff
fff8
0004
0000
0000
0002
fffe
fffb
0002
0001
0009
000c
0000
0007
0006
ffff
0000
0000
fffc
0004
0000
0000
fffc
fffe
0004
0003
0007
fffd
0005
000b
fffe
fff5
0000
0000
0000
fffd
0005
fffe
0000
0003
fffb
0003
fff7
fffd
0001
ffff
fffe
ffef
0000
fff9
fffe
0005
0001
0001
000a
0002
0006
0002
fffa
ffff
fffc
0000
0005
fffa
0006
ffff
fff4
fffb
fff6
0000
0003
fffc
0002
0007
000b
0003
0003
0000
000d
0005
fffe
0009
fff8
ffff
fffa
fff8
000b
fff9
000b
fff6
0006
000a
0002
fffd
0005
0002
fffc
fffe
0002
0000
0008
ffff
0001
fff4
0000
fffd
fff8
0008
0004
fffb
0007
0001
fffd
0001
fff5
fffa
fffd
0000
fff3
0002
0006
fff9
fffa
fffe
ffff
0004
fffc
0011
000c
000a
fff7
fff7
fffc
0004
0007
ffff
0000
0003
0003
0003
fffb
0006
fffd
fffa
fffc
ffff
0002
0002
0000
fffe
0000
0002
fffc
0006
0007
fffd
0003
ffff
0002
fffe
0001
ffff
0002
0000
0004
0003
0001
0006
fffd
0000
fffd
fffd
0000
fffe
0000
0005
0002
0002
fffe
0005
0005
0001
fff6
0004
fffc
fffe
fffd
fffb
fffd
0005
0003
000c
0006
fffd
ffff
000f
fff9
000e
0000
000d
0001
ffff
fffa
0001
0000
fffe
0002
ffee
0002
000b
ffff
fffa
fffc
000c
0002
ffff
fffc
0000
0004
fff3
0006
0006
0003
0008
000a
0001
000d
0003
0001
0005
ffea
fff4
fffc
fff5
fff9
0002
0001
0002
fff0
fffb
0005
fff8
ffef
0006
0007
fff0
0007
0004
0001
0002
0006
0007
fff8
0004
0005
ffff
ffff
fffa
0009
fffa
fff5
fffd
0004
0004
fffb
fff8
fff5
0002
0005
000a
fffc
0006
fffb
000f
0004
fffe
fffa
0002
0005
0004
ffff
0004
fffe
fffc
fffd
ffff
fffb
0004
fff9
0002
0005
fff7
fffe
ffff
0002
fffb
fff6
0015
ffff
0001
000b
fff2
fffc
fffd
fffd
fffe
0000
0006
000a
0006
fff5
fff9
0002
fff9
fffc
0002
0000
0009
0000
ffff
0004
fff6
fff8
0000
fffc
0005
0007
0002
fffd
fffd
ffff
000b
0008
000d
000e
fffd
fff3
fff5
0003
fff1
ffef
0010
000e
0019
0003
fffc
fffb
0002
ffff
0016
0004
ffff
fff8
0003
0003
fffd
0003
fff6
fff7
0003
0003
0000
fffc
fffd
0003
fff0
fffd
0001
0001
fff4
fffd
fff6
fffb
ffee
fff1
ffee
000a
0000
ffff
ffff
0007
fff6
fffd
0007
0009
fffd
fff8
0004
0003
0007
fff8
0000
0003
fffa
0008
0008
0004
000a
fffa
fffc
0002
fffb
0007
fff5
fff9
0006
ffff
fffe
0000
0006
000a
fffa
0002
0005
0005
fff0
0002
0009
fffa
fffe
0006
0002
fffe
fff3
fffd
fffb
000a
0000
0002
0004
0006
fffb
000d
ffff
0005
0003
fffc
fffe
fffa
0006
0005
fff8
0001
0009
0007
fffa
fffd
fffe
0003
fffc
fffc
fffe
fffd
fffd
0002
0003
000a
fffd
0005
000c
0002
fff9
ffff
fffc
fffc
fff8
0005
0006
0000
fffd
0000
fff8
0000
ffff
fff4
fffa
0008
0003
000c
fff2
fff6
fff5
fff5
0001
0008
0000
0004
fff8
ffff
fffc
0005
fffe
fff8
ffff
0003
0000
0001
ffff
fffe
ffff
0002
0000
000e
0002
0005
0000
0010
0004
0001
fff7
fffd
0001
fffd
0003
0010
0001
0000
0012
fffc
fffc
000e
0005
fff2
0009
fff7
0003
0004
fffd
fffa
0005
0000
fffe
000a
0005
fff0
0004
000d
fff3
0008
fffd
0001
0000
0011
fffc
fffd
fffe
fff2
000c
fff8
fff3
0000
0000
ffeb
0007
0007
ffff
0001
fffa
fffa
0001
fffe
fff7
fff9
fff9
0002
fffc
0004
fffe
0000
ffff
0008
fffa
0001
0006
0008
0006
0005
fffe
0008
0001
0004
0001
ffff
0002
fffe
fffc
ffff
ffff
0000
0005
fffe
ffff
fffe
fffd
0000
0004
fffe
0001
0004
fffe
0000
fff6
fffb
ffff
fffc
fffd
fff9
fffc
fff9
ffff
fff0
0006
fffd
ffff
fff6
0006
0002
0002
0003
0002
000c
ffff
ffff
0000
0007
0002
0003
ffff
0008
0000
0003
fffc
0000
0000
fffe
fff8
fffa
0002
0002
0004
000f
fffd
0001
ffff
ffff
0003
0000
0006
0001
0003
0004
fffc
fffc
0007
0004
0002
fffd
0003
000f
0000
ffff
0000
0004
0002
fffb
fff7
0004
fff9
0004
fffe
0000
0001
0009
ffff
fffc
fff8
0002
fffe
0001
fff3
fff4
fffa
ffff
fffe
fffc
fff7
fffb
ffff
fffe
ffff
0000
ffff
fff8
0008
fffe
0004
fffa
0004
0005
0000
0000
ffff
fffd
0000
0006
0005
fffd
0009
fffa
fffe
0009
0005
fffd
0003
0000
ffff
0007
fffa
0008
ffff
fffe
fffd
fffe
fff6
fff9
fff9
0007
fffe
0003
000b
0002
0009
ffff
fffa
ffff
ffff
fffd
fff7
fff8
fffd
ffff
000b
fffb
0003
fff8
0004
0006
0002
0002
fff5
fffe
fffd
ffff
0001
fff5
0006
0002
0003
0013
fffb
0004
fffd
000a
0003
0003
0000
0003
fffe
fffc
0001
ffff
fffe
0001
0002
0002
0007
0001
fffc
0002
ffff
fffc
fffc
0002
0000
0005
0009
fffd
0001
0004
0007
fffc
fffe
fffd
0001
ffff
fffc
fffe
fff9
0004
0001
0002
fffe
0004
ffff
0001
0005
fffc
fffe
ffff
fffd
ffff
ffff
fff9
0000
0001
0003
0001
000b
0002
0000
0000
fffd
fffe
0003
fffd
fffe
0005
0001
0000
fffd
0004
0003
0008
0003
0007
fffe
fffc
fff4
0005
0000
fff8
0004
0005
0000
000a
fffe
0008
fff6
ffff
0004
0008
fffc
fffe
0009
fffc
ffff
0009
0014
0003
fffa
0006
fffb
fffd
ffff
000b
0002
0005
fffe
0005
0008
fffd
0008
fffa
0002
ffff
000b
fff6
000b
fffd
ffff
0005
0000
fff2
0007
fff9
0000
fff2
fff6
fff9
fff8
0001
0001
fffb
000c
0008
0002
0004
fff4
0002
0011
fffd
0007
0000
fffc
0001
0006
0003
0006
0001
fffd
ffff
fffe
0000
000f
fffa
fffb
fff9
0003
0004
fffa
0004
fffa
fffc
fff9
fffb
0003
fffb
0002
fffe
fffb
0002
000a
fffa
0005
fff9
000e
fffa
0012
ffff
0005
fff9
0004
fff7
ffff
fffd
0002
fff6
0006
fffb
fff5
0002
0003
fffe
0001
000a
fffd
0003
0001
0000
0003
0000
fffd
0009
0008
0006
0008
fffd
fff8
fffe
000a
0001
fffb
ffff
fff6
000a
0000
0001
0001
fffb
0001
fff8
0000
fffb
fff8
0009
fff2
ffff
0003
fffe
0002
0004
0004
000b
0007
0005
fffe
fff8
fffc
fffb
ffff
0004
0002
fffd
0001
fffe
fffe
fff4
0003
0000
0003
0006
fffb
fffe
0001
0000
0008
000a
0001
fffc
0006
fffe
fff9
0001
fff6
0003
fffe
fff6
0008
fffe
0005
000b
fffb
ffff
0003
0002
0008
fff1
0006
fffb
fff4
ffff
fff6
0007
fff4
fffb
0000
0002
0001
0006
0004
0006
fffb
fff3
fffd
0004
0002
fffc
0000
0002
fffc
000b
fffb
0006
0007
fffa
000b
0002
0011
ffff
fffb
ffef
0005
fff5
fffc
0002
fffc
0004
ffff
0003
0001
0001
fff2
000d
0002
0005
000d
fffa
0001
fff7
fffe
fffb
000a
000e
0003
fffc
0000
000c
0005
fff6
0006
fff7
0000
fffa
fff6
0000
ffe4
000c
fff9
0001
0003
0000
0003
0014
ffec
0006
0002
0007
fff5
0005
0001
fffd
0000
fff8
0001
0004
fffe
ffff
0001
0003
0003
0003
fff4
ffff
fffa
fff6
0010
000b
0008
fff4
fffd
0007
fffc
ffff
fff9
fffe
fff8
000b
fffe
0004
0003
fffb
fff9
fffc
0007
000d
0004
0002
000a
fffe
0008
0001
0004
fff7
fffe
fffe
0004
fffa
0003
0005
fffa
0001
0004
0001
0009
fff4
0003
fffe
0003
fffb
fffc
000e
0004
ffff
0005
fffc
0005
fff7
fff5
0006
0005
fffa
fff6
0000
fffc
ffff
0007
0006
0001
0001
fff8
0007
fff6
fff8
0008
fffc
fffc
fff9
fffd
0003
0005
000c
fffb
0006
0003
fffe
ffef
0002
fffa
fffb
ffff
0002
0009
fffe
ffff
0007
000b
fff3
0005
fff7
fffd
0001
0007
fffc
0009
0001
fff6
0005
0002
fff9
0003
000d
fff5
fffc
000a
fffb
0001
fffb
fff9
0004
fffb
fff9
0001
fff1
fffa
0008
fffb
fffa
0002
0003
0004
0002
0007
0005
0007
ffff
0001
fffd
0005
fffe
0001
fffb
0003
fffb
0005
fffe
fffc
ffff
0001
fffb
0000
0005
0007
fff9
0005
fffc
0001
000f
0000
0007
0005
ffff
fffd
0003
fff8
0001
ffff
fffe
fffe
fff6
fffb
fffe
fffd
fff6
fffd
000a
0008
ffff
0005
0000
0005
fffc
0002
0006
0005
ffee
fffc
fff9
0008
0005
ffee
fffe
0001
fffc
fffa
0005
000a
0000
fffd
0003
0009
0000
0005
fff0
fffd
0002
fff1
0001
0000
0000
0007
0004
000a
0003
fffc
000e
0002
fffc
fff6
fffc
000c
0004
0000
fff5
000c
fffe
fff7
0004
0005
0006
fffd
fffe
fffe
fffd
fff5
fffc
0003
000c
0000
0001
0004
000c
fffb
000a
ffff
0004
fff8
fff6
0002
fffb
0002
fffd
0007
ffff
fffa
0006
0003
0004
fff6
fffe
fffe
fffb
fff3
fffe
fffa
000b
0004
fff1
0003
fffe
0000
0002
0009
0006
0000
fffa
fffd
ffff
0009
fffe
0004
fffb
0002
0004
ffff
000a
0002
0005
0003
000a
0002
fff7
fff2
fff4
ffff
ffff
fffb
0000
0008
fffc
0011
0005
0007
000c
0001
fffd
fff8
ffff
000e
fffa
000a
0005
0004
fff7
0000
fff8
0013
fffc
fffe
fff7
0004
fff3
000f
0000
0001
ffed
0004
0003
0001
fffe
fff6
0003
0001
0002
0001
0002
fffd
0005
fffa
ffff
0015
fff7
0003
000c
fff6
fff3
ffff
0000
0000
0004
000a
0008
000a
0003
0006
ffff
0008
fffb
fff3
0005
0004
fffe
ffff
0006
fffe
000b
0007
fff9
fff4
fff8
0009
0004
0000
fff1
0003
0003
0004
fffc
0001
fffe
fffe
fffe
fff5
fff7
fffc
fffa
fffa
fff7
fffe
0014
ffff
0002
fff8
0000
0000
0006
0007
0003
0008
fff7
fffc
ffff
fffc
0004
0005
ffff
0004
fff8
0008
000a
ffff
fffd
0005
0005
fffc
ffff
fffd
0001
fffb
fffb
fff0
0001
000c
0002
0008
fffa
fffe
fffa
fffd
0009
ffff
fffd
fff9
0003
0008
fffc
fffb
fffc
0002
fff7
ffff
0007
fffe
0006
0010
fffb
fff5
fff8
0002
0000
0003
0006
fff9
fff8
fffd
fff5
0001
fffe
0006
000a
fffa
0004
ffff
000b
fffd
ffff
0003
000b
fff3
0002
0002
0001
fffa
0002
fff6
0005
0008
fff5
fffa
0000
0000
0006
0003
0008
fffe
fffc
000c
0004
fffe
0004
fff5
ffea
fffe
fff7
0008
0004
0006
0004
fffb
ffff
0003
0009
0004
fff0
0007
000b
fffe
ffff
fffd
0001
0008
fffc
fffe
0008
0000
0007
fff7
0001
0000
0003
fff9
fffe
0003
ffee
fffe
fffa
fffc
0007
fff3
fffe
0000
0001
fffa
0006
000b
ffff
0006
fffd
0005
000b
fffe
0003
fff7
fff8
fffd
fffa
ffff
0003
0003
0000
fff9
fffd
0007
0002
fff8
000c
000c
fff6
000a
ffff
0004
0000
000a
0008
0001
0006
0009
0002
ffff
0003
fff7
ffff
0004
fff9
fffe
fff9
0000
0005
0002
0004
0002
0004
fffe
fffe
fffb
0002
0007
0005
0001
0003
fffc
0003
fffe
0000
0003
fffd
0007
fffc
fff2
0003
fffd
fffd
fffe
000b
fffa
fff8
fffc
0000
fffd
0002
0004
fffd
0009
0008
ffff
0004
fff5
0002
fffe
fffd
fffe
ffff
0002
fff8
0002
fffc
fff9
fffb
fffa
ffff
0003
fffc
ffff
fffc
0002
000d
fff2
0006
fffe
0002
0002
0002
0004
0000
0007
0007
0007
0003
ffff
fffc
fffc
0004
fffb
fffd
0000
0002
fff8
0001
0009
000b
fff1
0003
000a
fffd
fffe
0004
0001
0000
0001
fffc
0007
0003
fffb
000e
000b
fffe
0000
0002
fffa
ffec
fff3
fffe
0005
0002
0009
000f
fff8
0005
0002
fff8
0008
0003
0008
0007
0006
0000
0000
000b
fffd
0000
0001
0003
fffa
ffff
0005
0008
fffc
0002
fffa
fffe
0003
0008
0009
0004
0005
fff1
ffff
fffc
0007
fffe
fff9
fff6
fffd
0008
fffb
fff5
fff5
fffd
0003
000d
fffc
0002
0012
0000
000c
fffb
fffe
fffb
0002
fffc
0002
fff2
fffe
fff7
fffd
fffa
fff8
000b
0001
fffb
0000
000c
0007
fff8
fffd
0009
000e
fff8
fffd
fff6
0000
0001
fff8
fffa
0001
0002
fffd
0001
0011
0009
0001
fffd
ffff
0002
fff6
fffb
0009
0001
fff8
0006
0002
fffa
fffd
0009
0003
fffc
000a
0005
fff8
0003
fff8
fff5
fff6
000b
fff4
fffe
fff2
0006
fffd
fff5
0006
000d
0006
0004
0005
fffc
0005
0003
fff1
fffe
fffe
fff1
0008
000c
0006
0006
fff5
fffe
0005
fffe
fff6
0006
0004
fffb
0009
0006
ffff
ffff
0004
fff6
000a
fff6
fffc
fff8
0007
0009
fff8
fffa
0003
fffe
fff7
0010
fff7
0008
ffff
0005
fff9
0004
fffe
fff8
0003
fff8
fffa
fffc
0012
000e
0001
fff4
0004
0003
0004
fffc
fffb
fffd
fffd
0004
0003
0002
fffb
0002
fff9
0002
fff8
0006
fffa
ffff
0003
fffe
0007
fff5
0009
fffc
fff8
fff7
0009
0002
0006
fffd
0000
0003
0007
0014
0002
0002
0004
0012
fffe
000c
0009
0004
0007
0001
0003
fffd
fffc
0000
fffb
fffd
fffa
fffc
fff8
0000
0001
ffff
fffe
0000
ffec
0003
0001
fff2
fff6
ffff
0008
ffee
0002
fffc
fffb
0001
fffc
fff8
0005
fffc
fffc
fffc
0005
fff8
0003
0004
0007
ffff
ffff
0007
fffe
0006
fffb
0001
ffff
ffff
fff1
000a
0003
ffff
0000
0006
000b
0000
0000
0000
0004
0001
0017
000a
fffc
fff6
fffd
000b
0002
0004
fffe
fffd
0002
fffc
0008
0006
fffe
0002
0006
0003
ffea
fffc
0005
0009
fffd
ffff
fffd
0005
ffff
0004
0010
fffc
ffff
fff8
0007
fffd
fff7
fff9
0003
0008
fffd
fffc
fffa
fffd
fffe
fffd
0002
0005
0001
000d
0002
fffd
0001
0005
ffff
0002
0002
0006
fffd
fffb
fffe
0001
fff8
0004
fffd
0001
0007
0004
0001
0001
fffc
0000
0003
0006
0006
fff5
0000
0006
0005
fffc
fff9
fffb
0000
fffe
0002
fff6
0000
fffe
fffc
fffe
fff4
0007
0000
0006
0001
ffff
fff9
ffff
ffff
fff8
fffe
0005
ffff
0006
0001
fffc
fffb
0000
0005
fffc
0000
ffff
0006
0007
0001
fffa
ffff
0001
fffa
0006
fff9
fffd
fffc
0004
fffd
fffa
0005
ffff
0008
0001
fff7
0001
fffc
0005
ffff
0004
0000
0006
ffff
fffe
0003
0005
ffff
fff4
0003
fffc
0002
fff8
ffff
fffd
fffd
0007
0003
fffd
ffff
0000
0007
0002
000d
0008
0004
ffff
0003
fffe
0000
0002
fffa
0003
fffc
fffb
0003
0006
0003
0006
fffa
fff9
0001
fff2
0000
0001
fffe
000b
0002
fffe
0004
fff3
0000
0008
fffe
fff3
fff6
fffc
0005
000b
fffd
fff9
000c
0004
0007
fffd
fffb
fffd
0002
fff6
fffd
fffa
fff9
fffe
0004
0007
0005
0005
0004
0000
fff6
fffb
fff6
0006
0003
0004
0007
fff9
fffc
fff9
0002
0006
0009
0008
0005
fff9
0002
fffc
ffee
fff6
ffee
fffb
0007
fffb
0003
0009
fffd
0007
ffff
fff6
0006
0010
0001
0004
0006
000d
0004
000a
000a
fffd
ffff
000c
0001
fffc
fff8
fffb
0005
fffa
fffb
0006
fffe
fff7
ffff
0001
0008
fff2
0002
fffe
0005
ffff
fffd
0002
fffa
fff9
ffff
0000
fffd
ffff
0001
0007
fff7
ffff
ffff
fffd
0010
fffe
fffc
0003
0007
0014
0007
fff9
fffe
0004
fffc
0005
0006
ffff
ffff
0002
ffff
fff7
fff0
fff7
0003
000a
0004
ffeb
0008
0004
fff8
0002
0006
fff6
fff7
fffc
0004
fff9
fffc
fffe
0002
0003
fffd
fffd
0004
ffff
0000
0000
0002
0006
0003
fff9
fffd
0003
0002
fffa
0008
fffb
0001
ffed
ffff
fffa
0002
fff3
0007
fffb
0008
ffeb
000a
0005
fffe
0003
0003
fffc
fff9
fff6
0005
0001
fffb
0004
0006
fffe
ffff
fffe
0008
0002
0008
0002
ffff
0004
0000
0002
fffd
0004
fffb
0007
0000
fff7
fffa
0003
fffb
0001
fff4
ffee
0003
000b
fffe
fff9
0004
0003
0006
fffe
0004
0005
0000
fff9
0001
000c
0005
0008
0009
0009
fffd
fffb
0000
0002
fff9
fff5
0001
fff9
fffd
000e
fffc
0002
0002
fff4
fff8
fffc
fffc
ffff
0004
0001
0005
ffff
0003
0001
0001
0001
0004
fffb
ffe9
fffe
0006
0006
fffb
000b
ffff
0006
0001
fff4
ffff
0000
ffff
fffe
fffc
fffe
fffe
fffe
0011
fff8
fffd
0002
fff9
fffa
fffb
fffa
0002
fffb
fffa
0001
0002
0004
0001
fffb
fff6
0001
0008
0002
0000
fffd
0002
ffff
0008
0006
0005
0005
fffe
fffa
fffc
ffff
fffb
0002
fffe
0005
fffe
fffa
000d
0003
fffe
ffff
0004
0005
fffb
0007
fff6
ffff
000a
ffee
fffd
0007
0003
fffb
0000
0007
fffe
0005
fffb
0002
0002
fff6
fff3
0003
fff9
000e
fffc
fffd
000f
0005
0001
0000
ffff
0002
fffc
fffd
ffff
fffd
000c
0002
0005
fffa
0005
0001
fff8
fff7
ffee
fffb
fff7
0003
fff9
0001
0002
fffa
0005
fffb
fffd
fff8
0003
0001
0003
fff8
0001
0000
fffd
0001
fffc
0002
0002
fff5
fff3
0006
000d
fffb
0007
0003
fffb
0009
fffc
fffa
0008
0002
0002
0004
fffe
0000
fff5
0005
0001
0008
fffa
fff7
0002
000d
fff9
0000
fff9
0007
0002
000a
0002
ffff
fffd
fffd
0009
0003
000f
0006
fffc
0002
0002
fff1
fffd
fff7
0003
fffc
0001
000e
000a
000e
0005
fffd
fff7
fffc
0005
fff4
fff8
fffa
0000
fffd
fff3
0000
fffd
fff9
ffff
0004
000a
fff8
fffb
0007
fffc
ffea
000a
0009
0001
fff6
0000
000b
0001
0001
0007
fff2
fffa
0001
fff9
fffe
0000
ffff
0002
0002
fffa
fffc
0003
ffff
fffc
000c
fff9
0002
000b
0002
0004
0006
0005
fff8
0005
000a
0004
0000
0006
fffb
0009
fff8
0005
fffe
fff6
ffff
000a
ffff
0003
0003
0004
000a
0000
0003
0000
fff5
fff9
0000
ffe8
0001
fffd
fff7
0005
0004
0003
0004
fffe
0001
fffd
0006
0004
0002
0002
ffff
0004
0001
0004
0005
ffff
fffc
fffe
fff7
0000
0000
fffd
ffff
0003
fffb
ffff
0003
0002
0004
fffa
fffc
fffe
fffc
fffb
0002
fffa
0000
fffa
0006
0004
ffff
fffc
0004
fff9
ffff
0000
fffa
0004
0004
0002
0002
fff8
0003
fffd
ffff
fffb
0000
0003
0003
ffff
0005
0001
0006
0006
0001
0008
0004
ffff
0001
fffa
0005
fffb
fffc
fff9
0004
fffe
0003
ffff
0003
0001
0002
0000
fffe
fffb
0000
0001
0008
0004
fff3
0006
0000
0001
fff6
ffff
fffc
fffe
0006
0003
0007
fffe
0000
0000
fffe
fffd
0003
0003
0000
ffff
0000
0009
0008
000b
0003
fff7
fff9
fffe
fff5
0002
0004
fffe
fffe
0009
fffb
ffff
fffd
0004
0000
0003
fff5
fff2
fff4
0000
fff3
fffe
fffa
fffe
fff8
0004
0006
0000
0008
0001
0008
0007
000a
fffc
0000
0001
fffd
fffe
0001
fffc
fff4
0004
0002
fffb
0001
ffff
0005
0002
0000
fffd
ffff
0003
fff4
0008
0007
fffa
000a
0003
ffff
0005
0001
0005
fffa
fff8
fffc
0001
0002
fff7
0006
0003
ffff
000a
0000
0002
0003
fffe
fffe
fff6
fffb
fffe
0008
0004
0007
0005
0005
fffb
fff4
000b
ffff
fffe
0007
ffff
fffc
0004
0006
0004
fff5
fffd
0001
000c
0001
fffb
fff5
fff9
0001
0001
0000
0000
fffd
fff8
0007
0003
fff9
fffe
0007
fffc
fffe
0004
0002
fffe
ffff
fff6
fff9
0003
0003
ffff
ffff
ffff
0005
0001
fffc
0004
000b
fffe
fffd
fff8
fff8
0001
ffff
fff9
fff9
0006
ffff
000a
0009
fff7
fff9
0003
0009
0002
fffd
fffa
0002
0004
000e
fff9
0006
000f
fff8
ffff
fff7
fffa
fffd
fff6
0002
0002
fffc
fffa
0006
0003
fff7
0005
0004
0009
fffb
0000
0000
ffff
fffd
fff9
000c
0001
0000
0000
fffe
ffff
000b
0005
fffb
ffff
0000
0004
fffb
fff9
0002
0003
fff9
fff8
fffd
fffc
0005
0003
fff9
fffd
ffff
0016
0010
0005
fff2
0000
0007
0004
fff4
fffc
fff1
fffb
fffb
0005
fffb
0008
fff9
0000
fff8
0001
fffd
fffc
0005
0007
ffff
fffe
fff7
0000
0002
ffff
0001
ffff
0000
0001
000c
ffff
fff6
fffe
fffb
0002
fffd
0001
0006
fffe
0002
fffa
0001
fffa
0008
0001
000c
fffe
ffff
0005
fffe
ffff
0008
fffc
0000
ffff
0004
0003
fffc
fffe
fffb
fffc
0003
0004
fffd
fff5
0004
0005
fff8
fffb
ffff
fffe
fff9
fffc
fffb
0003
0005
fffb
fffe
ffff
0005
fffa
0000
0002
fff8
0006
000b
fffa
000a
0008
fffe
0007
0004
fff6
0002
0002
0001
fffb
0005
0008
fff1
0004
000a
000d
fff7
fffb
0008
000a
0001
0001
fffc
fff7
0000
0007
fffd
ffff
fffe
fffa
0004
fffe
fff3
0003
fffc
0002
0007
0005
0008
fffa
0008
000b
fffb
0002
fff7
0005
fff8
fffe
0007
0001
000d
0001
fff8
fffc
0003
ffff
0007
fff8
fff3
fff2
0018
fffe
ffff
0005
fffe
fffe
fff7
fff7
0004
fff3
0001
000a
0002
0009
0001
0004
fff5
fffc
0006
fffe
0008
ffff
fffd
ffff
ffff
000c
0009
fffd
ffff
fffa
fffe
ffed
0003
0002
0003
0007
0002
fffa
0006
fff1
0003
fffd
0003
000a
fffe
fffa
fffd
fffa
000d
0001
0004
fff8
fffe
0001
fffe
fffb
0005
fff8
0002
0001
0002
0002
fff5
0008
fff3
0004
0000
fff7
fffa
0003
0007
0008
fffe
ffff
0000
fffd
0005
000d
0007
ffff
0000
fffe
fffd
0013
0009
0003
0002
0003
0007
0002
0001
0000
0004
0001
fffc
fffb
0004
0000
fff6
fffb
fff9
0001
fffb
fffd
0001
0001
0006
ffff
0000
fffc
0006
fffd
fff9
fff7
000e
fffe
0002
fff4
fffc
fffa
0006
0002
fff4
fffd
0003
fffa
fffc
fffa
0003
0001
0006
0006
fffb
fffe
ffff
0002
0009
fffd
000d
ffff
fffc
0002
fff3
0003
fffc
0003
fffc
000c
fffc
0006
0002
fffe
fff8
0006
ffff
fffa
0005
fff8
ffff
fffd
0001
0002
000d
fffe
fff5
fffa
000b
0001
0000
fffc
fffb
000b
0006
0005
fffe
fff7
fff7
0007
0006
0003
fff7
fffb
0009
0009
fffe
ffea
fffb
0006
0012
ffff
0003
0006
fffa
0007
fff9
fffc
fff5
0000
0007
0004
0000
0008
0002
fffd
0006
fff3
fff6
fff0
0001
fffd
0008
fffd
0007
0001
fff5
0000
fff6
fff5
0005
0009
fffd
0007
0003
0006
fffd
fffe
0005
0005
0006
000a
0002
fff4
ffff
0001
fffe
fffc
fffd
fff0
fffc
0002
fffa
0003
0001
0002
ffff
fffc
ffff
0008
0000
fffe
0000
0000
ffff
fff9
0012
0004
fffa
fff2
fff9
fff7
0006
ffff
0004
0004
0000
fffd
0001
fff9
0004
0001
ffff
0006
fff9
fffc
0007
0000
000a
0004
0004
0003
0006
000d
fffc
fff9
fff5
fff4
fffd
fffe
fffb
0006
ffff
fffb
0000
fffe
0009
ffe6
fffc
0002
fff7
0001
000a
fffd
fffc
fffe
000f
0001
fffb
ffff
fff5
0001
0000
fff6
fffe
000b
fffb
fffd
ffff
000f
0006
0007
fffd
fff8
000e
0000
0002
000a
0001
fff9
0000
000d
0003
fffa
fff8
0000
fffd
0004
fffe
0003
fff9
0002
0002
0000
000a
0000
fff3
0006
000d
fffc
fff0
fffe
0004
fffd
0000
0003
fffd
ffff
ffff
0000
0008
fffd
ffff
fff0
0003
0004
0005
0006
fff9
ffff
0004
fff7
fffc
fffb
0001
fffd
ffef
ffff
fff5
000b
fffe
0002
0002
0000
0009
0006
0005
fff7
0008
fff8
0003
0002
0004
0001
0005
000b
0006
ffff
fffa
0000
0004
fff9
fffb
0001
fffc
fffb
fff7
fffd
fffe
0004
0002
ffff
0008
0002
fffb
0004
fffd
fff7
fffb
fff8
fffa
0004
0005
fffb
0003
0000
0001
ffff
fffc
0005
000a
fff9
0002
fffe
fffa
fffc
0006
0004
0002
fffe
fffc
fff9
000b
fffb
0008
fffd
0007
ffff
0001
0002
0009
0002
0007
0002
0000
fff8
0006
fff9
fffe
0000
0007
0003
000c
0009
000b
fff8
0002
fffd
ffff
fff3
ffef
fffb
0002
0000
fffd
0003
fffe
0007
fffc
fff6
0007
fff7
0002
0000
0005
fffd
ffff
0005
000d
0002
fffb
0003
fff7
fffe
fffe
fffb
fff8
0002
0006
fffb
fff6
fffe
ffff
0003
0003
fffe
fffb
fffc
fffd
fff5
fffc
0008
0005
fffe
0000
0005
0003
0004
fff9
0007
fffb
fffc
0005
0010
0001
fffa
0007
0002
0000
fff6
0005
fff9
0004
000d
0006
fffd
0000
fff9
0006
fff7
fffa
fffe
fffc
0001
fffe
fffe
fffc
0000
fffc
000b
fffb
0003
0000
0003
0007
0008
0000
0000
fffc
fff5
ffff
0002
0003
0004
fff8
0008
fffd
0003
0004
fffa
0001
fffb
0006
fff9
fff4
fff9
0001
fffc
0011
0007
ffff
ffff
0000
0006
0000
fffa
0004
0000
0006
fff3
fff5
fffc
0009
ffff
0002
0004
0000
0000
ffec
0000
0002
0008
0004
000d
fffe
fffb
0006
fff6
0006
0001
fff8
0004
fff8
ffff
0006
0004
fffd
fffb
0002
0001
0008
0003
0003
0003
fffb
0000
fffe
0001
fff8
0003
0002
0006
fffc
0007
fffe
fffc
0001
000b
0001
0002
fffd
fff6
0000
fffe
0004
0001
0001
0001
0005
0000
fffc
0002
0000
0000
fff7
0002
fff2
fffc
000e
0000
0004
ffff
ffff
0001
0004
fffb
0006
ffff
fffe
ffff
0005
fffc
0009
fff7
fffa
ffff
0003
fffb
fff9
0001
ffff
0001
000a
0002
0000
fff7
0001
000c
0008
fffb
0000
ffff
0002
ffff
0000
0003
fffd
0003
fffd
0003
fffe
fffd
fff9
fffe
0001
fff3
0006
ffff
0007
0003
0004
0001
ffff
0001
000a
0001
ffff
0004
0001
fffb
0003
ffff
000c
fffc
fffd
0005
0006
0003
0007
0003
fff9
0002
fffa
fffb
fff8
fffa
0009
fffc
fffb
0002
0005
fffe
0002
fffd
0012
ffff
0000
0004
0008
000d
000d
0006
fff2
0000
0009
fffe
0002
0002
0001
0000
0007
fffd
fffd
0001
0004
ffed
fffb
fff8
fff8
0004
fffa
fffc
fffd
fffb
0007
0004
0001
0000
fff5
fffd
0000
ffff
0010
0003
fffb
0008
0005
0002
ffec
0005
0008
0002
0001
ffff
0003
fffd
fffa
fffe
0001
0001
fff9
0005
fffd
fffc
fff7
0002
0003
fffc
0005
fff5
0007
fffc
0009
0006
0001
ffff
0003
fff3
fff9
0001
fffc
000b
fff6
fffc
fff2
ffff
000c
0004
000a
fffa
fffa
fff6
ffff
ffff
0008
000e
0006
fffd
0010
fffb
fffa
000b
0007
fffa
0006
0003
fff7
fffe
ffff
fff3
0003
ffff
000b
0007
0005
0000
fff9
fffd
0002
fffe
fffd
0000
0012
ffff
fffa
fff9
ffff
0000
0007
0007
0007
fffc
fffc
0006
0000
fff8
0003
000a
0001
fff5
0005
ffff
fff3
0007
0004
ffff
fffd
fff9
000b
0001
0004
fff8
fffa
fffe
0003
fffa
0003
0004
0002
0004
fff7
fff6
0002
ffff
fff9
0001
0000
0000
fffc
fffe
0000
0000
0007
fff8
0000
0003
0005
fffd
0004
fffd
0007
0006
0007
0001
0009
ffff
0003
0002
0008
0004
ffff
0000
ffff
fffe
0002
0008
0004
fff8
0002
fffb
0002
fffe
0004
fff9
fffc
0005
fffe
ffff
0000
fffc
fffe
0009
0006
fffd
0007
fffb
0003
0002
0005
fffe
0002
000a
ffff
ffff
0001
fffe
fffc
fff8
fffe
fffb
fff7
fff9
fffb
0002
0008
0006
000f
fffb
0005
0003
0001
0000
0004
fffb
fffc
fff9
fff5
0007
0008
000a
0005
0001
0006
fffe
fffb
0004
0003
0009
0007
0004
fffb
fff9
fffb
fffa
0001
0001
0000
fffe
fffd
0004
ffff
fffd
0000
0003
fffd
0008
fffb
0000
0009
ffff
fffb
fffd
0002
fffe
0006
0004
ffff
0007
000d
fff6
0009
0005
fffc
fffb
fff2
fffe
0000
fff4
fffc
fff7
0003
0003
000a
ffff
ffff
fffb
0000
fffc
0004
0007
0001
0005
0001
fffe
0000
0007
0003
fffc
0000
0000
0003
fffd
0008
0003
fff2
0003
0000
0002
0005
fff9
0001
0007
0001
0000
0000
fffb
0005
fffe
0002
fffc
fffe
0000
fffd
fff7
0001
fffa
0008
fffb
0006
fff6
fffe
ffff
ffff
fffe
000c
fff9
fffd
ffff
fffb
fffc
0008
0001
ffff
fffc
fffd
ffff
0002
fffa
fffd
0009
0008
fffc
fffd
fffb
000b
fff8
ffff
ffff
0002
fffc
0003
0004
0005
fff9
fff8
0008
000a
0002
0006
ffef
0001
0006
fffe
0003
000a
ffff
fffe
fffa
0002
0008
0006
fffd
0001
fff8
0003
000b
0003
0003
0005
000a
fff6
fffd
000a
0004
ffff
fff7
fff2
fffe
000e
0004
0006
0002
0005
fffb
fffd
fff9
0003
ffff
0002
fffb
0005
0005
0004
0000
0008
ffff
000a
fff8
0003
0003
fffd
fffb
fffb
0002
fff9
fffe
0002
0000
0007
0002
0001
0003
0001
0000
ffff
fff7
0006
fff7
fffd
fffb
fffe
0007
fffe
0002
fff6
ffff
fffc
0008
ffff
0008
0006
ffff
fff9
0002
fffd
0003
0003
0001
fffa
0002
ffff
0004
0002
0004
0003
fffb
fffb
0009
0004
0002
fff9
fff8
0000
fffb
0004
0000
fffb
0006
fff7
0003
0000
ffff
fff8
0006
0000
fffe
0003
0004
fffe
ffff
0002
fff6
0002
fffa
fff9
0004
fffb
0003
0002
0002
0003
fff8
fff4
000a
0009
0002
0008
fffd
ffff
0006
0005
ffff
fff6
fffe
0003
000a
fffc
fffd
ffff
000b
ffff
0000
fffe
fff3
0000
0003
0001
fff7
0000
0005
0007
0000
fffa
0001
0006
fffe
fffb
fffb
0001
0008
0003
ffff
fffc
fffd
ffff
0001
0002
0000
0003
000b
fffe
ffff
fff7
fffe
0001
0008
fffd
fffa
0003
0005
0008
fffd
fffc
fffe
0007
fff5
0007
fffa
fffd
0001
fffb
fffd
0003
0000
fffb
fffc
0002
0004
0005
fff7
ffff
fff9
0003
fffb
0003
fff6
0005
0001
fffe
0000
fffd
fffc
fffd
fff9
0003
fff9
0001
fffd
0005
0005
000b
0009
0014
0003
fff3
fffa
ffef
0005
fffc
0003
fffe
ffff
fff8
0002
0001
0003
0003
fffd
0008
fffd
fff9
000b
fffe
0000
fffd
0004
fff5
fffd
fffb
fff8
0003
0000
0015
fffe
0009
0001
0003
0005
0005
ffff
0005
fff8
fff3
ffff
0006
0003
ffff
fffe
0000
0002
fffc
fff8
fffb
fff8
0000
0000
0001
fff7
fffe
0006
0004
fffc
ffee
0005
0004
0004
0006
0000
fff9
0000
0004
0008
0004
0000
fff4
ffff
fffb
ffff
0001
0000
0000
0006
fff9
0001
fff9
0005
0001
fffe
fff4
0007
0000
0008
fff8
0001
fffa
0001
fffd
0000
fff6
fffe
0000
ffff
fffd
0005
0006
fff8
0002
0000
fff2
0005
000e
000b
0005
0009
fffb
fffc
0005
fffb
0005
0000
0003
ffff
0008
0007
0007
fffb
0000
0001
ffff
0004
ffed
0011
0002
000f
ffff
fff8
0001
0004
0004
000a
0000
fff8
0005
fffb
0003
fffd
0003
0005
fffd
fff7
0006
0000
fffd
0001
0003
fff9
000a
0008
fffb
ffff
0003
0005
0001
fffa
fff5
0001
0000
0001
0006
fff2
0000
0007
0005
fff9
ffff
0003
ffff
0007
fffc
0007
fff4
fffa
fffb
fffe
fffe
000a
0008
fffe
0003
fffc
fff0
fff8
0004
0003
0000
fffd
fff7
0000
0006
0006
ffff
ffff
fffa
0002
ffff
0001
0001
fff8
fffc
fffa
0006
0003
0006
0002
0004
fffe
0001
fff7
0001
0000
0002
0003
0001
ffff
fffe
fff9
0003
fffc
0006
0000
0001
0004
fff3
0004
0004
fffc
0001
0000
fffb
0004
fffe
fffe
0004
0000
0007
ffff
0004
0005
fffd
0004
fffd
0004
fffb
ffff
0005
0000
0000
0008
0008
0001
ffff
fffd
000b
fff2
0005
fffd
0004
0002
000a
fff9
ffff
0004
0003
0010
0000
0003
fff1
0009
000b
0005
000a
0000
fffe
0003
0001
0008
fff4
0002
ffff
0001
0008
000c
fffa
fffd
fff6
0006
fff2
fff8
fffe
fffc
fffc
ffff
fffd
fffa
0000
fffc
0000
0005
fffe
0002
0010
0000
0001
fffb
fffa
0008
0000
fffd
0000
fff4
fff6
fffc
000a
ffff
fffe
0003
fffc
fffb
0004
0000
fffd
fff8
0006
fffb
0008
0003
fffe
0007
0006
fff4
0000
fff4
ffff
0006
0007
0005
0003
ffff
000d
0002
fff0
0003
fffe
0003
0005
0001
fffe
ffff
fff9
0006
fff7
0001
fffc
000c
0000
ffff
fffa
0002
fffb
fffd
0005
0000
0006
0001
0005
fffa
0002
fffa
fffe
0003
fff7
0007
0002
0006
ffff
0003
fffd
fffd
0003
0004
fffd
fffb
fffa
fffc
0002
fff9
0004
0000
0009
0002
0006
fffb
0003
fffd
fffd
fff0
0001
0004
0002
0007
0001
fff4
0004
fffd
0009
0001
0001
0004
fffa
0000
0001
0001
ffff
0007
000c
ffff
fffa
fff9
fffd
fffd
0001
0004
000a
ffff
0003
fff6
fffe
0001
ffff
fffe
0001
0000
0001
000b
fffb
fffd
0003
0002
0001
fffc
0007
0002
fff4
0001
ffff
0003
ffff
0000
fff0
fffe
0000
ffff
0004
0003
0006
000c
0010
fffb
fffc
0001
fffb
fff9
fff7
ffef
0006
0006
0002
0000
0000
fffb
0007
0003
000d
fffe
fff6
0003
fffd
000c
fff4
0005
000a
0001
fffe
0002
0003
0005
0004
0004
fffc
0004
fff8
0000
fff8
0003
0012
fff4
fffd
0003
0002
0009
0006
0000
000a
fff3
fff7
ffff
0003
000d
fffc
fffd
0002
fffd
fff9
fff4
0005
fffa
0004
0004
ffff
0005
0003
fffc
fff8
fffc
0001
0002
fffd
0000
fffd
0000
0000
0004
fff9
ffff
0009
0007
0000
ffff
0007
000f
fffc
0002
fff4
fff0
fffc
fffe
0001
0002
0008
0002
000d
0005
0007
0002
0001
0003
fff6
0004
0005
fffa
fffb
fffb
fffe
fff9
ffff
fffd
0005
fff0
0003
0006
0005
0008
0004
fffc
0000
0004
0002
0008
0003
fff5
0003
0001
0006
0004
0000
0000
fffb
0001
fffc
fffe
0007
0000
0000
0001
fff5
fff9
0004
fffc
fff9
0001
fffd
0000
0000
fffd
fffa
0004
fffd
0001
0009
fffc
0002
ffff
0004
0005
fffe
fffc
fff7
fffa
fff7
fffc
fff9
0006
fffe
fffe
0006
0001
0001
fff8
0000
0000
ffff
fffa
ffff
fffb
0002
fffe
0000
0002
0003
fffb
0001
ffff
ffff
0008
0002
fffe
fff9
0003
0005
fffd
ffff
0005
0001
0003
fffd
0002
0002
0004
0002
ffff
0001
fffc
ffff
fffb
ffff
fffc
fffb
fffe
ffff
fffc
0001
0003
0003
fffd
fffd
fff8
0001
0003
fffb
fffe
0000
0002
ffff
fffe
0003
0002
0001
0000
fff7
fffd
fffa
fff7
0004
0003
0006
0000
0009
0004
ffff
0004
fff9
fff6
0004
ffff
0005
fffc
ffff
0002
0005
0005
0002
ffff
fffe
0000
fffa
0001
fffd
0004
0000
fffc
0004
fffd
fffc
0005
fff9
fffe
fff6
ffff
0003
fffd
0003
fffa
0009
0009
0000
0004
0006
0002
0006
0001
fffb
fff9
0001
fffc
0001
fffc
ffff
fffc
fffa
0004
000d
ffff
fff9
fff6
0007
0004
0002
0002
fffe
fffd
000b
ffff
fffd
0004
0000
0004
0000
fffd
0001
fffd
fffc
fffe
0008
0001
0001
0006
fff8
0004
fffc
0000
fffb
fff8
000a
0003
0008
fffe
0002
0007
000a
fff8
fffe
0001
0000
fffe
fffd
0001
000b
ffff
000b
fffd
0007
0002
fff3
0003
0000
fffe
0009
000c
fffb
fffc
ffff
0001
fffe
fffe
0003
fffe
fff3
0003
000b
fff7
0004
0003
fff8
0001
0007
ffff
0005
fffb
fffa
0000
0002
0004
0001
0005
fffe
fff6
fffb
0004
fffa
0000
fffa
fffd
0002
0000
000e
ffff
0003
0000
0000
000a
0001
0002
0003
fff7
fffb
fffd
fff6
0006
fffb
0009
fffb
ffff
0006
0002
0000
fff8
0001
0008
fffe
0002
ffff
0000
0005
fffb
0007
fff4
0009
fffa
ffff
0006
0009
0003
0000
0005
0005
fffb
0001
0004
fff7
000f
ffef
000f
fff7
fff9
0003
0001
fff7
000e
fff8
ffe9
fff6
fffa
fffb
0006
ffff
ffff
0004
fffd
fff6
0001
0012
fff3
000a
fff7
fff8
fff8
0000
0005
0001
000d
0010
0003
fff6
0005
0000
fff6
ffff
fffe
ffff
0012
fffb
fffe
fff0
0008
fff7
0001
0007
ffe7
fffe
fffc
0006
fff9
000f
000a
0013
0003
fffb
000b
fff4
fff8
000f
fff4
000b
fffe
fff7
000b
fffc
ffff
0005
0009
fffb
fff9
0000
0008
0000
0003
0001
ffff
fff9
ffff
0004
0005
0000
0001
000a
0001
fffc
0005
fffb
0004
fff7
0002
fffe
0003
0003
0003
fffc
fffc
0004
fffb
fff4
fff9
fff5
0003
ffff
0001
fffa
fffb
0006
0000
fffe
0002
0005
0003
fffb
ffff
0002
0004
fffe
000b
0006
000a
0000
0004
fffe
ffff
0000
0001
0000
fffc
fffc
0002
0007
0005
ffff
0004
0002
0002
fff5
fffd
fff0
0005
0001
0005
0004
0000
0006
0009
000a
0005
fffd
0006
fffe
0005
fffd
fffc
ffff
fffd
fffb
0000
fffd
0004
fffc
0000
fffe
0006
fff8
fff6
fffa
ffff
fffe
fff7
fff9
fff9
000b
fff9
fffe
0000
0002
0006
0006
0006
0000
0007
0000
ffff
0003
ffff
fffd
0001
0006
fffd
0002
0012
000c
0013
0009
fff7
fff5
fff8
fffe
fff8
0001
0006
0000
000f
0007
0000
0003
fffe
fffb
0003
ffed
ffff
0002
0001
0000
0006
0002
0000
fffa
0004
fff6
0006
0003
000f
fff7
fff9
0000
fffb
0003
0002
fff3
0003
0000
fffd
fff4
000b
fffd
0003
0001
fffd
0006
fff4
0002
0001
0000
0005
0004
000e
fff5
fffd
0002
fffe
fff3
0001
fff6
fffa
fff3
0003
ffff
fff6
000c
0005
fffe
000a
0007
fff5
fff7
0003
000a
fffc
ffff
0001
fffc
fff9
fffc
0013
fffc
0000
0005
fffc
fffc
fffd
ffff
fffc
0001
ffff
0001
fffc
fffe
fffe
0012
000d
0004
0006
0000
0001
ffeb
fff9
fff7
0008
0000
0006
fffa
fffe
fffe
0006
fffe
fffe
0000
0003
fffc
fff9
0001
000a
fffe
ffff
fff8
fff3
0004
0008
000a
0005
fff8
ffff
fffc
ffff
0003
fff8
000c
0006
0002
0008
000c
0004
fffd
fffa
0002
fffe
fff7
0008
0004
fff9
000c
fffe
000d
ffff
fff7
0000
0003
fffb
0004
ffff
fffd
000e
fffe
fff1
0007
fff9
0004
0000
fffd
fffd
fffa
0005
fff5
0000
0001
fff8
ffff
0002
0000
0006
fff8
0001
0000
0003
0000
0005
0005
fffa
fff9
0008
fff8
fffe
fff6
0001
0001
ffff
0006
0007
0002
0004
fffb
fffe
fffa
fff9
fffc
0008
ffff
fffa
0007
fff7
0006
fff6
fffe
fffc
0002
fffc
0000
0005
0001
0005
0005
0006
0006
0004
0000
fff7
fff8
fffe
0000
0002
0004
0009
fffd
0001
fff3
fffe
000e
fff8
0006
0000
fffe
0007
fffe
0003
0003
fffe
0003
fffd
ffff
000a
fffd
0000
0001
0005
0001
fffa
0000
fffd
0003
ffff
0005
0000
0006
fff6
fff9
0000
fff9
0005
0007
fff7
fffd
0000
0004
fffd
ffff
0002
0006
fffe
fffc
0001
0006
0006
fffc
0000
0009
0001
0009
0003
fff6
0003
fff0
fffe
ffff
fffd
0001
fff9
fff8
0002
fffd
0002
0002
fffa
ffff
fffe
0011
0000
0005
fffd
ffff
0004
fffa
000c
0005
0002
0004
0004
fffa
0003
0005
fffb
0000
0010
fffe
000c
fff9
fffc
0007
ffff
000a
fffe
0001
fffc
fff9
ffff
ffff
0001
000a
ffff
0007
ffe9
0000
0000
fff8
fffc
0009
0005
fffa
000e
0000
fffd
fff9
fffb
0004
0001
0005
fffc
fff4
ffff
0000
fff1
0001
0004
0000
fffb
fffe
0001
0002
fffd
fffe
ffff
0004
0005
0002
0000
ffff
0001
ffff
0003
0001
0005
0005
ffff
0006
0007
0002
0008
0003
fff9
0009
0004
fff6
fffc
fffc
fff6
fffa
0002
fffd
fffc
0008
0000
fffb
000e
fffa
fffe
0002
0002
0003
fff7
ffef
0004
ffe9
0003
000f
0007
0000
000a
fffe
0006
0005
0000
fff9
0002
000b
fffe
fffe
0006
0000
fffc
000c
0001
0000
fffe
fff6
fff1
fffe
fff6
000a
0002
fff8
0005
0003
0000
0004
0000
ffff
0000
0000
0007
fff7
ffff
0004
0007
0007
ffff
fffd
000a
0008
fffd
fffe
0008
0004
0001
ffff
fffe
0005
fffc
fffa
fffd
fffe
0001
0003
0008
fffd
fffe
fff5
0001
ffff
ffff
0005
fffb
fff1
0002
fffd
fff4
0002
fff8
fff6
ffff
0007
fffd
fffe
fffa
ffff
000b
0003
fff9
fffe
0007
0004
fff9
0002
0000
0001
000b
0002
fff5
000d
fff7
0003
0000
fffd
fffd
000b
0000
0000
fffc
fffc
0006
0005
fff7
0009
fff9
ffff
0005
0008
0004
0000
fffb
0003
0007
fffe
fffa
0002
0009
fffe
0004
0002
0005
000b
0007
0002
fffa
fffa
fff5
0003
ffff
fffd
000a
fff2
fffb
fffe
0004
0000
0002
0008
fffd
fffa
0002
0000
fffb
0002
0000
0002
0000
fff8
fff3
fffb
0001
fffe
fffe
fffe
0008
0006
ffff
fff8
fffb
000c
0002
0001
fffe
fffd
0006
fffc
fffb
ffef
ffff
0000
0001
fffc
0001
0002
000a
0003
fffc
fffc
fff5
0000
ffff
0005
fff8
0005
fffa
fffe
fff9
0006
0001
fffa
0005
fffa
0001
fffd
0004
0003
0000
fff2
fffd
fffd
0004
0006
fffc
fffd
0002
ffff
0000
0002
fffc
0006
fffc
0005
0015
000b
0001
fff6
000a
0000
fffe
fff5
0008
fff7
fffb
000c
0007
fffa
0002
0004
0008
fff7
fffe
0004
fffd
fffd
0006
0006
0000
fffb
0002
0002
fffd
0008
0002
0009
000a
0001
fffd
fff8
fffd
0007
fffd
0004
fffe
fff9
fffd
0004
fff8
fffc
fff3
fffa
000e
fffd
fffc
0003
ffff
0006
0002
fffc
0002
fffd
fff8
0000
0008
fff2
fffc
0005
ffff
0001
0000
fffe
fffc
fffe
0003
0007
000c
0003
0001
fffc
000a
000b
0006
fffb
fffb
fff5
0004
fffd
fff7
0000
fff0
fffd
0001
0006
fffd
0000
000c
fffe
fffc
fffa
ffff
0001
0004
fffe
0004
ffff
0008
0002
0002
fffc
fff8
0002
fffa
0008
fffa
fff1
0002
ffff
fffd
fffa
fffa
0008
fffd
fffe
fffa
ffec
fffc
0005
0001
000a
fffd
0003
0008
000f
0007
fff6
fff8
fffc
000c
0008
0005
fffa
fffc
fff9
0002
fffb
0001
0001
000b
fffd
0004
0009
0000
fffe
fffc
0000
fffe
0001
fff8
0005
0002
fff8
0002
0007
0002
ffff
0006
0004
0001
fffe
fffc
fffe
fffc
fff8
fffc
0001
0000
0000
0002
fffb
fffe
fffe
0000
0001
0002
0000
000f
fffb
ffff
0001
0002
0002
ffff
fffc
0000
0004
fffa
fff5
0000
0003
0003
ffff
0000
fffc
ffff
fff5
0007
0002
ffff
fffd
0000
0000
0002
0000
000b
0007
0005
ffff
0013
0007
0002
0004
fffc
fffb
ffff
fff9
ffff
0002
fffe
0002
0001
0007
ffff
0004
0007
0004
fffc
fffa
0006
fffc
0002
fffb
0007
0002
fffb
0000
fffb
ffff
fffa
fffc
fff7
0003
0000
0002
0005
0001
fffb
000b
fffc
0010
0001
fff8
0003
fffd
fff8
fffc
fffc
0003
ffed
fffe
fffb
fff2
0000
0005
0002
fffc
0000
0006
0009
0005
fffd
0006
ffef
0003
fff6
0006
0001
0003
0007
ffff
0004
fff3
0005
000b
fff0
fffb
0004
fff8
0010
fffb
0008
000b
ffee
0004
0001
fff6
fffe
0009
fff9
fff4
fffe
000b
0008
fffb
fff4
fffe
0008
0009
0006
0003
fffb
fffa
000d
fffe
ffff
0006
fffd
ffff
0013
0002
0005