0013
ffee
fff9
0013
0018
0008
0010
fff8
000a
000d
ffef
0006
ffde
ffe7
fff7
ffec
fffe
fff6
0004
fff0
0011
0024
000d
fffe
000b
fff7
000b
0015
000a
fff8
fff0
fff3
0008
000f
0008
0003
fffb
fffe
000a
ffff
000e
ffec
000c
0008
0003
fffe
0004
000f
0013
ffee
ffec
ffe8
000a
000c
ffe9
fff5
0006
fff7
0021
fffa
fff2
ffe8
fff0
0000
000e
fffe
fffb
ffec
0007
0006
fffa
0005
fff7
ffec
0001
fffa
001d
fff6
fff8
000e
fffa
0008
0006
0013
fff8
ffff
0009
ffe1
fff3
0008
ffdf
fff4
ffe5
000e
0009
fff4
fff5
fffd
fffc
0014
0003
0003
0005
fff6
fffb
0001
ffff
0014
000f
000b
0003
fffb
fffd
fff8
000f
0001
ffe9
0006
0009
fffb
fff7
0005
ffe5
0003
0000
0007
0000
0015
0005
0001
000b
fff6
0006
0003
fffd
000b
fffa
fffb
ffff
0000
0008
fff2
fffb
0010
0000
fffe
0009
0000
fffa
0009
fffb
fffc
fff6
0001
ffea
fffe
fff4
0010
0007
fff9
0008
fffe
ffec
0011
0004
fffc
fffc
ffff
fff0
fffa
0005
fff2
0007
0006
0009
fffc
000a
fff5
0005
fffc
ffeb
0015
0004
fffe
000e
fffe
fffd
0002
fffb
0002
000b
0000
0010
0005
ffef
0008
fff8
000a
0000
0007
0005
0009
fff6
0007
0002
fff2
fffb
000c
0008
ffee
0007
ffeb
000c
ffff
0003
fffc
0007
fffa
0009
0001
fff8
0008
0004
000d
0011
0000
fff2
fffd
fffd
fff5
0000
fffc
fffa
fffa
0009
ffec
fffd
0004
fffa
fff3
000d
fff7
fffb
fffe
0003
000b
000b
fff9
001b
0010
0015
fff9
fffe
0008
fffb
fff2
ffff
0000
fffa
0007
0001
0004
000b
0005
0001
0008
ffed
fffe
fff7
fff9
fff1
0015
0011
0004
000e
fffa
0000
fffe
0009
0003
ffff
fffe
fffe
ffeb
0002
0018
ffff
0002
0007
fffe
fff8
0004
ffed
fff5
fff3
000b
0002
fffa
fffd
fff9
0000
fff3
fff7
ffe7
0007
0008
fff7
fffe
0002
0014
000b
0002
0018
0012
0004
000b
ffef
0006
0009
fff9
ffff
ffee
0009
0008
0029
fff3
000f
000e
fffe
fff1
0010
fff8
001b
fff5
fff2
0007
fffd
fff7
fff9
fffd
000c
000b
ffff
fff7
fffb
fff8
fff5
fff5
0000
fffb
fff6
fff8
fffa
ffff
0012
0005
0014
0008
fff4
0020
fff8
fff5
0008
0003
0018
fff8
0002
0017
fffa
000a
0003
fff4
0001
fffa
0005
ffef
ffdd
0001
fff7
0003
0014
0006
fff9
0008
0003
0000
000b
ffe2
0011
ffe6
fffc
ffe4
ffef
fff2
ffff
0000
000b
001b
0005
0008
ffdb
fff2
fff8
0017
fff4
0015
0001
0015
fffd
0016
ffdf
0008
fff2
0008
0001
ffe9
fff5
ffff
fff1
fffa
0022
0010
ffda
fffd
002b
001c
ffe7
0015
fff2
0003
0002
0000
0006
ffdf
002c
fff7
ffe1
0005
fff5
ffff
0007
fff6
000b
0010
000b
fff7
fffc
0004
0026
0001
fffa
ffe7
002d
0009
0000
ffe6
0005
0007
0004
0008
0009
fffb
ffee
ffef
fff0
fffa
0002
0007
0007
0002
0019
ffcb
fff4
fff1
ffe6
fff4
fff7
0010
0008
ffe1
fff8
fffe
0001
001d
0011
0008
fffc
0012
0020
0007
000b
0011
0002
fff9
fff7
fffa
fff3
ffe9
0012
0001
fffa
0007
fff9
fffa
fffd
fff8
0002
fff5
fff1
fff8
fffb
000e
fff3
0012
0011
fff8
fff1
fffd
fff5
0007
fffd
fffb
0006
000a
0004
000a
000f
000e
fffd
0003
000c
ffff
fffa
fffd
fff7
fffc
fffa
0000
0001
ffff
0008
fffc
0006
0003
fff4
000c
0003
000b
000b
fffe
0009
ffff
0007
0007
0000
fff8
0003
000d
0002
0001
fff4
fffb
0005
000b
0000
fffa
0002
0006
fff3
fff2
fff9
0001
fffe
fff3
0000
0000
0009
0006
ffe9
0004
fff4
0001
000a
fff1
ffeb
0007
fffb
000f
0000
fffe
000c
000a
000b
0013
fffe
fffd
000e
fff7
ffeb
fffc
0008
fffc
000a
0011
fff4
0007
fffa
000f
fff9
ffec
0002
0006
ffee
fff6
0007
0002
0009
0000
0003
fff2
fffe
0003
fff9
fff8
fff4
000b
fff1
fffc
fffa
000d
0005
0009
0008
fffb
fff6
fff6
0004
0011
fffd
fff9
fffc
ffef
000a
000e
ffff
0007
0010
000d
fff7
fffa
fffc
0027
0004
0005
fffe
ffe5
0016
0014
0002
fffc
0013
0009
fffd
fff5
fffa
0007
0006
000b
0004
fffb
fffe
0000
0005
ffff
fff5
0013
fffb
fff7
0008
0008
0005
ffe4
ffff
0000
ffee
0001
fff2
fff1
0004
0009
ffef
fff7
0009
fffd
ffcc
fff8
000d
fffa
000c
fff1
0012
0006
0003
ffef
fff3
ffff
0001
0001
0009
0006
fff5
0003
0006
0022
fff8
0012
0002
fffd
fff1
ffe3
000b
ffee
ffea
fff9
0017
fffa
fffd
000e
fffa
fffa
0010
fff9
000a
0007
0005
fff2
0000
ffed
0014
fff6
0010
0010
000d
fffd
fff9
fffa
0009
0009
0015
0004
0015
000e
0009
0000
fff5
0001
0019
000f
000a
fffd
fff2
fff8
fff8
fff4
000c
fff4
ffeb
fff8
fff6
fffd
0019
0012
fff9
0006
ffee
ffff
fff8
0003
fffc
0012
000a
fffe
ffff
0004
0013
fffc
fff0
fff1
0009
fff8
ffee
000f
fff5
fffc
fff8
0001
fff9
fff3
0003
fff2
0014
fff4
0000
0001
000f
fff2
0015
0006
ffe5
fff5
fffd
000e
0014
0011
ffeb
0002
fff8
0019
fff2
0009
0008
0018
000a
fff9
fffb
0015
fff8
fff9
0008
0017
ffff
ffe4
fffb
fff4
0003
fff8
0014
fff2
ffeb
fffb
fff4
fff4
0001
fffb
0007
0000
0009
000e
fffc
fff9
fff8
000f
0001
fffb
fff3
ffec
fff4
0003
ffee
ffff
fffc
fff7
0000
fff6
000b
fff7
0001
fff5
0012
fffe
ffec
fffe
fff4
0008
0004
ffe8
fffb
0008
0002
fff3
000c
ffee
0008
001e
ffeb
fff3
0001
0008
fff8
0001
0006
000f
0006
0021
000f
001d
fff1
0004
fffa
000e
000e
0002
ffeb
000c
0003
ffeb
fff7
0008
000d
0012
0008
0019
0011
fffe
0001
fff5
0005
000d
000c
0006
000b
fff3
0021
fff7
fff5
0004
ffef
ffec
0005
0011
0004
ffea
0007
0009
fff9
ffe2
0032
fffa
ffee
fff1
ffe7
fffa
0000
ffff
0010
ffef
ffe4
000c
fff8
fff4
000a
fff5
0007
000d
0001
0001
fff4
000d
fff3
fff2
0002
0003
fff4
0005
000c
fff8
0009
fffa
0016
ffff
0002
fffc
0003
0003
0002
fffb
fff4
0004
fff9
fffa
0004
fff8
0012
0014
fffb
fff8
0007
fffc
fffd
fff6
000a
0006
fff1
0002
000c
0002
0004
0013
0006
0002
000c
0008
000f
fffe
0004
000d
fffc
0006
0002
0000
0004
000b
0002
fffe
fffc
fff9
fff0
fff5
fff8
fffc
0003
fffe
ffec
fffd
0009
0002
0015
fffa
ffe4
000a
0008
000d
0005
0002
fffd
fffa
fff6
fff5
fff5
0012
0008
fff7
ffec
fff6
0005
fffb
fff6
0003
fff6
fff7
0008
0012
fffd
000f
fffd
0000
0007
000c
0009
000f
ffed
fffa
000a
fffe
fff3
fff9
0006
0004
ffef
fff0
fffa
fffd
fff3
0007
fffa
fff8
0006
0010
0007
ffff
0014
0013
0001
fff4
fff9
fffe
fffd
0001
fff6
fffc
fff9
0002
0006
fffd
0001
fff3
0005
fffa
0013
fffb
0016
0009
0003
fff5
fffa
0003
0003
0006
0004
ffeb
0002
0007
0002
0006
0002
ffed
0004
fff2
0001
fffe
fff4
fff1
fff7
0008
000a
0003
fffc
0020
0001
fff5
000b
fffd
000b
000d
0009
0004
fff0
000e
0006
0005
fff8
fff7
0007
0000
fff0
ffee
fff6
0006
0002
ffea
0004
fff8
fffd
0003
ffe0
0015
fff7
0007
0016
0013
0006
000d
ffff
fffb
0000
ffed
fff5
fffe
0000
ffef
0004
ffee
0011
0014
000b
fffa
001f
ffeb
0024
0002
001b
fffe
ffe6
0018
0012
000f
0002
000f
0003
ffe7
0000
0024
0004
ffea
001e
ffee
ffe6
0005
0001
0001
0004
0009
ffec
ffe7
001c
fff4
fff2
0000
0004
fff6
0004
ffe7
0004
0017
fff4
fff5
000e
fff5
fff0
000e
0019
0013
0003
fff8
fffc
000c
ffdf
000d
fff3
0001
0007
fff9
0008
fff8
fff9
fffa
0006
ffef
000a
000b
0009
ffe6
000c
0000
0007
0002
ffff
fff2
fff3
0027
0017
001e
fff9
fff0
0005
0002
0021
fff1
fffb
0014
ffe1
fffc
0012
fff7
ffdf
ffed
0003
000a
0019
ffe5
fff3
fffd
000c
ffed
000e
ffe5
0004
fff7
fffd
000b
fffb
fff9
fff7
fffc
fff6
0007
000e
fffc
0003
0004
000a
0003
0004
000b
fffb
fff4
0001
0000
fff0
fff1
fff1
0001
0002
0004
0000
000c
0002
fff8
0000
fff8
fffa
000d
0008
0005
fffc
0006
fff0
0018
0011
fff5
0000
0003
0001
ffee
0010
0011
ffe9
0006
0006
fffa
fff5
0006
000f
fffb
fffa
fffe
fffd
0000
fffb
fffe
000c
000a
ffff
0002
fffd
fffd
fff8
fffb
0006
0000
fff5
fffb
fffb
0009
ffff
000f
0008
0008
fff2
0007
fff0
0008
0009
000c
fffc
0002
0007
0003
0000
0018
ffee
fff1
fff5
0007
fffe
0014
fff0
0003
fffd
0007
0006
0002
ffe6
fff3
0014
000b
fff9
0002
0009
ffe9
001b
fff8
0006
fff4
0015
000a
ffed
fff6
fffe
fff3
0003
000a
000e
0016
fffb
0009
fffa
fff6
000b
0006
fffd
0000
fff8
fffb
0000
000e
fffe
0001
ffeb
0007
fffe
fffe
fff5
0002
000e
000c
000b
fff5
fffd
0009
0000
0004
fffa
ffdd
fffe
fff7
fffb
000c
fff6
0004
0005
000f
fffe
fff2
fffa
fff1
fff9
ffed
fff7
ffff
000c
0002
fffa
ffef
000d
fff7
fff9
fffe
fff6
0000
fff2
000a
000e
0010
001a
0005
0013
000b
fff1
001a
fff1
fff3
ffeb
fff7
fff7
ffed
fffa
000c
ffff
fffc
0004
ffe1
0000
002b
001c
000a
0016
000b
000e
fff2
0006
fff0
0001
fff0
fffe
0006
fffd
ffdf
0000
ffe5
0002
fff4
0003
0009
fff6
0024
000c
fff9
ffec
ffff
fffe
000c
ffdf
0009
ffeb
ffff
ffef
fffe
0001
0000
fff0
fff1
0011
000b
0005
0004
0007
0003
fffc
0000
0004
0003
0004
000a
000c
fffd
fff7
0009
fffb
ffe4
0009
0002
000b
ffef
0003
000c
0001
0013
fffd
0005
001b
0003
fff8
fff8
0003
0011
000f
fff2
fffb
fffa
0009
000c
fff5
fff9
0006
000b
fff4
0009
fffb
fff6
fffd
fff1
0002
0003
fffa
fff7
001a
0013
fff1
000e
ffef
fff5
0003
0005
000e
fff6
0005
000f
fff2
ffe8
fffb
0000
0005
0003
0002
0010
fffc
0015
0000
fff4
fff2
0003
ffff
ffee
000d
0005
0004
fff8
0001
000b
fff9
000e
fffa
0010
ffed
0003
0003
fffd
000a
fff7
000e
ffff
fff9
fffa
000a
000f
fff8
ffdc
000c
000d
fffb
000f
fffe
0000
fffd
fffb
ffe8
fffb
fffd
fffd
fff8
0004
000c
0007
0004
ffef
000e
ffef
0000
fffa
0006
fffa
fffb
fff6
0002
ffe9
0004
000b
0001
0014
fff1
0004
fff7
0000
0013
0009
0002
ffe8
000b
000d
0001
ffff
ffff
0003
0000
fff5
fff1
ffed
0000
fffa
fff9
fffb
fffe
0008
000b
fffd
fffb
fff6
fffe
0001
fffc
0019
0010
0003
ffff
fffe
0007
fffb
fffc
0003
fff5
fff3
fff2
fffb
fff7
0000
fffd
0012
fff4
fff8
000a
0012
fffd
fff9
0012
ffee
fff2
0004
0003
0008
0008
0007
0008
000e
0006
0002
000e
0003
fffe
fff5
fff4
0006
fffe
fff6
0007
000d
0011
0000
000e
ffdc
0019
fff5
fff8
fff0
ffee
fffd
fff3
0000
0001
0011
fffa
ffeb
0007
fffa
000d
0011
fff7
fff3
ffe5
fff7
0008
ffe6
000a
0005
0000
0011
fffc
fff4
fffd
ffdc
0001
ffd6
0018
0001
fffa
ffd2
0016
0004
0001
fffd
001f
0001
fff9
0019
000c
0007
0004
0005
000c
0005
0024
fff8
0005
fff5
0000
fffe
0008
fffb
fff8
fffe
ffec
fff4
0003
fffb
0011
000b
0006
ffe6
fffb
0012
000b
fff1
000b
fffc
0003
fff1
0005
0005
0008
fff9
ffff
fff8
0005
0002
ffef
fffa
fffd
000b
fff9
fff9
000a
000d
000b
ffed
000e
0015
0004
fffd
ffec
000b
0008
ffff
0007
0002
fff3
fffd
0008
fffb
fff4
fff1
fff7
ffff
0002
fff0
fff8
0002
ffee
fff6
001f
fff7
0008
0000
fffb
fff6
0003
fff8
0004
fff5
000e
0001
0015
0021
fffb
0008
0003
0001
fffa
fff6
fffd
ffee
000b
000a
fff5
0005
0005
ffff
0008
fff6
ffff
fffb
0001
0005
0007
0002
fffc
0008
ffff
0005
fffb
fff8
000a
fff5
0000
fff6
000f
fffc
0005
000f
fff0
fffa
fff7
000b
fff7
fffa
ffe9
0004
fff6
ffff
000f
ffff
000d
ffed
fff7
0002
0003
fffd
fffe
0006
0005
0006
000a
fffd
fffa
fff0
0006
ffe5
fffb
fff7
ffe6
000d
fff5
fff9
0000
0008
ffee
0000
0019
fffd
fffe
fff9
0009
0000
0010
fff3
000d
0003
0009
ffff
0005
fffe
0006
fffe
fff3
fffb
0004
0005
fffe
fffd
0002
0007
fffa
fffa
0005
0003
fff3
0003
0004
0004
000c
fffd
0000
fffa
0006
0011
0008
fff1
fffb
fff1
0002
fffa
fffc
fff8
0004
fff8
0001
fffa
0008
fffe
0003
fff7
0003
ffff
0000
ffed
000d
fff5
0000
0000
0001
0004
fff8
0005
0008
ffff
0000
fffd
0007
fff7
000a
0005
0007
fffe
fff2
fffc
fff4
fff9
0008
0005
0001
fff9
0017
0012
0000
fffe
ffff
0006
fffe
ffff
ffff
0005
fffb
0003
0001
fffb
0008
000e
fff5
fff3
fffc
fffe
fffe
0005
fff5
fffe
fffc
ffee
0005
0010
000b
000e
000b
000b
fffb
fff5
fff2
fffa
fffe
ffe7
fffa
0011
0014
0012
fff3
000d
0012
fffe
0002
000a
ffdc
000e
0001
000a
0014
001d
fff0
0013
0027
0005
ffee
0008
fff2
fffc
0015
ffff
ffdf
0008
0008
002b
ffe9
fff2
fffe
000b
000c
fffa
ffe7
0019
fffa
ffee
fff4
fffb
ffdf
ffd8
0001
ffff
0002
0006
fff8
000b
fffe
ffff
0002
0002
0010
0003
0001
0001
0001
fff0
0004
0011
fffb
fff7
0016
0008
ffed
0008
fff2
000a
0017
0006
fff9
ffe2
000f
fff8
fff8
000a
0005
0002
000a
000d
0011
0002
0017
fffa
ffff
0005
0001
0015
fff4
000c
fff5
0015
fff8
ffeb
ffff
0001
ffff
0004
fff8
fff6
fffa
ffea
fffd
fff8
ffdf
0006
fffc
0000
0009
000e
0006
0007
fffa
0000
0012
000d
0013
fff9
0007
fff7
0001
fff2
0012
fff4
ffee
ffff
0014
0007
fffd
000c
ffe8
000c
0021
0003
fffc
ffeb
0002
0011
0001
0001
000b
0006
0010
0014
fff4
0008
0018
fffc
0007
0001
0007
0014
0001
fffb
0014
0018
ffe9
fff4
ffe5
fff0
0004
fff6
0001
fffd
ffeb
fff3
0009
fffb
ffe6
fff2
0004
0004
fff2
0005
0006
fffc
0006
fff9
0015
0003
fffd
ffdf
fffa
0007
0008
fff8
0006
fff4
ffe4
fff2
0021
0002
ffff
000f
0006
0015
0011
000a
0017
fff5
ffe5
000b
0004
0004
0010
fffe
ffec
0016
000f
fff5
0002
0000
fff4
fffe
0004
ffed
fff7
0008
fffd
0017
fff2
0008
fff3
0009
000d
fff3
fffd
000c
0007
0004
0002
fff2
ffeb
ffeb
0002
000e
fffc
fffe
0006
fff4
fff3
fffd
ffef
fff7
0006
fffd
000b
0004
0000
000e
fffd
fff7
000b
0010
ffeb
0007
fff8
fffd
0005
0004
ffec
fff6
fff9
0003
ffff
fff4
ffff
0002
fff8
0004
0000
fff6
000d
0015
fff8
0007
0005
000d
0001
0000
0002
0009
0000
fffa
0012
ffff
ffe9
0018
0013
0008
0002
ffff
0003
0005
ffe9
fff5
000d
0003
0000
0012
000a
fff7
0003
0005
ffff
0005
0006
0008
fffa
fff8
0011
0012
ffff
fff8
0000
0013
0004
fffd
0000
0008
fff3
fff4
0000
fffa
0016
fffe
0000
fff4
000d
fff9
0001
fff7
fffd
fff8
fffb
000b
0007
fffd
fffe
fffa
fff0
0007
0003
0007
fff6
0008
fff0
000c
fff2
0005
0019
fffa
fff2
0005
fffa
ffe5
000c
fff4
fffe
fffa
fffe
0009
ffed
ffdf
0012
0003
fff8
0001
0009
0005
0011
0001
ffff
0004
001b
001d
fffd
000f
0001
fffc
000b
ffe5
0017
fff0
0014
fff3
ffeb
fffa
fff8
ffdc
fff1
0006
0002
0026
fff4
0014
0020
fff4
fff2
0012
fff5
ffe9
ffd6
0008
fff6
ffe5
fff2
fff7
fff7
ffeb
001b
0006
000f
0010
fff8
ffcf
000e
fff3
001b
000d
fff2
0028
fffe
002c
0016
fff1
fff7
ffe7
0002
0006
ffea
0014
0019
fff0
fffc
0010
ffea
0015
0011
ffe5
ffe3
fff0
0007
ffef
0016
ffed
0015
fff6
fffe
0013
fff9
ffe2
fff2
fffe
fff6
0009
fff8
002c
fff3
002e
0016
0018
0010
ffef
0012
002b
ffeb
fffa
0019
000a
ffff
0002
0016
0009
ffef
0004
0009
fff7
fff9
fffa
0017
ffe7
0017
fff3
fff5
fffb
0003
001b
ffe8
fffb
fff5
ffe4
0007
fff5
fffe
fffc
ffe7
fff3
0018
ffff
000b
fff5
fffc
fffa
001e
fff1
000c
fffa
fff4
0008
0008
ffee
000f
0001
fff9
0010
0003
fff7
0005
fff3
fffd
0001
000b
fffa
0011
fff3
0011
0005
0008
0005
fff9
fff7
0001
0000
fff7
0005
0008
0012
0010
fffd
fff8
0005
fffa
fffc
fff8
fffd
ffed
fffd
fffc
fffc
0013
0029
0007
fffe
fff0
0009
0005
ffef
fff1
fffc
000a
0000
fffa
fff5
fff6
000a
fff1
0003
fff9
0005
fffc
fffe
000a
0005
fff6
0019
fff5
0006
0009
fffd
fff6
0007
0008
fffa
0010
fff4
fffa
000a
0003
fff6
0007
fff5
fff1
fff0
ffef
0002
0004
001a
fff9
0009
0016
000b
0002
ffe1
000f
fffb
ffef
0008
0004
fff5
000f
fff2
fffa
0000
0004
000d
000a
0006
fffb
fffd
0001
0005
fff3
0007
0004
0000
0005
fffe
0005
0007
0006
fffa
0008
fffc
000e
fff5
fff9
fff6
0002
fff9
0002
0004
0003
ffee
000e
fffe
000b
000b
fffc
fffd
0006
fff7
000f
ffed
0000
fff9
0016
fffc
ffef
fffa
fffe
0004
fffe
fffb
fff9
0017
ffff
000a
fffa
fff8
000d
000a
000a
fffd
0006
0003
ffff
fff9
0004
fffc
0004
fff3
0008
0001
fffd
000c
fffd
0009
0006
fff3
fff7
0007
fff3
0007
0004
0006
fff6
fff4
000a
fffb
0002
fff9
0004
0000
0007
fffc
0003
0001
fffd
fffe
fff2
ffff
0004
000a
0001
0005
000b
000d
fff3
fffc
ffec
ffff
fffe
fff6
0007
000b
fff9
fffc
0014
000c
fffd
0008
fff9
0006
fffc
fffc
0007
fffa
0002
0002
0004
0007
fff4
000e
0000
fffc
fff9
ffee
0017
ffff
fffb
0002
0008
0017
0015
ffff
ffe6
ffef
0005
ffe7
ffea
ffee
0008
fff0
ffe7
ffff
0011
ffe2
0003
000e
ffff
001d
0006
fffe
0008
0006
ffe1
000c
0008
ffeb
0004
0000
0006
0002
000a
0002
fff2
fff5
0009
fffe
0020
fffd
0009
ffff
0014
0011
fff7
fffa
0008
0002
fff1
0007
0003
0006
0017
0003
0011
0012
ffef
fff7
fff4
0012
0009
fffc
000e
ffec
fff4
000c
ffe1
fff4
0007
000c
001c
0016
fff2
0007
ffea
000b
0022
0000
fff3
000b
ffea
fff3
fffa
0001
fff4
0003
fff4
fff3
0017
ffe9
0005
fff3
ffe3
0014
fffc
000f
ffe9
0004
000c
0009
0005
0003
fffb
0000
fffe
0013
ffeb
0004
000a
0000
0000
0006
000b
fff7
fffc
fff6
fff7
000e
0008
0000
001f
001c
0011
fffa
fffb
0006
0000
0005
0010
ffff
fffe
0012
fff4
fff9
0002
0003
fff0
0009
000e
0005
fff9
fff6
0005
001b
0007
0003
0006
ffe7
0006
fff9
0000
0010
fffc
fffe
0012
000e
000c
ffe6
ffed
0000
000b
fffa
fff3
fff9
ffe8
ffee
fff9
fff7
0004
fffa
fffc
0006
fff4
ffeb
000d
0001
0016
ffef
000e
0018
0017
fffb
0003
000a
fff9
0006
0009
000b
001f
fffe
fffe
0004
ffef
ffef
fff9
fff2
0011
0009
fffa
0003
0011
0004
fff9
0006
000a
0003
fff2
0033
fff4
0008
fffb
000a
fff9
0019
fff9
fff6
0018
ffff
ffee
000b
fffb
000b
000e
fffe
fffa
fffc
0014
fffe
fffe
0012
0008
0009
000a
0011
fff3
fff8
0007
000f
fff4
0002
fff2
0016
ffe9
fff0
ffe7
fff6
fff7
fff7
fffe
0003
0008
fff8
fff3
ffee
000f
0002
0000
fff8
ffff
0006
ffff
fff8
0008
0000
0006
000b
fff7
ffef
000a
000e
fffc
fff6
000b
fff9
0006
fffc
ffed
fffa
0000
0006
fffa
000b
ffff
fffd
ffff
fff3
fff9
fff7
ffeb
0013
0000
000c
0001
ffee
ffee
ffed
0004
ffe8
0006
fff2
0019
0011
ffed
fffd
ffff
ffff
0010
0009
fff2
0014
0008
000c
000c
0004
fff8
fff7
fffd
001c
0014
0000
0009
0013
000e
0005
0003
ffee
000e
fff2
0019
0008
0014
fffa
fff8
fffe
000e
ffe4
0002
0012
ffe7
ffee
001b
ffe1
fffa
ffef
0009
0001
fffe
fff6
0005
fffb
000c
fffd
0016
0019
fffd
ffea
000c
fffc
0006
001a
fffd
fffb
fffd
0014
fff6
fffc
fffe
fffe
fffe
fff6
fff8
fff7
fffa
ffed
fffa
0008
ffec
fffe
0006
0015
0008
0000
000d
0009
fffa
fff6
fff1
fff9
fff5
fffd
fff8
0005
000c
0007
fff3
0001
0016
000a
0000
000f
ffea
fff5
ffea
fffc
ffe2
fffc
fffb
fffd
0016
ffec
0000
fffe
fff2
fffc
fffb
ffff
fff1
fffe
0004
0010
0006
0000
fff9
fff9
000b
ffed
fffa
fff4
000c
0008
fff5
fffe
0000
fffc
000d
fff8
ffff
000e
ffe8
0005
0019
0013
000c
0010
ffdd
fff8
ffe1
fffb
ffff
0002
fffd
0007
fff4
002c
fffd
0006
fffc
0001
000a
fff8
0011
fff4
0002
fffd
003c
ffd3
fff6
fff1
0003
ffca
0009
0001
fff3
fffa
0003
0016
000d
0004
fff0
fffc
0008
000d
0002
fffc
fffe
ffeb
0002
fff9
fff5
fff3
0003
0003
fff8
fffa
0012
0011
0009
fff2
0009
0007
000a
0000
ffe6
000c
ffff
001c
0009
0009
ffeb
fff3
0002
000d
0012
0007
0004
0003
0001
000f
fff5
ffeb
fffc
000f
000b
0024
0012
ffec
0007
fff8
fffb
ffe0
fffd
000c
000b
0009
0008
fffb
fffa
fff4
0007
fff2
fffa
0006
fff8
fff2
ffdf
0003
000e
0000
fffc
0002
ffea
ffe3
fffd
fff2
001c
ffec
ffff
ffff
000a
0007
fff8
0014
0007
0003
000b
0003
fff8
0009
fffe
0004
fffc
000a
ffea
ffec
0003
fffb
0006
fff7
ffe5
fffb
ffe2
fffe
0003
fffb
fff6
000b
0005
fffc
001b
fff7
fff2
fff3
fffd
ffea
fffd
0004
fff0
fff3
ffff
fffe
0004
0013
0004
0008
0003
0009
ffee
fffc
0002
0018
fff5
0014
0002
0000
fff0
ffea
0001
ffec
0009
0005
0007
001a
fffd
000b
0007
0000
ffff
0002
0004
0014
fff5
0009
0011
0004
fffc
000c
ffec
fffa
0018
0002
ffe3
ffeb
0024
0007
fff7
0004
fffd
000e
000c
0002
ffe9
000f
0046
001c
fff7
ffe2
ffff
fff2
fffb
000e
ffe6
ffe4
fffc
0007
0002
fff0
ffe7
0018
0005
0015
fff5
0006
0010
fff5
0014
0019
ffe4
0009
ffea
0001
fffe
0004
000a
ffd2
0012
fff2
ffe9
ffd2
0010
0013
ffe9
fff1
fff4
0011
ffec
ffe4
fff6
001b
fff8
ffee
0009
0021
ffeb
fff9
ffff
fff7
000b
000d
000a
ffe9
000c
0013
fff1
ffff
0002
ffee
ffec
0004
fffd
0011
001c
0008
0010
fff1
0019
fff7
0010
0009
0007
000f
0011
0013
0010
ffef
fffd
fffe
002a
fff3
ffe4
0001
fffc
ffde
0026
0012
fff5
fffd
fff1
0016
ffef
fff7
0003
fffd
000b
ffdc
fff9
0005
ffee
fffc
000b
000b
fff7
ffe9
fffb
0011
fffa
000c
fff2
fff8
fffa
000c
fffd
0006
0011
0009
fffc
0000
fffa
0005
fffb
0016
ffff
fff7
0010
0017
fff8
0001
fffa
fff5
000d
0007
fffa
0002
fffa
fff4
0000
fff7
0002
fffb
0007
0008
001c
fffe
0008
ffe9
ffff
000c
fffe
001f
0002
0015
ffe4
0009
ffea
fff9
000c
0008
fff7
ffff
fffc
ffe9
000c
ffe9
0005
fffe
fffa
fffd
0008
fffb
fff8
fff7
0005
0006
0006
fff6
fffd
fff2
fff2
fff9
fffe
fff9
0002
000b
fffa
ffed
0008
0007
0000
fffd
000b
fff6
0010
fff9
fff1
ffff
000c
000c
fffc
0003
0001
0000
ffff
fff9
fffd
fffc
ffe4
000a
fffb
fffd
fff6
fffa
fffa
ffeb
0009
fffc
fffb
fff3
0008
000e
fffb
0005
0003
000b
0011
0010
fffe
0012
fff9
0008
000b
fffe
ffec
ffea
fff1
0005
0011
ffee
ffe8
fffa
000f
fffc
0008
ffff
0005
fff7
000a
fff3
0004
fff6
fffa
fff7
fffa
ffe6
0017
fff4
000e
0008
0002
fff3
0014
0006
000b
000a
0000
0007
000f
0006
0005
0007
fff6
0010
0000
ffec
fff9
ffed
000e
0005
0007
0005
0014
0006
fffa
0016
000e
ffe5
fff7
0012
0000
fff4
fffd
0015
000c
0008
fff2
fff7
fffe
ffe9
fffa
ffe1
0014
fff5
ffdd
ffeb
fff0
fff6
fff7
0001
0004
0018
0023
001b
fff0
0017
0022
001a
ffe3
ffed
fffc
fff3
000f
0004
ffe2
ffdd
0011
fff0
0002
ffe8
fff5
001b
0009
fffd
0024
001d
ffdf
ffe6
002b
0022
000b
fffa
0002
ffe8
0017
0003
0014
ffda
0037
0009
ffd8
ffe4
0005
0016
000d
fff5
ffed
0028
0008
0007
fffe
0010
ffe8
fff1
0002
fffa
0012
fff8
fffa
ffee
0022
0007
fffa
0008
0008
fff7
fffd
0013
fffb
ffed
000c
fffe
000d
ffe7
fff6
fffb
0004
fff3
000e
ffef
fffe
fff9
fff7
0001
000e
0003
001b
fff3
001b
fff6
ffee
0008
0005
0003
fff5
fff1
0002
0001
001b
fff1
0002
0004
0000
001a
000a
fffc
fff8
0001
fffa
ffff
0005
ffff
0014
000b
ffec
0000
0000
fffe
0006
0009
000a
0002
0010
fff8
fffa
0008
fff2
0009
fff7
fffd
fffa
000f
0004
ffed
fffc
0007
000a
fff8
0002
0003
0009
fffb
0002
000e
0003
0007
fffc
fff9
0011
ffe4
0009
0005
ffef
fff6
fffd
fffc
000b
fffe
ffec
fffb
fffa
fff3
0010
fff2
000a
0009
fff5
000a
fffa
0009
fff9
fffe
0013
000f
000b
fffe
0005
0007
fff8
fffb
fff9
0000
0000
fffe
0006
fff0
0003
fffe
0001
0000
0007
fffc
0006
000d
ffff
000a
fffc
fff7
ffff
000b
0001
fff6
0010
fff9
0005
0012
fff3
ffef
fff8
000a
fff7
0006
fff3
fff8
0004
fffd
fffe
0003
fffb
0004
000f
fffc
fff6
ffef
fff5
ffed
000a
fff4
0015
0002
0004
0002
fff7
0004
0005
0006
0010
000d
0006
000a
fffe
fffe
0009
0001
0004
fff0
001a
fffe
ffe8
fffe
ffec
0005
0004
0000
ffff
0001
0012
0012
fff6
fffb
000e
0008
0017
ffed
0003
fffc
000d
fff7
0006
fff5
0010
0009
000b
0000
fffd
ffe9
0007
fff2
0014
fff4
ffff
fffe
000b
ffed
fff0
fff6
fffb
0001
000b
0005
fffb
0004
fff0
000e
ffff
ffef
000e
0003
fffb
0002
ffee
0001
ffff
fff6
0009
0001
fff6
0002