0000
0002
fffc
0004
fffe
0002
fffd
0005
ffff
0007
fffe
0003
fffe
ffff
0000
ffff
0001
ffff
fffb
0002
0001
0003
0002
ffff
0000
0004
0003
0002
0001
0001
0000
0000
0003
0000
0001
fffd
0000
0000
0000
ffff
fffb
0001
ffff
0001
ffff
fffe
fffb
fffd
fffe
ffff
ffff
0000
fffd
0002
0003
ffff
fffe
0005
0005
fffe
0000
0000
0004
fffb