ffff
fffb
fffe
fffd
0000
fffa
fff9
fffb
fffc
fffd
0003
fffd
fffb
fffd
fffe
ffff
fffe
ffff
0001
0000
fffc
fffd
0000
ffff
fffe
fffe
fffe
0001
fffa
fffe
fffe
ffff
fffc
fffe
fffc
fffb
fffb
fffd
fffe
fffc
fffc
fffc
fffa
ffff
0002
fffe
fffc
0000
0001
0001
ffff
fffd
fffc
fffe
0000
fffc
fffd
fffe
fffd
fffc
fffc
fffb
fffd
ffff
fffc
fffc
0002
fffd
fff7
fffe
fffc
fffd
0001
fffe
fffc
fff6
0003
fffe
ffff
fffe
fffc
fffd
fffe
0000
fff9
fffb
fffb
fffa
fff7
fffe
0003
ffff
fffc
fffe
0001
0001
fffe
fffd
fffc
fffb
fffc
fffe
fffd
fff7
0001
0000
fffb
0003
fffc
0000
fffb
fffc
0001
fffd
fffd
fffe
fffe
fff9
fffd
fffc
fffa
fffe
0001
fffc
fffc
fffe
0002
ffff
fffb
fffb
0001
fffd
fffa
fffe
fff7
fffb
0002
fffc
0000
fffe
fffc
fffc
fff9
fffb
0001
fffd
fffc
fffb
fffb
0002
ffff
fffc
fffb
fffd
0001
fffc
fffb
ffff
fffb
fffd
fffc
0000
fffc
fffc
fff9
0001
fff9
ffff
0002
ffff
fffe
fffc
0000
fffa
fffb
fffd
0002
fff9
fffe
fffc
fffa
fffd
fffd
fffc
fffb
fffe
fffc
fffc
fffb
fffc
fffe
0001
fffe
fffd
fffe
fffc
fffe
fffb
fffc
fffa
fffe
fffd
0001
fffe
fff9
fffd
fffc
fff8
fffb
ffff
fffe
fffc
fffd
fffd
fffd
0000
fffd
0000
fffd
0000
0000
0000
fffd
0000
0001
fffc
ffff
fffd
fffb
fffe
ffff
fffd
fffc
fffc
fffe
fffc
fffc
ffff
0002
fffa
fffd
ffff
fffc
fffd
fffd
fffc
fffc
ffff
fffb
fffe
0000
0000
fffd
fffe
fffd
fff9