0000
fffe
0006
0004
fffd
0006
0001
0003
0005
0006
ffff
0001
0006
0001
0003
0008
fffd
fffd
000a
ffff
fff6
fffb
0000
0002
0001
fffe
0000
0000
0001
ffff
fffc
fffb
0003
fffe
0003
0000
fffd
fff6
0007
0004
fff9
000b
fffe
0001
fff5
0001
0002
fffd
0003
fffa
fffd
0003
0007
0009
fff7
0008
000b
fffc
ffff
0006
0000
fff6
0008
0000
fffc
0006
fffd
0000
0007
0006
fff9
0004
0004
0002
fff5
0000
fffe
fffd
0008
0009
fffb
000c
0002
fff7
0006
0001
0001
fff8
fff9
fffa
0001
0003
0003
0002
0002
0000
fffb
fff8
0000
0003
0006
fff8
0005
0004
fffa
0002
0001
0006
fffc
0003
0002
0002
fffe
fffe
0005
fffa
fffe
0009
fffe
0000
fffa
0006
0002
0007
fff8
fffd
0003
fffd
0009
fffe
0001
000c
ffe4
0000
0004
0001
fffc
ffff
fffd
fffd
0000
0005
fffd
fff3
fff7
fffa
ffff
fffa
0006
000b
0003
0004
fff4
fffc
fff4
0016
fffe
0007
fffc
fffe
fffa
000c
0006
0002
0010
0004
fff8
fff8
fff6
0012
0013
0003
0000
0009
0008
0005
fff9
fff9
fff2
0002
fffb
fff9
fffb
fff4
fff8
000c
0003
0009
fffb
fff8
fffe
fff9
0002
ffff
ffff
0005
fffb
0008
fffe
fffc
fff5
fffc
fffe
0005
fffb
fffb
fffa
ffff
0000
fff3
fff4
ffff
000d
0008
0002
fffc
0000
000d
ffff
0007
0005
0004
0000
fffe
0003
0000
fffe
fffc
0003
fffd
0007
000c
0002
0003
000a
ffff
fffd
fff8
0002
fff7
0006
0002
0004
0000
0001
fffc
000c
ffff
fffe
0003
0007
0004
0003
fffd
0002
fffb
0006
fffb
0000
0008
ffff
fffc
0007
0009
fff8
0002
fffe
ffed
000a
fff7
0003
ffec
0009
000c
0008
0003
fff9
0006
0001
fff9
fffe
0003
000a
0001
fffd
fff8
0000
ffff
ffff
0004
fffc
000d
fffd
fffe
fffd
000c
000a
0004
0007
fff9
fff6
0008
0006
fffc
fff6
fffb
0007
0003
0006
ffff
0001
fffb
fffd
fffb
fffb
fff7
0008
fff9
fff9
0008
fffb
fffc
fffb
fffe
fff8
ffff
0002
fffb
0000
fffa
fff7
000b
0008
fffb
fff6
0003
fffe
fffc
0002
0005
fffa
fffa
fffa
fff5
0007
fffa
fffc
0005
0007
ffff
0009
0005
0005
0009
0004
fff6
ffff
000a
fffb
fffb
fff7
0002
0003
0003
0002
0001
0005
0000
ffff
0000
0001
000b
fffb
0009
0007
0007
0004
0007
0003
0001
0003
0001
fffb
fffd
0004
0005
0003
0006
0005
0005
fff7
ffff
0003
fffa
000f
0009
fffa
0002
fffe
0005
fffe
0000
fffc
0004
fffc
fff9
0000
fff8
0003
0006
0002
fffe
0002
0004
fffc
fff8
0003
fff2
0005
fff5
fffc
0006
0000
0006
0002
fffe
0002
fff9
fffb
fff6
0004
0002
0004
0009
0000
fff9
fffd
0006
0006
0000
fff7
ffff
0008
0000
0004
0010
ffff
fffa
fff9
0002
0002
0002
fffa
0008
fffd
0001
0000
fffc
0003
0006
0006
fffa
0005
fff8
0000
0008
fffe
0007
fffa
0005
0002
0000
fff4
fffa
0002
fffe
fffa
0004
fff5
0001
0004
fffa
fffb
fffc
fffd
000c
0009
fff8
0002
ffff
fffb
0001
0007
0000
fff4
0001
0008
ffff
0009
fffb
0005
0000
fffd
0009
fff6
0001
0002
ffff
0001
ffff
0003
ffff
fffe
ffff
fff8
0004
0009
0005
fff9
0000
0005
fffe
000d
0008
fff9
fffc
0004
0002
0005
fffb
0005
0003
fffb
0000
0003
fffa
fffc
ffff
fffa
0007
fffd
fff8
0005
0003
000e
0005
fff9
0002
fffc
0007
fff6
0008
fffb
fff7
fffd
fff9
ffff
0001
fff7
000a
0003
fffe
0000
0002
fffb
0005
0001
0001
ffff
0009
fff8
fff9
fffb
fffe
0000
0001
0004
fffc
fffb
0001
fff6
fff9
0004
0003
0003
fffa
fff1
fffa
0002
0002
0006
0003
0000
0006
000a
0007
fff8
fffd
0004
fff3
0004
0005
000a
fffa
fffa
fffb
fff7
0011
fffa
0003
fff6
0002
0008
0000
0008
fff8
fffe
ffff
0004
fffe
ffff
ffff
fffd
0000
0000
0007
0006
fffa
0001
fff7
0007
0004
0003
fff8
0003
fffd
ffff
0000
fff7
000a
fff8
0007
ffff
0004
0005
0003
0003
fffe
fffe
0002
0003
ffff
0001
0003
fffb
ffec
ffff
000c
fff9
000a
0005
ffff
0006
fffa
0002
fffa
0003
0005
fff4
fff8
fffe
fffb
fffd
0006
fffd
fffe
0002
fffc
fffd
0002
fffc
0000
ffff
fffc
fffc
0001
0004
fffb
fffe
0000
0001
0007
0001
0000
000a
fffa
0000
ffff
fffe
ffff
fff3
fffe
fffd
0002
0003
fffb
0006
fffd
0002
0001
0007
0005
0000
000b
fffe
fff4
fffc
000b
0009
fffa
fffa
ffe8
fffc
0001
0001
0005
0001
0002
0008
0007
fffe
fffc
0001
fffc
0000
fffe
0000
0006
0006
fffc
fff6
fffe
fff3
0002
0000
fff8
0003
fffd
fffe
0003
0008
fffd
fffb
0005
0002
fffb
0005
fffb
0006
fffc
fffb
fffd
0006
0008
0008
0005
fff8
0002
0003
fffe
0000
0006
0003
0001
fff6
0004
0003
0003
0002
0006
ffff
fffd
0001
fffb
0001
0003
0004
ffff
fffe
fffa
0000
fffd
0001
fffe
0003
fff7
0004
0001
fffe
0004
0002
fffd
0004
0000
0009
0002
0005
0007
0008
0002
fffe
fffc
0000
0007
0000
fffb
0001
0001
ffff
0004
0001
0003
fffc
fffd
ffff
fffc
000a
0001
0001
ffff
ffff
fffd
0009
0009
fff1
0003
fffe
0008
0001
fff9
fff8
ffff
0005
0002
0000
0006
fffe
fffa
fff9
fffe
fffc
0001
000b
fffa
0004
000f
0000
fffb
ffff
0000
fffc
0006
ffff
fff9
fffd
fffd
0007
0002
fffd
fff6
fff6
fff8
fffb
fff4
fff9
fffb
0008
fffc
0004
ffef
fffa
000a
0008
0004
0004
000c
000c
0011
ffff
0008
fffe
ffff
0000
fffc
0001
ffff
0006
000a
0006
0003
fffd
0007
fffe
fffa
0011
0006
fff9
0006
fffa
fffc
fffd
fff9
ffff
0006
fffb
0001
0003
fffc
0007
0006
0007
0000
fff9
0006
fffa
0005
ffff
fffc
0005
0005
fffc
ffff
fffa
fff2
0002
fffd
fffa
0002
000b
0001
fff2
0000
fffe
0000
fffa
0001
0006
fffd
fff4
0006
0004
fffe
fff6
fff9
fff9
0009
fff8
0001
0001
0007
fffe
0000
0005
fffc
ffff
fffe
ffff
0007
000d
ffff
0002
0000
0004
fffe
ffff
fffe
ffff
0007
0002
fff3
0003
0002
0009
0002
0003
0004
fffb
ffff
0010
ffff
fffc
0005
ffff
0000
0000
000b
ffff
fff7
0006
fff9
0001
fffa
fff8
0003
0000
0001
0004
fff6
0004
000b
0001
fffe
0004
fff2
fffb
0000
0002
0002
0001
0002
000d
0000
fffc
0007
fffd
0003
ffff
0005
0002
0006
fff9
0000
fffa
0006
fff8
fff8
fffb
fffe
0000
0009
fff3
fffc
0000
0005
fffd
0010
fffc
0000
fffc
fffe
fffd
0007
0005
fffe
0004
fffe
ffff
0001
0005
fffc
0005
0002
ffff
0000
0003
0009
fffd
0002
fffe
0003
fffc
0000
0005
0001
ffff
0004
0004
fffe
0001
0008
fff8
0000
0004
ffff
fffb
fffb
fffb
ffff
fffd
fff3
fffe
000d
fffe
0001
0006
fffe
0012
000f
fffb
fffd
0002
0002
0008
0003
fff6
fff5
fffb
fff7
fffb
0008
fffa
fffc
0003
0001
fffa
0003
fffd
ffff
fffb
0000
fff9
0002
0006
000b
0000
0000
000f
0005
0000
ffff
ffff
0007
000c
0001
fff8
0003
fffb
fffe
0007
fffc
fff4
ffff
0008
fffd
0003
0009
fff8
ffff
0010
fffb
fffe
0008
0008
fffa
fffa
fffe
fffe
fffe
0002
0001
0004
0009
ffff
0006
0001
fffb
fffa
0009
ffff
fffb
0000
fffb
0003
ffff
0002
ffff
0004
fff6
fffb
0003
0003
0005
0008
0004
ffff
0003
fffb
fffa
0001
0001
0003
fff4
0008
0005
0001
fff9
0000
ffff
fffd
fffc
0005
fffe
0003
ffff
fffb
ffff
fff7
ffff
000c
fffa
fffc
fff8
0006
0000
ffff
0006
fffd
fffa
0006
0003
0006
fff7
0009
000e
0002
0005
fff5
0006
000d
0003
0004
0003
fffb
0000
0000
0000
000a
fffa
0000
0005
0001
0002
fffb
fffd
000d
0002
fffa
0009
0009
fffe
0010
0005
fffc
fff9
fffb
0000
fff4
fffe
fffa
0003
fffc
ffff
0003
0005
0000
fffd
fff7
0004
fffb
fffd
fff4
0008
ffed
fff6
fffa
fffd
0003
0004
fff3
0009
0002
fffa
ffff
0000
fff2
0002
fffd
0006
fffd
0001
0007
0004
0009
0001
fffc
fff7
0002
0003
0008
0009
ffff
fffc
fffc
0005
fffc
fffc
000b
ffff
fffc
0001
0001
0007
ffff
ffff
0005
fffe
fff7
0003
fff1
fff9
fffd
fffe
fff4
0005
000b
0001
0007
0001
fffd
0005
0003
fffc
0006
000d
fffa
fffe
fffd
fffa
fffe
fffa
ffff
fffc
0000
fffd
0000
0006
fff5
0006
fffe
fffc
fffe
fff5
0001
0002
0009
0002
fffd
fff7
fff9
fffc
0006
fff2
0007
0003
fff8
0002
fffb
0001
0003
0002
0007
0001
fffc
0000
0001
fffa
ffff
0005
0008
0002
000a
0013
0011
fff5
ffff
0003
0002
ffff
0003
fff0
0003
ffff
0008
fff2
fff9
0004
0000
0000
fffd
fff6
0014
fffe
0002
0005
fffc
0001
fffb
fff4
ffff
0002
0001
fffa
0001
fff9
fffe
ffff
fffd
0002
0003
000b
0001
ffff
0002
0000
fffc
0001
fffa
fffa
fffb
0000
0006
0001
0002
fffd
ffff
0008
fffc
0004
0001
ffff
0000
0007
0006
0005
0005
0007
0007
fffc
0003
0000
fffd
0000
fffd
fffe
0001
ffff
ffff
0000
0004
0003
fff5
fffc
0001
fff6
0001
0007
fffe
fffc
0005
fff9
0004
000c
0000
fff2
fffe
ffff
0000
0009
fff2
0004
fffb
0005
fffd
0006
0000
0000
0004
000d
fffd
0000
fffd
fff8
0010
fffe
0008
fff5
0002
0006
0000
0001
000e
fffa
0005
fff6
fffa
0002
fff8
0006
fff9
0001
0003
0000
fffc
0001
0009
0002
fff9
0003
fffe
fffd
fffb
fff2
0005
fffa
fff6
fffa
000a
0003
ffff
0000
ffff
0007
000d
fffb
fffa
fffa
fff7
fff0
0001
0001
fff9
fffd
0005
fffa
0005
0001
fff9
ffff
0003
0002
fffe
000b
ffff
fff4
0006
fffc
fffd
fff9
0004
0002
0002
0008
0004
0004
0008
0000
0003
ffff
0011
0005
fffe
fff4
0006
0003
0006
fff8
0001
0005
0007
fffb
fffe
fffd
0000
fffe
0002
000e
fffd
fff6
fff4
ffff
fff5
fffb
0007
fffe
0000
0005
fff5
ffff
ffff
fffc
0002
fffc
0001
0001
fffb
0002
0005
0003
0005
0001
fff6
0002
0000
ffff
fff9
0009
fffc
fff7
0005
fffe
0004
fff5
0001
0001
0000
fffa
0004
0002
fff9
0000
0004
0002
fffc
0007
0000
0002
0002
0001
fffc
0004
0001
0003
0007
0001
fffa
0001
0001
fffa
fffe
fffc
0006
fffa
fffc
fffa
0003
0002
0005
000c
fffc
0008
0003
0000
fff8
0008
fffc
0003
fff2
0004
fff6
0003
fffb
fff9
0012
0001
fff3
0000
fffd
fff6
0000
fffc
0005
fff8
fff0
fffa
ffff
fff6
fffc
fffd
fff7
fffb
fff7
fffe
ffff
0010
fff4
000a
fff5
0010
0010
000a
0004
fffe
fff9
0000
0000
000e
0000
000c
fffa
fffe
fff1
0007
0006
fff9
0005
0004
0003
0001
000a
fffb
0003
ffff
fffd
000c
0003
0003
000c
fff8
fff6
ffff
0008
000d
ffff
0003
0004
ffff
fff3
0006
fff3
0006
fff8
0001
fffb
fffe
0003
fffc
000c
0001
fff8
000a
fffa
0006
0001
0008
fffa
0000
ffff
0003
000c
fff7
0003
0006
0008
fffc
0007
0010
0006
ffff
fffb
0000
fff6
ffff
0005
fffe
0001
fffb
fff5
0001
000f
fff8
fff9
fff9
fffa
fffa
0007
fffb
0008
0003
0002
0002
fffe
0000
ffff
000b
0001
fffa
fffb
000b
fffc
0003
0002
fffd
0006
0002
fff9
0002
0004
fffd
000b
0008
fffe
000f
ffff
0000
fffc
fff9
0000
0000
0003
fff6
fffd
0011
0001
fff6
fffe
fffa
fff2
fffb
fffa
fffd
0004
0009
fffa
0000
0002
fffc
fff8
0001
0004
0004
0009
fffb
fffb
fff5
0005
0001
0006
ffff
fffd
fff7
0010
0002
ffee
0009
000a
fffc
fff4
0004
fff3
fffd
0000
0007
0000
fffc
fffe
fffb
fffd
fffd
fffd
000c
fffe
0000
fff5
fff7
0004
0006
ffff
ffff
0001
0003
0000
0008
0009
0001
0001
fffb
fffc
0009
0009
ffff
fffb
0004
0002
fffe
0003
fffc
0004
0005
fffe
fffe
000c
fffc
0009
fff5
fffe
fff7
fffd
fff5
0000
fffc
0006
0001
fff5
0004
0007
fffc
fff6
0003
000b
fffd
0004
fffe
0007
fffd
ffff
000f
fffe
ffff
fffe
0000
fff6
0007
0004
0009
0001
0004
0003
fff5
0001
fffd
fff8
0003
fff7
0001
fffa
0000
000c
0004
0006
0004
fffb
000c
0009
fffc
fffd
fff0
0001
000a
0005
000b
0000
fff5
fff5
ffff
fffa
fffc
fff8
fffd
ffff
0004
0006
0003
000a
0003
fff9
fffe
0007
ffff
0002
0000
0002
fffd
fff4
fffd
fffc
0000
0002
fff9
fffc
fffe
fff0
0001
0002
fffa
fff9
fffd
000b
fffe
0004
fffa
fffd
0001
0002
fffe
0001
0000
ffff
fffd
fffc
fffc
0005
fffb
0002
fffb
fff7
000d
0001
fff4
0009
ffff
0004
fffe
0005
ffff
fffc
fffc
fffe
fffe
000a
fff9
0009
0006
fff8
000a
000e
0001
0002
0009
0004
0006
fff6
000c
0003
fffd
000e
000d
fffa
fffc
fffa
fffb
ffff
fff9
fffb
000d
0002
fff0
0006
0004
fff6
0002
0006
fff5
fff3
0000
000a
fff3
0005
0002
0008
fffe
0001
0003
0002
0009
fff9
000b
0006
fffe
fffd
fffa
fff6
fffe
0006
0002
fffa
000a
0000
0003
fff8
fffc
fffe
0002
fff8
0007
0006
0002
fffb
0004
0007
fff7
fff9
ffff
0005
fffa
fffd
000a
fffb
0009
fffb
0007
0004
fffd
000c
fff4
0003
0004
fffc
fffc
fff8
ffff
0001
0000
fffb
000a
fff9
fffe
0002
0000
fff4
fff6
fffe
fffa
0001
fffc
fffe
0005
0002
0000
fff7
0007
fffe
fffc
fff3
0006
0005
ffff
0000
0002
0002
0002
0004
0000
0001
0000
0004
fffb
fff9
fffc
0009
ffff
fff8
0005
0002
0009
fffb
fffa
0008
0007
fffc
0002
0003
0003
0009
fffb
fffa
0005
0002
fffd
fff2
fff9
fffb
fffd
0000
0000
fffd
fffe
0001
0002
fffa
000b
0005
0004
0000
ffff
0002
0002
fffe
0001
0004
0001
0000
0004
0005
0003
fff9
fffd
fffa
fffe
0002
0005
0006
fff7
0008
0003
fff9
ffff
ffff
ffff
0002
0004
fffd
0004
0003
fffc
fffd
fffd
fff2
0001
fff8
fff0
fffc
fffe
0003
0013
0000
ffff
0004
0001
0002
0005
fffd
0008
0002
0006
0002
fffe
fffe
fffb
fffa
0003
0001
fffc
fffd
ffff
ffef
0004
0010
fff6
fffd
0005
0002
ffff
fffc
0004
ffff
0003
fff3
0002
0005
fffe
0002
fff6
0007
ffff
0000
0005
fff8
0001
fffd
0008
fffe
fffb
0002
fffd
ffff
0007
fff2
fffd
000b
fff9
0003
0004
fffe
000b
fffb
fff9
fffa
0002
0004
fffb
fff4
fffe
000a
000f
fffe
0005
0000
fffc
fffe
fff4
0001
fffd
000f
fffe
0005
fffb
fffb
0003
0000
0000
ffff
0007
fffb
fff4
0003
000a
000a
0009
fffd
0000
fffa
0002
0001
fffe
fff5
fffd
0006
0003
fff6
000a
ffff
0008
fffd
0001
0002
0000
0001
fff5
0005
0004
000a
0006
0001
000a
ffff
ffff
0007
ffff
fffb
0002
fffb
fffe
ffff
fff3
0000
0001
0003
0005
0004
fff1
ffff
fffe
0001
0000
0005
fffa
ffff
0005
0001
0004
0003
0001
fffc
ffff
0001
fffd
0002
0004
0002
fffe
0006
0005
0002
fff8
0003
0003
0004
0006
000a
0008
0004
fffb
fffd
0000
fffd
fffe
0003
0003
0005
fffe
0002
0004
fff6
fff9
ffff
fffb
ffff
0001
0005
0000
fffb
0000
ffff
000a
fffc
0000
fffb
fffc
fffb
0003
0005
0001
fff9
fffe
fffb
0002
fffb
fffc
0003
fffa
ffff
fffb
fffa
fffc
000b
0007
0001
fffe
0002
0008
0000
fffb
ffff
fffc
0002
0003
fffc
0002
0003
0008
fffa
0006
0000
fffd
0000
fff6
0007
0005
fffe
0003
0009
fff5
0006
000a
0009
fffd
fffc
fffc
0000
0000
0007
0003
fff7
fffe
fff3
0008
0002
0003
0005
0006
0000
0000
0000
0004
fff7
0004
fffe
fffd
fffd
000b
fffc
ffff
0002
0006
fffe
fffd
fffb
fff6
0002
0000
0009
ffff
fffd
fffc
0000
0002
0005
fffb
ffff
0008
fff5
fffa
0004
0002
0004
0006
fffa
fffb
fffd
0000
0006
fff9
0007
0001
ffff
ffff
0007
0003
fffe
0004
fff7
0001
fff9
ffff
0001
0000
fffe
fffe
fff9
0000
fffc
fffc
0006
0004
0001
fffe
0008
fffe
0004
fffd
fffe
fffe
0005
0001
fffd
fffb
fff9
fffd
0001
fffe
ffff
0007
0004
fffe
fff9
0002
0008
0002
0003
0001
0001
fffc
0004
fffe
fffa
0003
fff9
0003
0008
ffff
000a
fff6
000a
ffff
0002
000e
000e
0000
0009
ffff
0003
0005
fffa
0000
0008
fff8
000d
fff6
ffff
0004
0004
0003
fff9
0004
0005
0008
fff8
fff3
fffe
0008
0007
fffa
fff7
fffa
0004
0002
0004
fffd
fffa
fffe
fff7
000a
0003
fffc
0004
fff9
0006
0003
fff9
ffff
fffe
0007
0006
fffd
fffa
0002
0007
0000
fffd
ffff
0006
0002
fffc
0003
000c
0002
fffa
fffe
ffff
0000
0000
ffff
000c
0002
fffc
fff8
fff7
0000
0001
fff9
fff3
fff8
fffe
0004
fffa
fff9
0005
fffd
fffc
000a
fffa
fff7
fffe
0002
0001
fff9
0010
fffe
0002
0003
fff9
fffc
0004
fff8
000c
0000
0002
0001
fffe
000a
fffd
fff6
0000
fff5
ffff
0009
0000
0001
0002
0000
0003
0006
fffd
ffff
0004
0000
0009
0004
0005
0006
ffff
0009
0012
0014
0007
0005
ffec
fffc
fffb
0006
fff7
fff4
0002
fffe
0006
fffc
0004
fff8
fff7
ffff
0000
0009
fff7
0001
0001
0004
0002
0009
fff4
fff0
ffff
0002
0003
fffb
0003
fff8
fffc
0000
0003
fffc
0002
0001
fff2
fffe
fffa
0002
0001
0002
0000
0003
0002
0004
0002
fffd
0006
0003
fffc
0001
0008
0001
0001
ffff
0002
0003
fff9
fff8
000d
0006
fffb
0009
fffc
fff7
fffd
0005
0001
0008
fff3
0006
0009
0000
000b
0007
0006
fffd
0002
fffd
fffd
0000
fffc
fffb
0006
000d
fffd
fffd
0005
fffc
fffe
fff7
0001
0001
fffe
fffd
ffff
0006
fffe
0007
0004
0009
0004
fffe
0001
fffb
0001
fffd
0008
0002
0008
ffff
0002
000d
0004
0000
fffa
fff8
ffff
0008
fffc
0001
0004
0002
0004
000a
0002
fffd
fffa
0002
fffb
0001
fffe
0005
0003
0003
0002
0005
fff8
fff7
0005
fffd
0008
fffa
0002
fff8
0009
fffd
fffd
0008
fffe
0005
fffb
0005
fffd
0007
fffe
0003
fffe
ffff
ffff
ffff
fff9
0001
fff9
0003
0012
fffc
0004
0009
fffe
0004
fff8
fffd
fffd
fff9
0008
0000
0003
0000
fffd
fff7
ffff
0003
0005
fffa
fffc
fffd
fffd
0005
0001
fff7
0003
000a
0000
000e
fff4
0001
fffc
fffb
0009
0005
ffff
0005
fffe
0001
0009
0000
fffd
fffb
0005
fff1
0007
ffff
ffff
0007
fff6
0001
0008
fffe
fff3
0001
0002
0001
0008
fffb
0011
fffe
000c
fffd
fff9
fff1
0004
fffc
0000
fff3
ffef
0002
0002
0007
fffd
fffc
fff9
0006
0003
0004
0002
fffe
fff6
0008
0003
0003
fffc
0007
fff7
fffd
fffb
fffb
fffb
0002
0005
0006
fffa
0002
fff9
000f
fff4
0005
0006
ffff
fffd
0002
0008
0001
fff1
0016
fffb
fff9
0003
fffc
0002
0004
fffb
fffe
0003
000e
0007
fffd
fff8
0003
fffd
000a
0000
0004
0000
ffff
fffb
0006
0000
000b
0006
0003
ffee
ffff
0004
0003
ffff
fff8
ffff
0006
ffff
0000
000c
fffb
fffc
0000
0005
fff8
0008
fffa
0001
0005
fff9
0005
fff8
ffff
fff4
fffb
000a
fffb
0005
fff2
fffd
0002
fffb
0009
0001
0000
000a
fffd
fffb
0005
ffff
fffb
0004
ffff
0000
fffd
fff9
0008
0005
0003
0000
fffe
fff7
0002
000b
0008
0004
0005
fff9
0000
fffc
0001
0001
fff6
fff8
fff9
0003
0007
0007
0000
fffe
0008
fffe
0008
0001
0000
ffff
fff9
fff8
fffd
ffff
fffe
fffd
fffc
fff9
fffe
0004
fffa
0003
fff8
ffff
fffe
fffe
fffd
fffb
000a
0003
fffb
0001
ffff
0006
0006
0003
fffd
fff7
ffff
0005
fffd
0005
0000
fffe
fffd
0001
0005
fffc
fff7
0003
0001
0006
0001
0001
0004
fff9
0007
fff9
0006
0008
fffc
0008
fffe
fffc
fff8
fff6
0003
fffe
0007
fff9
0002
000a
0009
000b
0005
fffe
ffff
fff2
fff5
fffa
0004
fffc
fff1
0006
0003
0000
0002
fff7
fff9
0004
0000
fffc
fffb
0006
0001
0006
fffd
0001
fffc
0002
0006
fffe
fffc
0002
0004
0005
0003
fffc
fffe
fffe
fff2
0003
0010
fff4
0008
fffc
fffe
fffd
fffe
fff8
fff4
000e
fff2
000f
0004
0003
0003
fffc
fff4
0001
fffc
fffd
fffd
fff2
000a
fffd
fffd
fff3
0002
0002
000d
fffa
fffc
0007
ffed
ffff
0001
fffe
0002
0008
fff8
fffb
fffb
fff9
0003
fffd
fffb
0005
0003
fffc
0001
0001
ffff
0004
fffd
0009
fffc
0002
0003
0004
000c
fff8
0003
fff6
fff8
0001
0003
0003
fff9
fffb
0001
0004
fff4
0000
fffe
000c
fffa
0008
fffc
fffd
fffd
0005
fff8
0006
0003
0007
ffff
fffc
fffd
fffc
ffff
fff1
000c
fff5
fffc
0001
0005
0006
fff5
ffff
0009
0002
0009
0000
fffd
fffe
fffd
000a
0005
0003
fffe
ffff
000c
fffe
0000
0003
0001
0002
fff2
fff7
fffd
ffff
0008
fff8
0003
0005
0003
fffa
fffd
fffd
0003
ffff
0000
0002
0005
0008
0000
fffd
fffc
0006
0006
0002
fffd
fffc
0011
0000
fffe
fffd
0001
0000
fff1
0002
0000
fffe
fff7
0002
fff9
fff9
fffc
0001
0017
0008
0005
fffe
0001
fff2
fffd
fff4
ffff
fff8
fffc
fffd
0006
0007
ffff
000c
0001
fff9
0009
0005
fff3
000b
0007
0009
fff3
000b
fffb
fffd
0002
0000
ffff
0002
0001
fffd
0002
fffc
0003
000c
0001
0003
fff8
0007
fff5
0005
0012
0006
000b
fffa
0001
0003
fff8
0000
0003
0005
0006
fffd
0003
0002
0000
fffa
0005
0003
fff5
0002
fffc
0002
0000
fffe
0000
fff7
fffd
fffb
0000
fff9
fffd
fff6
0001
fffa
fffd
0007
fff2
0003
0000
fff5
0006
fffb
fffa
0001
0001
0000
0004
0006
0009
0001
0003
fffc
fffb
ffff
0001
0001
fffe
fffa
0005
fffe
fff7
fffc
0003
0002
ffff
000f
000e
0007
fffa
0004
000b
fff9
000e
0016
0004
fffa
fff9
0007
0007
0009
ffff
fffc
fff8
fff4
fff8
fff8
0003
fffd
0003
0003
0002
fffb
fffa
000d
0007
0002
fff9
fffc
fffa
ffff
fffb
0004
ffff
fff9
fff7
fffa
fff9
0003
0006
fff6
ffff
ffff
0008
0002
fffd
0005
0005
ffff
ffff
0001
0002
fff5
000d
fffb
000d
ffff
fffe
fffb
0005
fff5
fffa
000b
0005
0004
ffff
fff8
0000
fffb
0008
0008
0005
0009
fff6
fffd
0001
fffc
fffb
fff4
0001
0003
0004
0001
fffe
0002
0002
0001
0003
fff3
fffe
fff9
0004
fff9
fff5
0002
000d
0001
fffb
0008
000d
0002
0003
ffff
fffd
0003
fffb
fffe
0000
fff6
0005
ffff
fff8
000a
0001
fffb
0001
0009
fffb
0009
0004
fffd
fffb
0001
0003
fff7
fff7
fff8
0003
fffa
0008
000b
0003
000d
0000
0006
fffa
0007
ffff
fff4
0004
0004
0000
0005
0009
ffed
fff9
fffc
fff8
fffd
fff4
fff5
fff8
0005
0001
fff7
0001
fffa
ffff
0007
0003
0004
000e
0000
fffa
fffc
fff3
0007
0004
0000
0004
fffd
fff6
fffb
0002
fff5
0002
0001
fffe
0012
0002
fffe
fff1
fffc
0007
fffb
0017
0005
fffe
fffd
ffff
ffff
000a
fff8
fff8
0005
0002
0005
0002
000b
0002
0000
fffd
0009
0003
0001
fffb
0003
fffb
fff6
fffe
0001
ffff
fffd
0002
fff8
0009
000e
0003
fff8
0006
fff9
0004
fff5
000b
0001
fff9
000e
0000
fffd
fff1
0003
0000
fff9
0007
0005
0005
fffb
000e
0003
fffb
fffd
0005
fff7
0003
fffe
0004
fffb
fff7
fff9
fffb
000a
0008
fffc
0002
fffd
0000
fffb
fffd
fffd
fffe
fffa
0003
0005
fff8
fffb
0000
0002
0003
fffb
fffd
fffc
fffb
0001
0000
0001
ffff
0000
0006
0003
0003
0002
0001
0004
0000
fff8
ffff
fffd
fffe
fff7
fffc
fffd
000a
0005
0008
fff8
0003
0002
0004
0000
fffb
0003
0007
0003
0005
0012
0007
fff7
0003
0001
ffff
ffff
ffeb
fff9
fffa
0007
fffe
0002
0005
fffe
0000
0000
fffe
0003
0009
fff7
fffc
0002
ffff
0005
fffe
0000
ffff
0001
000f
0000
fff7
0002
0002
0005
0000
0004
0002
0009
0003
0003
fff0
0007
fffe
0001
fff9
0005
fff3
fffd
0007
0001
0001
0007
0002
0009
fff9
000e
0004
ffff
0001
fff8
0001
0001
0004
fff4
0003
fff5
fffe
fffc
fffb
0006
000b
fffd
0007
0000
0006
0002
fffc
000a
0001
0010
0007
0008
0001
0006
0007
fffd
0005
0001
fffd
000d
fff9
0002
0008
fff9
fffc
ffff
fff9
0004
fffd
fff5
0006
ffff
0002
0004
ffff
000c
000e
0001
0003
ffff
fffd
0000
0000
fff7
0008
fff7
fff5
0000
0005
0003
fff8
ffff
0003
0006
fff8
fffc
fffb
fffb
0008
0004
0006
ffff
fffc
fff4
fff5
fffe
ffff
0003
0005
fffe
0011
0005
0006
0006
0006
fffc
fffa
0001
0002
0010
fff9
fff9
ffff
0001
fffb
0005
ffff
fff4
fffc
fff8
0002
fff3
fff6
0000
0008
0004
fffd
0008
0006
ffff
fffd
fff8
fffc
0006
0007
0005
fff4
0003
0006
fffa
000e
0004
000a
000b
fffa
fffe
fffa
fff7
fffa
fffd
0004
000b
fffc
0001
0000
fffd
0007
0008
fffb
0007
0009
ffff
fff3
fffe
fffa
0003
0003
0009
0003
0004
0001
fffd
0009
0006
0000
0001
0003
0004
fffb
fffd
fffc
000d
0002
000d
0001
0003
fffe
fffe
fffe
ffff
0003
0006
0004
fffc
0000
0007
fffe
fffc
0003
0006
fffd
fff4
0001
fff7
fff7
fff8
0001
0003
fff7
0007
fff9
0005
fffb
000d
0005
0004
0006
0005
fff9
ffff
0000
0003
ffff
0000
0005
fff7
0004
fff8
fff9
fffe
0003
0003
0004
0002
fffc
fffe
0003
0008
0001
0004
0006
0001
fffd
fffb
fff7
0003
fffd
000f
000a
fffc
0000
0000
fffe
fffa
fffb
fff5
0007
fff6
0001
0008
0001
fff8
fffa
ffff
000b
ffff
fffc
0006
0002
0007
0001
fffe
0008
fff7
fff3
fff8
0001
0000
0001
0002
ffff
0007
fffa
fffe
fffe
0008
000d
0006
0004
0003
0000
ffff
0003
fffb
fffd
ffff
0005
fffc
0005
0000
fffd
0006
0002
0001
fff2
0006
fffe
fffc
0005
000b
0002
fffd
fffe
ffff
000c
0002
0003
fff5
0006
fffd
fffd
fff2
0008
000b
fffc
fff3
fff2
0002
0002
ffff
ffff
fffc
0003
000d
0001
0011
0002
fff7
fffa
0011
fff9
fff7
0003
0008
fffd
0014
fff9
fffc
fff7
000e
fffd
0008
ffff
000b
0003
fff8
fff5
0002
0003
0000
0005
fff4
0001
fffc
0001
0010
fff7
fffd
0003
0000
0003
0009
fffd
000d
000a
0000
fffd
fff8
0008
fff8
fffe
0000
0002
000a
fffe
fffd
ffff
fff4
0004
0004
0004
fffe
fffe
fff6
fff9
0003
fffe
000c
0007
0003
0001
ffff
0003
fff2
0000
0003
fff5
ffff
0002
ffff
ffff
ffff
ffff
fffc
fffe
ffff
ffff
fffb
ffff
0000
0004
fffd
fffc
0007
0009
0002
fffc
fffe
0000
0004
fffd
0000
0001
0009
fffd
0002
0002
0002
fffd
fffb
fffb
fff5
fffa
0002
0000
fffd
0006
0005
fffd
0003
0001
fffd
0000
fffe
0005
0005
fffa
fffe
0000
0004
fffe
fffe
0002
ffff
0006
0012
fff6
0009
fffc
fff8
fffe
0009
fffe
0009
fffa
fffd
0003
0007
fff6
0001
fffd
0000
0000
0003
fffc
0005
0001
fffd
0005
0000
0004
0004
fffd
0002
0000
fff6
0003
ffff
fff9
0000
fff7
000c
fff9
0005
000a
0001
0002
0000
fffe
0003
fffd
fffb
0005
fffc
fffb
0001
fff9
fffe
fff9
0005
0006
000c
fffb
0000
000b
fff8
0005
ffff
fff8
0001
fff2
fffd
fffa
fff3
0004
0003
ffff
0003
fff9
ffff
0004
0008
fff7
0003
0007
0009
0001
0001
fffd
ffff
0003
0002
fff9
fffa
fff7
0000
0002
fffc
0002
fffe
0007
fff9
0007
0007
fffc
000b
000e
000a
fffb
fff9
fff9
0003
ffff
fff9
fffe
0004
0004
fff4
0006
0003
fffb
0006
0005
0003
0001
ffff
fffe
0008
0000
fff9
0002
0006
0000
fffd
0002
ffff
000e
0000
0004
fffa
fffe
0000
ffff
fffb
0005
0002
fffd
0003
0003
fffc
0001
0008
fff2
0005
fff9
0006
fff8
0000
000a
0000
0004
fffa
0000
0013
fffc
0008
fffd
fffc
0004
fff9
0006
0005
0001
0001
000a
fff9
fffc
0007
0007
0007
fff9
0000
0009
000a
fff8
0006
0001
fffa
fffa
0001
fffc
0002
0007
fffc
fffe
fffb
000a
0003
0006
0004
fffe
0003
fffa
0007
fffc
0002
0003
fff6
000d
0001
fffd
fffd
0000
fffd
fff8
ffff
fffa
fffd
0004
fffe
0004
0002
0005
0005
0001
fffd
fffa
0002
0007
ffff
fffe
0007
ffff
fffd
0001
000a
fffd
fffd
ffff
ffff
fffd
fff8
0003
fffe
0005
ffff
fffc
0000
fff3
ffff
fffd
fffb
0004
0000
fff9
0003
fffe
0002
ffff
fffd
fffe
0005
0006
fffa
0000
fff9
fffc
ffff
0011
fff1
0003
0001
fffc
fff8
fffb
0005
0009
0002
fffc
fff8
0006
0002
0002
fff9
0001
fffb
fffb
fffc
0007
0001
0008
0007
fffa
fff8
fffb
fff8
0005
0003
fffc
0003
0008
fffe
0008
fffd
0004
000a
0003
fffb
fffa
fff5
0007
000e
fffd
0000
0007
0001
fff9
0006
0003
fffd
ffff
fff9
ffff
0004
0002
0004
fffb
fff7
0007
fffe
fffc
fffa
0004
0008
fffe
fff8
fffe
fffe
0004
fff6
0000
fffb
0004
fffa
0001
000c
fffd
0003
0009
0000
fffa
fffa
0001
0006
0001
fffd
0004
fffb
fffc
fffa
000b
fff9
0002
ffef
fff4
fffe
fff9
0002
fffb
fffd
0005
0009
0001
000b
0009
0000
0003
fffd
fffe
fffc
fffa
000b
000b
0002
0013
0005
fffe
ffff
0002
fff7
fffd
fffe
0006
fffa
0003
000a
000b
ffff
0004
000b
fff1
0002
fffc
fffd
fffe
0000
fff0
0002
0000
0003
0001
0000
fffb
0006
000b
0003
fff3
0007
fff3
fffc
fffe
0000
0005
fff7
0013
0001
fff8
000a
0003
fffd
fff2
fffd
0000
0009
0000
ffff
fffd
0001
0005
0008
0006
0004
0003
fff9
000c
fffe
0002
0003
fff1
0002
fff5
fffb
000a
fffe
0008
fff7
ffff
fff7
0001
0000
0002
0001
fffd
fff5
fff9
fffd
0000
0000
fff8
fff9
fffe
0003
fff9
fff7
0002
0000
fffd
fffd
0010
ffff
0003
fff9
ffff
fffe
ffff
fffd
0007
0001
000a
0002
fffc
fffe
0001
0008
fffd
fffc
0000
000a
ffff
0008
fffc
0005
0007
fff4
0007
0002
000b
0000
fffe
fffd
fffd
0000
fff6
0001
000b
fff8
000c
0006
fff9
0006
000d
0006
fff7
0009
0000
fffb
fffc
0001
000f
fff6
0007
fffd
fffc
fffe
0000
0000
0006
000e
0004
0002
fffd
fff9
000c
0000
0004
0007
fff9
fff8
fff6
0011
fffa
fffc
fff3
0009
0014
fff9
0000
0005
0007
0006
fff6
fff5
0001
fffb
ffee
0006
fffe
ffff
fff9
0001
fffd
fffa
0002
fffc
fffe
fff9
fffb
fffd
0004
fffc
fffd
0009
ffff
ffef
0001
ffff
fff8
0000
0004
fffc
0002
0005
fffe
0003
fffb
0004
0003
0004
000c
ffff
0002
0001
fffd
ffff
0005
0003
0000
ffff
0007
0000
fffa
ffff
fff6
0005
fffd
0001
0009
fff8
0001
0002
fffb
fffa
ffff
0005
fff9
fffe
fffe
000d
0005
000b
0003
0001
ffff
fffd
fff2
0003
0000
fff9
fff6
fff4
fffa
fffe
0000
0008
0001
0002
fff6
0000
0000
0000
fffc
fffb
0006
0003
ffff
0007
fffc
fffd
0000
fffc
fffd
0009
fff3
0003
fff5
fff8
0001
fff7
fff9
0002
ffff
fffe
fffc
fff8
fffa
fffe
0006
0006
0001
fffe
fff1
fffd
0005
fff9
0006
fffe
0003
0003
fffd
000f
0003
0009
0002
fff9
0001
0013
fffe
000f
0013
fffe
0007
fff5
0000
0009
0007
fff3
fffe
0006
000b
fff7
0002
0002
fffc
fff8
0002
0005
fffd
fff7
0005
fffa
fffd
0003
ffff
0002
fff9
0004
0006
fffe
fff9
fffb
0004
fffa
ffff
fffe
fffc
fffe
ffff
fffa
000b
0005
fffd
0002
0005
fffc
fff9
0009
0000
0007
0001
0003
ffff
0000
0002
fff5
0004
fffc
fffd
fffd
0005
fffb
0005
fffe
0003
fff7
0002
0001
fffb
ffff
0007
fff8
0000
fff9
fffe
fffc
fff9
fffe
0001
0001
0005
fff5
ffed
fffd
0005
fffe
fff7
0007
0007
fff8
0002
fff3
0003
0004
fff7
0002
0003
fffa
fff7
0002
0007
ffff
fffe
0006
0003
000a
0000
0008
0004
0007
0007
ffff
0004
0006
fffa
fff6
0003
fffc
fffb
0000
0006
000c
0005
0002
fffe
0003
0000
0001
fff2
fffd
0001
fffc
0006
0007
ffff
0001
0009
0005
0000
fffd
000f
0001
0004
fffe
fff6
fff9
fffa
fffe
ffff
fffd
ffea
fffd
fff8
0007
fff3
0006
0003
0002
fff4
fffe
0005
0003
fff8
0003
0000
0004
0003
fffd
fff9
fffe
0012
0000
000b
0009
ffec
fffc
fffe
fffd
000d
0002
fffb
0000
0000
fff1
0004
0002
0001
0002
0001
fff9
fff9
000d
fffc
0009
000b
fffa
fff8
000b
0004
0011
0004
0002
0006
0005
0012
fff6
0003
0000
0001
ffff
0003
0003
0000
fffb
000a
fffc
0002
0001
0008
0006
000b
0000
0003
fff8
fffc
000a
0003
fffa
0003
0001
0004
fff3
0004
fffe
fffd
fffe
fffb
fff8
fff9
fffd
fffa
0001
0004
0004
0009
0007
fffb
fffc
fffb
fff4
0000
fffd
fffd
0004
000b
fff6
0001
0001
0001
0001
fffe
0004
0006
0003
fff3
0002
0001
0005
ffef
fff8
0003
ffff
0002
000e
fff9
fffc
0008
fffe
0010
0001
fff3
fff3
ffff
0002
fffb
fffb
0002
ffff
fff6
0001
0007
fffc
0005
0000
0000
ffff
0007
fffd
0009
fffa
000c
0007
0003
0007
fffb
fffb
fff8
0005
0010
000b
0001
0004
fff6
0002
0007
0003
0005
0000
fff6
fffc
fffc
0009
fffd
ffef
0005
fff7
000f
0004
0003
fff5
fffa
0007
0009
0006
0001
fffb
ffff
0002
000a
fffe
0003
0004
0003
fffb
0006
fffd
0006
0006
0003
0005
fff9
fff8
0004
fffc
0006
fffd
fffe
fffe
0005
fffa
0002
0001
fff5
0002
fffa
fffd
fffd
0001
fff9
0004
0002
0006
0001
fffa
fffb
fff9
fff9
fff9
0005
fffd
fffa
fff9
0005
000b
fffe
ffff
ffff
fffa
fffc
fff9
fffe
0005
000f
fffc
fffb
0001
fffe
0006
fffb
fff7
0002
fff7
0000
0002
fffa
0008
fff9
fffe
fff9
0002
fff1
0005
0007
0003
fffe
0005
0008
0000
0000
fffb
fff9
fff7
0003
0000
0005
fffb
0003
0003
fffc
fffe
000c
0001
0001
0004
ffff
0001
0004
fff0
ffff
0003
0001
fff6
fffd
fffc
0006
fffc
ffff
0005
0002
fff4
0008
fffc
0009
0008
0007
0006
fffa
0007
0001
0005
fff8
0005
0006
fffd
fffd
0009
0004
0008
0000
fffd
fff9
0004
fffe
0000
0001
000f
0007
0001
0005
0003
0005
fffc
0004
ffff
0000
fffb
0001
0001
fff6
fffb
fffe
fff9
0004
fffc
0001
fffb
0004
fffb
fffe
0002
fff9
ffff
0001
fffd
0007
fff3
0002
fffc
0014
fff6
fffc
fffd
fffc
fff8
fffe
000c
fffc
fffe
0003
fffa
fff3
fffe
000b
0004
0000
0006
000b
fff0
fffe
0002
0005
fffe
fffd
0005
0009
0004
000e
ffef
fffb
0004
0007
fffd
fffd
0004
0000
0002
0004
0004
0007
fff7
0000
0007
fffd
fff4
fffa
ffff
fffa
fffe
fffe
0001
ffff
0002
0006
0001
ffff
0003
fffc
0007
fffc
0004
0003
0004
0003
0001
0008
0006
ffff
fffd
0003
0009
0001
fffb
000b
0006
0008
fff5
0001
0002
0006
fffa
fffa
fff8
0005
fff2
0001
0000
0005
0007
fff4
0001
ffff
0003
fff8
0003
000a
0007
0005
fff2
0004
ffed
fff8
0000
0001
0003
fffa
0001
0003
0001
0001
fff3
0000
0005
0004
0007
0003
000d
0003
fffc
0003
0002
fff7
fff8
ffff
0001
fff5
ffff
0007
0002
0006
ffff
ffff
000a
0006
0000
ffff
000a
000e
fff8
fff3
0010
0004
0006
0009
fffc
0000
ffff
0008
fffd
fffc
ffff
0003
fff6
fff6
fffb
fff7
fffd
fffc
ffff
fff9
ffff
ffff
fffa
0002
fffe
0003
0005
fffa
0009
000a
fff5
0000
0002
ffff
fffd
0012
0007
fff8
fffc
fffd
000b
0002
fffe
0002
0003
0002
fff9
0002
0008
ffff
0007
0000
0003
fffd
fffb
fff1
000c
fffc
000b
0012
0005
0002
fff9
0000
0006
0007
fffe
0002
000d
0003
0002
0000
fffe
fffb
fffd
0002
0000
0003
0003
fffc
0004
0004
0003
0001
0003
fffb
fff9
fffe
0007
0000
0000
0003
0005
0004
fffe
fffd
fffd
0003
fffd
fff5
0004
0000
ffff
fffa
0005
0006
0002
fffe
fff8
fffa
fff7
0006
fffb
0002
0000
0000
0003
0003
fffe
ffff
fffb
fffa
0002
0002
0000
0002
fff8
0000
ffff
0004
ffff
0009
0001
fff3
fffc
fff8
0000
0004
000d
ffff
fffd
ffff
0007
0005
fffd
0000
0005
0002
0002
0003
fffb
fff8
000d
0006
fff9
fff8
0004
0000
0006
0001
fffa
000e
0000
fff5
fffe
fff0
fff8
0009
0005
0006
0001
fffc
0003
fffa
0003
0002
0002
fff6
0003
0003
ffff
0003
fffe
000d
fff6
0004
0007
fff8
fffc
0003
0000
fffb
0004
fffe
fffb
000c
fffb
0000
ffff
0006
0001
0000
0004
fffc
fff9
ffff
000b
0008
fff7
0009
ffff
fff2
0000
fff0
0004
0002
0002
fffe
fffb
fffd
fffd
000b
fff5
0005
fffb
fffa
0009
0008
000b
fffd
0001
fff9
fff9
000a
fffa
0008
000e
0003
0007
0003
fffd
0002
fffb
0009
0006
fffe
fffa
ffff
0007
fffe
0007
0001
0005
fffc
fffe
0006
fffd
fffa
0005
fffe
ffff
fff8
0005
0009
fff8
0003
fff7
0001
ffff
0002
fffe
fffa
fffd
000b
ffff
fffc
0000
0005
fffb
fffc
0003
fffe
0004
000b
fffd
fff8
0000
0000
0003
0006
0002
0004
0006
ffff
fffc
0001
fffe
fffd
fffb
fffa
0005
0004
0005
fffa
0004
fffe
000a
0004
0002
0001
0004
fffb
fff8
0004
fffc
0001
0009
0005
fffb
0008
ffff
0004
0007
0006
ffff
0004
0003
fffa
000c
fffa
000a
fffe
fffa
0003
fffc
0002
fff9
fffe
0002
fffc
fffa
fff8
0004
0001
0002
fff3
0002
0000
fffa
0004
0008
0004
000e
ffff
0005
0011
0005
0002
0005
fff3
fffd
0004
0001
0007
0003
0003
fffc
0002
0004
0003
0001
0000
fffe
fffc
fff7
0003
0003
0002
ffff
0004
fff9
fffe
fffd
fffc
fffc
fff5
0007
fffa
fffd
0006
0000
0003
ffff
0003
0002
0001
fff5
ffff
0004
fffc
0003
fffb
fffe
0005
0001
0004
0003
0004
0004
ffff
fff5
0007
0002
0000
0005
0000
fffe
0000
fffa
0004
fffe
fffe
fff8
0006
fffb
0000
0000
000a
fffd
fff8
fffc
fff9
0005
0008
ffff
fffe
0005
fffd
0002
fffb
fff7
ffff
0005
000b
ffff
fff9
0000
000c
0006
fffc
0009
0003
0001
0007
0010
0004
0001
0001
000b
fffd
0000
0000
fffd
fffa
0004
ffff
ffff
0006
fffe
ffff
fffe
000a
fffe
0004
fffb
fffa
fff7
000f
fff1
0003
0000
000a
ffff
fffc
fffb
fff7
fffb
fffc
0003
fffb
fffb
0000
fffb
0002
fffe
fffd
fffc
0003
fffc
0006
fffa
0003
fff8
0004
0007
0003
0000
0001
fffd
fffa
ffff
0003
0005
fff5
0001
fffe
0002
fffa
fff7
0004
0006
ffff
0000
0001
fffc
fffc
0004
fffc
fffa
fffc
0009
0002
0003
0008
0008
fffa
fffe
0009
fff7
0002
fffb
0003
fff9
0004
0009
0003
0011
fff6
000e
0003
0007
fff9
ffff
fff3
0004
ffff
0000
fff9
000b
0007
0008
fff9
0006
fffd
0002
fffd
0004
000a
ffff
ffff
000e
fffb
fffe
fffd
fff8
fff7
000d
0002
0000
fff5
fffe
0005
fffe
fff5
fffe
0002
fffb
fffc
fffa
0005
0000
fff9
0003
0005
fffd
fff5
ffff
0010
0006
fffd
0003
0006
fffd
000c
0000
fffe
0001
fffe
0008
0002
000b
0002
fff8
ffff
0002
0005
fffb
ffff
0002
fffb
fffa
0001
fffa
0003
0000
0007
0003
0007
0003
fffd
fff1
fffd
0002
0001
fff6
fffd
0000
fffb
0002
0008
0003
0002
0005
0009
0000
0001
0002
fff7
0006
fffc
ffff
0006
0004
fffd
fffc
0002
fffb
fff7
ffff
fffa
fffb
0000
0009
0005
fffb
0008
fffd
0000
0005
ffff
0007
fffe
fffb
0003
0006
0001
0005
0012
fffd
0001
fffa
fffa
0005
fffd
fff9
0007
fff7
fffb
0003
fffd
fffb
0010
fffe
0005
0002
fffd
0003
0004
ffff
0003
fffe
0002
0001
0002
0003
fffa
fff8
0007
ffff
0004
0007
fffc
fffb
000b
fffb
0000
fffb
0006
fffd
0000
0002
0002
0001
0007
fffb
0005
fff8
0004
0005
000a
fffe
fffd
fffc
fff9
0007
0005
0002
0008
0001
ffff
fffd
0003
fff8
fff6
0005
fffd
0001
0004
fffe
0005
0003
fff8
fffe
0001
fffb
0008
000a
0000
fff9
000a
fff9
fffd
ffff
0002
0009
0001
fffc
0004
0005
fffd
fffb
fffa
0002
fffc
0001
0009
0001
fffa
0001
0001
fff9
fff7
fffe
0001
0002
0000
fff6
0000
0000
0004
0002
fffc
fffd
fffd
0004
0000
fffd
fff6
0002
0000
0001
0007
fffc
0002
fffe
fffd
0007
0004
0000
fffc
0001
fffe
0001
fffe
fffd
fffd
0004
0002
0002
0000
fffc
fffc
0001
0004
0001
fffd
0001
0002
0003
0007
fffe
0000
0003
ffff
fff7
0005
fffb
0002
0001
0000
0001
ffff
fffb
fffe
0000
0009
0001
fffd
fffe
fffe
ffff
fff9
fffc
fffd
fffd
0002
fffa
0000
fffc
fffe
0003
0000
0000
fffc
fffc
0002
0007
fffd
0004
0005
fffe
0002
fffe
0004
0005
ffff
fff8
fffb
000b
0002
0001
0003
fffc
fffa
000d
0001
0003
fffa
fffa
0003
0002
fffe
0005
fff7
0000
0004
0002
fffc
0001
fff5
0000
0008
0001
0009
0001
0003
000b
0006
0000
fffd
0002
0006
fffc
fffe
0002
0007
ffff
fffb
0006
0000
ffff
0001
fff8
fffb
fffb
0001
0000
fff4
fffc
0002
fffb
0007
0003
0004
0008
fff7
0001
ffff
0003
ffff
0007
ffff
ffff
fffe
0001
0007
ffff
fffa
0003
0009
fff8
ffff
0005
0004
fffe
fff5
ffff
fffc
0004
0006
ffff
fffd
0006
fff3
fff3
0007
ffff
fffc
0006
ffff
0006
0002
0001
0008
0001
000a
ffff
fff4
fffb
0008
0000
fffb
fffc
0004
0000
0007
fffe
fffe
fffe
fffa
0000
0009
0003
0004
0005
fff9
0001
0007
fffd
0004
fff9
fff9
fff6
ffff
fffe
ffff
fff8
fffc
fff5
fffd
0004
fffc
000c
0007
0001
fffa
fffa
0008
fffd
ffff
fffb
0004
000c
ffef
0000
0003
0001
fffd
fffc
fffb
ffff
0000
0003
0006
fffa
fff8
0005
ffff
0005
0002
0006
ffff
0001
0002
fffd
0000
0000
0004
fffe
fff4
fff9
0000
0001
0003
ffff
0008
ffff
fffd
fffe
0005
0001
0001
fffc
0002
fff7
0005
0003
fffa
ffff
0000
0003
fffe
0000
fff9
0001
fffe
0003
0000
0006
fffb
0000
fff9
0000
0007
0005
fffd
0000
0000
fff9
0002
fffc
fffe
0002
0005
fffb
fffa
0003
fffd
0004
0005
0004
ffff
0004
ffff
0000
fffa
0002
ffff
fffe
fffb
fffb
0002
0004
0007
0001
0005
0003
0000
fffe
fff6
fffd
0002
fffe
fffe
fffb
0002
fffd
fff8
ffff
0000
fffd
ffff
0001
fffc
fffe
000b
0000
0006
0000
0005
fffc
0001
0004
0000
0000
0004
0003
fffb
0005
0001
0003
fffc
fffd
0003
0007
ffff
0000
fff6
0008
0003
ffee
0006
fffa
0008
fffb
0004
0002
0008
fff9
ffff
fffd
000c
0005
fffa
0000
fffb
000d
0001
000a
000e
0000
fffd
0008
fff6
000c
fff8
0005
0000
fffc
0009
0000
fff8
0007
0004
fffa
fff7
fffe
ffff
fffe
fffb
0005
0003
0006
0001
0002
0003
ffef
fffd
0003
0001
fff9
fff9
fffa
fff2
fff8
fff9
0006
0008
000a
fff6
fff5
0008
fffb
fff9
fff8
0001
fff9
fff8
fff8
fffa
0001
fffd
0005
0005
ffff
ffff
fffc
0009
0001
fffd
0003
ffee
0003
0005
0000
ffff
0001
0002
fff9
fffe
0006
fffc
0008
fffe
0001
ffff
0004
000b
ffff
000c
0007
0005
0002
0004
0008
fffb
0007
0007
000d
0002
ffff
0006
fffe
0004
fffd
0001
fffe
fffc
0004
0004
fff8
0000
0008
0005
0001
0005
fffc
0005
000e
0004
000e
0002
0009
fffc
000a
fffb
fffe
fffd
0002
fff0
000a
0002
0005
fffd
0004
fffa
0003
fffb
0002
fffe
fff8
ffff
fff4
fff7
0008
fffe
0007
fffb
0002
0005
0000
fff2
ffff
fffd
0000
fff8
fffe
0001
0003
0002
fff9
fff9
fff9
0000
0001
0005
0001
fffd
fffe
fff9
fffd
0004
0001
0005
fffe
fff4
0009
ffff
fff3
0008
fffa
fffe
0005
0005
0001
0006
fffb
fffe
0002
0000
fff9
ffff
fffd
fffa
0001
0000
fffb
0007
fffe
fff8
fffd
0003
fffb
0005
0004
0001
fff9
0009
0001
000c
000e
000c
0002
0002
000c
000d
fff5
0005
fff7
fff8
fffa
0005
0007
fff9
0000
0000
0005
fffc
fffe
0002
ffff
fffc
0003
ffff
0005
fffb
0000
0003
ffef
fffb
000b
0000
fffd
fffd
ffff
fffb
0000
0002
0007
0002
fffd
0009
fffb
0004
fffd
ffff
000f
fffb
fff7
0001
ffff
fffb
0000
0000
fff6
fffe
0005
ffff
fffc
0007
fff3
0004
0002
0001
fff7
ffef
0007
0001
000b
0003
0002
0006
fffd
0007
0007
fff9
0006
fffc
ffff
fffa
fff2
ffff
0005
000a
0000
0000
0008
fff7
fffa
0006
fffa
ffff
fffd
fffb
0008
000a
0002
fffb
fffb
0004
0004
000c
0000
0004
0004
0001
0000
0000
0004
0001
000d
0005
0001
fff8
ffff
0003
ffff
fff5
fffc
0001
0000
0009
ffff
0003
fff3
0007
0007
fff8
0002
0008
0003
fffc
ffff
fffc
0001
0003
0003
fffb
fff1
0002
0006
ffff
0001
fffe
0000
0002
0003
0001
fffe
fff9
0003
fff9
fff8
fff5
0000
0002
0006
ffff
fff8
0007
fff6
0002
fffd
ffff
0007
fffe
0000
0000
fff7
0001
0006
0008
fffd
ffff
0004
0000
ffff
0002
fffd
0001
0000
ffff
fff9
0004
0005
fff6
ffff
0002
0000
ffed
0003
0000
000e
0004
0001
0003
fffd
fff9
0003
fffc
fffe
0006
0001
0000
0005
ffff
0004
0002
fffe
0002
fff6
0003
fff9
0008
0009
fff5
ffff
ffff
0003
0003
0001
0002
000c
ffff
0002
0000
ffff
0000
ffff
0003
0004
0008
0003
0004
0005
0003
ffff
fffe
ffff
fff9
fffe
0002
fffb
ffff
fffa
0000
0003
fff9
fffe
fff6
0006
ffff
fffe
0002
fffe
0001
fffd
fffc
0003
fffb
0006
fffb
0001
0003
0001
fff8
0005
0001
0001
0009
0003
0007
fff9
ffff
0004
0004
0009
fffb
fff3
0000
fff8
000b
0005
0002
0005
0008
0007
fffa
fffe
fffe
fffe
0002
fffd
0006
0004
fffc
ffff
0000
0000
000b
0002
0000
0007
fffb
fff8
fffe
0003
fffe
0001
ffed
0000
0001
fffc
0006
fffd
0002
0003
fffd
0004
0000
fff8
0007
0000
0000
0002
0003
ffff
fffe
0000
0004
000b
0002
0004
0000
fffe
0004
fffa
0005
fff7
fffd
000a
fffc
0007
fffe
fff7
fff9
0006
0009
fff9
fffe
000d
ffef
0000
0003
0000
0001
0007
0000
0000
0007
000a
fffc
ffff
fffd
fff8
0008
0005
fffd
0001
ffff
ffff
ffff
0002
fff8
ffff
fff9
ffff
0004
0001
fff9
0002
fffe
0001
0008
0007
fff6
0003
fffb
fffb
fff4
fffd
0007
0004
0009
0001
fffb
0001
fffa
0004
fff8
fffa
fffc
0008
fffb
fffa
fff4
fffb
fff3
0003
0009
fff9
fff7
fffc
0007
0005
0003
fffd
fffc
fff1
0002
fffc
0000
0001
0000
fff7
000d
0004
0001
fffe
0000
fff3
0003
ffff
fff6
000a
fff7
0009
ffff
fffd
000f
0003
fff6
0000
fffd
fff3
fffa
0005
0002
fff8
0000
fff8
fff4
0005
fffe
0003
fff2
0002
0002
ffff
fffd
fffd
0004
0000
000e
fff6
0007
fff8
0002
0005
fffd
0001
0007
fff8
fffd
fffa
fffa
0010
0002
0001
fff8
ffff
0000
0003
0001
fffe
fffe
0000
0001
0002
fffa
000a
fffe
0005
fff2
fffd
0008
0009
0000
ffff
fffc
000b
fffe
fffe
fff7
0006
fffe
fff7
0000
fff5
0006
0000
0005
fffd
fffd
0004
0007
fffd
0001
fffa
0000
fffa
fff9
0003
0004
fff0
0000
0009
0007
0003
0003
fffb
0000
fff6
fffc
0008
fffb
ffff
fff6
fffb
fffe
0000
000c
ffff
0007
ffff
0002
fff5
0007
0000
fffd
fffd
0003
fffe
ffff
fffc
0004
0002
0008
0004
fff7
ffff
fffe
0001
0004
0005
fff5
fffe
0000
fffe
fffd
0004
fffa
fffd
fff3
fffe
0000
0002
0004
fff9
fff3
fffd
0003
fffe
0005
0005
0000
0002
fffe
fffd
0007
0003
0002
0000
0009
fff9
0009
0000
fff2
0005
fffe
fffe
000e
0009
0004
0004
fff9
0003
0000
fff9
0003
0005
0000
fff9
fff6
fffc
0000
0000
000e
0006
fffe
0007
0007
fffd
0003
0001
fff8
0007
fffe
ffff
fffa
0000
0004
0005
000c
ffff
0006
0002
000b
fff7
fffc
fffb
0004
0005
0000
fff3
fffc
fffb
fffb
fffc
0003
0005
fffb
0003
fffb
000c
0009
0008
0005
0008
fff3
0003
fffd
fff9
fffa
fff9
fff7
0003
0000
fff5
0001
0002
fffd
fff6
0002
0003
0003
0002
0000
fffd
fffe
fffd
0003
0005
0008
0000
ffff
fff9
000e
fff9
fffc
fff8
fffe
0007
0005
0001
000f
fffb
fff1
0004
fffc
0002
fff7
0013
0004
fff6
0003
0001
fff1
fffd
fff5
fffe
0002
0000
fffe
fffe
fff9
0000
fff9
0006
fffd
0007
fffc
ffff
fffe
0002
fff5
0004
fffa
000c
0011
0008
0004
0002
000d
0000
0001
000e
0007
0003
fffc
0002
0007
fffc
000a
fffe
000d
0001
fff7
0001
0002
0000
fffa
0004
0000
0004
fff8
0004
0005
0005
0000
fffe
0006
0000
fffb
ffff
0001
0003
0005
0001
0000
fffa
fff6
0001
0004
0000
fffb
fff5
0000
fff8
fffc
fffc
fffc
ffff
fff9
ffff
fffb
0002
fffe
fff6
ffff
ffff
0002
0002
fffb
0000
0003
0001
0001
fff8
ffff
fff7
0002
ffff
0009
fff6
fffd
0008
0000
fffe
0000
000a
fff9
fff9
000a
000a
ffff
0001
0000
fff8
0005
fffe
0001
fffc
fff6
0001
000a
0004
0001
0001
fffc
fff5
0006
0003
0003
fffd
0000
0007
fff2
fffd
0002
fff7
0002
fffe
fffb
0010
ffff
fffd
fffb
000f
0009
000b
fff5
0000
0003
ffef
0001
fff5
fff9
000f
0009
fffa
ffff
0004
0002
fffa
0009
0001
0007
0000
0000
fffa
0004
0005
000c
fff5
fffc
0000
0005
0000
000e
fff3
0002
fffa
0007
000b
fffc
0006
0003
fff8
0001
fffa
0007
0001
fffa
0006
0000
fffd
fff6
0007
fff4
fffe
ffff
ffff
0000
0000
fff9
0008
fffd
fffa
ffff
0003
0001
0008
0008
fffa
fffb
fffc
fffe
0001
fffc
ffff
ffff
fff3
0004
0007
0005
fffd
fffb
0001
fffe
fff6
0003
fffb
0000
0008
0005
0000
fff6
0007
fffd
0000
0003
0003
0002
fffe
fff9
0005
0001
fff9
ffff
0005
0007
0005
0000
0003
fff8
fffc
0006
0003
0000
0001
0000
000a
fff7
0000
fffe
ffff
0005
ffff
fff7
fffb
ffff
fffa
0009
0003
0004
0007
0002
fffa
0004
0003
0008
0003
0000
fff9
0005
fff6
0002
fffc
fffd
fff8
0005
0000
0001
fffc
0002
fff5
fff6
fff9
ffff
fff5
0010
0003
0007
fffa
fffc
0001
0003
fff6
0002
0006
fffb
0003
0002
0003
0007
fff9
0001
0004
0005
0006
000b
0004
fffb
0000
0000
0005
ffff
0007
fff3
0003
0000
0008
fff9
fffa
fff0
0000
fff8
fffb
fff8
fffc
0001
0000
0003
0005
fff9
0000
0002
000e
000a
000a
0001
fffd
fffa
0001
fffe
0009
fffb
fff7
0005
fffd
0004
fffa
fff9
ffff
0001
fffb
fffc
0000
0008
0001
fffe
fffd
0000
0007
fffe
0004
fffb
fff9
0001
fff9
fffe
ffff
fffa
fff4
fffe
0008
0005
fff8
0003
fff8
0002
000b
fffd
fffb
000c
0005
0006
fffd
0008
0007
fffc
0002
0007
0000
fff6
0006
0003
fffd
0003
0006
ffff
000f
0008
fff8
0000
0000
0005
0002
ffef
0002
000d
0005
0005
0002
0003
fffc
fffe
ffff
fffa
fffc
0014
fffa
fffe
0005
fffe
fffa
fffe
0001
0004
fffe
fff7
ffff
fffa
fffd
fffa
0008
0000
fffe
fffd
fff7
0004
fffa
fffd
000a
ffff
ffff
0007
0000
fff6
0009
fffe
0002
0000
fffe
fff4
fffc
fffb
fffa
000b
fff8
ffec
fffc
ffff
000c
ffff
0000
fff7
fffc
fffc
0001
0001
000c
ffff
0004
0001
fffb
ffff
ffff
fffa
0000
fffa
0002
0002
0000
fffa
0000
0003
fffd
0009
fffa
fff7
0007
ffff
0005
0007
0005
0000
0006
fffd
ffff
fffc
0004
0010
fff7
0006
fffa
0006
fffe
0001
0000
ffff
0000
0009
ffff
0003
000b
0000
fff7
fff8
0003
fffe
fff4
fffc
0006
0000
fffd
0006
0002
0003
0000
fff5
ffff
fff8
fffe
0007
0001
fffb
0003
fffd
fffb
fffb
fffb
0001
fffa
0003
fffe
fff5
000a
0005
0002
0001
0000
0006
fffd
fff6
000b
0006
fffa
fff0
0003
0004
fff8
0007
fffd
0004
0000
fff9
fffe
fffb
0002
0007
0002
0000
fff5
0003
0005
0004
0005
0000
fff5
0007
ffff
0000
fff3
0009
ffff
0000
fffc
0007
0004
fffd
fffa
0003
0009
0001
fffe
0010
fffb
ffff
0001
fffd
0003
000d
0005
0001
fffe
fffe
0004
0000
fffc
fffa
0006
fffc
0002
fff7
fffe
fffd
fffe
0003
0006
ffff
fffb
fff5
fffc
0003
fffc
0004
0001
0002
0004
0001
0001
fffd
0002
0000
fff8
0003
0003
fff9
0004
fff1
0008
ffff
fffc
0007
fffa
0009
0009
fffe
fffd
0005
0008
ffff
0003
0005
fff2
0004
0001
0000
0006
fffb
0004
fff8
0002
ffff
0009
0002
0004
0002
0005
0007
fffe
0003
0002
0006
0001
0002
fffe
fff9
fffe
fff7
fffe
fffe
0006
0001
0005
0008
fffd
0006
0005
fffc
fffa
0009
fffc
0002
fffc
fffe
0003
0001
fff9
fffe
0002
fffe
fffa
0005
fffc
ffff
ffff
ffff
fff9
fffe
fffc
000a
0000
0001
0002
fffa
0002
0004
0003
0002
0005
0003
0007
0005
0004
0000
fffc
0002
ffff
0005
fffc
0009
0002
fff9
fffe
0000
0004
000b
0004
fffa
ffff
0003
fffc
fffd
0004
0001
0007
0006
0000
ffff
fffc
000c
fff7
fffd
0004
000a
0002
fffb
0008
fffe
0000
fff9
0006
fffe
0005
fff8
fffe
0000
fffe
fffb
000d
ffff
fff4
fff8
fffe
fffb
0006
ffff
0002
0009
0007
0000
ffff
fff9
0006
0008
fffd
fffb
fffe
fff9
0002
ffff
fffd
fffb
fffd
0006
0003
ffff
fffd
fffe
fff6
000a
fff9
fffb
ffff
0001
fff5
fff6
fffe
fffa
0001
0002
0000
fff9
0002
0002
fffb
0000
ffff
0000
000b
fffa
0009
0005
0007
0004
fff9
fffd
0001
0006
0004
fffd
fffe
0003
0003
0003
000a
0001
0003
fffa
000a
0009
0005
0002
0008
fffe
0007
0006
0009
0005
fff8
fffb
fffe
0000
0007
0003
0007
0003
0007
ffff
0000
0002
0002
fff9
0000
0008
000b
0001
0000
0000
fffd
0005
fff8
fffb
0002
0007
ffff
ffff
0005
fffa
0007
fffe
fffe
0006
0002
fffc
fff8
0001
ffff
fffc
ffff
0003
fff4
fff4
fffa
fff7
fffa
0002
0003
fffe
fffd
fff8
0004
fffa
0002
0002
fff9
0000
fffd
0001
0000
0005
0009
0001
0005
0001
fff8
0000
fff9
fff6
ffff
000d
fffe
0001
fff6
0000
000a
ffff
fffe
000c
0005
0006
fff9
fff8
fffa
0009
fffd
fffb
fffa
ffff
0007
0002
0007
fffc
0006
0000
0005
0001
0001
000e
000b
0002
0003
0002
0001
0009
ffef
0000
fff9
0001
fff5
fffd
0001
fff8
000b
fff7
ffff
000b
000c
0009
0004
fffa
fff6
fff5
ffff
0005
fffa
0004
fff9
fff9
fffe
ffff
0001
000b
0001
0006
fffb
0000
0002
0007
fff6
0006
ffff
fff9
fff8
ffed
fffb
0011
0000
ffff
0005
fffa
0003
fff2
fffb
fffc
fffa
fffd
0003
000b
0005
fff5
0002
0007
fff0
fffb
0003
0005
fffb
fff8
0006
0000
0003
000a
0000
fff7
fff9
fffa
fffc
0006
0000
0008
0000
fffb
fffd
0004
000a
fff9
fffa
fffe
fffa
000c
fff5
000d
0001
0004
fff9
0002
fff0
fff9
fffa
0007
0005
0004
0006
0001
fffd
0002
0005
0008
0000
000b
fff6
fff3
fff7
000e
000e
fff2
000b
0002
0000
0005
0002
fffd
0009
fff8
0006
0008
0006
ffff
fff8
ffff
fffe
0000
0000
0000
0000
ffff
000c
0000
0006
fffa
0001
fff9
0001
0004
fffe
0000
fffb
fff8
000a
0000
0004
0007
fffc
fffe
ffff
0014
fffc
fff1
0003
fff8
fffd
0004
0003
fff9
0009
0007
0007
0004
0004
fff6
fffb
fffd
0005
fffa
000c
0006
0007
ffff
fffe
0004
0002
0005
0004
0000
0000
0003
fffd
fff9
fffb
0003
0000
fffa
ffff
fffa
0003
0004
0004
fffd
fffb
0000
0009
fff9
0002
fff8
fff4
fffb
000b
fffc
fffc
ffff
fffb
fff6
0004
0005
fff9
0002
fff7
0004
fffd
000b
0005
fff9
0003
fffe
0008
0003
fff7
fffe
0009
000f
fff5
fffd
fffc
fff4
0000
fff7
fffe
fff5
0003
0011
fffe
ffff
0001
0002
0006
0003
fff9
fff9
0009
fff7
fffb
fffa
fff8
fff9
fff9
0009
0007
0006
0006
0009
fff5
fffd
ffff
0000
fff2
fff8
000a
0000
ffff
fff9
0003
0008
fffb
0011
0005
0000
ffff
0005
0002
fffc
0003
fff4
0002
fffc
0001
0004
0005
0007
fffe
ffff
fffe
0005
0000
0000
0002
0001
fffd
fff4
fffb
0000
0005
0003
fffd
fffe
fffe
0000
fffe
ffff
0005
fffd
0003
0003
fffd
ffff
0006
0000
0000
0000
0003
0000
fff9
fffd
ffff
0003
fffc
0001
0001
0002
fffc
fffe
fffe
fff2
0005
0000
0000
fffd
0004
ffff
fffe
0004
0000
fffd
ffff
0003
fffe
0001
fffe
0003
0002
0002
0009
fffb
fffb
ffff
0004
fffd
0006
000a
0001
0004
fffa
0003
fff8
fffa
0000
0003
0001
000d
fffe
0006
fffc
fffa
0002
fff8
fffb
fffe
0002
fff0
0005
0001
fffc
fffc
fffb
0001
fffd
fffd
0002
0001
000b
0000
0001
ffff
fffe
fffc
fffd
ffff
0004
0000
0003
0004
fffd
0006
fff7
fff6
fffe
0002
fff9
000d
fffd
fffe
fff7
0004
0003
fff9
0003
fffd
fff7
fffc
fffe
000b
fff9
fffd
0005
0006
fffd
fff4
0006
0004
0000
fff6
fffa
0008
ffe7
fffb
0003
fff8
0000
0003
fffe
fff7
fffb
0003
fffe
0002
fffe
0006
fffd
ffff
fffd
0014
000c
000e
0008
0001
fff9
0004
0009
fffc
fffe
fffe
0008
0000
000c
0002
0001
0009
0004
ffff
0000
0009
0003
0002
0002
fffe
000c
0008
fffc
0001
ffff
0000
0006
fff9
0002
0003
0000
ffff
fffe
fffd
0002
fff9
0003
0002
fffc
fffe
0007
ffff
0000
fff8
fffd
ffff
ffff
fffe
ffff
0004
fff8
0002
ffff
0002
fffc
fffb
0001
0005
0002
0000
0000
0005
ffff
0009
0000
0005
fffa
fffd
0001
fff9
0000
0003
ffff
fffa
fffe
0000
0003
0009
fffc
ffff
fffd
fff8
fffe
fff9
ffff
0004
0002
0007
fffd
0006
0005
fff5
fffb
fffc
0000
0000
0007
ffff
ffff
fffe
0003
0005
ffff
fffb
0013
0002
fff8
000a
0001
ffff
fffe
fffe
fff8
0000
0002
0000
fffe
0003
0001
fffe
fffd
0005
0001
0001
0004
fffb
000a
0002
0000
0004
000a
0004
0008
fffa
0000
0003
0003
fff5
fff6
fffc
fffe
0000
ffff
0003
0000
000a
0005
0001
fffe
fffe
0004
fff7
fff1
0003
fffe
0002
fff4
fffb
0000
0002
000b
fffe
ffff
0003
0006
fffb
0009
0009
0000
fffb
ffff
000b
fff5
0007
0004
0005
ffff
0001
0003
0001
0003
fff7
ffff
0000
000f
fffd
fffa
000a
0004
0011
0009
fff0
0005
ffff
fff9
fffe
fffd
fffd
0006
fff7
0004
0006
0001
fffb
0008
0001
fff7
0006
0008
0005
fffb
fff4
0000
0001
0004
0000
fffb
fffb
fff9
0003
fff0
0004
0000
ffff
000a
fffb
0009
0008
0001
000c
0001
0005
0003
fff8
ffff
000a
fffd
0001
fffa
0000
000a
000a
fffe
0007
ffff
fffc
fffe
000f
0004
0001
0007
fff9
0001
0007
fffe
fffb
fff7
000a
ffff
0009
0002
0000
0004
fff7
0002
fff2
0005
fff9
fff8
ffff
0008
fffe
fff7
fffc
0003
0005
fff8
0001
fffe
fffd
ffec
fffc
fffe
0000
fff3
0001
000f
fff9
0001
ffff
0001
fff8
ffff
fffe
fffe
fff0
0005
0003
0007
0007
ffff
0005
0006
0002
ffff
fff7
0002
fffd
fffd
0003
fff9
ffff
ffff
0003
0005
0000
fff5
ffff
0003
0005
fffe
000b
0007
fffb
0007
ffff
0000
000a
0002
ffff
fffb
fffc
ffff
fff7
0004
fff9
0004
fffd
0004
0000
0008
0007
0000
fffb
fffc
0003
fffa
fffc
fffe
000d
0004
fffc
000d
0006
fffb
fffd
fff0
0003
fffa
fffc
fffa
fff4
fff6
ffec
000e
fffa
0005
0008
0001
fffe
0006
0000
0007
0013
fffa
000b
fff5
0009
0006
0008
0009
fffe
fffd
0001
fffc
fff9
0009
0001
0005
fffd
0004
0005
0007
0002
fff6
fffb
fff6
fffd
0008
fff6
0000
0013
0000
fffb
0004
0003
0005
fff1
0003
fffd
fff9
0001
fff7
fffa
0006
ffff
fffa
0004
0002
0008
fffb
0000
fff9
fffd
ffff
fffd
0004
0007
0003
fffc
ffff
0001
0000
fffc
fffc
0001
fffc
0006
fff9
0003
ffff
0004
0003
0006
0003
fffe
fffa
fffe
fff6
0002
0001
fffd
0001
fffe
0002
fffc
ffff
0005
0009
0007
fffa
0000
fffd
fffd
0009
0002
fff8
0002
000c
fff9
0004
fffb
0005
fffe
fffa
0002
fff1
0003
0001
0002
0002
0007
fffe
000e
0001
fff7
fff5
0004
0006
fff3
0001
000a
0002
ffff
fffe
fffd
0009
ffff
0000
0000
0000
ffff
fffc
0004
000a
ffff
0000
fffd
0001
0003
fffa
0007
ffff
ffff
ffff
fffe
0008
fffc
0008
fffe
fff9
fff5
0006
fff5
fffe
fffe
fffd
fff1
0013
fffe
0003
fffe
ffff
fffd
fffa
0006
0008
fffc
0002
0004
fff8
0000
fffe
ffff
0005
0001
0009
0007
fff7
fff9
fffb
0002
0002
fff9
0008
000b
0000
fff8
000b
0008
0003
0004
0004
fffd
0004
0006
0001
0003
ffff
0003
0000
fff7
fff8
fffb
0008
fffb
0003
0004
000b
fffe
0000
fff2
fff5
fff9
fff9
fff7
fffd
fffe
fff4
fff9
0005
fff5
0000
0008
fff8
fffc
0007
0006
0000
fff9
0004
0005
fff8
0004
fffd
0000
ffff
0005
fffe
0002
0009
fffe
0005
fffd
fffe
fffc
fffe
fff9
fffd
fffb
0000
fffe
fffe
ffff
0002
fffb
fffa
fffe
0007
fffd
0001
fffc
fffb
fffa
0003
fffe
fff7
0006
fffe
0009
fffe
fffe
0001
fffc
000c
0001
fffd
000c
000a
fff3
0001
fffc
0003
0000
ffff
0002
0001
fff6
0000
0003
0001
0006
0001
fff8
0007
fff8
0003
0005
fffa
fffc
0003
0007
fff6
ffff
0005
0008
0006
0000
0003
fffd
ffff
fff6
0005
fffc
fff8
0006
fffc
fffc
0002
fffd
0005
fffc
fff2
0001
fffb
0005
0003
0001
000c
fffc
0001
000b
ffff
0005
fff4
0007
fffd
fffb
0001
fffa
0004
0005
fffb
0005
fffe
0005
fff9
fffb
0009
ffff
0008
fff0
fffc
ffea
fffb
fffa
0000
0002
0003
fffc
fff4
0000
fffd
0007
fffe
0001
0001
0001
000b
fff4
0004
fff9
0001
0009
fffa
fff8
fff9
0002
0007
fffb
0005
fffc
fffe
fff8
0004
0004
0003
fffa
0003
0007
000f
fffe
000f
ffff
ffff
fff9
fffa
fffe
0007
0007
0009
0000
fffc
0002
000b
fffb
0006
fff4
fff9
0000
fffe
0002
fffd
0000
fff5
000b
fffe
fffc
0000
000b
0005
0001
0009
fff9
fffd
fffd
0000
0004
fff5
fffc
0000
0002
fffa
ffff
0002
fff8
fff8
fffa
fffd
fffb
fffb
0006
0000
0000
fffc
0002
fff8
0003
000a
fffd
0002
fffd
fffd
000f
0006
fffc
0010
ffef
0005
0018
fffe
fffe
fffb
0004
fffe
0004
0001
0006
000a
fffd
fff8
ffff
000f
fff5
0011
0004
0001
0006
fff2
0002
fffe
fff6
0001
fff7
ffff
fffd
fff6
fff2
0002
fffe
fffa
0004
fffe
0003
fffc
0003
fff3
0008
000d
0001
0007
000c
fff7
fffd
0002
0002
fffa
0001
fff9
fff9
fffc
0006
fff7
0000
fffe
fffe
0008
fffe
fff8
0010
fff7
000d
fffc
fff8
0004
fffa
fffc
fffc
0004
0006
000c
0004
fffd
0009
000a
0007
0003
fff2
ffe7
ffef
000d
000c
000b
0000
0006
0006
0005
0004
0001
0001
fff9
0003
000c
fff9
fffa
fff6
fff2
0004
fffd
0008
fff8
fffc
0000
0005
fff9
0001
fff7
0004
fffb
0000
fff7
0004
0008
fffd
0009
ffff
fffb
0007
fff7
0001
fffa
ffee
fffd
0008
fff7
fffe
000c
fffe
ffee
0013
fffa
0003
0000
fffe
0005
0003
000f
fff6
0001
fff4
0000
fffd
000a
0001
fffe
fff0
0010
0004
0012
0000
0001
0005
0008
0003
fffd
0003
ffff
0003
0008
fffd
ffec
fffe
ffff
fffd
0004
0001
0004
0008
fffc
fffe
0002
0003
fffb
fffc
0000
fffe
0003
0003
fff9
fffe
fffd
fffa
000d
fff7
ffff
0006
000a
0002
fffe
0000
fffb
0006
0003
0005
0000
0000
0000
0000
fff7
fffc
fff4
0000
0004
000b
0007
0004
0008
000d
0003
0007
000b
0007
fffd
fff8
fffd
0003
fff3
0001
0006
fff9
0005
fffc
0004
fffb
0001
fff8
fff5
0006
fff8
0008
fff8
0002
0004
fff2
fffc
fff4
fffa
fffb
0001
0004
0006
fff3
0001
fffc
fffa
0008
fffb
fffc
ffff
0002
0006
fffe
0007
000c
0006
000c
fffe
0004
0002
000e
fffe
0003
0002
0007
000e
0000
0000
0009
0007
fffa
0002
fffc
0001
fffe
0005
0005
0003
0003
0002
fffc
ffff
0007
0008
0005
fffa
0001
0004
fffa
0002
fffc
fffc
0004
0000
0012
0005
0002
0003
0002
0000
0003
fffe
0008
0000
ffff
fffe
fffd
fff0
0000
fffc
0010
ffee
000c
0001
0008
0009
0000
0007
0001
0001
0006
fff6
0003
fffb
ffff
fff8
fff9
fffb
0000
000d
0003
fffa
fff8
fffd
fff5
0004
0012
0002
fffb
fffb
fff3
0003
0007
ffff
ffff
0007
fffa
0003
0001
fffb
ffff
0005
0008
fffb
0002
fffd
fffe
fffe
fff9
ffff
fffb
fffe
0000
0000
0009
0001
fff9
0000
000d
ffff
fffd
fff7
0003
fffb
0001
fffd
0004
0000
0001
0002
fffa
fffd
0006
0005
0003
0001
0005
0005
0006
ffff
fffc
0001
fff7
0002
ffff
fffd
fff6
0007
0009
0005
0004
0000
ffff
0002
0002
0002
ffff
fffc
0004
0004
ffff
fffa
fffe
0003
0003
0004
fffc
000d
0002
ffff
ffff
0010
fffe
0005
0007
0003
ffef
000c
fff2
fffb
fffc
fffb
0006
0005
0007
fff7
0000
fff6
0003
0002
fffa
fffa
000c
0001
0000
0002
0006
0006
0007
fffa
0001
ffff
fffc
ffff
fffa
ffff
0005
fffb
0001
fffb
fffc
0004
fffa
fffd
0007
fff7
fffd
fffd
fffa
fffd
0000
ffff
000b
0009
000c
fffe
fffa
0001
0000
fff6
0007
fffd
000c
fffc
0000
0005
fff9
0001
0003
0008
0009
0006
ffff
000b
fff6
fffd
0002
0002
fffe
ffff
0007
000a
fffb
fffe
0003
fffe
fffc
0008
fffc
fff4
ffff
fffa
fffb
000f
0006
0008
fffa
ffe8
fffe
fffd
ffff
fff9
fff7
0000
0004
fffa
fffa
000a
ffff
fff6
0006
0001
fff9
0007
fffe
ffef
000f
000a
0014
0003
0004
fffb
0001
0006
0001
fff4
fffe
0000
0002
0001
0002
fff5
fffb
fffe
ffff
fff9
000a
fffc
0009
0009
fffe
fffa
fffb
0003
fffb
0005
fffd
0005
000f
fffb
0001
0008
0005
fffe
0005
0001
fff9
fff7
0001
0002
ffff
fffa
fff7
fff7
0005
0005
0005
0001
fffc
ffff
0000
fffe
0002
000f
ffff
fffb
000d
0007
0001
ffee
ffff
000e
fff8
0001
ffff
0007
ffff
0000
fffa
ffff
fffd
0000
ffff
0006
0009
fffb
000c
0001
0003
000b
fffe
ffff
fffd
0000
0003
0000
fff1
fff5
0006
fffc
0001
0004
0007
0002
fff7
fff9
0002
fffe
0002
fffe
fff8
000a
000a
0004
fff7
fff0
fffa
fffb
fffd
fff2
0006
ffff
fffb
fff4
0002
fffe
fffb
000b
0011
000b
fffb
0006
0001
fffa
0007
0008
0006
fff8
0008
0001
0005
fffe
fffc
fffe
0001
000e
0002
fff9
0002
0004
fff7
0000
0004
fffc
000d
fffd
fffd
fff6
ffff
0000
0005
fff9
fffd
ffff
0002
000f
fffd
fffc
0002
0001
ffff
fffc
fff1
0000
0002
0006
fffd
0002
0008
0003
0002
fff6
fffa
ffff
0003
0001
0007
fffb
0005
fffa
0002
fff1
fffc
0003
ffff
0005
001a
fffe
0008
0001
0001
fff8
000a
fffd
fffb
ffff
0005
ffff
0006
fffd
0003
000b
fffc
0003
0006
fff7
fffd
0009
fff9
0005
0004
0006
0002
fffe
0000
0007
fffd
fff7
ffff
fffd
fffe
0001
0003
000a
0008
0008
000a
0004
fff4
fffd
fffe
fffe
fffe
fff8
0003
0004
fffb
000e
0003
fffe
fff7
fffa
ffff
fffa
0000
fff8
fffc
0005
fffa
000c
fffb
fff5
0009
0005
0000
fffe
0008
0005
fffc
fffd
fffa
0009
ffff
fff9
0000
ffff
0005
000d
fffd
ffff
fffa
0003
fffb
fffc
0000
fffb
0002
fffa
fffb
0000
fffb
0005
0001
fffd
0002
fffd
0002
0004
ffff
000e
fffd
0000
fff8
fffc
0003
0000
0000
fffe
0002
fffb
0000
fff7
fff6
0002
fffa
ffff
0006
fffe
0002
0006
0005
0002
ffff
fffe
fff8
0000
0003
0003
fffd
ffff
0001
0003
0003
fff7
000e
0008
fffc
fffb
0004
fff6
0000
fff2
fff7
0000
0005
0011
fff3
fffc
000a
fff8
0016
fff4
0007
fffd
fffa
0000
0003
0007
0001
0004
fff7
fffa
000e
0002
fffa
0009
0001
fffa
0007
0001
0002
0004
0006
fff6
0008
0009
0007
ffff
0005
0000
fff9
fff4
ffff
0002
0005
ffef
000e
fffe
ffff
0000
0005
0007
fff7
0003
fff2
0005
0004
fffa
fffe
0003
0004
fff1
0002
fff9
0004
ffff
0007
0002
fffc
0003
ffff
fffc
0007
0002
0000
0008
000a
0005
0009
ffff
0004
0004
ffff
0008
fffb
fff9
fffe
ffff
0006
0001
0003
fff0
fffb
0000
fffb
0000
fffd
0003
fffe
fffc
fffd
0008
fffb
fffb
0007
0005
000b
fffc
fffc
0000
0006
0004
0000
000a
fff8
0003
fffb
fffe
0013
fffc
ffff
fffb
fff6
fffb
0007
fff4
ffff
0005
0004
0006
fff9
fffe
fff3
0004
000e
0001
0001
fffe
0006
fffd
ffff
fffc
fff9
fff3
0005
fffb
0001
ffff
0006
0008
0005
0002
fff7
0005
0004
fffc
0007
fffd
000b
fff9
fffd
000a
0003
0000
fff5
fffe
fffe
0001
0001
0008
fffe
fffc
0007
0006
fff4
0001
0006
000b
fff9
fffe
0000
fffb
0007
0000
0006
fff8
fffc
fff8
0000
fffe
fffb
fff7
000d
fffb
0000
fff5
fff8
0001
0002
fffc
fffe
ffff
0001
fff9
0009
fffe
000b
0000
fff8
0003
fffd
fff8
ffff
0007
0002
0005
0004
fff6
0003
fffe
0004
0002
0003
0005
0001
0004
fffa
fffe
fffd
0002
0009
000d
fffe
0004
0001
0002
ffff
0001
0009
ffff
0002
0004
fffa
fff8
ffff
0000
0001
fffd
fffd
0000
0003
fff7
fffb
0001
fffc
fffa
ffff
0009
0001
fffb
fff9
fffb
0003
ffff
fff9
0000
0001
fffe
fff7
0001
0007
0007
0003
fffc
0001
ffff
000b
fffc
ffff
0007
000b
0000
0002
0008
fffa
0004
fffe
0008
0002
fffd
0009
0006
0005
0002
ffff
0000
0002
fffb
fff3
0006
0001
fff4
0004
0002
ffff
0002
fffa
ffff
0007
fffb
0000
fff8
0006
0004
0000
fffe
fffb
fffa
ffff
fffe
0003
ffff
0008
fffc
0006
ffff
000a
fffc
fff9
ffff
fffa
0004
fff7
0000
ffff
fffe
0004
fffa
0000
0003
fffe
ffff
0005
ffff
fffd
0000
0000
fff7
0002
0000
0005
0002
0000
0008
0000
0006
fffc
000a
0007
fffc
ffff
fffc
0000
ffff
0002
0004
fffb
000d
0000
fff2
0007
0005
fffd
ffff
0004
0002
ffff
ffff
fffc
fff4
0000
0000
fff9
0002
0018
0005
0009
fffb
0001
0008
0007
0000
0004
fffd
0004
0003
0001
fffa
fffd
fffd
0008
0000
0006
000b
fffc
0006
fffe
0003
0001
fffd
ffff
fff9
fffa
0001
000b
0008
0002
0007
0000
0000
0001
0000
0004
fffa
fffb
fff8
fffd
0003
fffd
fffe
0006
fff8
fff8
fff7
fff9
fffb
fffd
0009
0001
fffd
0000
0004
fffd
0005
0001
0003
ffff
0004
0004
0002
ffff
0006
0007
fffd
fffa
0006
0005
0003
0003
0000
0001
0006
0005
fffa
0002
fffd
fff6
fffc
000b
0005
0000
0001
000b
ffff
fff8
fffd
fffd
fff9
fff3
fffd
fffd
000f
fffe
0001
0005
fffe
fff1
fffb
0000
0003
0002
fffd
0004
ffff
0004
0000
fffb
fffd
fffc
0007
0005
fffd
fffc
0001
fff6
0003
0002
0005
000f
0007
fffd
fffa
0000
0000
fffa
0004
fff9
fffc
fff4
0007
0003
0006
ffff
0003
ffff
ffff
000c
0000
0001
ffff
fffd
0002
fffe
fffe
fffe
0005
0002
fffe
fff6
000c
fff9
0006
fffb
fffa
fffe
fffe
fffd
0004
0005
0003
ffff
0001
0000
fff7
0000
fffd
0004
fffc
fffd
fffd
000a
0004
0009
fffe
0007
0004
fff9
fff6
0000
0002
0006
0004
fffe
0000
0003
0002
fffb
0002
0001
0002
fffe
fff9
0004
fffd
fffc
0001
0001
0007
0003
fffe
ffff
fffb
0000
ffff
0001
0005
0002
0004
0008
fff6
0009
0005
fff4
0003
fffc
fffd
fffb
0006
fffb
000a
0003
fff9
0001
fff7
000b
0001
ffff
0001
0000
fffc
fffe
fff5
0005
0006
0009
fff3
fffc
0007
0008
fffb
000a
fffa
000a
0007
fffa
fff6
fffa
0004
fffc
fff1
0000
0009
0010
fff7
0000
0002
0002
fffc
fffd
fff4
fff8
0006
0005
fffc
fffb
fffb
0004
0007
fffe
0009
fffe
0005
fffb
000c
0003
000e
0002
fffa
000a
fffe
000d
000d
fffb
fff9
fff6
0009
0008
fffc
000f
0014
fff2
fff6
0001
fffc
fff9
0003
fffa
0015
0004
ffff
fffe
fff6
ffff
0000
fffa
fffa
fffe
fffa
fffa
0006
0007
fffd
fff8
0006
0000
fffc
fff9
fffc
0005
0007
ffea
fffd
000e
0000
0003
0003
0001
0000
ffff
fffe
fff8
fff8
fffb
fff6
fffe
0005
0002
0009
ffff
0004
000c
0002
0006
0006
0003
fff5
fff7
fff8
0002
fffe
0002
0003
0003
0011
0001
fffd
0004
000b
000a
0006
0008
0005
0001
0007
0001
000e
0004
fffe
fffa
0000
fffd
0001
0001
fffb
0000
fff9
0005
0001
fffb
0004
0007
fffd
fffd
fffb
fff7
fff8
0001
0008
ffff
fffd
fffe
0001
fffc
0008
fffb
0007
0001
0003
fff9
0000
000b
000c
0003
fffd
0001
fffb
0003
0001
fffa
ffff
ffff
fff4
0001
000e
0003
000b
fffe
fffe
0005
fff9
000c
0006
000d
ffff
0001
0008
fffb
0007
fff2
fff8
fffa
0002
fff5
000b
0001
fff2
fffb
fffc
000c
0006
fffe
fff7
fff8
fff9
ffee
fff7
0000
0008
000e
fff9
fffd
fff4
0005
0009
0003
0000
0004
0003
0002
0013
0000
000a
fffe
ffef
fffc
fff5
0003
0002
fff7
0002
000d
0004
0007
0001
0002
fff5
0000
0001
fff9
fff6
fffe
0007
0001
0002
0000
fff8
fffd
fffd
fffb
fffa
000b
0004
fffc
0005
0002
fff8
fffb
0003
000a
0003
fffd
fff9
ffff
fffe
0002
ffff
fffb
0003
ffff
0004
0000
0003
fff8
fffb
000c
0004
fffc
fffd
0001
0005
ffff
000d
0001
fffc
0000
fffc
0000
0000
0009
fff5
0005
fffe
0005
fffc
fffa
0003
0002
fff8
0000
0007
0008
0002
0008
0005
fff8
0000
fff9
000b
fff0
ffff
0011
fff6
0007
0000
0003
0007
fff8
0000
fffc
0005
0000
fff8
0004
0005
0008
000c
000f
fff8
fffe
fffd
fff8
fffd
fff5
000e
000d
0004
0001
fffe
0003
0003
0000
fff8
fffb
fffe
0005
0002
0009
0004
fffa
0004
0005
0008
0007
ffff
0009
ffff
fff6
fff5
0002
0001
0018
fff4
ffff
fff6
0003
fff4
0000
0001
fff6
0007
fff5
fff8
ffff
0001
fffe
fff6
fff8
fffe
fff7
0001
0008
fffa
0002
0015
ffef
fffb
fffb
0009
fff3
0005
ffff
fffc
0005
fff9
fff4
fffd
fffc
fff8
ffee
fff8
000a
fffb
0003
0001
000a
0000
0008
0003
ffff
0005
0009
0003
0000
0001
0003
ffff
fff9
fffd
fff1
ffff
0004
fffa
0007
0002
000b
0003
0002
fffe
fffd
0006
fffa
0003
0008
fffe
0000
0002
fff8
0006
fff4
0009
0006
0003
0006
000b
fffc
0003
fff9
fffe
0003
fffc
000d
ffe7
000a
0008
fff5
fff8
0004
fffa
000e
000a
fff9
fff3
0004
0003
0006
0007
fff8
fffb
0000
ffff
0001
fffd
fff9
fff5
0003
0001
0009
0006
0000
fffc
0008
0008
0003
000f
fff8
0000
fffb
fff8
fffb
0006
000a
0006
fffc
fff4
fffc
fffb
fffd
0008
ffff
fffb
fffe
fffd
0001
ffec
0004
0000
0009
fff2
fffa
fff7
0005
fffb
0009
fff8
0002
0003
0007
0008
fffe
000b
fffe
fffe
fffe
0007
0005
fff9
fffb
0006
0001
fff8
0008
0001
0002
0006
0003
0005
0006
0004
0000
fffe
fffc
0001
0000
fffc
0002
fffd
000b
fff5
0001
fffb
0003
0000
0007
ffff
0007
0004
0003
0009
0004
0003
fffd
fffe
0002
ffff
fff4
fffc
000a
fff9
fffa
fffd
0000
0004
fffb
0002
fff6
0006
0011
0001
0004
0000
fffa
fffd
fffe
0000
0000
fffc
fffd
0002
fff1
0006
0008
ffff
0005
fffa
fff5
0003
0002
0006
fffc
fffd
0000
0009
000d
fffb
0001
0000
fffe
0003
fffb
0003
fffd
fffe
0004
fff7
0009
ffff
0006
fffe
fffa
fffc
0002
ffff
000d
fffe
000b
fffa
fffb
fffd
0001
fffd
0000
0000
0004
fff8
fff7
0003
0009
fffc
0004
fffe
fff6
0002
fff5
0005
fffe
0004
fffa
0005
0002
fffa
000f
0007
0003
fff1
fffa
0003
0002
fff1
0007
0001
0001
fffb
ffff
0007
0002
ffff
fffe
0003
0003
000b
0009
fffc
0003
fffa
ffff
fff9
fffb
0008
fff9
0009
ffff
0002
fff9
000a
fff9
fffe
0006
0004
fffc
fff1
fffc
fffb
ffff
0000
fff6
0002
0001
0001
0001
fff9
fffe
0005
0006
0002
fffd
fff8
0003
fffc
fffe
fffc
0003
0004
0008
fffd
0006
fffe
ffff
fff9
fffe
0004
ffff
0000
fffe
fffc
fffe
0002
0006
ffff
fffa
0006
0003
0000
fff9
fffd
fffd
0001
fffd
0001
0003
0002
fffc
0005
0001
0001
ffff
fffe
ffff
0004
0005
fffc
ffff
fffd
0006
fffe
ffff
ffff
ffff
fffc
0005
0001
fffb
fffb
ffff
fffd
0003
fffc
fffd
0007
0001
0001
0001
0006
fffe
fffb
000c
ffff
fffd
0004
fffa
fffc
0004
0002
0003
0004
0005
0004
0007
fffc
0002
fff3
0004
0004
0007
0006
0000
0000
0003
fffc
0009
0003
0001
fffe
0001
0001
ffff
ffff
fff6
fff7
000a
fff4
0000
0004
fffd
000a
0000
0000
0009
fff8
fffd
ffff
0002
0000
0001
fffa
0000
fffc
fff8
fffd
fffc
fff9
ffff
0007
0000
0002
000e
000b
0003
fff4
fffb
000a
fff1
fff8
fffd
0000
0004
0002
0009
0014
fffd
fffe
fffb
000a
fffd
ffff
fffe
fffb
0006
fffe
fffd
fffc
fff4
0005
0002
fff6
ffff
0003
0002
0000
0009
ffff
fff9
0006
0005
000a
fff9
0001
fffb
ffff
0000
fff5
0009
fffb
fff8
ffee
0007
0005
fffe
fff8
fffc
0000
0007
0002
0008
fff3
fff7
fff9
ffff
0005
000d
fffc
ffff
0007
fff9
0001
0004
fffc
fff7
0001
0008
0007
0004
0000
fff8
fff7
fff5
000b
fff6
fffc
fff9
0009
0000
ffff
0001
fffd
0002
fffc
0002
0001
0002
000e
fffd
fffd
0002
0000
fff5
0004
fff9
0005
fffc
0002
ffff
fff7
fff1
000c
0005
ffff
0002
fffc
fff7
fff8
0005
0002
0001
0007
0001
fffb
0009
fffc
0004
0005
0003
0005
ffff
0007
0005
fffb
0006
0002
fffe
fff8
0009
0004
0007
0008
0004
0002
0003
fffb
0000
fffd
ffff
0001
0001
ffff
0006
fffd
fffb
fff8
0000
0002
0006
fffb
0002
fff7
fffd
0002
0005
0002
0000
0006
fffe
ffff
ffff
fffa
fffc
fff7
fffd
0003
0001
0007
0009
0004
fffb
fff9
0001
fff4
fffb
fffc
0002
0000
ffff
fffb
fffe
0006
0002
0001
ffff
0000
fffa
0000
fffb
000d
ffff
0000
ffff
fffb
0000
ffff
fffd
0002
fffc
fffd
fffc
0000
0000
0004
0006
fffc
ffff
0005
0006
0002
0004
0003
ffff
0005
fffe
fffc
fff7
0007
fffb
ffff
fff7
fff8
fffb
0000
0001
000a
0000
0006
fffc
0005
0000
0000
0002
0006
0003
0000
0003
0004
0003
fffe
fffd
fffe
0006
0001
0000
0004
000e
0003
fffd
0009
0004
0005
ffff
fffc
0001
0008
000e
0000
0003
fffb
0011
fffc
fffb
fff7
0003
0000
0000
0005
0006
fffc
0002
fffd
0004
fff4
000a
0000
0003
0007
fffe
0005
0014
fffe
fffa
0000
0000
fffe
0011
fffc
ffff
0004
ffff
0005
fffd
0002
0006
0006
fff6
fff4
fffd
0000
ffff
fff0
0003
fff7
fffb
0002
0009
fff9
0008
fffd
fffc
fff6
ffff
ffee
fffa
0004
fffd
fffb
fffe
0001
0006
0000
fffb
fffc
000e
0000
000b
ffff
0004
fffb
fffc
0003
fff8
0004
0003
0004
fff6
fffe
fff2
0005
0004
0008
0001
ffff
fffa
0002
0000
fffc
000c
fffb
0003
0001
0000
fff9
0001
0002
fffc
0006
000e
0006
0004
fffd
fff6
0004
000e
0000
0009
0004
0015
fff2
fff8
0007
0001
fffa
0002
fff9
0006
fff4
0002
fff2
fffd
fff8
fffa
000b
0010
ffff
0005
0002
0004
0010
fffd
fffb
fff9
0008
0001
0002
fffd
fffe
000d
fff4
fff7
000e
0009
0003
fffc
0004
ffff
fffb
000b
fffa
fff9
000c
ffff
fffa
fffa
fff9
0009
ffff
fffa
fff5
fffe
0008
0003
0005
0001
0005
0004
0000
000b
0005
0002
fff9
fffc
fffa
0003
0002
fffa
0007
fff3
0002
fffd
0008
000d
0005
fff8
0000
0002
0006
ffff
fffa
fffc
fffe
fffe
0003
fff7
fffb
0000
fffb
0003
fffd
ffff
fffa
0001
0002
fffd
fffe
fffa
0000
0001
0005
fffc
0007
0003
fff9
0004
fffd
fff9
0001
0007
fffd
0003
0010
0005
ffff
fffd
ffff
fffa
0008
0000
fff8
fff6
0009
fff9
fffe
0005
fffe
0007
fffb
0009
fffe
000c
0002
fffb
fff9
0005
0005
0004
ffff
0003
fff7
0000
fffc
000a
0002
0004
0005
fffc
000a
0007
ffff
fffa
0007
fffc
0007
ffff
ffff
fffe
0000
fffe
0007
0004
0006
fff8
000c
fffc
0009
fffa
fff4
0009
0002
0004
ffff
0006
fff9
fffe
000d
0001
fffc
0003
ffff
0006
fff8
fffc
fff6
fffd
0005
fff3
fffc
fff7
fff3
0009
fffd
fff5
fff7
fffd
0002
0008
fffe
0007
fffe
ffff
fffb
0004
fffd
0005
000f
0003
fffc
fff0
0000
000a
fffa
fff7
fffd
000b
0003
fffd
0001
0005
fff0
0001
0005
0001
0000
0002
fffb
000b
fffd
fffc
0006
fffc
fff7
0003
fff9
ffff
0003
fffa
fffb
fffc
fffa
0001
fffb
0001
0003
0003
fff3
fff6
0007
ffff
0002
0007
fffd
000a
0002
0002
0005
fff9
0011
fffb
0002
fffd
0001
fffb
fffe
0002
0003
fffb
fffe
0003
0002
0005
fffd
0002
0000
fffb
0006
0002
0000
0008
fffc
fffc
0001
0007
0000
0004
0002
fffd
000c
0000
0000
fffe
fffe
0003
fffb
fffa
fffa
0005
0003
fff8
fffc
0002
fffd
fffc
0006
fffa
0008
fffe
fffc
fffc
ffff
fff8
0006
0003
0000
0001
0002
fffd
0009
0006
fffd
fffe
0008
ffff
fff3
0003
0000
0005
0002
0005
0004
fffe
fffd
0001
0002
0003
0004
fffd
fffc
ffff
0000
fffe
fff7
0005
0009
fffa
0000
0000
fffe
ffff
0006
ffff
0001
fff4
0002
0008
0001
0004
000d
0004
0004
0007
fffb
fff8
fffe
ffff
000b
fffe
0006
fff8
0003
fffc
0000
0003
fffa
fffe
fffb
fffe
0007
0002
fff8
0005
0001
ffff
0003
fff6
fff8
fffb
0009
0004
fff9
ffff
fffc
fff9
0002
fffe
fffd
0002
0006
fff8
0005
fffe
0001
fffe
fffd
fff5
0006
fffe
0004
fffe
fff9
0000
000c
fff5
000d
0008
0003
0000
0004
0001
0005
fffb
fffa
fffc
fff7
ffff
fff3
0004
0001
0005
000b
0001
ffef
fff9
fffd
ffff
000c
fffc
fff5
ffec
0007
ffff
0005
fffa
0006
0004
000b
fff7
0009
ffff
0005
fffd
0002
0004
fffe
000d
fffd
0000
0004
0004
fffd
ffff
ffff
0008
fff8
fff7
0003
0008
ffff
0005
ffff
fff4
0003
0001
0003
fffd
fffc
0001
fff9
fffd
0001
fffe
0005
fffa
fffd
fffe
0003
0005
fffd
0004
fffd
fff8
0000
fffc
0003
0003
fffd
0000
fff7
ffff
0002
000e
0003
fff6
fffc
fffa
0004
0009
fffa
0000
fff4
fffc
0013
ffff
fff9
fffa
0012
0003
0004
fff6
0009
0004
0005
0003
fffa
fff5
000e
fff8
fffc
fffb
fffc
fffd
0000
fff7
0003
0005
0004
000d
0003
0007
fff8
fffc
ffff
000e
000f
0001
fffe
000b
0007
fff7
000a
fff2
0001
000b
fff7
fffa
fff1
0002
fffa
ffff
0006
0004
ffed
000c
fff9
000a
fffa
ffed
fff9
0014
fffa
fff8
0005
0001
0002
000a
fffe
0007
fffd
fff7
0009
fff8
000a
ffff
fffb
0003
0009
fffe
0005
fffd
ffff
0005
0007
fff6
0005
000b
0008
fffa
0003
0000
fff0
0000
0002
fffc
0001
fff8
ffff
000b
fff4
0003
0002
0003
fffa
fffb
000a
fff4
fff4
fffb
ffff
0009
fff7
0002
fff8
000b
0006
0003
fffc
0005
0006
0005
0000
fff7
fff4
0006
fffc
0001
fffb
0005
fff6
0002
000a
0003
fffa
0000
0006
0006
fffa
0004
ffff
fffb
fffc
fffd
0004
0003
0008
ffff
fffd
fffe
0008
fffe
0002
0001
0006
0008
fffd
fff9
0003
ffff
fffc
0009
fffa
fffa
0007
0003
fff6
0002
fff0
000a
0002
000d
fffa
fff5
fff4
0004
0002
0002
fff9
fff8
fffc
0001
fff5
0000
0004
0009
fff6
0009
fffd
fffd
000d
fffb
000c
0006
fff9
0001
fffe
0003
0003
0006
0006
0005
0002
fff5
0002
0003
0001
0000
0008
0002
fffb
fff3
fffd
fffd
0002
0001
fffb
ffff
fffc
0000
fffa
0000
fffc
fffb
0002
fff9
000c
0001
0000
0009
fff4
0006
ffff
fff6
0001
fffe
0004
fffa
fff4
fff8
fff7
0009
0005
fffc
0001
0003
0001
0004
fffe
0006
0002
0004
fffb
0009
0007
fff9
0008
0009
0003
ffff
fffa
000b
fffc
0001
fffe
fff6
0002
0003
0003
fffe
fffe
0001
fffb
0003
ffff
fff1
0000
0008
0000
fffc
fffa
ffff
fffe
fff7
fffb
0005
0005
000a
0000
0007
ffff
0004
ffff
fffa
0003
ffff
0008
0002
0005
fff8
ffff
0002
0009
0000
fffc
0004
0001
fffc
fffc
fffe
0000
0011
0000
ffff
0007
0000
fffd
0001
0009
fff6
0009
fffd
0001
fffa
0003
000c
0000
fffd
fff8
0003
fff9
fff7
fff8
ffff
0005
fffb
0002
0006
fff5
fff6
0001
0003
0005
fff3
fff5
fffc
fffa
fff3
0001
fffd
0008
fffa
0002
0001
0009
fff8
0003
fffc
0005
0005
0001
0002
fffe
0009
0007
fffe
fff7
0006
fffb
0004
fffb
0007
fffc
ffff
0005
0000
fff8
0005
0008
fffc
fffe
fffc
0006
0000
ffff
fffa
0006
fff7
fffb
0008
0008
0008
fffb
fffd
0008
0000
0006
0005
fffb
fffa
fffc
0007
0001
fffc
0000
ffff
fffb
fffc
ffff
0005
0001
0003
fffe
fffd
0002
fff9
0002
0008
ffff
0000
0007
0004
0004
0000
0004
0003
fffd
0002
fff9
0003
fffe
0005
0000
0005
0001
ffff
0001
fff8
0002
fffd
0000
fffd
fffb
fffe
0000
0000
fffe
fffc
fffe
0002
fffc
0007
fffa
fffd
ffff
0008
0005
fffe
0003
fffe
0004
0000
fffe
fff9
0004
0001
000f
000b
0004
0002
fff2
fffc
0002
0001
fffb
fffb
0005
0000
0004
0003
fffd
fffe
0000
0002
fffd
0001
ffff
0001
000b
fffe
000a
0005
fff5
0002
ffff
fffe
0002
fff5
fffe
fffd
fffb
fffa
0007
0002
fffd
fff7
fff6
0000
0003
fff9
fff9
fffc
000c
0003
0004
0000
0005
0001
0003
fffe
0001
0009
000d
0000
fffc
0000
0005
ffff
0001
0006
fffe
fff8
0005
fff6
fff9
0007
0004
fff7
0002
0006
0003
0007
ffff
0003
fffe
fffe
fffb
0000
ffff
0001
fffa
ffff
fffd
fffe
fff6
fff4
0007
0004
0014
000b
0000
fff8
0001
0001
fffc
0003
0000
fff9
fffc
fff1
fff9
0006
0008
fffc
fff9
ffff
0005
0003
000b
000d
0001
fffc
0008
fff3
0006
0005
0010
0004
0003
0008
0001
000f
0003
000c
0003
fffa
fffe
ffee
0000
000b
0008
0003
0008
0010
0001
ffff
0003
0005
fffa
ffff
0003
fffd
0007
0005
000b
ffff
fffd
0001
0002
0001
0000
fffc
0006
0001
fffb
fffa
0001
0001
fff9
0002
0000
0003
fff9
fff9
ffff
ffff
0000
0001
fffe
0004
fff0
fff5
fff6
fffc
ffff
fffa
0003
fff5
0002
fffc
fff8
0005
0003
fffa
fff9
fffc
fffd
fff5
0005
0003
0009
0009
fff8
0006
0007
0004
fffd
fffa
fffd
000d
0002
fffd
fffd
fff5
fffc
0002
0005
0003
0005
0003
0005
fffa
ffff
0004
0003
fff8
0005
0004
fffc
0002
0002
0003
0002
fff6
0008
0000
0000
fffd
0001
0006
fffe
0006
000b
fffc
ffff
0002
0001
000a
fffc
0007
fff7
0000
0002
fffd
fff4
0000
fffd
0001
0006
fffd
0005
fff7
fffd
fffc
fffa
fffd
fffd
fffb
fffc
0000
fffc
0000
fff9
0007
ffff
ffff
0006
fffc
0009
fffe
0009
0001
0000
0002
0007
fffc
fff7
fff5
fffe
000c
fff8
ffff
fff8
ffff
0006
0000
000d
0005
000a
0000
fff3
0008
fffe
0002
fffd
fffc
fff9
0004
0001
fffb
0003
0002
fff8
0001
0004
0009
0009
0001
0008
0003
fffb
ffff
fffc
0004
fff9
fffd
fff6
0009
fffe
ffff
fffc
0003
fffd
0006
0006
fffd
0004
fff9
0001
fff9
fff8
0008
0000
0003
0006
0004
fffa
fffe
0000
0001
0000
0007
0000
0006
fffe
fffe
0003
0006
fff7
fffb
fffe
ffff
0001
fffd
ffff
0003
0000
fff8
0000
0008
0001
0000
fff9
0003
000c
fffa
fffc
fff6
fff6
000a
0005
0001
fffd
0006
0002
fff5
000a
0009
0001
0003
0005
0006
fffd
ffff
fff9
fffe
0001
0009
0008
0011
0001
fffc
fffd
fff2
fff6
0002
0000
0008
fff1
fffc
ffff
fff8
0003
0000
000e
0007
0006
0000
000b
0003
0005
fff6
0001
0003
ffea
fffc
fff3
0001
0005
0000
000e
fffb
fff8
ffeb
fffe
fffe
fffa
fff2
fffc
ffff
000c
ffff
000d
0011
000c
0001
0000
fff8
fffe
0003
fffe
0003
0008
0000
fffa
0010
fff9
fffb
fffd
0005
0002
fffb
0002
fffa
ffff
000d
fffd
fff7
0000
fffe
0001
fff7
0005
fffd
0005
0003
000b
0001
ffff
fffd
0002
0005
fffc
0015
ffff
000a
fffd
0000
fffc
fffd
ffff
0003
fff5
0000
0009
fffb
fff8
0004
0001
0000
0000
0003
fffa
0002
0001
fffe
0006
fff9
fff9
fffd
fff1
ffff
0006
fffe
0003
ffff
fffb
fffd
0000
fffb
fffa
0008
0002
000a
0006
0002
fffd
0006
fff9
000a
0002
fffb
fffc
fffb
0008
fffe
fffd
0004
000b
0005
0006
000a
fffe
fffb
fff7
fffd
0000
fffe
0006
0008
0000
0004
fff3
fffc
000d
ffff
fffe
fff8
0000
fffd
fffc
fffd
000b
0001
fffd
ffff
000b
fffa
fffb
0000
000a
fffc
fffb
0009
0003
0007
fff9
0000
0007
0001
fffa
000b
0007
fffd
0004
0008
0000
000a
0001
0006
0013
0003
fffd
ffff
ffff
0003
ffef
0001
0009
fffc
0002
fffb
0008
0003
0004
fff9
0003
fffa
0009
0004
fff9
0003
fffc
fffa
ffff
fff9
fff4
fff5
fffd
fffa
fffd
0006
fff6
0000
fffb
000d
fffd
fffd
000c
fff8
0006
fff4
fffa
0004
0003
fff9
fff0
fff9
fff8
ffff
0002
0008
0004
fff7
0003
fffc
0003
0004
0001
0002
0005
0002
fff9
fffb
0004
fffe
0000
0007
000a
fffe
fff9
fffe
fffc
000b
0005
fffd
fffb
fffe
fff9
0005
fffa
0003
ffff
fffd
0000
0002
0001
0004
fffc
fff8
000c
0009
fffc
fffd
0000
fffe
000c
0006
fffd
fff7
fffd
0000
0006
0009
fffc
0006
fffd
fffc
0004
0006
0007
0003
ffff
fffe
0009
ffff
fffc
fffd
fffe
0005
fff2
fff9
fffc
0006
0001
0000
fffb
0000
fffd
fffc
0005
0001
fffe
0001
fffc
0005
0002
fffe
0001
000a
0003
fffd
0004
fffa
0003
fffe
000a
0000
0006
fffb
0005
ffff
0006
fffd
0000
0002
0005
fff8
0004
0006
0002
fffa
fff6
0005
ffff
ffff
0009
0001
0004
0002
fff8
fffc
0002
0001
0001
fffe
fffa
0006
0006
ffff
fff7
0005
0000
0005
fff6
fff6
0006
0000
000a
0002
fffc
0004
fff8
fff4
000c
fff3
0005
fffd
ffff
0002
0005
fffa
000d
000a
0005
fffe
0002
ffff
0000
fffd
ffff
fff7
ffff
0004
ffff
0002
0009
fffc
fffd
0002
0006
ffff
fffa
fffc
fff6
0000
0000
0008
ffff
fff3
0001
0003
fffc
000c
fffc
0010
fffe
fff8
000f
0000
fff7
fffc
0007
fff9
fff8
fffc
0005
0004
0005
0006
fffa
0003
0002
0006
0003
fffe
0006
0003
fffc
0004
0001
fffd
0005
0000
ffff
fffe
0004
0002
ffff
fff9
000b
0003
0009
0006
fffd
000a
fff4
0005
fff7
0009
fff2
0000
ffff
0001
0006
0004
fffc
fff7
0000
fff3
0007
0009
0003
0001
fff9
0000
fff9
fff6
000c
0004
fffe
0000
fff9
000b
ffff
0001
0005
fffe
0005
0001
000c
0000
fffa
fffe
fffa
fffa
fffb
fffe
0000
fffe
0006
fffb
0003
fff6
0000
fff8
0006
000c
0009
000a
fffc
0013
fffc
fffc
0000
fffb
0004
0018
0000
fff6
0001
fff9
0003
fff9
fff7
ffff
0001
0000
fff6
ffff
ffff
000d
000a
fff8
0004
0006
0002
0004
0002
0007
0001
fff4
fffb
fffb
0001
0004
fffc
0002
000a
0005
0004
fffe
0003
0002
0005
fff9
0003
fffe
0003
ffff
0004
ffff
0005
fff4
0000
fffd
0001
fffe
0002
fffc
0000
0005
0000
0001
0000
ffef
0008
0005
fffe
fffd
fffe
fff8
ffff
fffb
ffff
0004
0005
fffc
fffb
fff9
0007
fffb
fffd
fffc
0003
0002
fff9
0005
ffff
0001
0001
0006
0004
fffb
0002
0004
0002
fffb
0001
0001
0003
fffe
0006
fffe
fffe
0000
0003
0003
fffa
ffff
0006
fffc
0009
0001
0002
0004
ffff
0004
fffe
fff9
fffb
0007
0002
fffd
fffc
0009
0002
fffb
fffe
0003
fffa
0004
fff9
fffc
0004
0002
fffe
0002
ffff
fffb
0002
0001
fffc
fff9
0004
0000
fffd
0001
ffff
0003
fffa
0008
fffe
fffe
fffb
000a
fffd
0000
0000
0000
fff8
0001
fffd
0008
fffc
0002
0000
0003
000b
fff6
0003
ffff
fffe
fffd
ffff
fffc
fffb
0002
0008
0004
ffff
fffb
fffe
0003
0001
0006
fffc
fffc
ffff
fffe
0005
0009
fff2
0002
0001
0002
fff9
0001
000b
fffd
0003
fffe
0002
fff8
0001
fffb
fffb
ffff
fffa
fffa
0007
fffa
0002
0003
ffff
0004
fff5
fffd
0007
0002
ffff
0005
0007
fff4
fffa
0000
fffe
0003
0003
0006
fff8
0005
fffa
0009
fffd
fffa
0005
fffa
0003
000b
0003
fffc
fffa
0005
000e
0008
fffc
0004
fffb
fff8
0005
0005
ffff
0006
fffa
0003
ffff
fffe
000b
0005
fff5
0003
0006
0006
0001
0007
0004
0005
fff9
0008
fffc
fffe
fff8
fff8
fffc
fff9
fffc
0006
0007
0006
ffef
0008
0005
fff9
0000
fff9
fffb
fffc
000c
fffa
fff5
ffff
0000
0006
0007
0000
0008
0003
0000
0005
fff9
fffc
fff9
0008
fffd
fffe
fffd
0008
ffff
0008
ffff
fffb
0005
0000
0002
fffd
fff8
0004
0001
0004
0002
0002
fffe
fff9
ffff
0006
0006
fffa
ffff
fffd
fffd
fffd
0001
fffb
0002
0005
fff8
0003
fffb
fffc
ffff
0006
fffa
0001
0001
0002
fff9
fffb
000b
0005
0001
ffff
fff7
0002
0000
fff8
0001
0000
0002
fffe
fffb
0002
0004
0003
0001
0000
fffe
fff7
0004
fffe
0004
fffd
fff9
0000
0003
0002
0002
fffa
0004
fffe
fffb
0003
fffc
fffc
0000
0003
fffd
0001
0002
fffd
0000
fffb
fffb
0002
fffc
fffe
0002
fffe
fffc
0004
0000
ffee
0003
0004
0004
0002
0005
fffe
fffc
fffd
0001
0004
0006
0002
fffe
0002
ffff
fffc
0001
0002
fff5
fffc
0002
000d
000e
fff7
0005
fffb
0007
fffd
fffe
0005
ffff
0000
fffe
000d
0001
0001
0001
0002
fffd
0004
0006
0002
fff6
fffd
fff9
ffff
0005
0000
000d
000b
0012
0009
fffb
0000
fff6
0008
0002
fffe
fffd
0001
0003
fffa
0007
0004
0005
0004
0005
0004
fff7
fff7
fffb
ffff
fff9
0004
ffff
0004
0006
ffff
fff6
fffc
0005
0007
ffff
fffc
ffff
0000
fffe
fffe
fff7
ffff
fffe
0004
0001
fffd
0004
0001
0006
0009
0001
0003
0009
ffec
fffb
0000
000b
0002
0005
fffb
ffff
fffd
0009
0008
0007
fffe
fffa
0003
0009
fff8
0001
ffff
fff6
0007
fffd
0007
fff1
ffff
fff8
0001
0009
fffc
0003
0000
fffc
ffff
fffe
ffff
fff9
fff6
0007
fff7
fffd
0006
fffe
0000
0009
fff6
0003
fffc
fffb
fffd
fff6
fff9
0004
0003
fffe
ffff
000a
fff9
0004
fffa
fffb
fff4
0006
0004
0001
0000
fffe
fffb
0001
fff9
ffff
fffb
ffff
0002
ffff
fff9
fffc
0005
fff8
0005
0000
fffc
000b
0001
0006
0001
0000
ffff
ffff
0000
fffe
0005
0003
fff9
fff9
fffd
0007
0004
0004
fffc
0005
000d
fff9
fff2
0001
000c
0003
0004
0002
0011
0006
0004
0009
0000
0004
0004
0008
0001
fffd
0000
0002
fffb
fff5
fff6
fffd
ffff
0006
0000
fff9
0005
0003
0004
0004
0000
fffc
0000
fffa
0000
0002
0002
0004
fff8
0013
0003
0000
0006
fffa
fffd
ffff
0003
0002
ffff
fffe
0000
0001
fffb
0002
0003
0003
fffe
ffff
0004
fffd
fffe
fffb
fffc
fff6
0004
0000
fffb
fffc
000f
fffe
0003
0007
0005
0004
fff5
0004
0005
fffb
fffe
0001
ffff
0001
fff9
0004
ffff
fffb
fffc
fffe
fffd
000a
0005
0001
0000
0003
000b
fffa
fffa
0010
0009
0003
fffe
fff5
fffd
fff0
0001
0009
fffe
0008
0003
ffff
fff7
fffb
0001
fffb
fffb
0004
fffc
0000
fffb
fff6
fffc
fffb
fff9
0001
fff9
0009
0014
fffc
0005
fffc
fffa
fffd
0002
0006
fff8
fffb
fffd
fff9
ffff
0003
fff5
fffb
0003
0000
0004
ffff
fffe
0008
0003
0001
fffa
fffd
0004
fffd
000c
fffe
fffc
0003
fffe
0006
fff9
fff9
0006
ffff
fffd
0002
ffff
fffa
0003
0000
0000
0001
0003
0007
fff8
fffe
fff7
fff9
fffd
fffe
0000
0009
fff7
0000
0003
0004
0004
fff7
fffb
0003
fffc
fff5
0001
fffe
0005
000b
0002
0008
0003
0003
fff2
0005
fff9
0002
ffff
fff9
fffa
fff9
000a
fffc
fff9
fffa
0003
0004
fffd
fffe
fffb
fffe
0000
ffff
0008
0005
fff9
fffd
0001
0002
0000
0005
0008
0005
fffd
fff3
0009
000c
fff9
0003
fff7
0009
fffa
fffb
fffc
0005
0000
0003
fffa
fffe
fff3
fffb
fffb
0007
0001
ffff
0003
0009
0004
0007
fff7
0001
0004
fff9
fff8
0000
fffb
ffff
0000
0001
0000
ffff
0003
0002
0000
0002
0005
ffff
0006
0003
0002
ffff
fffd
0004
fffe
0002
0000
fffe
0001
0003
0006
fffb
0001
0003
0001
0000
0001
fffc
fffb
0002
0000
0002
ffff
fff8
fffd
0002
ffff
ffff
ffff
0000
0002
0001
0009
fff6
fffe
0002
fffa
ffff
000b
fffc
0004
fffe
fffc
0002
0002
0006
fffd
0002
0006
0003
fffa
fffd
0002
fffb
ffff
fff9
0004
0006
0005
fffc
ffff
ffff
0003
ffff
fffb
fffb
fffb
fffb
fffa
fff2
fffa
fff7
0003
0003
0001
fff9
0003
fff9
fffa
000a
fffb
fffd
0001
0006
0000
fffa
0003
0002
0006
0007
0008
fffb
fffa
ffff
fffd
000a
0000
0000
000a
0001
fffc
fff9
0008
0001
0002
fffa
0005
0000
fffd
ffff
0014
fffe
0008
0007
0002
fffe
0002
ffff
0007
fff9
0005
fff5
0001
ffff
ffff
ffff
0005
0001
0002
fff7
0003
0006
fffb
0001
fffb
0001
fffe
fffe
fff8
ffff
000b
0000
000f
fff9
fff9
ffff
0002
0007
fff4
ffff
fffa
0006
ffff
0008
0008
0002
fff8
000c
0002
0006
fffe
0000
fff1
0000
0000
0004
0000
0002
fff2
0004
0001
0007
fff6
fff3
fffe
fff8
0004
fff3
000d
0000
0009
fff6
0011
0001
ffff
ffff
0001
0002
0003
fffa
fffd
0008
fffb
fffc
fffe
0007
000c
0006
0006
fffc
fffd
fffc
0001
0001
0008
0014
fff6
fffe
fffc
fffb
0003
fffe
0009
0009
0003
0007
000d
fffd
0008
0003
fff8
fffa
fff9
fff4
fffc
fff5
0005
fff4
fffb
0005
0009
0003
fffd
ffff
0001
000a
fff9
fff9
0003
0008
fff7
fffb
ffff
0004
fffb
0000
0004
0003
fffd
0008
0008
0003
0001
000b
0007
0001
fffa
fffe
0005
fff9
0006
fff7
0000
0001
000a
fffc
fffc
fffe
0001
0007
0001
fffc
0001
fffc
ffff
0004
fff9
ffff
0003
0007
0002
fffb
0004
fffe
0004
0002
0007
fffe
fffb
fffb
0005
fffe
fff7
fffe
0000
fffc
fffb
fffb
0004
ffff
0000
fffa
0000
0004
fffa
0003
fff4
ffff
0009
0002
fffa
fff6
0009
fff4
0000
0005
0005
fff0
ffff
fffb
0008
0001
ffff
fffa
fffc
0001
0007
0000
fffd
0008
fff8
fffe
0005
fffd
0019
fff4
fff0
fffc
ffff
fffc
fffd
0002
0006
0004
fff3
fff9
0004
fffe
0001
0005
fffe
0004
0000
000b
0007
0002
000b
fff9
0000
fff8
fffc
ffff
fff3
fffe
0008
fffc
0001
fffa
000d
0005
000d
0000
0003
0002
0004
fffe
0003
ffff
0005
fffa
fff6
fff8
0006
fff8
fffd
fffd
0006
0011
fffa
0007
0003
0008
fffb
fffe
fffc
0007
0003
0003
0001
fffb
0010
fff7
0000
0002
fffe
0001
0003
0000
ffff
fffd
0002
0002
0000
0004
ffff
0004
fffd
fffe
0000
0009
0001
fff5
ffff
fff9
0009
fffa
fffc
fffc
0007
000d
ffff
fffe
0002
0002
0000
0004
0000
0001
fffc
0007
fffd
0001
0007
fffa
fffe
0007
fffc
fffc
0003
0002
fffd
0003
fff8
fff8
000c
0006
0003
fffd
0000
0003
0005
0005
0003
0006
0004
0008
0000
000c
0000
000a
fffb
fff0
000e
fff1
0001
fff9
fffe
fffa
0000
0006
0005
0004
fff8
0005
fff8
fff1
fff9
fffd
0001
fffb
0003
0002
fffa
0003
fffa
fff6
0000
0004
fff8
fffb
fff2
fffa
fff7
0003
000a
ffff
0004
0002
ffff
0004
0005
fffc
0004
fffb
fff3
0000
0002
0004
0006
fff8
fffe
0000
fff9
0006
0009
0003
fffe
000a
0003
ffff
0003
0010
fff9
0001
0001
0004
fffc
000b
0007
ffff
0002
fffe
fffd
fffe
fffe
fff8
0007
0003
fff7
fffa
fffc
fffa
fffa
0000
ffff
000a
0006
fffb
0005
fff9
0000
fffb
0004
ffff
0001
0004
fffd
fffa
fffb
ffff
fffc
0001
0000
fffa
0002
0002
0009
0001
fffc
0006
fffd
0006
ffff
0000
fff9
0003
0001
0005
fffe
0007
0004
0007
0008
0000
0002
0009
0000
0005
0002
fffb
fff6
fffc
fff7
fff4
0001
0004
0002
000a
fffc
fff6
0002
0005
ffff
0001
fffd
fffb
0007
fff9
fffd
0001
0004
fffb
0000
fffd
fffc
ffff
fffd
0000
fff7
ffff
0006
fff9
0003
0005
0004
fff9
fffe
0002
000a
0003
0002
fff8
fff7
0005
0006
fff7
0008
0002
0003
fffb
0006
fffe
ffff
fffd
ffff
fffc
0009
fffd
0006
0007
0003
fffa
fff9
fffe
fff9
0002
ffff
0003
0003
0001
fffd
0000
ffff
fff0
fffe
fffa
0004
0015
fff8
0000
0002
0002
0002
0007
ffff
fffb
0001
fff1
fff7
fff7
fffd
fffd
fff5
fffc
0004
fffd
0002
0001
fff8
fff5
000a
fffc
0001
fffa
fffd
fff8
fff9
0005
ffff
fffe
0001
fffe
000f
fffa
fffa
0000
0008
fff5
fffd
fffd
0002
000a
fff6
0005
fffb
0000
000c
fff8
0001
fff5
fffb
0000
0000
0001
fffd
0006
0007
0003
fffc
0001
fffd
0002
fff9
0010
0006
0008
0002
fffe
0008
0005
0005
0004
0001
fffd
000d
0003
fffd
fffd
ffff
fff8
0000
fffc
0004
fffa
0002
0002
fff9
0002
0008
0001
0001
fff4
000c
fffd
fff8
fffe
0004
fffd
0001
0006
0005
fffc
ffff
0002
fffb
0001
0004
fff8
fffe
fff7
000a
000e
0002
0004
fffd
0004
ffff
0003
ffff
0000
ffff
0007
fffc
fffe
0008
fffc
fffb
0000
0004
0001
ffff
fffc
0004
0006
fff8
0001
000d
0004
0008
0009
0007
fffe
fffb
fffe
fffd
0008
0001
0005
fff8
fff3
0004
0000
fffe
fffd
fff8
000c
fffb
000c
fff2
0007
0004
0004
fff9
0003
0003
0009
0007
fff8
0007
ffff
ffff
000a
0000
0009
fff5
fff7
fff5
0009
000e
fffb
0002
fff9
0008
fff2
fff7
0006
0006
fff3
ffff
0005
fff9
fff5
fffd
fffd
fffc
fffd
fffe
0003
fff4
fffd
0010
000b
fff9
ffff
ffff
fffb
fffe
000b
fffe
0001
fffe
ffff
0003
0000
fff0
fffe
fffd
0000
fff9
fff9
0005
fff7
ffff
fff5
000b
0004
fffd
0000
0007
0002
ffff
0004
0002
0000
0008
0005
fffd
0008
0003
fffb
fffa
fff4
fffa
0001
fffb
fff7
fff3
fff3
0000
fffb
0001
000c
0013
fff7
fff8
0009
000b
0004
fffd
fff7
fffe
ffff
fffd
0003
fffc
0008
000f