0001
0001
fffe
0002
fffd
0004
fffe
0005
ffff
0007
fffc
fffd
0002
fffd
fffe
ffff
ffff
fffa
fffd
fffe
fffe
0004
0002
ffff
fffe
0003
0001
0004
ffff
0003
0000
0000
0003
0004
0002
ffff
0002
ffff
0000
0002
fffb
0002
0001
fffd
0000
fffd
fffe
fffd
ffff
0000
0002
0001
fffe
0000
0003
0000
fffe
0003
0003
0001
fffd
fffe
0001
0000