0002
fff9
0013
ffe8
0009
0000
0005
fffc
fff8
fff1
0002
ffe0
fffc
ffff
0004
0009
fff5
fffe
0008
0004
fffd
fffc
fff8
fffd
000b
ffff
fff4
fffc
ffff
0001
0008
fffc
0003
0004
fffb
fffe
fffd
000e
fff9
fff8
0005
0004
0002
000b
0001
0001
0013
0008
fffe
0008
ffff
0001
0000
ffff
000a
fff7
fffe
0002
fff6
0009
0005
fff5
fffe
0009
fffc
ffff
0008
fffc
fff9
000f
fff5
000a
fffa
0007
fff9
ffd4
0005
0000
fffd
000d
fff0
0006
fffb
0004
0003
0009
ffff
fffb
fff2
0007
0013
fffa
000d
0005
fff6
0006
fffd
0002
fff3
0009
ffff
0009
ffff
fffd
fff9
fffb
0002
fff7
fff5
ffed
000b
fff7
0004
000d
fff5
fffa
0008
fff1
0001
fffc
0009
0019
0013
000e
ffec
0010
0004
0008
0000
ffff
fff7
000d
0009
0001
0001
000b
fff1
0007
0004
000e
fffd
0001
fff9
fff8
000b
0014
fff9
ffff
fff9
000c
fffa
0007
fff3
0009
fff5
0016
fff7
0007
fffc
fffd
fffc
0009
fff7
0005
ffff
fffa
0001
fff4
fffd
0008
0000
0000
0007
fff9
fff5
fffb
fff8
0000
0002
fffb
fffa
ffef
fffd
0010
000d
fff8
0000
fff9
fff9
fff7
0000
0001
0009
fffb
0002
fff1
fffb
0006
fff4
0002
fff7
0004
fff6
ffea
0002
fff6
0004
fff8
fffb
fff0
0002
0003
0000
0002
0009
fff6
0002
0010
0011
fffc
fffe
0007
0006
0008
fffa
000c
fffb
0000
0000
0001
fffe
0006
fff1
fffd
0003
0004
fffc
fffe
000a
fff8
0000
0006
fffd
fffa
fff7
0001
0008
fffb
fffb
000a
000d
0002
fffc
0002
fffb
0005
0000
fff8
0015
ffdb
0024
ffdd
000b
fffb
0018
ffcf
002e
000f
ffed
000d
000f
001c
0002
0042
0007
001a
0016
ffd6
fffe
fffb
0019
ffd6
fff4
fff5
0016
ffd0
ffef
ffea
fff9
ffdb
0006
fffe
ffdf
001a
0008
ffe3
002b
fff3
0017
0018
002b
000c
fffc
0029
0036
ffd6
fffe
002f
0006
ffe1
fff7
ffe8
0003
ffdf
ffd9
ffd7
0027
001f
ffd2
fff4
fff7
0012
0000
0011
fffd
000d
0000
ffff
ffe6
0005
fff1
0017
fffc
0016
000f
001d
fff8
000c
fffd
0003
ffda
0024
ffec
0010
fff4
000b
fff2
000a
ffff
000a
0016
0010
ffe7
001f
fff3
fff9
fff3
fff2
ffe8
000c
fff6
fff9
fff3
0001
fff0
0005
fffc
0003
ffd7
000f
ffe8
ffe9
ffe8
fffc
0015
001f
0001
ffff
000a
0017
ffe3
ffe6
000f
fff6
fffb
fff8
fff2
fffd
0016
ffee
000d
ffe3
0011
ffdc
0009
003b
0007
0013
0017
fffa
fff0
ffde
fff4
000c
0017
fff0
fff2
0003
fffb
0000
ffe4
000f
fffc
ffed
ffee
fffe
0005
fffe
0021
000a
ffed
0007
0002
0003
000f
000e
0014
000c
0000
0009
000a
0018
0011
ffde
002d
0014
fffc
0002
0012
0013
ffe8
fff4
fff2
ffbe
0024
ffec
0006
ffff
0007
0028
ffe5
000b
0004
0012
001b
fffa
fff9
000d
ffcb
0014
001f
fff2
ffe5
fffd
0000
ffca
fff2
ffe6
0005
0009
0008
fff8
ffe8
0021
000f
0006
0003
001d
ffb9
000c
0025
0031
0012
ffc9
ffff
000a
fff1
0037
ffe9
fffe
0002
000a
ffbc
ffea
ffe8
0004
001b
001b
0005
0013
fffa
0009
0004
0015
ffdc
0013
fff8
002f
0005
fff8
ffc1
ffc3
ff95
0052
005d
ff9a
004a
ffe9
ffda
ffcf
ffe1
ffcf
0023
0034
ffca
0027
0064
ffe9
000c
fff6
0041
003e
fffe
ffba
ffdb
005d
003f
ffd1
ffe5
ffcf
ffd8
ffd3
0072
ffcd
ffcd
ff88
001b
001c
005c
004b
fff9
0048
0026
ffcc
000f
0027
0011
002a
fff5
002a
002a
ffec
ffab
ffe6
ffc7
0036
001a
0022
0028
fff2
ffcb
001b
0030
ffd1
0049
ffb0
0005
001e
0007
fff7
000b
ffec
0029
ffe2
ffcc
0004
0028
fff2
ffee
001f
fffa
ffe9
ffc5
0034
0027
0009
0019
ffd7
0001
ffcf
001e
ffe2
ffcb
fffe
000d
ffe1
001f
ffeb
ffd4
ffd9
fff7
0036
fff6
0007
ffd1
fff4
0017
ffd2
0020
0013
0013
0041
001b
000d
000d
fff7
ffef
0008
0024
ffdc
0000
fff1
002b
ffdd
0004
ffcd
001c
ffd2
ffd8
0004
fffd
0013
0003
fffa
fff7
000e
fff5
fffc
ffeb
ffff
0007
fffc
ffeb
0009
000c
fff6
0002
ffee
0009
ffea
0013
fff7
0002
fff4
ffff
0004
0003
fffd
ffea
0016
fffa
0008
ffd7
ffe5
ffee
0033
0006
fff6
000e
fff9
0016
fff5
ffe7
0007
fff0
0006
0016
0016
0003
fff4
ffd6
0001
000f
0009
000f
0017
fff9
ffff
0001
ffe3
000d
fff1
001b
ffed
ff92
004e
0066
ff93
0042
ffec
0001
ffc2
ffdc
ffb6
0040
0031
ffc3
008c
0033
001f
ffd2
002e
002e
000d
fffc
ffb7
ffcc
0040
0048
ffc5
ffb6
ffcd
0003
ffd6
0066
ffc3
ff85
ffc9
ffe9
00b5
0030
ffec
004c
0010
003d
ffab
0013
0078
001e
0034
0040
006a
ffe7
ffc1
ff9f
002b
0029
0010
fff4
ffee
0050
ffb0
ffb0
0000
0023
ffe4
ffd9
ffea
001c
fffa
ffad
0020
ffa4
000c
ffe5
0033
002d
003c
ffd1
ffd6
0030
002f
0000
000d
0028
ffe7
ffd5
ffd8
0004
0011
001e
ffc8
ffe9
0008
003d
ffe9
0021
0067
fff6
005f
002a
0021
ffc7
ffc3
002d
ffee
0045
fffb
ffcf
ffe1
0007
ffb4
ffa9
ffc8
ffe1
ffd7
ffd6
001d
003f
000f
ffdb
ffe2
0052
001a
0012
0026
0018
ffc3
ffef
0007
0040
fff0
0002
fffc
0018
0001
0009
000c
0006
fffb
ffe7
0017
fff5
fffc
0007
0007
fff9
fffe
000a
0006
0016
ffc4
ffde
0010
fff9
0003
0018
0018
ffea
fffc
fff2
000d
fff1
000b
fffc
0001
fff9
0033
0004
0002
0022
0027
ffff
0003
fffa
ffe4
ffca
fff8
ffeb
fffa
ffe6
0035
fffb
ffd7
ffef
fff3
0002
0012
0004
0003
0011
000f
ffe7
0004
fff6
000d
000f
001f
ffcf
005e
ffe7
002e
ffae
0042
fffd
0025
ffc8
ffc6
0032
fffc
ff8e
fff0
001f
000e
ffe5
ffab
fff5
0037
0019
ffd3
ffd2
004f
0003
003c
ffc7
0046
0006
0046
004b
0052
fff9
ffd5
ffd1
ffec
000f
0036
ffc5
0055
ffdd
ffb8
003b
ffd3
0019
ffb3
ffba
0070
0029
ffd9
ffdf
ffde
0002
ffc8
ffdf
0035
0041
fffa
ffb1
0016
ffed
0049
ffde
0037
000c
0027
ffb6
002e
0011
0044
ff8b
0024
ffd3
ffec
ffff
ffd8
ffe8
0003
0015
fffa
0014
0002
ffd2
0042
ffc1
fff6
ffdd
0034
000a
0003
ffb7
0024
0022
0005
0006
0026
ffc1
fff3
0007
ffc9
0053
ffda
ffde
ffc1
ffbd
fff6
0044
fff4
ffe9
ffc6
ffa2
0032
ffd1
ffb7
0002
ffcb
0024
0019
0041
001f
004c
003d
ffc7
ffe3
001a
0018
ffe6
0017
0008
fff5
0010
0003
0018
fff5
fffe
0001
0016
ffec
ffef
0020
0011
ffec
0000
0029
fffd
ffe5
0002
fff0
0001
fffb
0011
fff2
fff2
ffe5
fff3
0004
001d
ffff
ffee
fffb
0001
0019
ffe8
fffa
000d
0010
0003
ffea
0013
000e
001a
0008
ffef
0005
0002
fff1
ffe9
000a
ffe5
fffa
0001
ffd8
0025
fff1
fff8
0005
000a
0005
fffd
fff4
ffca
0001
0019
ffbe
0037
ffd2
003c
ffcd
ffbe
ffa6
005b
0024
ff9e
0072
0027
002c
ffed
0029
0027
0039
0040
ffe0
ffc4
003b
001f
ffca
ffca
ffde
0032
ffbd
005a
ffdd
ffb9
ffdc
ffaf
004d
ffd3
002b
ffdc
ffd0
005f
ffe4
0068
003a
ffca
0041
0033
004f
0005
ffbe
ffac
003d
0022
ffee
001d
000a
0000
ff98
ffd4
ffe6
0011
ffe6
ffd8
ffd0
0001
fffe
ffee
000a
000d
0002
ffff
000a
fffd
ffff
fffb
0008
0005
0002
fff4
fff8
ffef
000e
0007
0004
fffc
fff5
0009
000f
fffa
fffe
fffe
fff1
fffd
fffb
fff1
0002
0000
0017
0012
0009
0012
fffd
ffe1
0007
0000
0003
fff8
0004
0002
fff6
fff5
0004
fffc
0007
0008
0013
fff0
0004
fffd
fff9
fffb
fff8
fffa
0000
fffe
fffa
0005
ffff
0005
0002
ffe8
fff9
0002
fffa
0007
fffd
002d
0000
0011
fff2
0011
0007
fff5
ffed
0006
ffe6
ffff
fff8
0009
fff9
0022
fffe
000e
fffa
0012
0004
0006
0005
fff6
0000
000b
fff1
fff9
fff5
0002
000b
fffa
fffc
ffff
0018
fffe
fff7
ffef
fff5
ffee
fffb
0011
000d
fff9
0014
ffef
0016
fff9
fff0
fff5
fffc
ffe8
000b
0004
0018
0003
0003
ffc3
0008
0010
0003
001e
0003
0040
0001
ffef
ffdd
ffff
0010
ffec
0030
000c
0011
0003
0034
0019
000f
ffff
fff8
ffd5
ffef
000e
ffe2
ffde
fffa
0012
ffe9
001a
ffce
ffb7
000f
000a
0056
000c
ffe8
0008
ffd0
001a
ffda
0019
001b
000c
0011
0003
0013
0000
ffe8
ffdc
0024
ffe8
fff3
0005
fff7
0023
ffdf
0003
0023
fff1
001b
fff0
fff1
fff1
ffe2
000a
ffd7
0012
ffb9
001d
ffd9
001f
ffc0
002c
fffb
ffc1
0029
0035
fff3
ffed
fff9
001e
0038
000a
ffd2
0010
0017
000b
ffcc
fff7
ffff
0044
ffcf
0005
ffd5
ffe3
ffd4
001a
0022
fffb
003a
ffcf
fffc
0036
fff9
0048
002d
ffc6
0046
002a
0027
0036
fffa
fff7
0034
000b
fff0
0004
0009
fffc
ffca
ffbb
000a
0039
fffb
ffc7
000a
0008
ffec
0029
0005
0010
0019
fffc
ffef
fff0
fff5
fff7
001f
ffe9
0017
000d
0019
0028
fff6
0023
ffe1
fff3
ffed
ffe6
0013
0011
fffb
ffe1
000c
ffe2
0003
0008
ffe4
0007
fffa
0011
0001
fff3
fffc
002d
ffee
0011
0012
0002
0004
fff0
0002
ffe8
0010
fffc
0015
000a
ffd9
0007
000d
fff8
000f
ffec
fff4
0000
0017
fff2
fffe
ffff
fffd
ffe8
0021
fff5
ffb6
0027
ffd5
fffc
ffbd
0040
ffcc
000f
fff9
ffde
0050
003b
003e
ffe6
004c
0050
001b
000f
ffbf
ffdc
003c
003e
ff9c
ffea
ffb8
0003
ffd4
004c
fff3
ffd6
ffd9
ffd4
0017
0014
0017
0012
ffb4
0025
0011
0023
0039
ffe6
0028
0035
002d
0007
0007
ffee
005e
000e
000a
fffb
0000
fff1
ffb8
ffb9
003e
0033
ffe7
fff7
ffcd
001e
000f
000e
0010
fff1
001e
0018
0008
ffb7
0005
ffda
0019
0003
0002
ffdc
ffec
000b
001d
0016
ffe0
ffeb
0004
fff6
000f
ffe4
000f
001c
0015
0020
0029
000e
ffd8
ffd0
001a
000d
0024
ffef
ffe1
0009
001b
ffdb
ffde
ffdd
0000
0006
ffe2
000c
0007
ffe7
0030
0016
fffb
fffb
fff5
002e
0046
fff9
0026
0017
ffeb
ffe2
fff7
ffeb
fff3
fff7
ffef
0000
fffe
0019
0002
ffeb
fffe
0008
0004
0006
0001
0006
fff4
0001
ffef
0003
0015
ffef
000b
0013
fff7
000b
fffa
fffc
000f
0005
0008
0008
fffb
0003
ffff
0011
fffe
fff8
fff7
fff0
fffe
ffe1
0009
0008
0007
fffe
fff7
0018
fffd
0008
fffd
0014
fff3
000e
fffb
0010
fff4
fff9
fffd
ffe6
0007
fffd
fff1
0002
0008
0002
fff7
0034
0007
ffdd
0013
ffed
001e
000f
001c
ffef
001e
ffdb
fff3
001e
000c
ffe5
001f
0009
0010
fff8
ffd1
ffd7
001a
fffe
fff3
ffeb
0012
0007
0009
ffdb
002a
ffdf
0018
ffdd
001e
ffeb
fff4
fff7
ffdf
0014
fffa
ffe5
0007
ffe8
ffea
ffe7
fffb
ffdf
fff6
fff3
0000
fff3
0003
ffd6
0006
0039
fff8
0013
001b
0028
ffe7
ffdf
ffff
0006
001c
fffe
ffef
fff1
000a
0002
000d
0018
000d
ffeb
001a
ffed
ffe7
0016
fffc
ffe7
001c
000f
0019
000c
ffdf
ffd1
001d
0005
fffa
ffff
000a
ffea
0001
ffff
0020
0024
0012
fff3
0020
ffe3
0027
000b
ffd9
001f
fffe
fffa
ffed
fff0
fff5
0016
fff5
0008
0006
fff5
0001
ffd3
ffe8
ffda
fffd
001d
fffe
0003
0010
0019
0024
fff2
ffe3
fff5
ffd1
fffe
0026
001e
ffe7
fff7
fff5
0008
fff7
000b
fff6
0024
0004
ffe9
0010
0017
fffa
0018
0020
0002
002a
ffcc
ffde
ffdf
0000
0014
ffe4
0008
ffef
0021
ffee
fffa
ffe8
ffe2
ffe5
0017
ffce
0025
0003
fff6
fff7
0017
0014
0024
001b
ffe2
0016
0007
001c
0008
ffee
fff7
0021
ffff
000a
ffed
ffcc
ffdd
ffea
fff2
0012
0005
0013
000b
ffdd
0001
ffe4
fff1
0015
0010
0008
0006
fff5
0001
fffa
fff9
0018
0005
0001
0006
0011
ffe8
fffc
fff2
fff1
0011
0009
0004
0008
fffb
0008
ffee
fffe
ffe3
0004
0005
000b
fffa
fffe
0012
001a
ffde
ffff
ffe9
ffe9
0004
0004
fffe
0001
000b
0002
fff8
0004
0004
ffed
0021
fffe
fff7
fffc
0003
0020
fff3
fff1
000a
ffee
0013
ffed
0003
000f
fff8
fffc
0011
ffea
fff6
ffef
0002
0012
001e
000a
001a
ffe8
fff7
ffdd
0004
ffd7
fffb
0009
ffdf
0037
001b
fff2
0015
fffc
fffc
ffff
0023
0015
0002
ffe9
0002
000d
ffee
ffe4
0025
ffe5
000c
0011
fff6
ffed
fff7
0011
0018
fff1
fffc
fffc
000e
fff2
0019
ffe4
ffeb
000d
0016
000e
ffd9
0008
0009
0001
fff3
fffa
000f
fff9
0011
0005
0007
0007
0011
fff8
fff6
fffb
0005
0013
0000
000e
0000
ffe9
fffe
fff3
fff1
ffe8
fffa
0019
fff4
0012
fff9
fff3
0000
0002
fffb
0001
0015
fff5
001b
fffa
fffa
fffd
0005
0003
ffec
fffd
001d
0003
0005
0010
fffa
fff2
0008
fff4
000b
fff9
000d
ffef
0001
0017
ffeb
0007
000b
fff9
fff8
0005
0001
000d
0000
0012
ffef
0017
fff6
fff6
ffe6
000a
0010
fff3
0004
fff6
fffb
fff2
0011
fff0
000b
0012
fff8
fff5
0009
001d
fff7
ffff
fff2
001b
0007
0020
ffdd
0016
0010
fff5
ffff
ffee
ffef
fff8
001a
fffc
fff8
0000
001a
ffeb
0000
001e
fffb
0001
0003
fff7
fffe
000c
ffff
000f
0007
0014
fff7
ffe4
0002
ffe9
fffd
0009
0004
0012
fff8
fff9
fff6
0011
0003
ffea
0004
ffe8
fff1
0032
001a
fff2
0036
ffe7
0015
ffbb
001e
fff6
0018
0014
ffef
0053
000e
0018
0012
0008
0036
0034
ffce
fffc
ffc9
ffc7
0027
ffd4
ffd9
ffda
0007
fff4
0038
ffca
ffd3
ffd7
fff5
fff1
ffff
0013
0009
fffc
0022
0024
003f
0044
0016
002d
0007
000b
ffd1
ffe0
fff3
fffa
fff2
fffc
fffc
ffe1
0010
ffb2
ffef
0014
0015
0008
0002
0016
0002
0000
0000
001a
ffdc
002d
fff5
002f
0010
0009
ffdd
0006
0011
ffd9
fff0
0013
0007
0001
fff3
ffe2
fffa
0023
0002
0011
ffe4
0017
001a
ffe6
000a
0024
ffdb
0004
0015
001b
ffe3
fff3
001a
000c
001b
0007
ffe3
000a
ffbe
ffe6
0033
ffd6
ffe4
ffdb
fff0
001f
ffe9
ffec
0004
fffd
ffff
0014
0013
0021
0030
0019
ffe9
ffd6
002d
fff2
0029
0025
ffec
ffc9
0024
ffd8
ffcf
ffe0
0001
ffdb
0025
0031
ffd2
0034
0008
000d
0007
002d
001f
003e
0003
ffe6
ffe6
0014
0009
ffe4
fff0
fff2
0016
ffee
0031
ffe9
ffdd
ffdc
ffd2
0019
ffe4
0031
fff4
000d
0016
fff9
0023
0037
ffe8
0021
002e
0027
ffff
fffd
fff4
0012
0010
000a
001a
0014
0003
ffd0
ffe1
ffe8
000c
ffbf
ffe0
fff3
fff2
ffe7
001d
ffe4
001c
fff3
0002
fff3
ffe4
0009
002a
0019
ffeb
0015
0025
ffe6
ffef
fff1
000c
0006
0006
ffec
000d
ffe4
fff7
0009
0005
0000
0021
0001
fffc
ffec
ffe5
ffe0
ffd9
002d
0002
000e
0015
0005
000e
fff2
000e
0016
ffee
0009
0014
0025
fff5
ffef
fffb
fffd
0013
ffd2
001c
ffc7
001d
ffe5
fff1
ffc6
001e
fff1
0004
ffca
0041
fff2
ffb7
0053
ffa4
0047
0045
0035
0031
0029
ffc7
ff9e
003a
ffae
ffcd
ffba
0025
fff8
ffdd
ffc8
ffd5
003d
0022
ffbc
ffc4
003a
0008
003e
ffa3
000b
ffb7
0024
0011
0030
0003
fff7
ffd0
ffba
fff7
ffe2
ffce
0024
ffd7
ffb5
0051
ffe2
ffc5
ffb0
ffec
ffff
fffd
002a
fff8
ffe0
001b
ffff
ffac
002a
0037
004d
ffd7
0068
003f
007b
000e
ffeb
0012
0007
ffd0
0019
000c
000c
ffe4
0007
ffe8
0001
fffb
ffdc
ffef
fff6
000c
0009
fffc
ffd7
ffd0
0017
fff8
0004
0009
000d
ffe4
ffea
ffee
0007
0006
fffa
ffea
0004
000a
0028
ffd3
ffea
0028
fffa
fff9
0018
ffe6
000c
002c
0000
ffe4
fff7
0015
fff0
0017
0002
ffff
ffe7
ffe7
0010
0003
0006
0015
0038
fff3
fffb
0003
0028
0002
fff9
000e
0022
ffed
0015
fffc
0027
ffe0
0013
ffeb
ffdd
000f
0017
ffe9
fff6
0020
000e
fff0
ffec
ffd5
001c
ffe9
fffa
ffe5
002c
fff6
fffc
0011
fff9
fff3
0003
000c
002c
fffd
ffe8
001a
ffdc
0013
0002
ffef
ffeb
ffde
fff2
0018
0002
ffee
ffec
ffd5
0015
0001
ffee
000c
0001
fffe
0011
001d
0002
001c
0017
ffe0
ffec
000f
fffd
fff2
ffe9
fffe
003b
ffe4
0059
000f
0041
ffba
0027
fff3
0015
fffe
fff5
ffec
fff4
001b
ffd3
ffdf
ffe9
fff2
0052
fff7
ffc6
ffb1
0058
000a
005a
0000
0014
0000
000f
002f
0039
0015
ffd4
000d
ffc5
0020
ffdc
ffa6
004b
fff2
ffd6
0029
ffdb
ffb8
ffb9
ffe3
0004
001a
ffb7
ffc6
ffb8
ffe3
ffff
ffe1
002e
0048
003c
ffb7
0022
002d
0022
ffeb
ffd2
000a
0033
ffc8
0020
ffe9
0028
fffc
004b
0004
000b
0026
ffe7
fffe
fff1
0055
ffad
ffc2
0018
fff3
0065
0000
ffdc
ffed
0032
001e
003b
fffe
0032
ffe3
000d
ffd3
ffeb
ffd8
ffcc
001a
0018
002e
ffe0
ffcf
fff2
ffe0
ffdd
0030
ffc1
0000
ffe3
ffd9
0014
0012
ffc6
0013
fffe
fffb
ffe5
ffd2
0030
0042
ffd6
ffb7
0024
002d
ffd4
0010
ffea
002c
ffd4
0008
0003
002b
fff6
ffdf
ffe7
001b
0000
ffd3
004d
0004
ffd5
ffeb
0054
0035
fffd
fffa
ffd8
ffdd
001b
002b
fff3
ffcd
ffcc
ffe2
ffe1
ffef
ffca
ffcc
fff5
ffed
0045
ffe7
0008
0033
0023
0019
ffac
0001
0038
001b
0026
0011
000f
ffe1
0016
fff0
002b
0010
ffe4
ffe1
0009
002a
ffd9
0003
000c
0005
ffef
ffbb
0038
0054
ffbc
ff9e
0041
ffd7
0018
0004
0036
0015
0023
ffc4
ffe1
0036
ffc7
ffb6
ffcf
ffde
ffe2
ffcf
ffed
fff1
0049
0027
ffd7
ffcc
0042
000c
0036
000a
0037
fff4
000f
000c
004c
0007
000d
ffce
0001
000e
0018
ffde
001a
ffcc
ffd3
ffb8
ffcf
ffb5
ffbe
fff9
0019
0036
ffd3
ffe3
ffb7
0032
0029
000b
0034
004e
0029
0008
fff1
0012
000b
fff6
0054
ffe8
ff8e
0047
ffb1
000d
ff9a
0082
ffbc
003d
000f
ffee
0037
0052
006d
ff9b
0021
0062
0040
0033
ff6d
ffd8
0055
005d
ff7c
ffed
ffad
ffc1
ffb7
001f
ffe5
ffae
ffde
0006
ffd6
005e
0011
fffb
0015
0059
ffb8
0065
0056
0005
004f
006b
0069
fff7
fff5
ffee
00a4
ffdd
0062
ffec
ffe0
ffe8
ffa3
ff67
ffd2
005b
0005
ffcc
ffe4
0008
000d
ffde
003c
ffd9
0013
fff7
0020
ffc5
ffed
fff4
fff4
ffed
ffad
fffa
fffd
0030
ff74
ffa8
0046
0046
003f
0023
fff5
ffbf
0044
003e
007d
004c
0003
000a
0002
001d
000e
ffcc
fff8
fff6
ffe1
ffaa
004a
ffe1
001b
000b
ffd0
fff9
ffeb
ffa4
ffde
0040
0021
fff9
ffa7
0027
0001
0022
0067
ffd8
0033
0028
ffe9
fff0
ffc4
002d
ffda
ffc7
0013
0042
000f
002e
ffe9
0030
0007
ffef
ffed
0019
000f
ffb4
fff5
0004
0015
0006
0046
0032
fff4
0012
ffeb
ffd0
0019
0020
fff6
ffce
ffc1
ffa1
ffed
000a
ffca
ffe4
0006
0014
0038
0017
001e
fffc
ffe5
0026
ffc3
fffe
0033
001b
001f
0012
fff2
ffdd
000b
ffe7
0025
0011
ffdd
fff2
0001
fffc
ffbb
fff8
0024
fff4
fff3
ffee
000c
002e
0036
fff1
ffd9
0017
ffd6
fff5
ffde
0045
ffd3
0016
ffe7
fff1
000c
000e
fff3
0009
0017
001b
0004
0006
ffd4
000a
0010
000f
ffd4
0016
0001
0025
0018
ffd9
fff9
fff6
ffc7
000d
fff7
0008
0022
ffe7
0001
0018
ffeb
0002
0006
000e
0009
0026
0014
001b
0009
0017
0013
002c
0030
fff2
ffe4
0008
ffe0
ffdc
ffca
0045
0001
ffd0
0008
000f
0003
0007
001f
fff0
000d
0019
fffa
ffe5
0015
fffe
0005
0004
0017
fff8
0005
0006
ffee
0004
fff1
ffff
0009
ffe6
0001
fff6
fffe
fffc
0011
ffe1
0017
fffa
0000
fff9
fffe
0004
fffa
fff0
0017
000d
fff9
fffe
0006
ffdb
fff7
0005
fffc
000a
ffef
ffe5
fffa
fff0
fff0
fffc
000b
0020
000e
0014
0001
001b
000d
ffea
0004
fff2
fffb
0008
ffc2
fffa
0010
ffe4
0016
fff9
002a
fff7
0013
ffe2
0005
0014
0006
ffda
0039
001d
fffb
fffe
ffe6
0000
001e
fff9
ffe4
fff6
0010
000b
0006
fffd
000c
ffeb
0029
0027
0002
ffe9
0007
0025
fff7
0012
000d
ffee
fff6
ffe0
ffe7
ffd0
fff5
ffec
ffec
ffcc
0005
fff1
ffed
ffed
ffec
0015
0014
fff1
0025
0019
0010
0007
ffd7
0011
ffff
ffdc
fffc
000c
0004
ffdf
0011
0007
002f
fff6
0016
ffe1
fff2
fffe
ffce
fff0
0007
0008
ffe2
000d
ffcc
001f
0019
0018
fff0
fff5
0029
0009
fff6
000e
0010
ffc7
0027
0037
0011
ffee
fff9
000b
fff5
0027
fff6
fff4
ffed
ffe4
ffc5
0009
ffe1
ffe8
ffe4
000d
0008
0012
fffa
fff2
000e
fff5
000a
ffee
0008
001f
0029
fff0
0024
0017
0021
fffd
001c
0003
0003
ffee
0010
fff9
000e
ffc4
0019
ffe9
fff3
0008
0002
fffa
fff8
ffdf
fffc
0005
ffef
ffe8
001e
000a
fffa
fff4
0006
0000
fff4
ffec
0018
0004
fffa
0009
000b
0021
ffe6
0003
fff9
000a
002c
ffe8
ffff
ffd8
fff6
003b
0008
ffe0
fffe
000e
ffbf
0013
ffd1
0009
fff5
0013
fffd
fffc
0001
000c
000f
0000
fffa
0021
fff2
ffec
fffe
000d
fff2
001f
ffed
0016
fff2
fffb
fff2
0026
fff0
ffea
0019
0013
0008
0009
0015
0004
0008
ffed
0006
ffe6
fff9
000f
ffef
ffda
0001
0008
fffa
0016
ffe7
ffdc
fff6
ffd5
0018
0001
fff0
ffff
0007
000c
fff9
0012
0014
0012
0019
0017
001c
fff8
fff0
fff6
fff7
fff6
fff8
fff8
fff9
0008
fff2
fff6
0006
000c
0003
0015
fff9
fff3
ffe6
fffc
0011
0007
0017
fff7
000b
0012
000d
ffef
fffb
0001
0002
000c
ffee
0011
fffb
fffc
ffee
0006
fff4
000d
000c
fff1
0006
0018
ffff
000d
000f
ffea
000a
0006
fffd
0001
ffeb
fffe
000a
fff4
000a
ffff
fff5
fff3
fff3
ffff
ffeb
fff8
ffee
0001
0021
fff9
fffb
000f
ffe6
000d
fffd
0018
0009
000a
fffc
fff9
fff9
000e
fffe
0020
fff2
fff8
0018
ffe7
fff9
0015
0023
000e
0018
fff8
ffcf
001a
fff3
ffe3
ffdf
0006
0014
000a
ffe4
0004
0002
0020
ffe8
fff7
000a
0020
0008
fff4
0016
ffdf
fffd
ffe6
0008
ffeb
001b
fff2
ffe9
ffe2
0010
ffeb
ffed
fff7
fff4
ffef
ffea
000e
ffe3
fff9
0024
fff8
001d
fffc
ffef
001e
fff1
0009
0009
0017
fff0
ffec
001c
0014
0019
ffad
0007
0035
ffd1
0027
ffe5
0026
ffba
ffeb
ffda
0022
000e
0009
0076
002d
fff8
ffed
0059
000b
0017
ffe6
ffe1
ffbf
fffc
0041
ffdd
ffaf
ffc4
001d
ffc0
002b
ffcc
ffe5
ffc4
0022
0043
0037
ffee
fffd
ffcb
001e
ffef
001b
000a
005d
003c
0020
003b
002c
ffa7
ffe0
000e
001f
ffff
ffe8
ffde
0000
ffcb
ffd7
0044
0055
002f
ffe1
ffff
000d
0001
ffff
000f
fff2
0001
000a
0011
ffe4
0007
ffeb
000f
fffe
0005
0003
ffe6
000d
ffe9
fffc
fff5
fff2
000b
fff4
0021
ffd1
0028
001f
0013
ffde
0014
0019
0007
ffeb
000e
0013
0006
0024
fff2
0005
fff0
fff7
0002
ffdf
0002
fff8
ffe8
0002
0001
fffd
0004
ffdd
fffa
fffb
0002
0014
001c
0009
000b
0016
ffeb
ffe7
fff9
fff6
fff4
0002
000d
fffc
fffe
0007
000e
001b
fffb
ffde
ffff
ffeb
000a
fff7
000a
0006
fffa
0010
000f
003c
ffea
ffdb
0000
ffea
001b
fffb
fff3
fff6
fff3
ffea
0007
0019
fff2
ffd2
000b
0004
000d
fffb
fff0
0027
ffef
fffe
ffec
fff6
001c
001a
fff4
0000
0008
ffda
001f
ffec
0005
fff1
000f
0002
fffc
000d
fffe
000e
0005
fff4
0004
fff9
fffe
ffd0
0000
0012
ffe9
001e
fff0
ffe3
ffe1
0033
ffe5
0012
0027
ffe5
001b
000d
002d
000e
0012
fffe
002a
0030
ffe2
ffec
fff4
0016
ffff
ffef
ffe1
0016
fff3
000b
fff9
0038
ffd5
ffe2
001c
fffe
000a
ffe3
0000
0024
0010
0018
000e
ffe7
001b
002a
000e
000c
ffd3
000b
001b
000c
ffe1
fffd
ffe4
fff2
ffdb
ffeb
ffea
000f
ffdb
fffa
0009
ffff
0001
0004
0005
0026
ffed
fff0
001b
0006
fff9
000b
ffec
ffe6
0001
fff9
fff1
ffe2
fff8
ffe0
000b
0012
fff0
0004
0009
ffff
fffb
0004
ffe6
ffe7
fff5
000d
000d
000f
ffff
0015
0004
fffc
0028
ffd7
ffef
000c
001f
fff2
fff3
fffd
0006
0006
fff8
0033
ffd2
0005
0017
001d
ffef
0010
0004
fff2
fffc
fff1
ffee
0004
0004
ffeb
001b
000b
fff8
fff1
0003
fffb
fff7
fff9
0002
0020
0009
fffe
fffc
0003
fffb
0002
0002
fff7
ffe8
ffe5
0002
0012
0002
0016
ffff
fffd
0008
000c
0014
fff4
000a
fff3
000a
fffe
fffc
001b
ffeb
0022
fffe
fff1
fff6
0006
0005
fff6
fff6
ffea
0001
ffec
fffd
0010
fff9
fffd
0004
0005
0006
fffb
0018
ffe2
0007
fffe
fff2
ffff
fffa
fff1
fff4
fffe
0008
fffe
ffff
0002
fffc
fffc
0002
0007
ffff
ffff
ffea
0006
fff1
fffc
fff8
fff7
0002
ffef
000f
0014
0007
001c
fffe
fffa
0012
0002
0011
fffb
fffd
0005
0004
000f
0000
fffd
fff5
fff6
0006
ffe6
0000
ffff
0008
0007
fff8
000f
0000
ffee
0000
000d
fff8
0019
fff6
fffa
0001
fff5
0004
fff5
000c
fff1
ffe4
ffff
fff9
000d
000e
ffff
fff0
0017
fff7
0002
fff7
fffd
ffff
0002
fff9
0009
0013
fff2
fff8
0005
ffee
fff1
fff2
fff8
0007
000e
0004
0001
0012
0002
0000
fffe
0005
fffa
ffec
ffe7
ffff
0005
fff4
ffff
fffe
0000
0006
fffa
fff8
000d
0011
0004
0006
fffc
0009
fffa
000c
0011
0007
0004
ffeb
000a
0017
fff2
0015
fff9
fffb
ffea
0005
000e
fffd
fff6
0003
ffff
fff7
000b
fff2
0017
fff2
0000
fffb
0000
ffee
000e
0025
fff6
fffd
000c
fffb
ffe8
0005
fffa
0008
0009
fff4
fffd
0019
0005
fffd
0007
0007
000f
ffe7
fff6
fff8
fff9
fffc
0008
0006
fff5
000b
ffee
fff8
000d
0004
000c
000f
ffff
0007
fffc
0014
000f
0006
0005
0000
000b
0007
fffe
fffc
ffe2
fff9
ffe5
fff2
000e
fff4
fff6
ffff