fff9
000b
0007
fffb
002b
fff2
fff9
fffb
0000
fff8
fff9
fffe
0009
000e
0010
0014
0009
fff5
0001
0004
fff6
fff0
fff7
0000
0006
fff9
ffec
fff8
ffea
fff5
0003
fff8
000b
0003
fff9
0010
000b
fff9
0004
0013
000b
fff9
0009
fff5
0013
0014
0012
0005
0002
fff0
ffed
0000
0002
ffeb
0000
0003
0002
fffb
fff8
0002
0006
0011
ffed
000d
0009
fff4
0005
fffa
fff8
fffc
000e
fff9
fffb
fff0
0004
fff0
fffd
000a
ffe4
0004
000e
ffff
ffff
ffea
0002
0004
fffb
001e
000f
fffb
000b
0002
000a
000a
0003
0007
fffa
fff7
fffb
0003
0009
fff3
0003
fffb
0010
000e
fff4
0009
0018
fffb
fff9
000c
0001
0000
000f
0002
0012
fff0
fff9
fffd
000a
0007
fff3
fff0
0017
fff3
fffe
fffe
fffc
fff8
fff2
fffc
ffe3
0010
0004
0021
ffde
001e
000d
000d
ffff
fffd
0008
ffea
ffd9
ffe9
fff5
0009
fffa
0012
002a
ffed
fffb
0015
0015
0011
ffe3
0027
fff2
ffed
fffd
0011
ffd2
ffef
0006
0014
0008
fff4
ffef
0009
ffed
fff7
0011
0005
ffe4
fff1
fff8
ffef
0010
ffe7
ffe0
0010
0001
fffb
fff6
0016
0018
fffe
0005
ffeb
001c
ffed
0014
fffb
fffd
001b
ffe7
0020
fffd
000b
0005
001e
0018
fff6
fffc
fff5
ffe7
0003
ffe3
0002
fff0
0001
0008
fff6
0031
000c
fff1
0007
0010
000f
001d
0016
fff8
0002
fff0
ffee
000c
fff4
0000
0000
ffeb
fffc
fffc
0002
ffe9
fff6
ffe9
ffed
fff0
fff4
0008
000b
fff0
0008
fffd
0018
0002
ffde
fff7
000d
000d
fff4
ffe5
000a
0004
fff5
ffeb
0009
0024
ffdf
0021
ffde
fff9
ffe9
002f
ffce
ffc9
ffda
0011
0019
ffdd
fff5
002c
001c
0010
000a
000d
ffd1
fff0
0027
0002
ffcf
ffee
ffe3
ffff
ffe6
ffce
0005
ffff
ffe2
000d
0033
0013
002a
001e
0000
0044
0004
0029
ffea
0006
002d
0005
0019
fff3
002f
fff4
0034
0029
ffcc
0002
fffd
0054
ffc8
ffe5
fffb
0010
001e
ffb7
0006
fff3
0011
001a
fff1
0009
fffe
0011
fffc
fff3
fff1
0009
0009
fff5
ffef
fff8
0003
0000
001d
fffe
ffff
ffe3
0000
ffee
001b
0012
0004
ffeb
ffef
ffef
fff9
0006
ffe5
000a
0017
fff9
0010
fffe
0018
0013
fff2
000e
fffa
0007
0010
0019
0007
0000
fff6
0022
000d
ffe8
0004
0007
fffd
ffeb
0003
fffa
fff9
fff4
0006
0002
ffe6
fff3
0016
fff2
002d
0006
fff3
0026
ffde
0006
ffe2
fff3
ffea
ffde
fff1
000a
0031
fff5
0016
001b
0012
002f
ffde
0016
ffe9
ffd3
0012
0004
fff4
ffd6
ffd7
001a
ffde
ffe1
fff8
ffff
fff3
0021
002a
000f
fff2
ffdc
000b
001f
ffbe
0005
fffa
fff5
001f
ffe9
0004
0011
0020
fff1
0005
0021
000d
0017
0009
001a
ffdd
ffef
000b
0016
001d
ffed
000f
fff9
0007
0012
ffeb
0006
fffd
fffb
fff0
0002
fffe
0003
fffb
0016
000e
0009
0007
000f
ffe0
0007
fff2
000f
ffde
0003
0018
0007
fffc
fff3
ffdb
0006
ffed
ffef
fffe
fffb
fff5
000a
0008
0005
001d
fff5
0002
001d
ffff
0001
fff7
0003
fffa
0000
0008
0017
0000
ffee
002e
000c
ffea
0002
fff3
000e
ffe7
ffe4
fffd
001d
000f
ffec
000b
fffb
0004
0009
fffe
0018
ffea
fffd
ffe1
000c
ffe3
ffe1
fff4
0009
0005
0012
0010
0028
fffb
0012
000c
000b
fff1
ffe5
001d
fff3
ffce
fffd
ffea
0011
0005
fffb
ffff
001c
0002
0015
0017
0004
0015
fffd
0034
001b
fffb
0026
0008
ffda
fff9
fffe
0002
0010
fffc
fff5
000d
0011
fff8
ffed
fff5
fffd
fff5
ffe4
ffee
0010
fffd
ffe6
ffef
000d
000c
fffb
0005
0015
fffb
fff3
fff7
fffb
fff2
0016
0005
0005
ffdc
fffe
0003
ffd6
ffb6
ffd4
0000
ffe7
002b
0027
0014
ffeb
000d
0037
0017
fffa
ffe2
001c
ffe8
fff2
001c
0020
ffe9
0021
fffb
fff4
fff7
ffd9
0004
0025
fffb
000c
ffd6
0011
fffb
0026
ffd8
fff6
ffe5
fff3
000e
000f
0013
0012
0015
000a
ffe7
0009
0014
001c
fff1
ffff
fffb
000c
ffee
001d
ffee
0003
ffeb
0013
fff5
fffd
fffa
fffb
ffef
0004
0008
0010
fffc
000c
0007
0010
fff4
ffe9
0008
fff6
fff2
ffed
ffff
fff2
fff7
ffe6
000c
fff0
fffd
0018
0004
0008
0010
0006
fffe
001b
fffe
0013
0012
0007
0010
ffee
001b
000a
fff7
0014
000a
0006
ffff
ffe8
ffe9
ffff
fff1
ffec
fffc
000e
fff9
fff9
001f
fff1
001c
fff0
0012
0004
001a
fffa
0002
fff6
0017
0015
fffd
ffeb
fff7
000c
fffe
ffe4
000f
fffa
0007
fffe
0007
0003
fff6
fffa
0009
ffee
ffea
0015
000b
fff2
001c
0001
0003
0010
ffe9
fff8
fff7
0012
fffd
fffc
0003
fffa
ffef
0013
fffd
fffe
ffe8
ffea
0006
0003
ffff
0006
ffff
000f
0014
ffea
0007
0022
fff8
ffe4
fffd
fffe
fff4
0001
0007
fffe
fffe
000c
0001
fffe
fffd
fffd
0003
fff8
0002
0008
fffb
fff8
0001
0005
0003
0010
fffa
0004
ffe7
fff8
0009
fff3
fff3
ffee
000a
fffd
000d
ffec
000d
0005
fff5
fff0
0016
fff3
000f
0014
fff7
ffeb
0011
fffa
0011
ffe4
0001
0027
fffc
fff3
fff6
ffef
0003
ffe8
0008
fff6
fff8
ffd8
fff4
0007
000a
ffed
0045
0006
0004
0005
0006
001c
ffee
0020
fff1
0013
0000
fffd
ffe5
0017
000e
0001
0005
0000
ffe2
ffdd
ffef
000d
ffee
0003
000d
fffb
0010
ffdc
fff1
ffef
0017
0013
fff3
fff4
fffd
fff5
002e
fffe
ffe5
0006
000a
fffc
000c
0005
0000
fffb
0015
fffd
0005
001d
0018
0007
0016
fff7
ffdf
000b
0009
ffdb
fff7
ffe3
ffef
fffa
ffcf
0003
0007
fff3
0003
000d
ffc8
fff9
0015
fff7
001b
fffd
001f
001e
001e
ffe5
001a
0010
000a
0032
001d
ffe1
fffa
ffc9
002a
0017
fffb
0021
0020
fff4
0031
000b
ffef
ffe6
0009
fff8
0007
0024
0015
fff0
ffe8
001e
000d
0000
001a
ffe5
0000
ffe0
ffc0
0015
ffe1
ffb9
ffec
0011
ffd7
0029
ffe9
ffe3
ffdf
0014
0008
ffd6
003e
fff3
ffeb
0011
001c
0007
ffe1
0014
0007
ffe7
0022
ffe2
0030
fffd
0024
ffd0
0011
ffef
0012
ffea
0008
0016
0014
ffe1
0017
0009
0005
fffb
001f
0005
fff8
fff5
0009
ffeb
000e
ffc6
001a
0031
0003
ffff
fffb
001a
fff3
0019
0000
0005
fff3
fff1
fff0
ffd8
ffdb
000b
fffd
ffe9
0001
ffee
ffeb
0024
ffea
fff8
fff5
0011
002c
0010
0005
001c
ffef
ffda
ffd8
0011
ffef
0005
ffeb
fff9
ffdc
004d
ffd8
0035
ffea
0019
ffcb
ffb3
ffde
ffad
0013
0002
0007
ffb4
fff1
002b
0017
fff2
ffea
ffbe
0002
004f
ffe2
fff6
ffdb
fff1
ffe6
ffff
fff3
0008
ffd2
0043
002b
ffcd
ffd0
fffd
ffc8
0067
002f
002a
0042
ffec
005c
ffec
0020
001b
ffe3
002d
003b
0029
ffda
ffed
0027
ffe9
ffb4
ffdf
0009
0013
ffca
fff0
0052
ffa2
ffc8
000f
ff80
0060
ffde
ffe5
ffd9
0036
ffa0
000d
fffc
ff7f
0076
0013
003f
0029
ffa2
0001
0041
fff2
ffcb
ffbc
0023
00ad
001c
001a
ffbb
005b
ff88
0008
0039
0022
ffd9
0007
0038
ffc1
0006
ffda
0048
0020
ffca
002a
0019
ffe1
006e
fffa
0058
003e
0016
fff3
ffde
003c
ffd3
ffb7
0041
0005
ffd6
ff9f
002b
0065
ff98
ffe6
0055
ffda
ffef
ffe0
ffe5
0005
ffcf
000c
ffef
0007
fff0
ffe9
ffec
fff4
0004
002d
fff4
0009
ffd4
ffd3
004b
0017
ffe6
ffea
0017
0002
0007
0031
001c
0020
ffdd
0023
001f
0009
ffe9
001d
0007
002b
fff0
ffdc
ffe3
fff4
fffc
fff2
0010
fff4
0013
000d
0024
ffec
fff3
0007
0010
0023
fff5
ffd8
0008
0011
fff4
fff0
0013
0028
ffdf
000e
0013
0000
ffeb
0016
ffeb
fff8
ffed
0025
0013
fffe
0008
0016
fffb
000e
0001
fff0
ffdc
fff8
ffed
ffff
fff5
0009
0006
fff0
0000
fff9
0003
0011
000c
0010
0016
0000
fff8
0003
ffb8
001b
fff7
ffd4
000c
0008
fff3
0008
001a
fffb
fff2
fffa
ffea
0002
0018
000d
ffff
fffe
fffe
0023
fff3
ffee
ffe2
0021
0007
0000
ffef
0012
0033
000d
ffe4
0007
ffee
ffec
fffd
ffeb
0004
fff0
0008
0012
fffc
0015
0008
0003
0008
fffe
fffe
000c
ffe5
fff7
0007
0014
ffef
000f
0007
0005
ffff
0009
fffa
0021
0003
ffeb
0013
0008
fffc
ffe0
fff2
fff4
000a
0009
000d
fffd
fff8
fffb
fff5
fffe
fff3
0000
000d
0012
0018
ffef
fff1
0007
0002
fffa
0008
fff9
0009
fff2
0006
0013
0010
0005
0002
0002
ffdd
ffe0
0014
ffe9
0022
ffdb
000a
fffd
0029
ffdb
0001
0018
ffcb
0035
fffc
ffe0
ffe8
ffeb
0020
0012
0029
000b
fffc
ffd8
0014
ffff
0000
ffea
0007
fff2
000c
0010
0008
002f
ffe1
0032
0015
0013
fff8
ffff
000d
ffe2
ffdd
000d
fff7
ffca
ffde
0001
ffde
002f
000f
fff2
000f
ffe9
fff8
ffd9
001c
0012
fff1
0003
ffef
0017
ffe2
fff0
0011
000a
fff3
0018
ffef
0009
fffa
0017
fff1
0007
0000
000d
000e
0005
fff8
0010
ffeb
fff8
0001
fff8
fffb
fffe
fffa
0006
fffe
000c
ffeb
fff4
fff8
fff0
fffd
002f
ffeb
ffee
0005
fff9
fff6
fff4
001a
0002
fffd
0013
001b
0006
fff8
0001
0000
0013
000f
ffed
0007
0014
fffc
fff0
fff5
000b
ffff
fffd
fff9
000f
0018
0007
000f
0012
fff7
0000
fffc
0001
ffff
000b
000c
fff9
0008
fff9
fffd
ffed
fff9
ffef
ffed
ffe2
0006
0002
0000
000d
0008
0012
fff1
000f
000d
0001
0000
fffc
ffed
fff9
0008
000f
0008
fffe
0004
ffef
fff8
fff3
fffb
0008
0017
fff5
0005
fffe
0019
fff9
fff3
0011
fff4
fff8
0008
fff5
0015
0018
0000
fff6
fffe
0009
000a
ffef
fff2
ffff
000d
0056
ffce
ffda
002a
ffd9
0014
0026
0081
ffd9
0025
008a
0034
ffd8
fffb
fffd
ffd3
ffb6
ffe6
ffd4
0011
001e
0013
003e
ff92
ff90
0037
ffff
0028
0035
ffbe
ffee
ffda
0022
0038
002d
ffdd
fffe
ffdc
ffc4
001f
ffd5
ffe7
ffc9
ffb7
fff4
ffdd
ffe8
ffe0
ffef
002f
ffce
ffd8
ffae
005c
0003
0034
fffb
0051
006a
ffb8
0000
0048
0015
0019
0047
ffb5
ffd7
002f
ffc7
003f
0022
0062
fff5
0062
0061
0014
001d
ffea
ffdd
fff5
ffdd
0063
ffca
0018
ffab
001e
0044
ffba
ffcc
fffd
0002
0021
ffee
002e
0058
002a
ffdb
ffb8
ffab
ffbe
0014
fffc
0003
0022
ffb6
0037
ffc7
ffcd
0021
ffb3
ffe3
ffc6
0022
fffa
008a
ff9a
ffe2
ffd8
ffbe
0083
000e
003b
0017
ffc3
ffeb
ffde
004a
ffd8
ffe6
0020
ffea
002d
ffd6
ffea
0031
ffff
ffef
000c
fff1
0041
0005
ffea
ffe8
000e
ffd6
002e
0002
0029
000b
001e
005d
ffd9
ffa6
0061
0036
002e
fff8
ffed
0010
fffb
0005
0017
ffb3
000d
fff0
0027
ffaa
ffe5
ffec
fff4
fff6
ffd5
0012
ffd0
fff2
ffd2
ffd1
002f
0021
ffd6
ffe4
001b
ffef
0010
ffe6
002c
0019
ffd3
ffc0
fffe
0058
ffc4
ffec
ffe5
002d
fff0
ffe5
0016
fffd
fffb
ffdc
002d
0003
fff8
ffea
ffe8
0002
ffe8
000d
0014
ffef
0005
fff2
003a
ffd2
fff6
0031
001e
ffdf
ffff
ffe4
ffe0
0014
ffca
ffe3
ffea
0012
ffed
0004
ffdf
0027
ffd4
000c
0008
fff6
001a
0020
0019
fffc
000d
ffd9
ffdc
fff3
fff9
0012
fffa
001a
fffa
fffa
ffee
0027
002b
ffff
ffee
000b
fff3
fffb
ffe7
fffe
fffe
fff4
0005
0001
0008
000e
0008
0004
fff9
000f
0009
0009
0015
fffe
0006
fffb
001f
000b
ffe7
fffb
0007
fff7
0000
0014
0008
0015
0001
0003
001a
000f
fff7
0017
0007
0011
fff7
ffff
ffe5
fffa
0008
fff9
fff7
fff2
0005
0005
fff4
fffe
fffe
0000
0015
0004
fff2
0000
ffee
ffe2
0006
fffa
0011
fff1
ffff
fff3
fff3
fff7
fff3
ffeb
0010
ffe9
001a
0014
0012
ffd0
001b
ffda
fffa
0003
fff7
000c
ffe0
ffe9
ffff
fffb
0003
0009
002c
0000
fffe
fff4
0011
fffe
000c
fff3
0018
000a
fff7
0000
0003
fff3
ffff
000f
ffea
000c
ffdf
ffeb
0001
ffe0
ffef
0008
ffec
ffdb
ffec
fff3
fffc
0011
fffc
fff8
000b
0000
0010
001a
0012
0028
000b
fff9
ffee
0022
ffe3
0000
ffd6
ffec
fffe
fff6
002e
0022
0009
fff5
0020
fff2
0008
002d
ffec
ffec
fff7
ffe9
fff2
000c
0006
0004
0025
0015
000a
0019
0006
000f
0007
001e
002d
ffe0
0009
0008
ffff
ffdf
fff8
ffe0
000c
000c
fff7
fff8
ffec
ffeb
ffeb
ffe7
ffe2
ffd4
ffec
ffd7
ffec
fffd
0007
fff7
0014
0019
0029
ffe0
002d
0003
ffec
ffe3
ffe7
0033
ffdb
fff5
0012
fff2
fff7
0006
ffeb
0009
fff1
ffff
fff0
fffd
fff7
fff1
fffa
0020
0005
001a
fffc
fff5
0005
000e
ffed
0000
fffb
fff4
0001
fff2
fff8
0017
000a
ffde
fffb
fff6
ffe8
fff0
001a
ffff
fffa
0009
0012
000d
0006
0007
0003
ffed
000e
fff4
fffa
0025
0005
000f
0008
000f
ffff
ffee
0025
0003
ffeb
ffee
0007
0024
0007
fffe
000b
0026
ffe1
000b
0006
ffeb
0015
0002
0015
fff7
0015
000a
000e
fff1
ffe2
ffe6
fffd
ffea
000c
ffe8
000b
0007
0017
fff7
fff5
0003
0026
fffa
000e
ffdf
fffc
fffa
fff9
0007
0014
fffe
ffe0
000e
fff9
000d
0005
0003
0011
fffd
fffb
000b
fff2
fff1
fff6
fff0
fff4
0013
fff6
0002
fffa
0012
000b
ffe0
000b
0005
ffef
ffef
0003
000e
fffb
fff7
0000
ffda
0007
fff9
0016
ffec
fffc
0002
0009
ffed
000a
0008
0003
0017
fffe
fff7
0009
fffd
0008
0011
ffe4
0014
0007
fffe
0000
000b
0002
0019
0021
fffc
000c
000c
000e
fffe
0003
0007
fffa
fff9
000c
fff3
fff2
fff0
fff1
fff3
fff2
fff4
fffe
0006
000b
fff9
0005
ffe7
000f
fffc
0012
0007
000f
0005
fff2
ffef
fffe
0003
ffed
fff3
000c
ffee
000c
0003
0018
ffdb
fffe
fff3
000c
fff2
0007
ffe2
0012
001f
fffc
fffb
fff5
0001
ffff
0005
ffed
0002
0002
0000
0007
fffc
ffff
fff8
0016
0001
000b
0003
001e
0008
0003
fffa
0011
fff9
fffb
ffee
fff3
0001
fffd
000a
0003
ffff
fffd
fffe
000c
fff0
fffb
ffea
0011
0014
fffc
0009
0016
0009
0007
0001
fffa
0003
fff6
0000
fff3
0007
000c
fffb
0002
0003
000e
fff2
000e
0014
fffb
0003
fffd
fffb
fff9
0003
fff6
fff6
0009
fff3
0028
fff5
ffec
000c
0002
0008
0003
fff9
fff0
0006
fff8
0006
fff7
0000
ffe4
000f
0001
0011
fff2
0003
0006
fff4
fffe
0000
0009
fff7
fff4
fff4
ffdf
0002
fff8
000c
0005
fffa
0016
fff6
fffa
000e
fff8
fff2
ffec
0003
fff0
ffed
fff1
0018
ffed
ffeb
fff4
fffa
ffef
fff9
ffe1
0006
ffee
0002
0004
0018
000b
0025
0031
0013
fffb
fff7
0006
ffe6
000f
0009
fffd
0003
ffe8
000a
ffe2
fff0
0008
ffe3
ffea
fff6
0026
ffec
0003
ffee
fffe
001d
fffb
0007
fff9
0001
001d
002f
0012
0018
0005
ffe9
0019
0013
ffee
ffe4
ffef
001f
ffdc
fff1
0016
001e
fff8
ffdc
000d
fff1
fff6
fff1
0005
000c
0001
fffa
0013
ffe6
000e
000c
0006
fffc
0006
0008
0019
ffe5
001e
ffea
001c
fffc
ffee
fffd
0007
0005
0015
fff2
0009
0001
fffc
001b
000d
0007
001c
fff9
fff0
001e
0018
fff9
000b
ffe8
fff3
0002
ffe3
000e
fffb
fff1
fff1
fffd
0002
0012
ffea
fff0
0003
0007
001f
0007
0014
000d
fffa
ffe1
0012
fff2
ffec
ffea
0020
fff3
fff0
0012
ffeb
0002
0002
0000
0003
0003
ffff
0010
0004
fffb
ffef
0005
fff9
fffa
000f
000c
ffe3
000b
0006
0000
fffc
0009
0001
fff8
0003
fff5
0007
0009
0000
ffef
0008
000d
fff2
fff4
000e
000b
ffeb
fffd
0000
0001
0000
0007
000e
000d
000b
fff7
001b
0000
0009
fffa
0002
fffe
0005
ffea
ffe2
0005
001a
fff7
0007
0014
0015
0005
fff9
fff5
001a
000a
fff3
fff7
0000
fff9
0009
fff8
ffe0
fff2
0019
0005
fffa
fff3
ffff
0005
fffb
fff9
0007
fff1
ffff
0008
0026
fffc
0003
ffed
ffe6
0002
0000
fff4
0006
fff6
fffe
000b
fff3
0001
0006
0004
000b
fff1
fffe
0018
fffd
ffed
fff9
fff0
fff1
fffe
0002
0011
000c
fff9
000e
000c
0000
ffdf
0013
fff9
0002
fffe
fffa
fffc
fffc
fffc
fff3
0008
fffb
0005
fff5
0006
fff5
0012
000e
0000
001c
fff7
fff3
000e
fff5
fffa
0003
fff8
0009
fffd
fff3
fff9
000b
fffc
fff5
0009
fff7
0000
ffe0
ffff
0012
ffff
ffef
fffb
0009
000a
0003
0001
0011
000d
0005
fffd
0003
0011
0000
fff6
fffc
0009
fff3
fff5
ffec
000b
fff5
fffe
000d
fffc
ffff
ffe1
0008
ffde
0015
0012
fffb
0016
ffe8
0012
fff6
0002
fffb
0002
ffed
0000
0021
fffe
ffec
0011
0008
000e
ffe7
fff8
ffea
fffa
fffd
000a
fff6
ffe3
ffed
000f
000a
fff6
fff4
0004
0005
ffe4
0017
fffc
000d
000f
0005
0001
fffc
0007
fffa
ffeb
0008
0015
000f
fff6
001c
fff2
0018
fffe
ffee
ffeb
ffec
0017
ffed
fff3
0022
0020
0026
fffb
000b
fff7
fff8
0000
000a
fff2
fffd
000c
0001
0006
000a
0008
000a
0021
fff9
0008
fff9
ffff
000b
ffee
0015
0010
ffe9
0025
ffed
ffeb
fff7
001f
0009
000d
0004
fffd
0010
ffff
0008
0003
fff2
fff4
001b
fffc
ffee
fff2
0002
fff8
ffd7
fffb
ffee
fff6
ffed
0003
000a
fff5
000a
fffd
fff7
fff6
0007
0006
0007
fff3
fffd
fff9
0009
0011
0005
0002
ffed
ffe7
0002
000c
000e
0004
0008
ffed
0008
fff0
ffff
fffa
ffe3
000a
0006
fff7
fff0
0008
0012
ffff
0012
fff2
0001
ffe3
0010
0005
0008
fffe
0016
000a
0002
fffb
ffeb
0006
fff3
0015
000e
0002
0001
0000
fffe
000c
ffef
0002
0003
ffe5
fff1
0011
fffc
0016
fffd
fffa
fff1
000d
0013
ffe8
000e
0000
fff5
ffea
fffb
fff8
0000
fffb
0019
001c
ffe0
0045
ffcb
fff6
fff6
0029
ffdc
ffdc
fffe
ffd9
0013
ffdb
0001
fff4
001f
0030
ffe5
0013
ffe5
0012
fffb
fffe
0007
ffdd
0032
ffea
000d
ffc7
0000
0020
001b
ffdc
0008
fff3
ffbe
0009
fffa
0027
001a
003c
002a
ffcf
0015
002d
0014
ffe5
fff2
ffaf
ffea
0013
ffe6
ffef
ffe7
ffe8
ffe6
fff2
ffc8
0002
0001
0016
0003
0017
0012
0009
0014
ffda
002d
0017
fff3
0000
000a
fff8
fff6
0009
ffe7
fff3
ffe9
ffed
0013
0015
ffe7
ffeb
0024
0005
0006
ffeb
ffed
fff9
0007
fff2
000d
000a
ffe8
0012
ffe1
0018
fff7
fff8
fff1
0022
ffd8
0003
001c
ffde
000d
000f
fff8
ffea
ffdf
ffda
fff1
000f
0005
fff8
fff6
0013
0009
fff3
0007
002a
0015
ffe6
fff6
000f
ffef
ffc7
ffe6
000b
0011
ffff
003b
ffdb
ffe5
fff3
0011
fff9
fff9
0022
ffe0
0056
0010
ffe1
0013
fff7
002d
fff7
fff8
0009
000f
ffdd
fffc
ffef
fff2
0029
fff6
ffee
0017
fffb
000c
ffe7
ffe7
0001
ffea
0033
000f
0017
ffdd
fff1
0000
ffd3
0010
ffd4
fff2
fffb
000c
ffd6
001d
fff3
0013
0000
000c
ffe7
0035
0035
0034
ffeb
001e
fffa
ffc0
0039
0020
0000
002d
fff8
fff9
ffea
0001
0007
000f
ffef
fff3
0001
0011
ffe5
0021
fffa
002e
0013
ffdb
ffef
0008
0007
fff0
ffe8
fff2
ffed
fff8
ffde
0010
ffed
ffcd
fff5
0030
fff8
000b
000c
0007
0005
fffc
0001
000e
0023
fff8
0024
ffed
0002
ffdf
0001
0006
0016
001f
ffd7
fff8
0015
ffeb
fff2
fffa
000e
ffeb
ffe5
0006
0005
0011
fff4
0006
001a
fff3
0014
ffda
0011
0012
ffc8
fff6
fff9
fff7
ffca
0002
ffc9
fffa
ffef
0012
000d
fff8
0011
0010
fff8
fff4
0024
fff5
ffea
fff7
ffe7
0001
fff0
ffec
0011
ffee
0014
002b
0002
fff5
0011
ffdf
0000
ffd8
0001
0014
fff2
fffe
0018
ffdb
ffe5
0019
ffff
0026
0036
fff6
fffb
0007
0012
ffec
fffd
0015
fffd
0002
fff5
0027
000a
0001
000b
fffc
fff8
000d
0002
0002
ffef
fff6
0011
000a
001b
ffe7
0001
fff8
fff9
ffdf
fff8
0001
fffb
0011
0005
0006
ffe5
0007
fff7
0011
fff2
fffc
ffff
0023
0010
fff6
0008
0002
fffe
0000
0017
0014
fff1
0000
fff8
fff6
0009
ffe2
ffdd
0000
0007
0012
0009
ffe8
fff0
0002
fffc
000c
fff8
0008
0013
fff8
fff2
0011
001c
0005
ffeb
0009
ffe4
001a
fff4
001e
fff1
0008
ffe7
0017
fff9
0011
ffef
fff8
000e
fffa
0004
fff1
ffe2
0000
0013
0029
0010
ffdf
ffdc
000f
001a
000d
0016
000e
fff8
fff1
0003
fff9
fff5
ffdd
ffee
ffe6
0004
fff9
fff6
0025
ffd5
fffd
ffd7
ffee
ffe1
ffe5
000a
fffc
0011
ffe4
ffe1
001e
0020
0019
ffff
001c
0017
0003
ffe9
001c
0022
fffd
0000
000a
000c
0002
0002
ffe9
0014
fff5
0007
ffec
0012
0004
0020
fffe
ffe7
0019
0009
ffff
fffb
0004
0017
fff2
0009
fffb
0006
fff0
ffe7
0003
0005
fffa
ffde
ffd9
fff2
ffec
fffc
0011
fffe
0009
ffe3
0012
0002
fff8
001a
0016
fffc
0000
0024
0003
fff7
0024
fff1
000e
001f
0009
0000
ffe7
000f
ffe6
fff3
fff5
0004
0007
fff1
0014
fff8
000b
0017
ffe4
0026
0000
ffea
ffd2
001a
ffe5
ffe9
fffb
0014
000c
fff7
0017
0012
000d
0019
ffec
fff6
fff4
ffeb
0006
fffd
ffdf
0027
000c
0028
ffe6
ffeb
0008
fffc
0012
fff8
001a
fffd
fffc
ffea
002d
0003
0000
0014
001b
ffe7
fff7
0012
0016
000a
0009
ffd6
fffa
000a
ffd2
fff3
ffe4
0026
ffea
fff2
000a
0023
0005
fff7
fff1
0001
0008
0002
0009
0004
ffe3
000e
fffa
fff8
ffec
0014
000c
0010
0000
ffff
0014
0003
ffde
fff1
0001
000c
000f
0004
0008
ffe1
0013
0005
fffa
ffff
fff8
000f
000d
fffe
0013
fff9
ffef
ffe6
0011
fff0
fff7
0005
fff5
001e
000c
0011
fff8
fffc
fffa
0008
0003
fff7
ffed
0001
0006
fff5
fff9
ffe0
fffe
fff7
0004
0004
fff6
0028
fff8
fffa
fff6
ffff
fff1
0000
000e
000f
000c
0022
0006
0007
0000
001b
fff7
0009
0015
fffa
ffed
ffec
0012
0000
ffee
000b
0005
fffb
0013
0000
fffe
0014
0002
ffee
0024
0006
000e
fff8
fffa
0004
0001
0001
0021
fff2
0002
fff5
ffe2
0011
0002
ffe9
fffc
0003
0005
fff6
fff7
fffa
0000
ffee
0001
ffea
0014
fffa
fff7
000d
fff6
000b
0003
ffda
ffe6
ffbe
0029
ffd8
003f
000a
fffd
fffd
0027
ffd2
001a
0024
ffe1
003e
0002
ffee
fffb
ffcf
0047
0004
000d
002b
ffe2
ffcf
002b
0027
0012
001f
0007
0022
0021
0015
000d
000b
ffe9
ffe6
fff1
000a
0003
ffda
fff0
ffd0
0010
ffef
ffe1
ffbd
ffcb
0005
ffd2
0028
fff0
ffd5
000d
000e
fffc
ffe0
004c
0021
0012
fff7
ffe3
0033
ffd4
0017
000d
0004
0029
ffd8
0011
0008
fffe
0003
001b
000c
0010
0018
0034
000c
fff7
ffd0
0030
ffed
0025
fff7
0035
0010
ffd7
000a
001f
fffd
000c
0003
001d
0016
fff3
ffe0
fff2
0010
fff8
0011
000b
000d
ffdb
fff7
ffff
ffed
fffd
0021
fff5
ffcc
ffe8
ffb4
ffd5
ffe8
ffaa
ffe4
fff1
0019
000e
0006
000c
002a
000b
fff6
ffe7
0007
0007
fff6
0007
ffe7
001c
ffe7
0036
0016
001f
ffca
0017
0019
001b
ffd6
ffdf
001d
ffea
ffb0
fffa
fffb
0018
ffef
0030
0006
ffe2
000c
003c
ffdd
0007
ffb8
0017
001e
fffd
001d
0016
0022
ffd8
fff4
ffc9
fff2
ffcb
fff1
0029
ffbc
001f
0017
0025
ffe0
0006
000c
ffe0
0020
ffe7
ffc8
0041
0038
0008
ffd6
002a
0007
000e
ffc1
fff5
0020
ffea
0010
ffdd
001d
ffe9
ffe8
fff8
000b
fff2
0031
fff8
fff6
ffdd
ffe7
fff7
ffeb
0026
fffe
ffe0
fff8
0002
fff4
0002
ffcc
003b
fff6
fff0
001c
fff1
0021
0004
ffdb
ffee
0012
ffd9
fff3
0015
0023
000e
0004
0018
0016
000e
0017
0004
ffd2
001a
0014
000b
ffec
fff8
ffef
0013
001a
ffeb
000d
003a
0010
ffd2
fff9
0000
0032
fff2
fff2
ffed
fffe
0000
001d
ffe2
004a
000a
ffe5
ffe0
0021
fffb
ffe9
0001
0005
0010
003a
fffa
002d
ffd8
fff1
0018
0006
ffcd
ffeb
002f
fffe
fffc
0016
0009
000e
ffd5
ffda
0022
0018
0011
fffc
000d
ffec
ffff
001c
0025
000d
ffef
0005
fff8
ffee
ffdd
0001
0017
ffd7
ffe1
fff2
0019
0018
ffe6
ffec
fff5
ffee
0003
ffef
0016
0005
0000
fff7
ffd8
000d
fff5
ffea
0020
ffbe
0024
001f
000e
fff4
0024
fffe
0001
002f
ffee
001c
ffe6
ffdd
ffcd
fff2
002a
fff5
0014
0013
ffe2
ffee
000c
000d
0012
0034
001f
fff6
0011
001d
0009
ffe7
ffe2
0031
0007
0016
0001
fff9
ffde
ffd0
ffd6
0016
ffe9
ffe0
ffd9
000d
ffed
0005
fff6
ffea
0003
0005
0015
fff6
002c
0020
0011
ffde
001a
0027
ffe6
ffee
0003
ffe3
0003
000b
0000
fff4
0007
fff0
001a
0008
0000
ffef
fff2
001c
0015
0006
0006
fffa
0012
0001
fff3
0009
000c
000b
fffd
fff6
fff2
0000
000c
ffe1
0010
0009
0008
0013
fffc
ffef
0027
fffa
001f
0002
ffef
000a
fff6
ffe9
fff3
0000
fff9
0003
fff3
fff5
0013
0004
0001
0000
0014
000b
0001
ffff
ffef
ffff
0000
ffec
ffed
fff3
0000
fff4
0015
0000
fffc
fff1
001a
fff3
000e
004c
fff4
fff6
0016
0010
0016
fff0
001f
fff0
0003
fff5
000c
0005
fffe
ffd9
fffd
fff9
fff5
0010
0007
0012
0016
fff2
fffc
000a
fffc
000b
0014
ffda
0014
001b
000a
000b
ffca
0015
0000
fff0
ffe4
001d
0014
000c
fff6
0008
ffed
fff6
fff7
fffc
fff3
ffea
fff7
0003
0002
ffe6
0018
0001
fffa
0003
0003
ffef
0019
fff3
0018
ffe9
ffff
0018
fff2
fff8
fffc
fff3
0000
0004
002b
0008
ffff
ffe0
0012
fffe
ffff
fff2
0004
fff1
0003
ffde
fff4
0015
fffd
ffe3
000b
0012
ffeb
0021
fffb
ffff
fffb
0010
0004
0003
fff1
0020
0005
fff1
fffa
fff1
fffa
ffff
0000
fff2
fff1
0018
fff7
0013
000d
000f
fff2
fffd
ffe2
0002
0001