fffe
0000
0004
fffd
0002
fffe
0002
fffd
ffff
fffd
0001
ffff
0000
0000
0002
0001
ffff
0001
0001
0002
0001
fffd
ffff
0002
ffff
0001
fffb
fffd
0001
0000
0002
0000
fffe
ffff
fffc
0000
0002
0001
fffd
0001
0004
fffd
ffff
fffd
0002
ffff
0006
0003
0001
0000
0000
0000
ffff
0000
fffe
0001
0002
0000
0001
0005
0000
0005
ffff
0001